<unk>	0
<s>	0
</s>	0
▁t	-0
▁a	-1
▁th	-2
in	-3
er	-4
▁w	-5
▁the	-6
▁s	-7
ou	-8
on	-9
re	-10
▁b	-11
▁i	-12
at	-13
▁c	-14
▁h	-15
en	-16
▁o	-17
▁m	-18
▁p	-19
▁to	-20
ing	-21
an	-22
▁an	-23
▁f	-24
es	-25
▁d	-26
or	-27
▁I	-28
le	-29
al	-30
▁be	-31
it	-32
▁and	-33
ed	-34
▁n	-35
▁of	-36
▁in	-37
st	-38
▁y	-39
▁l	-40
▁is	-41
▁g	-42
ve	-43
om	-44
ot	-45
ar	-46
▁you	-47
ic	-48
ly	-49
ap	-50
ld	-51
se	-52
▁that	-53
▁e	-54
ll	-55
▁it	-56
is	-57
▁ha	-58
ion	-59
▁wh	-60
app	-61
▁re	-62
▁[	-63
ent	-64
ould	-65
as	-66
ay	-67
et	-68
▁on	-69
ut	-70
ow	-71
ver	-72
▁for	-73
her	-74
ri	-75
▁u	-76
▁not	-77
ct	-78
▁are	-79
▁have	-80
op	-81
▁T	-82
oo	-83
gh	-84
ch	-85
id	-86
ce	-87
▁st	-88
he	-89
ke	-90
ere	-91
ith	-92
▁li	-93
▁as	-94
▁do	-95
▁they	-96
im	-97
▁with	-98
out	-99
ir	-100
..	-101
ro	-102
ad	-103
inapp	-104
ill	-105
▁he	-106
▁or	-107
▁we	-108
ome	-109
▁would	-110
ur	-111
▁can	-112
▁sh	-113
ers	-114
▁j	-115
▁de	-116
▁se	-117
am	-118
▁so	-119
ore	-120
ust	-121
▁ch	-122
au	-123
▁but	-124
ght	-125
▁k	-126
nd	-127
ation	-128
▁A	-129
▁was	-130
eop	-131
li	-132
one	-133
eople	-134
ally	-135
▁con	-136
▁ab	-137
0]	-138
ant	-139
ol	-140
ter	-141
▁your	-142
▁S	-143
our	-144
il	-145
▁ne	-146
▁people	-147
▁this	-148
▁su	-149
▁if	-150
▁at	-151
ess	-152
ge	-153
▁all	-154
▁me	-155
ment	-156
th	-157
▁W	-158
ain	-159
▁bec	-160
ink	-161
est	-162
▁le	-163
▁go	-164
ause	-165
ate	-166
ci	-167
▁should	-168
ood	-169
20]	-170
▁pro	-171
▁com	-172
▁The	-173
▁al	-174
▁my	-175
▁r	-176
and	-177
▁ex	-178
ble	-179
▁wor	-180
▁some	-181
ul	-182
ac	-183
▁get	-184
▁think	-185
▁just	-186
▁there	-187
▁because	-188
▁who	-189
us	-190
nt	-191
very	-192
▁them	-193
fe	-194
▁don	-195
▁will	-196
qu	-197
▁ma	-198
▁their	-199
▁what	-200
▁C	-201
▁any	-202
▁v	-203
end	-204
▁like	-205
ity	-206
ther	-207
▁no	-208
▁(	-209
▁B	-210
▁fr	-211
pe	-212
▁has	-213
▁more	-214
▁M	-215
ong	-216
▁tr	-217
ous	-218
ive	-219
ort	-220
em	-221
um	-222
▁"	-223
ost	-224
▁by	-225
▁out	-226
ist	-227
▁than	-228
▁about	-229
▁one	-230
▁other	-231
ff	-232
erson	-233
▁If	-234
▁ev	-235
▁It	-236
un	-237
▁person	-238
▁kn	-239
▁from	-240
▁ri	-241
ather	-242
▁good	-243
▁ta	-244
ice	-245
▁pl	-246
▁up	-247
are	-248
os	-249
▁H	-250
▁know	-251
▁la	-252
▁pr	-253
el	-254
▁un	-255
▁N	-256
▁our	-257
lie	-258
ough	-259
od	-260
▁F	-261
king	-262
▁ar	-263
act	-264
▁P	-265
▁us	-266
▁Th	-267
▁then	-268
▁want	-269
res	-270
ving	-271
ig	-272
art	-273
▁belie	-274
▁fe	-275
▁di	-276
▁ag	-277
▁tim	-278
ich	-279
ence	-280
pt	-281
pp	-282
▁right	-283
▁Y	-284
▁bet	-285
▁man	-286
ud	-287
▁say	-288
ard	-289
▁only	-290
▁were	-291
...	-292
ind	-293
▁when	-294
so	-295
ose	-296
▁en	-297
ild	-298
ies	-299
▁does	-300
ound	-301
▁im	-302
hing	-303
way	-304
ions	-305
ab	-306
ack	-307
▁thing	-308
▁time	-309
▁law	-310
iv	-311
age	-312
▁am	-313
ast	-314
ure	-315
▁need	-316
▁better	-317
▁father	-318
▁every	-319
lf	-320
ame	-321
▁ad	-322
uch	-323
▁life	-324
pl	-325
▁O	-326
led	-327
▁believe	-328
▁act	-329
▁E	-330
▁way	-331
ue	-332
der	-333
▁being	-334
▁sp	-335
▁pre	-336
ish	-337
ount	-338
▁much	-339
▁te	-340
ide	-341
▁make	-342
▁cl	-343
ans	-344
ase	-345
▁lo	-346
if	-347
▁had	-348
▁child	-349
▁int	-350
reat	-351
ie	-352
▁G	-353
▁off	-354
ool	-355
all	-356
▁could	-357
▁see	-358
lp	-359
able	-360
▁even	-361
▁cont	-362
ight	-363
▁help	-364
ry	-365
▁how	-366
▁wr	-367
▁which	-368
ag	-369
ical	-370
▁may	-371
ace	-372
rim	-373
▁ac	-374
▁qu	-375
ep	-376
▁R	-377
ine	-378
▁been	-379
▁gr	-380
▁Wh	-381
▁someone	-382
ook	-383
ple	-384
▁comm	-385
▁L	-386
ves	-387
▁We	-388
▁him	-389
▁mar	-390
▁res	-391
here	-392
▁did	-393
▁really	-394
omet	-395
▁soci	-396
▁dis	-397
▁his	-398
▁wat	-399
▁most	-400
▁D	-401
--	-402
ect	-403
▁over	-404
▁again	-405
ass	-406
▁also	-407
chool	-408
▁U	-409
les	-410
other	-411
ach	-412
▁world	-413
ob	-414
▁feel	-415
ite	-416
▁1	-417
ck	-418
▁dr	-419
▁po	-420
ious	-421
▁why	-422
▁You	-423
▁chan	-424
gal	-425
▁und	-426
ear	-427
orn	-428
ty	-429
ree	-430
▁very	-431
▁br	-432
!!	-433
ub	-434
▁count	-435
ip	-436
ile	-437
thing	-438
▁somet	-439
▁school	-440
▁her	-441
ire	-442
ason	-443
▁its	-444
▁she	-445
self	-446
▁pol	-447
iz	-448
ting	-449
ual	-450
▁bot	-451
irst	-452
ways	-453
▁work	-454
▁under	-455
less	-456
per	-457
ated	-458
oney	-459
1]	-460
ens	-461
ory	-462
▁cons	-463
▁reason	-464
orm	-465
ffer	-466
vern	-467
▁money	-468
own	-469
▁In	-470
ress	-471
ary	-472
wn	-473
ved	-474
▁per	-475
▁going	-476
ful	-477
▁ser	-478
▁spe	-479
▁always	-480
int	-481
con	-482
▁crim	-483
▁govern	-484
ety	-485
kes	-486
▁imp	-487
▁year	-488
▁wrong	-489
▁pay	-490
▁many	-491
ict	-492
▁So	-493
▁def	-494
▁happ	-495
ult	-496
2]	-497
lig	-498
▁rec	-499
▁This	-500
be	-501
si	-502
▁dec	-503
▁into	-504
▁something	-505
▁arg	-506
▁em	-507
ance	-508
ick	-509
ism	-510
▁comp	-511
itt	-512
▁att	-513
▁too	-514
▁use	-515
▁gu	-516
▁own	-517
ually	-518
ution	-519
▁cour	-520
▁still	-521
3]	-522
oy	-523
▁take	-524
▁these	-525
▁differ	-526
▁government	-527
▁sa	-528
als	-529
▁never	-530
ument	-531
00	-532
ea	-533
▁Ch	-534
ition	-535
▁seem	-536
ra	-537
▁bu	-538
▁supp	-539
5]	-540
fore	-541
▁inc	-542
▁kid	-543
ia	-544
ade	-545
lic	-546
▁those	-547
__	-548
▁But	-549
▁wom	-550
ren	-551
▁part	-552
arn	-553
▁There	-554
ber	-555
▁hum	-556
▁same	-557
▁where	-558
pect	-559
▁back	-560
ever	-561
▁society	-562
▁having	-563
4]	-564
▁here	-565
ail	-566
▁well	-567
▁first	-568
iew	-569
cept	-570
▁They	-571
ations	-572
▁place	-573
ates	-574
▁bad	-575
▁fact	-576
▁marri	-577
oc	-578
ger	-579
▁bl	-580
▁thr	-581
▁quest	-582
▁J	-583
ily	-584
▁2	-585
ces	-586
urn	-587
fect	-588
su	-589
▁id	-590
▁day	-591
▁af	-592
▁lot	-593
▁such	-594
▁sm	-595
▁And	-596
▁things	-597
....	-598
▁water	-599
8]	-600
ody	-601
▁try	-602
ian	-603
▁op	-604
▁relig	-605
igh	-606
▁stud	-607
▁-	-608
▁ob	-609
ince	-610
▁job	-611
▁best	-612
og	-613
▁mean	-614
▁ke	-615
▁sy	-616
blem	-617
ents	-618
▁long	-619
▁look	-620
▁anything	-621
6]	-622
▁bas	-623
tain	-624
▁pos	-625
▁won	-626
ug	-627
▁sc	-628
▁ind	-629
▁sex	-630
▁food	-631
ord	-632
vel	-633
▁ph	-634
▁down	-635
▁doesn	-636
▁problem	-637
ak	-638
▁inv	-639
▁put	-640
▁human	-641
ign	-642
▁acc	-643
▁able	-644
▁kill	-645
▁allow	-646
▁against	-647
▁country	-648
arent	-649
ath	-650
▁case	-651
alth	-652
▁ter	-653
▁great	-654
▁mo	-655
▁sim	-656
aff	-657
▁less	-658
The	-659
ven	-660
▁now	-661
▁rem	-662
ating	-663
▁kids	-664
▁real	-665
9]	-666
ef	-667
▁pur	-668
▁give	-669
▁How	-670
▁got	-671
▁argument	-672
ense	-673
eric	-674
ower	-675
▁new	-676
▁legal	-677
▁while	-678
▁change	-679
ousy	-680
▁find	-681
▁order	-682
ors	-683
▁des	-684
its	-685
▁No	-686
ically	-687
▁without	-688
▁children	-689
▁personal	-690
du	-691
▁fri	-692
ys	-693
▁big	-694
▁min	-695
▁view	-696
▁inter	-697
▁lousy	-698
▁another	-699
7]	-700
▁app	-701
ought	-702
▁inst	-703
▁sure	-704
stem	-705
▁gen	-706
▁mur	-707
▁str	-708
▁come	-709
▁doing	-710
up	-711
ably	-712
▁fu	-713
ject	-714
stand	-715
ublic	-716
▁both	-717
▁after	-718
▁point	-719
▁system	-720
▁che	-721
▁through	-722
▁different	-723
cess	-724
▁mat	-725
ittle	-726
▁around	-727
▁enough	-728
▁question	-729
▁'	-730
▁tw	-731
▁keep	-732
▁turn	-733
▁others	-734
▁et	-735
▁love	-736
▁little	-737
).	-738
▁live	-739
▁court	-740
inal	-741
▁end	-742
▁etc	-743
▁prob	-744
▁anyone	-745
▁parent	-746
▁eas	-747
▁fam	-748
ility	-749
▁made	-750
▁learn	-751
▁murder	-752
▁support	-753
ely	-754
hip	-755
▁Am	-756
▁el	-757
rist	-758
▁let	-759
▁high	-760
▁3	-761
▁ass	-762
▁isn	-763
▁rel	-764
apore	-765
ether	-766
affles	-767
▁might	-768
▁before	-769
ingapore	-770
▁understand	-771
ank	-772
▁makes	-773
ars	-774
ese	-775
pon	-776
read	-777
▁prot	-778
▁stop	-779
lle	-780
▁sit	-781
conom	-782
▁years	-783
av	-784
sw	-785
▁ext	-786
▁self	-787
ertain	-788
▁state	-789
▁ro	-790
▁hard	-791
ave	-792
▁Al	-793
vers	-794
▁pret	-795
▁rest	-796
▁used	-797
air	-798
▁ille	-799
ft	-800
we	-801
wh	-802
▁US	-803
▁answ	-804
▁care	-805
▁didn	-806
▁ever	-807
▁common	-808
▁wouldn	-809
▁Singapore	-810
▁cr	-811
ider	-812
▁watch	-813
▁friend	-814
▁nothing	-815
▁probably	-816
ced	-817
fer	-818
ings	-819
ists	-820
▁ins	-821
▁mor	-822
▁opin	-823
▁Americ	-824
▁happen	-825
▁public	-826
▁rather	-827
▁rights	-828
▁protect	-829
xt	-830
ics	-831
ither	-832
▁econom	-833
▁yourself	-834
ise	-835
red	-836
▁sub	-837
▁else	-838
▁class	-839
▁since	-840
▁respon	-841
oice	-842
rect	-843
▁illegal	-844
ead	-845
▁He	-846
▁away	-847
▁defin	-848
▁seems	-849
lves	-850
▁actually	-851
any	-852
day	-853
ial	-854
ope	-855
----	-856
▁inf	-857
▁bott	-858
▁tell	-859
cation	-860
▁start	-861
▁health	-862
▁col	-863
▁dep	-864
▁sci	-865
▁char	-866
▁lead	-867
▁everyone	-868
arm	-869
▁Ind	-870
▁dri	-871
sible	-872
▁must	-873
ouse	-874
▁ent	-875
▁reg	-876
▁drug	-877
▁each	-878
▁hand	-879
▁home	-880
▁found	-881
iol	-882
old	-883
▁ask	-884
▁exp	-885
▁tax	-886
▁two	-887
▁play	-888
▁creat	-889
▁family	-890
▁pretty	-891
▁deb	-892
▁dont	-893
▁My	-894
peri	-895
ploy	-896
▁tal	-897
▁gener	-898
▁invol	-899
▁become	-900
▁police	-901
not	-902
If	-903
iss	-904
▁For	-905
▁ben	-906
▁cor	-907
▁laws	-908
▁show	-909
▁polit	-910
▁Raffles	-911
▁adv	-912
▁cur	-913
▁evol	-914
▁kind	-915
▁woman	-916
▁trying	-917
▁consider	-918
co	-919
ier	-920
ush	-921
ries	-922
▁God	-923
▁That	-924
▁done	-925
▁crime	-926
▁accept	-927
gr	-928
▁cas	-929
▁men	-930
aught	-931
▁idea	-932
▁requ	-933
selves	-934
edu	-935
ell	-936
▁St	-937
ular	-938
▁far	-939
▁set	-940
▁sur	-941
ities	-942
▁exam	-943
▁free	-944
▁prop	-945
▁said	-946
▁benef	-947
▁drink	-948
▁answer	-949
▁However	-950
▁either	-951
▁fl	-952
ians	-953
suit	-954
▁car	-955
▁few	-956
▁form	-957
▁certain	-958
▁opinion	-959
11]	-960
14]	-961
cing	-962
ited	-963
▁rep	-964
▁power	-965
▁whole	-966
▁though	-967
ons	-968
ten	-969
uth	-970
ater	-971
lect	-972
▁run	-973
▁yes	-974
▁least	-975
▁needs	-976
▁matter	-977
▁religion	-978
▁speci	-979
),	-980
▁*	-981
oth	-982
▁co	-983
▁ty	-984
▁wa	-985
▁buy	-986
though	-987
▁agree	-988
▁death	-989
▁thought	-990
▁marriage	-991
ey	-992
gn	-993
use	-994
ness	-995
▁mil	-996
ative	-997
iting	-998
MV	-999
Th	-1000
ks	-1001
the	-1002
▁cle	-1003
iform	-1004
▁viol	-1005
▁stand	-1006
▁example	-1007
▁students	-1008
ides	-1009
▁cre	-1010
velop	-1011
▁situ	-1012
ortion	-1013
▁women	-1014
aw	-1015
ng	-1016
har	-1017
ices	-1018
▁add	-1019
▁cal	-1020
▁nat	-1021
ffect	-1022
iness	-1023
ption	-1024
vious	-1025
▁What	-1026
▁call	-1027
▁gets	-1028
▁prov	-1029
▁import	-1030
body	-1031
▁bus	-1032
ately	-1033
illed	-1034
▁means	-1035
▁married	-1036
▁parents	-1037
cc	-1038
ake	-1039
uck	-1040
▁Be	-1041
▁Is	-1042
anger	-1043
▁grow	-1044
▁moral	-1045
ristian	-1046
▁effect	-1047
▁employ	-1048
▁uniform	-1049
▁important	-1050
▁5	-1051
ison	-1052
lease	-1053
▁maybe	-1054
▁choice	-1055
▁.	-1056
15]	-1057
ang	-1058
but	-1059
▁As	-1060
____	-1061
ives	-1062
▁Why	-1063
▁edu	-1064
▁jud	-1065
ready	-1066
▁porn	-1067
▁true	-1068
▁lives	-1069
▁saying	-1070
▁pursuit	-1071
ox	-1072
ages	-1073
oose	-1074
▁war	-1075
▁comple	-1076
▁everything	-1077
It	-1078
▁K	-1079
▁sl	-1080
▁pass	-1081
▁poor	-1082
▁produ	-1083
▁already	-1084
▁getting	-1085
sib	-1086
sue	-1087
▁bre	-1088
ision	-1089
▁serv	-1090
▁contro	-1091
▁develop	-1092
Wh	-1093
12]	-1094
ged	-1095
ply	-1096
ivid	-1097
peci	-1098
▁Yes	-1099
▁equ	-1100
▁pop	-1101
▁val	-1102
itely	-1103
▁read	-1104
▁instead	-1105
▁shouldn	-1106
▁education	-1107
ros	-1108
▁fo	-1109
ific	-1110
▁pot	-1111
▁const	-1112
▁choose	-1113
▁contin	-1114
▁likely	-1115
▁themselves	-1116
▁,	-1117
ote	-1118
ards	-1119
arly	-1120
ible	-1121
aring	-1122
quhar	-1123
▁anim	-1124
▁last	-1125
▁sign	-1126
▁times	-1127
▁experi	-1128
▁allowed	-1129
ning	-1130
▁tri	-1131
▁pres	-1132
idence	-1133
▁cause	-1134
▁cannot	-1135
OT	-1136
ib	-1137
ied	-1138
ife	-1139
rit	-1140
▁To	-1141
iven	-1142
▁old	-1143
ident	-1144
ooking	-1145
▁milit	-1146
▁course	-1147
▁proper	-1148
▁social	-1149
▁individ	-1150
▁involved	-1151
lt	-1152
erv	-1153
osed	-1154
▁bab	-1155
▁gay	-1156
▁sol	-1157
▁issue	-1158
".	-1159
cy	-1160
10]	-1161
13]	-1162
for	-1163
rem	-1164
▁ap	-1165
imes	-1166
ural	-1167
▁CMV	-1168
▁Far	-1169
▁die	-1170
▁med	-1171
▁pun	-1172
▁conc	-1173
▁word	-1174
▁based	-1175
▁brain	-1176
▁expect	-1177
▁making	-1178
▁simply	-1179
▁strong	-1180
▁evolution	-1181
18]	-1182
▁hu	-1183
▁conv	-1184
▁plan	-1185
itution	-1186
▁debate	-1187
▁situation	-1188
ER	-1189
az	-1190
ru	-1191
16]	-1192
jor	-1193
ken	-1194
rent	-1195
▁cap	-1196
▁fre	-1197
▁leg	-1198
▁rap	-1199
▁Well	-1200
▁assum	-1201
▁small	-1202
▁countries	-1203
▁experience	-1204
19]	-1205
acy	-1206
ili	-1207
olog	-1208
▁next	-1209
▁fight	-1210
▁fatherless	-1211
."	-1212
aim	-1213
ize	-1214
ont	-1215
oup	-1216
ove	-1217
▁An	-1218
▁TV	-1219
▁ra	-1220
▁det	-1221
▁guy	-1222
▁non	-1223
▁body	-1224
▁disc	-1225
▁ment	-1226
▁mind	-1227
▁side	-1228
▁stup	-1229
▁India	-1230
▁cases	-1231
▁economy	-1232
▁looking	-1233
ationship	-1234
▁relationship	-1235
get	-1236
llow	-1237
ross	-1238
▁num	-1239
ments	-1240
▁book	-1241
▁criminal	-1242
▁evidence	-1243
▁V	-1244
000	-1245
gin	-1246
ute	-1247
ants	-1248
ital	-1249
tern	-1250
ware	-1251
▁fun	-1252
▁imm	-1253
▁mus	-1254
▁smo	-1255
▁Most	-1256
▁aren	-1257
▁bill	-1258
▁hist	-1259
▁lawy	-1260
▁comes	-1261
▁night	-1262
▁sense	-1263
▁teach	-1264
▁using	-1265
ational	-1266
▁danger	-1267
▁killed	-1268
▁mother	-1269
▁stupid	-1270
pecially	-1271
▁subject	-1272
▁Farquhar	-1273
▁business	-1274
▁interest	-1275
▁problems	-1276
▁individual	-1277
17]	-1278
lud	-1279
ror	-1280
▁sk	-1281
▁mon	-1282
▁ref	-1283
▁uni	-1284
▁bring	-1285
▁exist	-1286
▁commun	-1287
▁require	-1288
▁abortion	-1289
ix	-1290
▁Un	-1291
ames	-1292
ided	-1293
ines	-1294
orts	-1295
▁dem	-1296
▁hon	-1297
▁tog	-1298
▁win	-1299
ences	-1300
▁full	-1301
▁fund	-1302
▁land	-1303
▁phys	-1304
▁seen	-1305
▁term	-1306
▁worth	-1307
▁belief	-1308
▁punish	-1309
▁taking	-1310
▁company	-1311
▁perfect	-1312
▁respect	-1313
▁schools	-1314
▁military	-1315
pr	-1316
edom	-1317
empt	-1318
ract	-1319
▁cou	-1320
▁wal	-1321
▁move	-1322
▁scient	-1323
let	-1324
oph	-1325
▁gl	-1326
!!!!	-1327
arch	-1328
ient	-1329
▁abs	-1330
▁mem	-1331
▁mom	-1332
▁pri	-1333
plain	-1334
▁When	-1335
ending	-1336
▁often	-1337
▁prove	-1338
▁coming	-1339
▁complet	-1340
▁serious	-1341
▁talking	-1342
▁together	-1343
▁definitely	-1344
io	-1345
ends	-1346
lege	-1347
▁break	-1348
▁follow	-1349
to	-1350
▁4	-1351
cal	-1352
ned	-1353
band	-1354
cond	-1355
fort	-1356
oint	-1357
unch	-1358
ures	-1359
ying	-1360
▁Not	-1361
▁inn	-1362
▁mod	-1363
▁top	-1364
rible	-1365
▁Chin	-1366
▁cult	-1367
▁harm	-1368
▁main	-1369
▁says	-1370
ancing	-1371
ession	-1372
▁claim	-1373
▁given	-1374
▁leave	-1375
▁major	-1376
▁People	-1377
▁within	-1378
▁Christian	-1379
▁mov	-1380
orney	-1381
▁post	-1382
atever	-1383
▁adult	-1384
▁exact	-1385
▁level	-1386
▁correct	-1387
▁freedom	-1388
br	-1389
ew	-1390
lim	-1391
ork	-1392
▁On	-1393
gest	-1394
irth	-1395
most	-1396
vent	-1397
▁Mar	-1398
▁civ	-1399
▁eat	-1400
▁fil	-1401
▁fin	-1402
▁hus	-1403
▁log	-1404
▁opp	-1405
▁wee	-1406
where	-1407
▁With	-1408
▁came	-1409
▁dest	-1410
▁easy	-1411
▁hear	-1412
▁hold	-1413
▁hour	-1414
▁jail	-1415
▁open	-1416
▁stay	-1417
▁vide	-1418
▁group	-1419
▁happy	-1420
▁living	-1421
▁record	-1422
--------	-1423
▁bottles	-1424
▁current	-1425
▁whether	-1426
▁religious	-1427
▁sal	-1428
ently	-1429
▁option	-1430
▁control	-1431
▁attorney	-1432
**	-1433
bor	-1434
omm	-1435
ret	-1436
▁10	-1437
aces	-1438
ntil	-1439
ween	-1440
▁bur	-1441
▁eff	-1442
▁god	-1443
▁pat	-1444
ality	-1445
fully	-1446
▁Just	-1447
▁cost	-1448
▁left	-1449
▁prof	-1450
▁sell	-1451
▁sent	-1452
▁took	-1453
▁wait	-1454
▁Every	-1455
▁First	-1456
▁speak	-1457
▁super	-1458
▁taken	-1459
▁called	-1460
▁prison	-1461
▁theory	-1462
▁America	-1463
▁between	-1464
▁friends	-1465
▁husband	-1466
▁difference	-1467
bs	-1468
irl	-1469
▁conf	-1470
▁stat	-1471
▁includ	-1472
▁necess	-1473
▁unless	-1474
▁college	-1475
ES	-1476
ket	-1477
lus	-1478
ner	-1479
ses	-1480
uly	-1481
vor	-1482
▁av	-1483
ball	-1484
side	-1485
▁NOT	-1486
▁aff	-1487
▁beh	-1488
▁dad	-1489
▁lic	-1490
astic	-1491
aving	-1492
istic	-1493
▁Also	-1494
▁emot	-1495
▁fair	-1496
▁fore	-1497
▁goes	-1498
▁jobs	-1499
▁sing	-1500
▁type	-1501
▁wife	-1502
▁chick	-1503
▁games	-1504
▁innoc	-1505
▁judge	-1506
▁refer	-1507
▁crimes	-1508
▁inform	-1509
▁itself	-1510
▁longer	-1511
▁partic	-1512
▁states	-1513
▁process	-1514
▁certainly	-1515
▁political	-1516
idd	-1517
▁env	-1518
ction	-1519
▁huge	-1520
▁line	-1521
▁build	-1522
▁pregn	-1523
▁number	-1524
▁terror	-1525
▁decision	-1526
ec	-1527
ij	-1528
zy	-1529
ana	-1530
erm	-1531
ges	-1532
joy	-1533
ony	-1534
ops	-1535
ues	-1536
urt	-1537
▁es	-1538
▁ok	-1539
This	-1540
cial	-1541
form	-1542
itiz	-1543
lish	-1544
ping	-1545
sequ	-1546
sues	-1547
utes	-1548
▁All	-1549
▁She	-1550
▁adm	-1551
▁age	-1552
▁art	-1553
▁bit	-1554
▁gun	-1555
▁low	-1556
▁occ	-1557
▁par	-1558
▁rid	-1559
▁sho	-1560
▁tow	-1561
acher	-1562
▁baby	-1563
▁deal	-1564
▁guil	-1565
▁hope	-1566
▁went	-1567
ensive	-1568
▁These	-1569
▁black	-1570
▁enjoy	-1571
▁incre	-1572
▁sever	-1573
▁truly	-1574
ression	-1575
▁actual	-1576
▁caught	-1577
▁chance	-1578
▁commit	-1579
▁direct	-1580
▁simple	-1581
▁sports	-1582
▁student	-1583
▁Although	-1584
▁benefits	-1585
▁innocent	-1586
▁responsible	-1587
eth	-1588
ized	-1589
iving	-1590
verage	-1591
▁house	-1592
▁price	-1593
▁myself	-1594
▁helping	-1595
▁however	-1596
▁thinking	-1597
▁whatever	-1598
??	-1599
ED	-1600
So	-1601
ee	-1602
gan	-1603
hol	-1604
ird	-1605
oof	-1606
ric	-1607
▁sw	-1608
▁ve	-1609
ging	-1610
ised	-1611
land	-1612
reet	-1613
wise	-1614
▁due	-1615
▁neg	-1616
▁rev	-1617
ounds	-1618
▁days	-1619
▁dist	-1620
▁fine	-1621
▁game	-1622
▁head	-1623
▁mill	-1624
▁rece	-1625
▁argue	-1626
▁birth	-1627
▁citiz	-1628
▁later	-1629
▁local	-1630
▁music	-1631
▁trust	-1632
▁spouse	-1633
▁wonder	-1634
sibility	-1635
▁created	-1636
▁history	-1637
▁science	-1638
▁sometimes	-1639
▁personally	-1640
alf	-1641
fic	-1642
▁pe	-1643
ocus	-1644
ured	-1645
▁doc	-1646
▁exc	-1647
aking	-1648
▁cond	-1649
▁girl	-1650
▁walk	-1651
▁drugs	-1652
▁focus	-1653
▁nation	-1654
▁please	-1655
▁attempt	-1656
▁service	-1657
▁usually	-1658
",	-1659
aid	-1660
aps	-1661
aur	-1662
ime	-1663
▁Ob	-1664
▁PE	-1665
arth	-1666
ased	-1667
itch	-1668
uana	-1669
urch	-1670
▁dam	-1671
▁dev	-1672
▁enc	-1673
▁est	-1674
▁hot	-1675
▁yet	-1676
ender	-1677
icide	-1678
igure	-1679
ribut	-1680
▁Bush	-1681
▁Some	-1682
▁fast	-1683
▁list	-1684
▁mist	-1685
▁name	-1686
▁rich	-1687
▁step	-1688
▁test	-1689
▁vote	-1690
urther	-1691
▁cloth	-1692
▁envir	-1693
▁offic	-1694
▁story	-1695
▁thats	-1696
▁today	-1697
▁trans	-1698
ulation	-1699
▁almost	-1700
▁honest	-1701
▁market	-1702
▁wanted	-1703
▁consequ	-1704
▁general	-1705
▁working	-1706
▁drinking	-1707
▁physical	-1708
▁dangerous	-1709
▁questions	-1710
▁completely	-1711
▁dog	-1712
▁eng	-1713
▁lar	-1714
▁becom	-1715
▁treat	-1716
▁reasons	-1717
▁continue	-1718
▁document	-1719
▁scientific	-1720
ON	-1721
And	-1722
You	-1723
eal	-1724
ele	-1725
ips	-1726
irm	-1727
man	-1728
ott	-1729
rap	-1730
rop	-1731
▁At	-1732
atic	-1733
enal	-1734
olut	-1735
rest	-1736
▁Now	-1737
▁fit	-1738
▁mot	-1739
▁typ	-1740
cohol	-1741
right	-1742
▁appe	-1743
▁dead	-1744
▁past	-1745
▁surv	-1746
▁trad	-1747
▁wish	-1748
ijuana	-1749
▁China	-1750
▁along	-1751
▁heart	-1752
▁knows	-1753
▁polic	-1754
▁takes	-1755
▁until	-1756
▁wants	-1757
▁young	-1758
▁amount	-1759
▁design	-1760
▁easily	-1761
▁figure	-1762
▁issues	-1763
▁object	-1764
▁potent	-1765
▁healthy	-1766
▁killing	-1767
▁knowing	-1768
▁selfish	-1769
▁teacher	-1770
▁possible	-1771
▁watching	-1772
▁therefore	-1773
dd	-1774
ams	-1775
xual	-1776
▁hom	-1777
▁ret	-1778
iddle	-1779
itted	-1780
▁hate	-1781
▁wast	-1782
▁entire	-1783
▁meaning	-1784
▁position	-1785
ex	-1786
sh	-1787
amp	-1788
ats	-1789
ern	-1790
osp	-1791
▁ru	-1792
,000	-1793
ange	-1794
ared	-1795
atch	-1796
ield	-1797
like	-1798
▁bel	-1799
▁eth	-1800
▁fav	-1801
▁fut	-1802
▁var	-1803
ances	-1804
anies	-1805
cause	-1806
ledge	-1807
ology	-1808
▁cant	-1809
▁fall	-1810
▁film	-1811
▁fire	-1812
▁once	-1813
▁pain	-1814
▁priv	-1815
▁prom	-1816
▁tast	-1817
▁wear	-1818
ention	-1819
▁begin	-1820
▁front	-1821
▁liber	-1822
▁proof	-1823
▁truth	-1824
olutely	-1825
viously	-1826
▁destro	-1827
▁easier	-1828
▁justif	-1829
▁lawyer	-1830
▁regard	-1831
▁result	-1832
▁single	-1833
▁animals	-1834
▁beliefs	-1835
▁chicken	-1836
▁driving	-1837
▁emotion	-1838
▁learned	-1839
▁outside	-1840
▁restaur	-1841
▁complain	-1842
▁effective	-1843
▁marijuana	-1844
▁necessary	-1845
▁especially	-1846
ault	-1847
bers	-1848
▁cra	-1849
▁ones	-1850
▁books	-1851
▁spend	-1852
▁concept	-1853
▁convict	-1854
▁product	-1855
▁pregnant	-1856
IT	-1857
▁:	-1858
But	-1859
acc	-1860
ash	-1861
cks	-1862
ech	-1863
ees	-1864
isk	-1865
▁19	-1866
▁Af	-1867
▁Do	-1868
▁ey	-1869
cipl	-1870
haps	-1871
ilar	-1872
imum	-1873
ires	-1874
iter	-1875
more	-1876
▁Let	-1877
▁Pro	-1878
▁bar	-1879
▁ill	-1880
agine	-1881
atory	-1882
ially	-1883
imate	-1884
ouble	-1885
uring	-1886
uslim	-1887
▁cust	-1888
▁grad	-1889
▁phil	-1890
▁purp	-1891
▁rese	-1892
▁span	-1893
▁talk	-1894
▁wont	-1895
onment	-1896
ration	-1897
urance	-1898
▁accom	-1899
▁appro	-1900
▁enfor	-1901
▁guess	-1902
▁quite	-1903
▁video	-1904
▁works	-1905
ination	-1906
▁assume	-1907
▁consum	-1908
▁create	-1909
▁extrem	-1910
▁intern	-1911
▁nature	-1912
▁office	-1913
▁places	-1914
▁prefer	-1915
▁actions	-1916
▁alcohol	-1917
▁bottled	-1918
▁capital	-1919
▁contact	-1920
▁natural	-1921
▁prevent	-1922
▁willing	-1923
▁American	-1924
▁terrible	-1925
▁companies	-1926
▁aw	-1927
▁cau	-1928
▁fat	-1929
▁comb	-1930
▁half	-1931
▁mess	-1932
▁news	-1933
ources	-1934
▁civil	-1935
▁hands	-1936
▁heard	-1937
▁pract	-1938
osexual	-1939
▁consci	-1940
▁giving	-1941
▁middle	-1942
▁average	-1943
▁creation	-1944
▁supposed	-1945
2.	-1946
AT	-1947
In	-1948
by	-1949
▁8	-1950
▁9	-1951
!!!	-1952
cum	-1953
hib	-1954
ogn	-1955
ows	-1956
ped	-1957
rom	-1958
ted	-1959
▁20	-1960
▁30	-1961
▁Or	-1962
▁Re	-1963
▁jo	-1964
▁ur	-1965
aged	-1966
ands	-1967
anks	-1968
aper	-1969
aybe	-1970
erci	-1971
ling	-1972
▁den	-1973
▁ign	-1974
▁ori	-1975
▁vis	-1976
asing	-1977
ended	-1978
ening	-1979
▁Brit	-1980
▁Many	-1981
▁Will	-1982
▁athe	-1983
▁cell	-1984
▁gain	-1985
▁gave	-1986
▁mass	-1987
▁paid	-1988
▁sick	-1989
▁wage	-1990
enalty	-1991
▁abuse	-1992
▁areas	-1993
▁clean	-1994
▁early	-1995
▁elect	-1996
▁endea	-1997
▁equal	-1998
▁media	-1999
▁minor	-2000
▁movie	-2001
▁spank	-2002
▁worry	-2003
▁write	-2004
▁action	-2005
▁compet	-2006
▁indust	-2007
▁remain	-2008
▁sexual	-2009
▁street	-2010
▁clothes	-2011
▁decided	-2012
▁happens	-2013
▁justice	-2014
▁minutes	-2015
▁penalty	-2016
▁similar	-2017
▁suicide	-2018
▁wearing	-2019
▁citizens	-2020
▁friendly	-2021
▁violence	-2022
▁advancing	-2023
▁community	-2024
▁employees	-2025
▁considered	-2026
▁population	-2027
▁punishment	-2028
▁environment	-2029
cent	-2030
esus	-2031
rant	-2032
▁lose	-2033
▁nice	-2034
▁told	-2035
▁progr	-2036
▁worse	-2037
▁ordered	-2038
▁univers	-2039
As	-2040
OO	-2041
ai	-2042
gy	-2043
▁7	-2044
ads	-2045
fox	-2046
oid	-2047
oub	-2048
por	-2049
ths	-2050
umb	-2051
uss	-2052
▁**	-2053
▁--	-2054
▁cu	-2055
▁ir	-2056
▁sn	-2057
acks	-2058
akes	-2059
chie	-2060
ffic	-2061
iced	-2062
ined	-2063
lies	-2064
ouch	-2065
plic	-2066
▁Don	-2067
▁Who	-2068
▁arm	-2069
▁cir	-2070
▁fel	-2071
▁gre	-2072
▁hor	-2073
▁ide	-2074
▁lif	-2075
▁opt	-2076
▁sat	-2077
▁sug	-2078
▁sus	-2079
ember	-2080
itive	-2081
oting	-2082
▁Then	-2083
▁Your	-2084
▁auth	-2085
▁born	-2086
▁card	-2087
▁deli	-2088
▁dish	-2089
▁earn	-2090
▁evil	-2091
▁fail	-2092
▁guys	-2093
▁host	-2094
▁lost	-2095
▁prim	-2096
▁risk	-2097
▁sand	-2098
▁scre	-2099
▁thus	-2100
▁week	-2101
ording	-2102
resent	-2103
▁Jesus	-2104
▁activ	-2105
▁close	-2106
▁deser	-2107
▁dress	-2108
▁light	-2109
▁organ	-2110
▁phone	-2111
▁raped	-2112
▁three	-2113
▁Muslim	-2114
▁charge	-2115
▁during	-2116
▁effort	-2117
▁future	-2118
▁guilty	-2119
▁speech	-2120
........	-2121
▁ability	-2122
▁discipl	-2123
▁exactly	-2124
▁license	-2125
▁playing	-2126
▁purpose	-2127
▁trouble	-2128
▁writing	-2129
▁economic	-2130
▁recently	-2131
▁spanking	-2132
▁extremely	-2133
▁represent	-2134
▁particular	-2135
▁information	-2136
▁Christianity	-2137
▁responsibility	-2138
ny	-2139
cri	-2140
ency	-2141
ister	-2142
▁scen	-2143
▁crazy	-2144
▁status	-2145
▁charact	-2146
▁founder	-2147
▁reality	-2148
▁specific	-2149
▁homosexual	-2150
.3	-2151
1.	-2152
OU	-2153
ts	-2154
▁6	-2155
com	-2156
eah	-2157
edi	-2158
ets	-2159
hab	-2160
ike	-2161
ker	-2162
par	-2163
ube	-2164
▁Go	-2165
▁Of	-2166
▁ep	-2167
What	-2168
apan	-2169
cist	-2170
etus	-2171
hood	-2172
icle	-2173
leep	-2174
omen	-2175
used	-2176
work	-2177
▁...	-2178
▁Eng	-2179
▁Our	-2180
▁cut	-2181
▁hit	-2182
▁mis	-2183
▁ple	-2184
▁tea	-2185
▁tot	-2186
ament	-2187
cumst	-2188
elebr	-2189
ellig	-2190
ering	-2191
iding	-2192
vered	-2193
verse	-2194
▁Even	-2195
▁city	-2196
▁glob	-2197
▁lack	-2198
▁mach	-2199
▁male	-2200
▁mand	-2201
▁piss	-2202
▁redu	-2203
▁remo	-2204
▁song	-2205
▁stri	-2206
▁vict	-2207
▁wasn	-2208
ercise	-2209
▁Other	-2210
▁Somet	-2211
▁Willi	-2212
▁basis	-2213
▁clear	-2214
▁extra	-2215
▁final	-2216
▁force	-2217
▁grant	-2218
▁known	-2219
▁lunch	-2220
▁neigh	-2221
▁shows	-2222
▁sound	-2223
▁touch	-2224
▁value	-2225
▁white	-2226
▁worst	-2227
olution	-2228
▁States	-2229
▁adults	-2230
▁animal	-2231
▁celebr	-2232
▁church	-2233
▁claims	-2234
▁couple	-2235
▁courts	-2236
▁disapp	-2237
▁encour	-2238
▁mental	-2239
▁moment	-2240
▁philos	-2241
▁policy	-2242
▁prohib	-2243
▁remove	-2244
▁review	-2245
▁second	-2246
▁series	-2247
▁superi	-2248
▁taught	-2249
________	-2250
▁account	-2251
▁culture	-2252
▁fathers	-2253
▁imagine	-2254
▁leaving	-2255
▁plastic	-2256
▁present	-2257
▁quality	-2258
▁realize	-2259
▁survive	-2260
stitution	-2261
▁exercise	-2262
▁happened	-2263
▁learning	-2264
▁research	-2265
▁services	-2266
▁Americans	-2267
▁generally	-2268
▁insurance	-2269
▁potential	-2270
▁absolutely	-2271
▁discipline	-2272
▁restaurant	-2273
▁differently	-2274
▁lim	-2275
▁tech	-2276
licious	-2277
▁across	-2278
▁invest	-2279
▁classes	-2280
▁required	-2281
▁resources	-2282
AL	-2283
He	-2284
OR	-2285
af	-2286
ls	-2287
lu	-2288
mm	-2289
ne	-2290
tt	-2291
ww	-2292
ze	-2293
How	-2294
ama	-2295
ane	-2296
cle	-2297
ler	-2298
ley	-2299
oun	-2300
raq	-2301
sec	-2302
ton	-2303
ude	-2304
und	-2305
ung	-2306
▁Bl	-2307
▁IE	-2308
▁Ne	-2309
▁Sh	-2310
amed	-2311
angu	-2312
eral	-2313
live	-2314
ring	-2315
what	-2316
▁Eur	-2317
▁Its	-2318
▁ath	-2319
▁boy	-2320
▁ess	-2321
▁fix	-2322
▁los	-2323
antly	-2324
econd	-2325
icket	-2326
ories	-2327
which	-2328
▁Fire	-2329
▁base	-2330
▁deep	-2331
▁expl	-2332
▁eyes	-2333
▁fant	-2334
▁hurt	-2335
▁road	-2336
▁seek	-2337
▁sett	-2338
▁slow	-2339
▁soft	-2340
▁sour	-2341
▁tend	-2342
▁warm	-2343
atives	-2344
esides	-2345
fortun	-2346
inated	-2347
orning	-2348
▁Since	-2349
▁asked	-2350
▁avail	-2351
▁cross	-2352
▁earth	-2353
▁labor	-2354
▁langu	-2355
▁large	-2356
▁lower	-2357
▁offer	-2358
▁share	-2359
▁smart	-2360
▁table	-2361
▁topic	-2362
agement	-2363
itional	-2364
▁Europe	-2365
▁afford	-2366
▁arrest	-2367
▁cheese	-2368
▁eating	-2369
▁member	-2370
▁months	-2371
▁paying	-2372
▁recomm	-2373
▁William	-2374
▁benefit	-2375
▁contain	-2376
▁content	-2377
▁defense	-2378
▁leaders	-2379
▁million	-2380
▁minimum	-2381
▁perform	-2382
▁provide	-2383
▁running	-2384
▁several	-2385
▁special	-2386
▁although	-2387
▁circumst	-2388
▁endeavor	-2389
▁honestly	-2390
▁property	-2391
▁somebody	-2392
▁uniforms	-2393
▁available	-2394
▁basically	-2395
▁fundament	-2396
▁philosoph	-2397
▁understanding	-2398
att	-2399
eds	-2400
ock	-2401
▁crap	-2402
▁ways	-2403
▁field	-2404
▁techn	-2405
▁tried	-2406
▁affect	-2407
▁asking	-2408
▁forget	-2409
▁possib	-2410
▁wealth	-2411
▁depends	-2412
▁committed	-2413
▁delicious	-2414
20	-2415
?"	-2416
AN	-2417
EN	-2418
ah	-2419
na	-2420
Why	-2421
ark	-2422
arr	-2423
ery	-2424
gth	-2425
how	-2426
ins	-2427
mon	-2428
ocr	-2429
ole	-2430
omp	-2431
oud	-2432
pro	-2433
ral	-2434
uff	-2435
▁18	-2436
▁50	-2437
▁:)	-2438
▁Cl	-2439
▁Ex	-2440
▁Oh	-2441
▁TH	-2442
▁hy	-2443
ases	-2444
enty	-2445
etal	-2446
icul	-2447
ills	-2448
isod	-2449
life	-2450
nect	-2451
nger	-2452
ones	-2453
rate	-2454
reme	-2455
ried	-2456
wich	-2457
▁Act	-2458
▁USA	-2459
▁air	-2460
▁ann	-2461
▁cop	-2462
▁din	-2463
▁ele	-2464
▁fac	-2465
▁mag	-2466
▁nor	-2467
▁red	-2468
▁suc	-2469
▁sue	-2470
▁veh	-2471
There	-2472
ature	-2473
cient	-2474
light	-2475
lling	-2476
riage	-2477
▁area	-2478
▁dict	-2479
▁knew	-2480
▁miss	-2481
▁norm	-2482
▁pict	-2483
▁prep	-2484
▁rape	-2485
▁rent	-2486
▁rout	-2487
acking	-2488
action	-2489
isions	-2490
ission	-2491
▁While	-2492
▁achie	-2493
▁alone	-2494
▁among	-2495
▁aware	-2496
▁check	-2497
▁chose	-2498
▁favor	-2499
▁finan	-2500
▁fries	-2501
▁gives	-2502
▁ident	-2503
▁impro	-2504
▁looks	-2505
▁quick	-2506
▁separ	-2507
▁trade	-2508
▁views	-2509
ability	-2510
iculous	-2511
ization	-2512
▁Christ	-2513
▁Please	-2514
▁United	-2515
▁athlet	-2516
▁couldn	-2517
▁defend	-2518
▁essent	-2519
▁global	-2520
▁gotten	-2521
▁immedi	-2522
▁modern	-2523
▁proven	-2524
▁racist	-2525
▁recogn	-2526
▁suffer	-2527
▁values	-2528
▁Because	-2529
▁Without	-2530
▁changed	-2531
▁enforce	-2532
▁express	-2533
▁feeling	-2534
▁foreign	-2535
▁further	-2536
▁growing	-2537
▁himself	-2538
▁lawyers	-2539
▁legally	-2540
▁logical	-2541
▁morning	-2542
▁politic	-2543
▁putting	-2544
▁regular	-2545
▁started	-2546
▁vehicle	-2547
▁watched	-2548
▁younger	-2549
▁accident	-2550
▁contract	-2551
▁fighting	-2552
▁humanity	-2553
▁intellig	-2554
▁majority	-2555
▁murdered	-2556
▁sandwich	-2557
▁superior	-2558
▁teachers	-2559
▁arguments	-2560
▁attention	-2561
▁developed	-2562
▁knowledge	-2563
▁recession	-2564
▁religions	-2565
▁acceptable	-2566
▁disappoint	-2567
▁ridiculous	-2568
▁terrorists	-2569
▁constitution	-2570
----------------	-2571
lam	-2572
▁pet	-2573
▁sec	-2574
▁tor	-2575
▁unf	-2576
ethod	-2577
▁sides	-2578
▁waste	-2579
▁weird	-2580
▁decide	-2581
▁descri	-2582
▁reading	-2583
'.	-2584
11	-2585
IC	-2586
IN	-2587
My	-2588
go	-2589
mb	-2590
▁/	-2591
asy	-2592
aut	-2593
ean	-2594
iod	-2595
ior	-2596
ots	-2597
que	-2598
ury	-2599
vis	-2600
yle	-2601
▁UN	-2602
ails	-2603
dict	-2604
gers	-2605
itle	-2606
ived	-2607
kind	-2608
oubt	-2609
ourt	-2610
resh	-2611
they	-2612
ties	-2613
uter	-2614
▁Any	-2615
▁Cub	-2616
▁agg	-2617
▁aut	-2618
▁boo	-2619
▁fed	-2620
▁ful	-2621
▁lik	-2622
▁rac	-2623
▁sad	-2624
▁ste	-2625
▁tap	-2626
▁ult	-2627
.....	-2628
ached	-2629
ailed	-2630
ginal	-2631
ished	-2632
izing	-2633
owing	-2634
▁Iraq	-2635
▁cent	-2636
▁cool	-2637
▁cred	-2638
▁doll	-2639
▁face	-2640
▁luck	-2641
▁meal	-2642
▁safe	-2643
▁sold	-2644
▁team	-2645
ablish	-2646
choice	-2647
lement	-2648
lusion	-2649
▁Would	-2650
▁above	-2651
▁carry	-2652
▁cheap	-2653
▁disco	-2654
▁divor	-2655
▁doubt	-2656
▁fetus	-2657
▁fresh	-2658
▁haven	-2659
▁influ	-2660
▁paper	-2661
▁rehab	-2662
▁short	-2663
▁stren	-2664
▁stuck	-2665
▁taxes	-2666
▁title	-2667
▁weeks	-2668
ication	-2669
▁allows	-2670
▁aspect	-2671
▁author	-2672
▁bother	-2673
▁concer	-2674
▁custom	-2675
▁demand	-2676
▁diffic	-2677
▁driver	-2678
▁episod	-2679
▁humans	-2680
▁listen	-2681
▁passed	-2682
▁period	-2683
▁reduce	-2684
▁threat	-2685
▁ticket	-2686
▁accompl	-2687
▁address	-2688
▁answers	-2689
▁benefic	-2690
▁clearly	-2691
▁comfort	-2692
▁connect	-2693
▁continu	-2694
▁discuss	-2695
▁drivers	-2696
▁mistake	-2697
▁obvious	-2698
▁perhaps	-2699
▁persons	-2700
▁popular	-2701
▁project	-2702
▁receive	-2703
▁related	-2704
▁stopped	-2705
▁building	-2706
▁expected	-2707
▁instance	-2708
▁negative	-2709
▁powerful	-2710
▁Obviously	-2711
▁contribut	-2712
▁currently	-2713
▁establish	-2714
▁expensive	-2715
▁happening	-2716
▁mandatory	-2717
▁ourselves	-2718
▁seriously	-2719
▁development	-2720
▁consequences	-2721
▁circumstances	-2722
▁relationships	-2723
erk	-2724
ify	-2725
▁aud	-2726
▁bom	-2727
▁box	-2728
▁dat	-2729
▁adop	-2730
▁doct	-2731
▁fault	-2732
▁peace	-2733
▁casual	-2734
▁daught	-2735
▁decent	-2736
▁method	-2737
▁movies	-2738
▁return	-2739
▁becomes	-2740
▁conserv	-2741
▁constru	-2742
▁percent	-2743
▁possibly	-2744
▁solution	-2745
▁speaking	-2746
▁conscious	-2747
.*	-2748
.5	-2749
Al	-2750
ID	-2751
MA	-2752
OM	-2753
ST	-2754
TS	-2755
We	-2756
cl	-2757
kn	-2758
lo	-2759
ma	-2760
oh	-2761
ph	-2762
For	-2763
VER	-2764
ale	-2765
avy	-2766
aws	-2767
azz	-2768
den	-2769
dit	-2770
don	-2771
ipp	-2772
unk	-2773
▁AN	-2774
▁Im	-2775
▁Ph	-2776
▁Pr	-2777
▁Tw	-2778
▁nu	-2779
abet	-2780
alif	-2781
alse	-2782
born	-2783
ceed	-2784
ises	-2785
line	-2786
oard	-2787
onic	-2788
orry	-2789
outh	-2790
play	-2791
pret	-2792
rael	-2793
raph	-2794
rict	-2795
rupt	-2796
soci	-2797
that	-2798
time	-2799
uman	-2800
ussi	-2801
uted	-2802
▁100	-2803
▁Can	-2804
▁emb	-2805
▁hop	-2806
▁oil	-2807
ading	-2808
alism	-2809
arter	-2810
ators	-2811
itten	-2812
ooked	-2813
oring	-2814
rated	-2815
riend	-2816
ropri	-2817
▁Good	-2818
▁cops	-2819
▁coun	-2820
▁disp	-2821
▁dumb	-2822
▁feed	-2823
▁fill	-2824
▁firm	-2825
▁flag	-2826
▁flav	-2827
▁held	-2828
▁init	-2829
▁mine	-2830
▁mult	-2831
▁none	-2832
▁pers	-2833
▁rate	-2834
▁site	-2835
▁soon	-2836
▁sort	-2837
▁town	-2838
arents	-2839
ottled	-2840
▁After	-2841
▁Court	-2842
▁Islam	-2843
▁Japan	-2844
▁brows	-2845
▁color	-2846
▁cover	-2847
▁facts	-2848
▁feels	-2849
▁hours	-2850
▁keeps	-2851
▁liter	-2852
▁logic	-2853
▁occur	-2854
▁smoke	-2855
▁space	-2856
▁store	-2857
▁stuff	-2858
▁train	-2859
artment	-2860
eration	-2861
ortions	-2862
plement	-2863
venient	-2864
▁Change	-2865
▁Indian	-2866
▁Thanks	-2867
▁active	-2868
▁anyway	-2869
▁behind	-2870
▁causes	-2871
▁corpor	-2872
▁diabet	-2873
▁drinks	-2874
▁exists	-2875
▁forced	-2876
▁gender	-2877
▁impact	-2878
▁nobody	-2879
▁normal	-2880
▁notice	-2881
▁planet	-2882
▁plenty	-2883
▁prices	-2884
▁search	-2885
▁seeing	-2886
▁spread	-2887
▁British	-2888
▁English	-2889
▁biggest	-2890
▁brother	-2891
▁brought	-2892
▁capable	-2893
▁details	-2894
▁discrim	-2895
▁effects	-2896
▁letting	-2897
▁raffles	-2898
▁removed	-2899
▁spanked	-2900
▁suggest	-2901
▁systems	-2902
▁towards	-2903
▁written	-2904
▁Marriage	-2905
▁becoming	-2906
▁believes	-2907
▁directly	-2908
▁feelings	-2909
▁founding	-2910
▁greatest	-2911
▁language	-2912
▁neighbor	-2913
▁positive	-2914
▁previous	-2915
▁rational	-2916
▁remember	-2917
▁requires	-2918
▁strength	-2919
▁according	-2920
▁christian	-2921
▁decisions	-2922
▁difficult	-2923
▁emotional	-2924
▁employers	-2925
▁entertain	-2926
▁financial	-2927
▁including	-2928
▁justified	-2929
▁otherwise	-2930
▁somewhere	-2931
▁definition	-2932
▁generation	-2933
▁regardless	-2934
▁essentially	-2935
▁immediately	-2936
▁interesting	-2937
uit	-2938
cket	-2939
tion	-2940
▁bul	-2941
ience	-2942
▁hide	-2943
▁save	-2944
▁teen	-2945
▁apply	-2946
▁blood	-2947
▁teens	-2948
▁babies	-2949
▁income	-2950
▁anybody	-2951
▁complex	-2952
▁developing	-2953
10	-2954
2)	-2955
EL	-2956
LL	-2957
On	-2958
To	-2959
ev	-2960
gg	-2961
my	-2962
no	-2963
sc	-2964
tr	-2965
vy	-2966
ye	-2967
za	-2968
.2.	-2969
???	-2970
CMV	-2971
Its	-2972
add	-2973
bel	-2974
egr	-2975
gle	-2976
ilt	-2977
ney	-2978
ode	-2979
oss	-2980
pay	-2981
row	-2982
uct	-2983
▁..	-2984
▁15	-2985
▁21	-2986
▁IS	-2987
▁Sc	-2988
▁Sp	-2989
▁pu	-2990
Just	-2991
They	-2992
airs	-2993
ator	-2994
back	-2995
bing	-2996
ders	-2997
efin	-2998
gree	-2999
ired	-3000
olit	-3001
oted	-3002
over	-3003
pite	-3004
ream	-3005
reds	-3006
rial	-3007
vert	-3008
ward	-3009
▁Con	-3010
▁Gen	-3011
▁Mac	-3012
▁Nob	-3013
▁One	-3014
▁ago	-3015
▁ant	-3016
▁bag	-3017
▁ban	-3018
▁cow	-3019
▁dom	-3020
▁hab	-3021
▁hur	-3022
▁pal	-3023
▁ten	-3024
▁tip	-3025
aging	-3026
arely	-3027
azing	-3028
esity	-3029
inals	-3030
inate	-3031
iring	-3032
tered	-3033
▁Both	-3034
▁Inst	-3035
▁Like	-3036
▁Look	-3037
▁argu	-3038
▁bull	-3039
▁burn	-3040
▁dram	-3041
▁felt	-3042
▁forg	-3043
▁hosp	-3044
▁hund	-3045
▁impe	-3046
▁kept	-3047
▁lots	-3048
▁meat	-3049
▁near	-3050
▁plus	-3051
▁push	-3052
▁race	-3053
▁rele	-3054
▁upon	-3055
▁vacc	-3056
▁weak	-3057
▁yeah	-3058
erican	-3059
itness	-3060
ograph	-3061
▁Maybe	-3062
▁admit	-3063
▁basic	-3064
▁behav	-3065
▁below	-3066
▁bland	-3067
▁boost	-3068
▁built	-3069
▁cards	-3070
▁contr	-3071
▁effic	-3072
▁event	-3073
▁gradu	-3074
▁grand	-3075
▁helps	-3076
▁immig	-3077
▁lived	-3078
▁motiv	-3079
▁obese	-3080
▁owner	-3081
▁raise	-3082
▁reven	-3083
▁serve	-3084
▁ships	-3085
▁solve	-3086
▁songs	-3087
▁steal	-3088
▁surpr	-3089
▁thier	-3090
▁thous	-3091
▁throw	-3092
▁toler	-3093
▁wages	-3094
▁words	-3095
However	-3096
endment	-3097
ilities	-3098
imately	-3099
▁Father	-3100
▁School	-3101
▁advant	-3102
▁burger	-3103
▁condem	-3104
▁degree	-3105
▁determ	-3106
▁except	-3107
▁extens	-3108
▁helped	-3109
▁histor	-3110
▁ignore	-3111
▁incred	-3112
▁lifest	-3113
▁plates	-3114
▁played	-3115
▁prosec	-3116
▁racism	-3117
▁recent	-3118
▁remind	-3119
▁server	-3120
▁victim	-3121
▁videos	-3122
ervation	-3123
ropriate	-3124
▁Firefox	-3125
▁achieve	-3126
▁amazing	-3127
▁anymore	-3128
▁charged	-3129
▁climate	-3130
▁divorce	-3131
▁dollars	-3132
▁ethical	-3133
▁explain	-3134
▁fantasy	-3135
▁include	-3136
▁keeping	-3137
▁mankind	-3138
▁massive	-3139
▁members	-3140
▁mention	-3141
▁nations	-3142
▁picture	-3143
▁private	-3144
▁records	-3145
▁smoking	-3146
▁suspect	-3147
▁useless	-3148
▁various	-3149
▁violent	-3150
▁warming	-3151
▁Everyone	-3152
▁activity	-3153
▁arrested	-3154
▁describe	-3155
▁designed	-3156
▁episodes	-3157
▁identity	-3158
▁increase	-3159
▁internet	-3160
▁machines	-3161
▁millions	-3162
▁mistakes	-3163
▁morality	-3164
▁national	-3165
▁officers	-3166
▁opinions	-3167
▁original	-3168
▁particip	-3169
▁properly	-3170
▁provides	-3171
▁restrict	-3172
▁software	-3173
▁standard	-3174
▁starting	-3175
▁stopping	-3176
▁universe	-3177
▁Sometimes	-3178
▁character	-3179
▁criminals	-3180
▁implement	-3181
▁influence	-3182
▁interests	-3183
▁literally	-3184
▁objective	-3185
▁protected	-3186
▁recommend	-3187
▁standards	-3188
▁accomplish	-3189
▁increasing	-3190
▁industrial	-3191
▁profession	-3192
▁reasonable	-3193
▁settlement	-3194
▁situations	-3195
▁consequence	-3196
▁individuals	-3197
▁traditional	-3198
▁disappointed	-3199
eak	-3200
sed	-3201
▁da	-3202
otes	-3203
ters	-3204
▁tac	-3205
esome	-3206
▁busy	-3207
▁goal	-3208
▁menu	-3209
▁oper	-3210
▁perm	-3211
▁vers	-3212
▁purch	-3213
▁civili	-3214
▁advance	-3215
▁warrant	-3216
▁adoption	-3217
▁programs	-3218
.)	-3219
.-	-3220
.4	-3221
//	-3222
AR	-3223
AY	-3224
PS	-3225
of	-3226
.00	-3227
.3.	-3228
://	-3229
Any	-3230
ING	-3231
Yes	-3232
ady	-3233
agn	-3234
aly	-3235
amm	-3236
ape	-3237
ask	-3238
dis	-3239
eed	-3240
eor	-3241
ert	-3242
ext	-3243
ift	-3244
isf	-3245
kin	-3246
mas	-3247
men	-3248
nic	-3249
oke	-3250
pet	-3251
she	-3252
ttp	-3253
ump	-3254
wed	-3255
you	-3256
zer	-3257
▁Ar	-3258
▁By	-3259
▁Es	-3260
▁Gu	-3261
▁Ir	-3262
▁LO	-3263
▁PR	-3264
▁ST	-3265
▁WW	-3266
▁fa	-3267
▁tv	-3268
▁vs	-3269
EDIT	-3270
Edit	-3271
aded	-3272
ancy	-3273
ateg	-3274
augh	-3275
aves	-3276
etic	-3277
hers	-3278
iber	-3279
iety	-3280
izes	-3281
long	-3282
mosp	-3283
oman	-3284
port	-3285
rain	-3286
reci	-3287
riot	-3288
rito	-3289
▁Che	-3290
▁Edu	-3291
▁Law	-3292
▁Mal	-3293
▁Man	-3294
▁Wor	-3295
▁bal	-3296
▁dut	-3297
▁emp	-3298
▁fem	-3299
▁gar	-3300
▁gas	-3301
▁ing	-3302
▁inj	-3303
▁led	-3304
▁mal	-3305
▁mer	-3306
▁piz	-3307
▁rob	-3308
▁rub	-3309
▁rul	-3310
▁saw	-3311
▁sch	-3312
▁son	-3313
▁sou	-3314
▁squ	-3315
▁tar	-3316
▁tem	-3317
▁unw	-3318
_____	-3319
andom	-3320
apped	-3321
belie	-3322
enced	-3323
enses	-3324
gress	-3325
igher	-3326
ingly	-3327
inist	-3328
isted	-3329
itled	-3330
ocide	-3331
oices	-3332
ortun	-3333
place	-3334
round	-3335
urons	-3336
verty	-3337
▁Geor	-3338
▁Germ	-3339
▁Here	-3340
▁Life	-3341
▁Plus	-3342
▁Yout	-3343
▁acts	-3344
▁alot	-3345
▁bail	-3346
▁camp	-3347
▁cars	-3348
▁cere	-3349
▁cold	-3350
▁corn	-3351
▁damn	-3352
▁date	-3353
▁defe	-3354
▁empt	-3355
▁exec	-3356
▁fear	-3357
▁gall	-3358
▁gone	-3359
▁hair	-3360
▁jack	-3361
▁lets	-3362
▁note	-3363
▁outc	-3364
▁pack	-3365
▁poss	-3366
▁recy	-3367
▁rely	-3368
▁role	-3369
▁rule	-3370
▁sale	-3371
▁scar	-3372
▁seat	-3373
▁suit	-3374
▁uses	-3375
▁warn	-3376
entive	-3377
itions	-3378
ligion	-3379
otball	-3380
▁Calif	-3381
▁Right	-3382
▁Russi	-3383
▁Those	-3384
▁alive	-3385
▁annoy	-3386
▁avoid	-3387
▁beaut	-3388
▁bible	-3389
▁bills	-3390
▁bunch	-3391
▁conce	-3392
▁cream	-3393
▁drive	-3394
▁exper	-3395
▁honor	-3396
▁ignor	-3397
▁inher	-3398
▁initi	-3399
▁laugh	-3400
▁loved	-3401
▁meant	-3402
▁model	-3403
▁multi	-3404
▁oblig	-3405
▁older	-3406
▁press	-3407
▁proud	-3408
▁reach	-3409
▁regul	-3410
▁shoot	-3411
▁sleep	-3412
▁study	-3413
▁subst	-3414
▁sucks	-3415
▁types	-3416
▁union	-3417
▁visit	-3418
▁whats	-3419
▁access	-3420
▁addict	-3421
▁applic	-3422
▁associ	-3423
▁atmosp	-3424
▁belong	-3425
▁convin	-3426
▁device	-3427
▁dinner	-3428
▁extent	-3429
▁famili	-3430
▁faster	-3431
▁groups	-3432
▁highly	-3433
▁integr	-3434
▁looked	-3435
▁minors	-3436
▁random	-3437
▁report	-3438
▁satisf	-3439
▁select	-3440
▁served	-3441
▁skills	-3442
▁sounds	-3443
▁switch	-3444
▁unlike	-3445
▁useful	-3446
▁walked	-3447
atically	-3448
volution	-3449
▁appreci	-3450
▁attract	-3451
▁browser	-3452
▁burrito	-3453
▁chances	-3454
▁changes	-3455
▁convers	-3456
▁destroy	-3457
▁factors	-3458
▁federal	-3459
▁forever	-3460
▁hurting	-3461
▁missing	-3462
▁morally	-3463
▁obesity	-3464
▁options	-3465
▁passing	-3466
▁poverty	-3467
▁respond	-3468
▁selling	-3469
▁setting	-3470
▁species	-3471
▁success	-3472
▁treated	-3473
▁witness	-3474
▁Californ	-3475
▁allowing	-3476
▁athletes	-3477
▁behavior	-3478
▁changing	-3479
▁computer	-3480
▁entitled	-3481
▁function	-3482
▁genocide	-3483
▁horrible	-3484
▁hundreds	-3485
▁maintain	-3486
▁murderer	-3487
▁opportun	-3488
▁products	-3489
▁provided	-3490
▁relative	-3491
▁societal	-3492
▁stronger	-3493
▁teaching	-3494
▁thoughts	-3495
▁Education	-3496
▁amendment	-3497
▁authority	-3498
▁complaint	-3499
▁concerned	-3500
▁depending	-3501
▁president	-3502
▁referring	-3503
▁respected	-3504
▁statement	-3505
▁surprised	-3506
▁violation	-3507
▁wonderful	-3508
▁Especially	-3509
▁assumption	-3510
▁atmosphere	-3511
▁capitalism	-3512
▁convenient	-3513
▁destroying	-3514
▁philosophy	-3515
▁protecting	-3516
▁protection	-3517
▁ultimately	-3518
▁enforcement	-3519
▁established	-3520
▁fundamental	-3521
▁politicians	-3522
▁conversation	-3523
▁intelligence	-3524
erg	-3525
lict	-3526
▁lat	-3527
agers	-3528
arily	-3529
rison	-3530
▁bank	-3531
▁disg	-3532
▁dogs	-3533
▁lazy	-3534
▁send	-3535
▁tort	-3536
▁cells	-3537
▁grade	-3538
▁caused	-3539
▁mostly	-3540
▁refuse	-3541
▁salary	-3542
▁scenar	-3543
▁wouldnt	-3544
▁daughter	-3545
▁evolving	-3546
▁imprison	-3547
▁condition	-3548
▁existence	-3549
▁consciousness	-3550
!)	-3551
"?	-3552
,"	-3553
.(	-3554
?-	-3555
Am	-3556
CT	-3557
Ch	-3558
ET	-3559
IS	-3560
LY	-3561
NA	-3562
RA	-3563
de	-3564
do	-3565
dy	-3566
mp	-3567
Not	-3568
ait	-3569
apt	-3570
ato	-3571
cho	-3572
cul	-3573
eel	-3574
hes	-3575
ids	-3576
ils	-3577
lex	-3578
lip	-3579
off	-3580
oly	-3581
oms	-3582
ona	-3583
oos	-3584
upp	-3585
www	-3586
zed	-3587
▁16	-3588
▁Ad	-3589
▁DA	-3590
▁El	-3591
▁FF	-3592
▁Fr	-3593
▁HA	-3594
▁ID	-3595
▁Mc	-3596
▁NO	-3597
▁Ro	-3598
▁UK	-3599
▁ju	-3600
Good	-3601
Your	-3602
aced	-3603
ades	-3604
book	-3605
care	-3606
cell	-3607
cked	-3608
ered	-3609
ergy	-3610
ests	-3611
fact	-3612
gain	-3613
head	-3614
iful	-3615
iles	-3616
inci	-3617
inct	-3618
ival	-3619
just	-3620
kers	-3621
lied	-3622
lled	-3623
real	-3624
roat	-3625
ship	-3626
some	-3627
ster	-3628
sure	-3629
this	-3630
utch	-3631
vant	-3632
well	-3633
▁200	-3634
▁App	-3635
▁DNA	-3636
▁Fri	-3637
▁Ham	-3638
▁Ire	-3639
▁Rep	-3640
▁ang	-3641
▁bed	-3642
▁bro	-3643
▁cig	-3644
▁cuz	-3645
▁ear	-3646
▁met	-3647
▁mix	-3648
▁nob	-3649
▁obs	-3650
▁saf	-3651
▁sau	-3652
▁sem	-3653
▁tre	-3654
0,000	-3655
achos	-3656
ankly	-3657
asion	-3658
board	-3659
estin	-3660
ients	-3661
imacy	-3662
iment	-3663
lient	-3664
maybe	-3665
odies	-3666
power	-3667
stood	-3668
urely	-3669
urity	-3670
while	-3671
▁Crim	-3672
▁From	-3673
▁King	-3674
▁Lion	-3675
▁Luck	-3676
▁Mich	-3677
▁Over	-3678
▁adul	-3679
▁ages	-3680
▁chem	-3681
▁curi	-3682
▁debt	-3683
▁drop	-3684
▁feet	-3685
▁fuel	-3686
▁gang	-3687
▁gays	-3688
▁hang	-3689
▁hell	-3690
▁hire	-3691
▁join	-3692
▁kick	-3693
▁late	-3694
▁link	-3695
▁mere	-3696
▁nood	-3697
▁peop	-3698
▁pick	-3699
▁pier	-3700
▁rise	-3701
▁sals	-3702
▁shop	-3703
▁star	-3704
▁wars	-3705
▁whom	-3706
Second	-3707
arrass	-3708
ateful	-3709
cience	-3710
ellect	-3711
erhaps	-3712
ground	-3713
idents	-3714
illing	-3715
ogical	-3716
omever	-3717
ternet	-3718
urally	-3719
▁Afric	-3720
▁Being	-3721
▁Bible	-3722
▁Defin	-3723
▁Dutch	-3724
▁Earth	-3725
▁Human	-3726
▁Obama	-3727
▁Their	-3728
▁Watch	-3729
▁Water	-3730
▁aside	-3731
▁autom	-3732
▁bread	-3733
▁cares	-3734
▁clerk	-3735
▁costs	-3736
▁empty	-3737
▁false	-3738
▁forms	-3739
▁girls	-3740
▁goals	-3741
▁grown	-3742
▁ideas	-3743
▁impos	-3744
▁indep	-3745
▁liked	-3746
▁marry	-3747
▁meals	-3748
▁motto	-3749
▁moved	-3750
▁oppos	-3751
▁parts	-3752
▁party	-3753
▁pizza	-3754
▁prime	-3755
▁salad	-3756
▁scene	-3757
▁sport	-3758
▁steps	-3759
▁strug	-3760
▁tempt	-3761
▁terms	-3762
▁total	-3763
▁tough	-3764
▁traff	-3765
▁uneth	-3766
▁wheel	-3767
▁youth	-3768
cellent	-3769
veryone	-3770
▁Friday	-3771
▁George	-3772
▁Israel	-3773
▁Russia	-3774
▁Scient	-3775
▁Second	-3776
▁Should	-3777
▁abused	-3778
▁advert	-3779
▁appear	-3780
▁bigger	-3781
▁bottle	-3782
▁breaks	-3783
▁bullsh	-3784
▁career	-3785
▁credit	-3786
▁define	-3787
▁denied	-3788
▁depend	-3789
▁failed	-3790
▁grades	-3791
▁habits	-3792
▁higher	-3793
▁intent	-3794
▁judges	-3795
▁nearly	-3796
▁needed	-3797
▁origin	-3798
▁pissed	-3799
▁retain	-3800
▁source	-3801
▁specif	-3802
▁starts	-3803
▁stress	-3804
▁tenant	-3805
▁thinks	-3806
▁unborn	-3807
▁underm	-3808
▁waiter	-3809
▁weight	-3810
▁worked	-3811
inations	-3812
▁Chinese	-3813
▁Further	-3814
▁Ireland	-3815
▁Muslims	-3816
▁Youtube	-3817
▁absence	-3818
▁aspects	-3819
▁balance	-3820
▁calling	-3821
▁charges	-3822
▁complic	-3823
▁concent	-3824
▁consent	-3825
▁counter	-3826
▁creator	-3827
▁display	-3828
▁granted	-3829
▁grounds	-3830
▁hearing	-3831
▁helpful	-3832
▁justify	-3833
▁leading	-3834
▁medical	-3835
▁mothers	-3836
▁neurons	-3837
▁noodles	-3838
▁noticed	-3839
▁officer	-3840
▁partner	-3841
▁portion	-3842
▁primary	-3843
▁produce	-3844
▁promote	-3845
▁quickly	-3846
▁request	-3847
▁showing	-3848
▁smaller	-3849
▁telling	-3850
▁totally	-3851
▁variety	-3852
▁waiting	-3853
▁wanting	-3854
▁workers	-3855
ification	-3856
itionally	-3857
▁Actually	-3858
▁Republic	-3859
▁Unfortun	-3860
▁american	-3861
▁anywhere	-3862
▁approach	-3863
▁baseball	-3864
▁birthday	-3865
▁commited	-3866
▁convince	-3867
▁creating	-3868
▁cultural	-3869
▁delivery	-3870
▁dramatic	-3871
▁entirely	-3872
▁multiple	-3873
▁politics	-3874
▁punished	-3875
▁reaction	-3876
▁relation	-3877
▁separate	-3878
▁socially	-3879
▁spending	-3880
▁unfortun	-3881
▁agreement	-3882
▁beginning	-3883
▁container	-3884
▁convicted	-3885
▁convinced	-3886
▁correctly	-3887
▁encourage	-3888
▁excellent	-3889
▁intellect	-3890
▁lifestyle	-3891
▁naturally	-3892
▁obviously	-3893
▁perfectly	-3894
▁sentenced	-3895
▁suffering	-3896
▁thousands	-3897
▁transport	-3898
▁typically	-3899
▁unethical	-3900
▁wondering	-3901
▁beneficial	-3902
▁casualties	-3903
▁conscience	-3904
▁historical	-3905
▁impossible	-3906
▁management	-3907
▁supporting	-3908
▁technology	-3909
▁throughout	-3910
▁appropriate	-3911
▁comfortable	-3912
▁effectively	-3913
▁performance	-3914
▁possibility	-3915
▁prohibition	-3916
▁reservation	-3917
▁conservatives	-3918
▁entertainment	-3919
▁discrimination	-3920
________________	-3921
ples	-3922
rodu	-3923
▁cup	-3924
▁abst	-3925
▁band	-3926
▁copy	-3927
enders	-3928
▁bound	-3929
▁third	-3930
▁bought	-3931
▁damage	-3932
▁pocket	-3933
ological	-3934
▁awesome	-3935
▁disgust	-3936
▁matters	-3937
▁percept	-3938
▁petition	-3939
▁practice	-3940
▁following	-3941
▁universal	-3942
▁characters	-3943
▁institution	-3944
',	-3945
7.	-3946
?)	-3947
Fo	-3948
IG	-3949
LD	-3950
LE	-3951
No	-3952
UR	-3953
UT	-3954
ax	-3955
bl	-3956
da	-3957
eg	-3958
ek	-3959
gi	-3960
gt	-3961
mo	-3962
ov	-3963
rs	-3964
sy	-3965
▁)	-3966
▁;	-3967
:1.	-3968
Don	-3969
HER	-3970
ICE	-3971
Let	-3972
Now	-3973
aci	-3974
ald	-3975
ann	-3976
arc	-3977
bon	-3978
ctr	-3979
dem	-3980
eem	-3981
een	-3982
gen	-3983
gor	-3984
imb	-3985
ina	-3986
inc	-3987
ipt	-3988
irt	-3989
isp	-3990
ita	-3991
ium	-3992
kay	-3993
law	-3994
nat	-3995
obb	-3996
oca	-3997
oen	-3998
ohn	-3999
oin	-4000
ond	-4001
oon	-4002
put	-4003
reg	-4004
riz	-4005
str	-4006
tar	-4007
udd	-4008
unt	-4009
val	-4010
was	-4011
why	-4012
▁1)	-4013
▁1/	-4014
▁80	-4015
▁Fl	-4016
▁IN	-4017
▁Ma	-4018
▁NE	-4019
▁OK	-4020
▁PC	-4021
▁Pl	-4022
▁SH	-4023
▁Tr	-4024
▁Us	-4025
▁bi	-4026
▁iP	-4027
"...	-4028
1000	-4029
With	-4030
acca	-4031
ague	-4032
aked	-4033
anas	-4034
anda	-4035
anth	-4036
appy	-4037
ccer	-4038
cers	-4039
cies	-4040
eren	-4041
erve	-4042
exic	-4043
gant	-4044
http	-4045
ials	-4046
icip	-4047
idel	-4048
iers	-4049
iest	-4050
ivil	-4051
know	-4052
lier	-4053
mbol	-4054
oday	-4055
olly	-4056
ooks	-4057
oooo	-4058
ores	-4059
osen	-4060
part	-4061
rive	-4062
tery	-4063
wear	-4064
when	-4065
with	-4066
zero	-4067
▁Abs	-4068
▁Add	-4069
▁Dep	-4070
▁Gay	-4071
▁Hit	-4072
▁IRA	-4073
▁Jud	-4074
▁New	-4075
▁Nor	-4076
▁Pal	-4077
▁Pil	-4078
▁Rem	-4079
▁Sup	-4080
▁YOU	-4081
▁beg	-4082
▁bow	-4083
▁cam	-4084
▁ded	-4085
▁enh	-4086
▁fol	-4087
▁gaz	-4088
▁idi	-4089
▁key	-4090
▁loc	-4091
▁ped	-4092
▁pie	-4093
▁pup	-4094
▁sac	-4095
▁scr	-4096
▁swe	-4097
▁unc	-4098
▁upd	-4099
▁web	-4100
▁yog	-4101
!!!!!	-4102
adict	-4103
alled	-4104
anted	-4105
arden	-4106
aries	-4107
ashed	-4108
asure	-4109
athol	-4110
cking	-4111
cture	-4112
erate	-4113
erous	-4114
iable	-4115
ified	-4116
inter	-4117
itute	-4118
lines	-4119
olice	-4120
onder	-4121
onent	-4122
onest	-4123
there	-4124
thood	-4125
ufact	-4126
uting	-4127
woman	-4128
women	-4129
▁Aust	-4130
▁Beef	-4131
▁Comm	-4132
▁Comp	-4133
▁Cons	-4134
▁Cuba	-4135
▁East	-4136
▁Face	-4137
▁Food	-4138
▁John	-4139
▁Make	-4140
▁More	-4141
▁Pray	-4142
▁Pres	-4143
▁Reds	-4144
▁Very	-4145
▁Yeah	-4146
▁adam	-4147
▁anti	-4148
▁arch	-4149
▁bars	-4150
▁beat	-4151
▁bele	-4152
▁blow	-4153
▁bush	-4154
▁calm	-4155
▁clot	-4156
▁dark	-4157
▁degr	-4158
▁died	-4159
▁flaw	-4160
▁fort	-4161
▁fulf	-4162
▁gift	-4163
▁guns	-4164
▁hung	-4165
▁intr	-4166
▁jazz	-4167
▁lady	-4168
▁lies	-4169
▁lust	-4170
▁meet	-4171
▁okay	-4172
▁onto	-4173
▁outs	-4174
▁plat	-4175
▁poll	-4176
▁pool	-4177
▁pros	-4178
▁repe	-4179
▁roll	-4180
▁slap	-4181
▁soda	-4182
▁sole	-4183
▁spir	-4184
▁ster	-4185
▁stim	-4186
▁summ	-4187
▁susp	-4188
▁text	-4189
▁tons	-4190
▁tool	-4191
▁unne	-4192
▁user	-4193
▁vent	-4194
▁wind	-4195
▁womb	-4196
......	-4197
Please	-4198
aganda	-4199
employ	-4200
estern	-4201
friend	-4202
gender	-4203
gorith	-4204
hesive	-4205
iolent	-4206
ishing	-4207
manent	-4208
orrect	-4209
preted	-4210
ptions	-4211
ressed	-4212
rizona	-4213
ternal	-4214
theism	-4215
ulting	-4216
utions	-4217
vision	-4218
▁Black	-4219
▁Canad	-4220
▁Count	-4221
▁Elvis	-4222
▁Liber	-4223
▁Mario	-4224
▁Mexic	-4225
▁State	-4226
▁Thank	-4227
▁Which	-4228
▁World	-4229
▁attit	-4230
▁breat	-4231
▁candy	-4232
▁catch	-4233
▁chain	-4234
▁chips	-4235
▁curvy	-4236
▁ended	-4237
▁faith	-4238
▁fully	-4239
▁guilt	-4240
▁heavy	-4241
▁insan	-4242
▁kills	-4243
▁kinda	-4244
▁lines	-4245
▁loads	-4246
▁minds	-4247
▁mouth	-4248
▁moves	-4249
▁naked	-4250
▁needy	-4251
▁occup	-4252
▁patio	-4253
▁pursu	-4254
▁ready	-4255
▁relie	-4256
▁round	-4257
▁ruled	-4258
▁rules	-4259
▁safer	-4260
▁salsa	-4261
▁shown	-4262
▁signs	-4263
▁sorry	-4264
▁stars	-4265
▁stick	-4266
▁taste	-4267
▁tests	-4268
▁theft	-4269
▁trial	-4270
▁vital	-4271
▁weren	-4272
▁whose	-4273
▁yours	-4274
cessary	-4275
hington	-4276
iveness	-4277
natural	-4278
ography	-4279
ountain	-4280
ressive	-4281
▁Church	-4282
▁Having	-4283
▁Nobody	-4284
▁Really	-4285
▁Unless	-4286
▁altern	-4287
▁appeal	-4288
▁barely	-4289
▁bodies	-4290
▁brains	-4291
▁buying	-4292
▁chosen	-4293
▁client	-4294
▁cooked	-4295
▁county	-4296
▁cowork	-4297
▁democr	-4298
▁downlo	-4299
▁encoun	-4300
▁energy	-4301
▁estate	-4302
▁ethnic	-4303
▁explan	-4304
▁facing	-4305
▁factor	-4306
▁fairly	-4307
▁ground	-4308
▁hardly	-4309
▁implic	-4310
▁island	-4311
▁lesson	-4312
▁letter	-4313
▁mainly	-4314
▁manner	-4315
▁mature	-4316
▁memory	-4317
▁moving	-4318
▁nachos	-4319
▁offers	-4320
▁owners	-4321
▁perpet	-4322
▁phones	-4323
▁poorly	-4324
▁profit	-4325
▁pupils	-4326
▁reform	-4327
▁reward	-4328
▁safety	-4329
▁season	-4330
▁seemed	-4331
▁signed	-4332
▁strict	-4333
▁symbol	-4334
▁target	-4335
▁taxpay	-4336
▁turned	-4337
▁unique	-4338
▁voting	-4339
gendered	-4340
irmative	-4341
redients	-4342
vernment	-4343
▁Another	-4344
▁Austral	-4345
▁Besides	-4346
▁Bottled	-4347
▁Instead	-4348
▁Malacca	-4349
▁Parents	-4350
▁Supreme	-4351
▁Whether	-4352
▁atheism	-4353
▁atheist	-4354
▁choices	-4355
▁citizen	-4356
▁corrupt	-4357
▁custody	-4358
▁debates	-4359
▁deserve	-4360
▁despite	-4361
▁dishwas	-4362
▁dispute	-4363
▁expense	-4364
▁firefox	-4365
▁greater	-4366
▁greatly	-4367
▁highest	-4368
▁holding	-4369
▁implies	-4370
▁improve	-4371
▁involve	-4372
▁lacking	-4373
▁largest	-4374
▁lawsuit	-4375
▁methods	-4376
▁murders	-4377
▁objects	-4378
▁outcome	-4379
▁overall	-4380
▁patriot	-4381
▁pattern	-4382
▁peoples	-4383
▁players	-4384
▁prepare	-4385
▁profess	-4386
▁receipt	-4387
▁replace	-4388
▁reviews	-4389
▁somehow	-4390
▁staying	-4391
▁suppose	-4392
▁trading	-4393
▁traffic	-4394
▁turning	-4395
▁walking	-4396
▁wasting	-4397
▁worried	-4398
▁Internet	-4399
▁accepted	-4400
▁administ	-4401
▁believed	-4402
▁bringing	-4403
▁chemical	-4404
▁cohesive	-4405
▁consumer	-4406
▁creative	-4407
▁customer	-4408
▁deserves	-4409
▁emotions	-4410
▁employer	-4411
▁farquhar	-4412
▁favorite	-4413
▁ignorant	-4414
▁independ	-4415
▁informed	-4416
▁internal	-4417
▁location	-4418
▁manufact	-4419
▁minister	-4420
▁movement	-4421
▁prepared	-4422
▁progress	-4423
▁released	-4424
▁response	-4425
▁severely	-4426
▁shooting	-4427
▁signific	-4428
▁somewhat	-4429
▁standing	-4430
▁stranger	-4431
▁surround	-4432
▁whomever	-4433
▁President	-4434
▁Something	-4435
▁Therefore	-4436
▁abortions	-4437
▁accidents	-4438
▁advantage	-4439
▁beautiful	-4440
▁celebrity	-4441
▁condemned	-4442
▁construct	-4443
▁continued	-4444
▁corporate	-4445
▁determine	-4446
▁dictators	-4447
▁efficient	-4448
▁embarrass	-4449
▁happiness	-4450
▁involving	-4451
▁judgement	-4452
▁presented	-4453
▁realistic	-4454
▁socialism	-4455
▁terrorist	-4456
▁treatment	-4457
▁California	-4458
▁Christians	-4459
▁activities	-4460
▁appreciate	-4461
▁background	-4462
▁conception	-4463
▁conclusion	-4464
▁contradict	-4465
▁definately	-4466
▁depression	-4467
▁discovered	-4468
▁everywhere	-4469
▁graduation	-4470
▁incredible	-4471
▁interested	-4472
▁relatively	-4473
▁revolution	-4474
▁temptation	-4475
▁understood	-4476
▁university	-4477
▁alternative	-4478
▁application	-4479
▁differences	-4480
▁emotionally	-4481
▁opportunity	-4482
▁unnecessary	-4483
▁neighborhood	-4484
▁particularly	-4485
▁professional	-4486
▁prostitution	-4487
▁Unfortunately	-4488
▁transgendered	-4489
▁administration	-4490
bed	-4491
ager	-4492
▁net	-4493
▁odd	-4494
rency	-4495
▁data	-4496
▁five	-4497
▁gold	-4498
▁load	-4499
▁rock	-4500
▁stem	-4501
▁blame	-4502
▁block	-4503
▁emerg	-4504
▁miles	-4505
▁staff	-4506
ericans	-4507
▁engine	-4508
▁latest	-4509
▁region	-4510
▁unfair	-4511
▁arguing	-4512
▁offense	-4513
▁parties	-4514
▁wealthy	-4515
▁addition	-4516
▁audience	-4517
▁conflict	-4518
▁currency	-4519
▁exciting	-4520
▁purchase	-4521
▁believing	-4522
▁competent	-4523
▁documents	-4524
▁economics	-4525
▁emergency	-4526
▁marriages	-4527
▁teenagers	-4528
▁conviction	-4529
▁disgusting	-4530
▁permission	-4531
▁recognized	-4532
▁competition	-4533
▁creationism	-4534
▁necessarily	-4535
▁construction	-4536
▁homosexuality	-4537
!"	-4538
,,	-4539
1)	-4540
3'	-4541
47	-4542
5.	-4543
6,	-4544
?!	-4545
AS	-4546
CH	-4547
Do	-4548
Em	-4549
HA	-4550
IF	-4551
MM	-4552
OP	-4553
Or	-4554
Re	-4555
TI	-4556
TV	-4557
UN	-4558
VE	-4559
aj	-4560
cr	-4561
dr	-4562
kg	-4563
lm	-4564
me	-4565
ms	-4566
oT	-4567
pa	-4568
pm	-4569
ps	-4570
rd	-4571
xx	-4572
zz	-4573
-20	-4574
.1.	-4575
.2)	-4576
.3)	-4577
.4.	-4578
ESS	-4579
IDS	-4580
IGH	-4581
Yet	-4582
ael	-4583
aes	-4584
asc	-4585
aud	-4586
ays	-4587
bac	-4588
ban	-4589
cer	-4590
def	-4591
des	-4592
edy	-4593
eep	-4594
enc	-4595
enn	-4596
equ	-4597
fee	-4598
hed	-4599
hem	-4600
icy	-4601
ien	-4602
iny	-4603
jud	-4604
mar	-4605
mor	-4606
nel	-4607
omy	-4608
owd	-4609
poc	-4610
pre	-4611
rav	-4612
rel	-4613
rib	-4614
rif	-4615
top	-4616
uel	-4617
ulk	-4618
vey	-4619
who	-4620
▁!!	-4621
▁1.	-4622
▁11	-4623
▁12	-4624
▁2.	-4625
▁25	-4626
▁28	-4627
▁3.	-4628
▁60	-4629
▁90	-4630
▁AI	-4631
▁AR	-4632
▁DO	-4633
▁DU	-4634
▁De	-4635
▁En	-4636
▁Le	-4637
▁WH	-4638
▁gi	-4639
▁mp	-4640
Also	-4641
Cain	-4642
Most	-4643
Some	-4644
That	-4645
aign	-4646
aism	-4647
alys	-4648
anna	-4649
bell	-4650
char	-4651
cons	-4652
crim	-4653
duct	-4654
eaks	-4655
emic	-4656
ffee	-4657
good	-4658
helm	-4659
icer	-4660
idal	-4661
ilet	-4662
illa	-4663
imal	-4664
irty	-4665
isis	-4666
isms	-4667
laws	-4668
lord	-4669
lter	-4670
mony	-4671
oken	-4672
olen	-4673
oles	-4674
omed	-4675
onna	-4676
oral	-4677
ored	-4678
orer	-4679
outs	-4680
pass	-4681
plom	-4682
rape	-4683
rete	-4684
rong	-4685
room	-4686
then	-4687
ugby	-4688
urse	-4689
vide	-4690
zing	-4691
▁199	-4692
▁201	-4693
▁ALL	-4694
▁ANY	-4695
▁Acc	-4696
▁Adv	-4697
▁BUT	-4698
▁Bet	-4699
▁Bri	-4700
▁Col	-4701
▁Com	-4702
▁Dis	-4703
▁Get	-4704
▁Gov	-4705
▁Had	-4706
▁Her	-4707
▁Ill	-4708
▁Jew	-4709
▁LOL	-4710
▁Min	-4711
▁Naz	-4712
▁OoT	-4713
▁PRO	-4714
▁Put	-4715
▁Ser	-4716
▁Sub	-4717
▁THE	-4718
▁Wal	-4719
▁Was	-4720
▁Wow	-4721
▁ali	-4722
▁egg	-4723
▁fee	-4724
▁gam	-4725
▁gri	-4726
▁jer	-4727
▁jur	-4728
▁lay	-4729
▁lob	-4730
▁mut	-4731
▁nut	-4732
▁quo	-4733
▁rad	-4734
▁sen	-4735
▁sil	-4736
▁sle	-4737
▁spl	-4738
▁sun	-4739
▁sup	-4740
▁tab	-4741
▁unh	-4742
▁uns	-4743
▁vac	-4744
▁ver	-4745
First	-4746
Point	-4747
While	-4748
abase	-4749
aches	-4750
adies	-4751
aesar	-4752
agree	-4753
allen	-4754
anced	-4755
apers	-4756
arett	-4757
aters	-4758
bacco	-4759
bring	-4760
cings	-4761
ctics	-4762
eding	-4763
erial	-4764
gment	-4765
icism	-4766
icles	-4767
ifics	-4768
ipped	-4769
ishes	-4770
ising	-4771
itals	-4772
ively	-4773
lying	-4774
mpath	-4775
olars	-4776
olute	-4777
onely	-4778
oogle	-4779
osity	-4780
ossil	-4781
ously	-4782
owers	-4783
point	-4784
pping	-4785
pring	-4786
raits	-4787
retty	-4788
rived	-4789
ronic	-4790
rough	-4791
think	-4792
uable	-4793
urder	-4794
using	-4795
water	-4796
white	-4797
▁AIDS	-4798
▁Base	-4799
▁Bill	-4800
▁EVER	-4801
▁Expl	-4802
▁Have	-4803
▁Hulk	-4804
▁Iran	-4805
▁Love	-4806
▁Ohio	-4807
▁Okay	-4808
▁Once	-4809
▁Only	-4810
▁Read	-4811
▁Sadd	-4812
▁Stud	-4813
▁Sure	-4814
▁Thai	-4815
▁abol	-4816
▁acid	-4817
▁army	-4818
▁bast	-4819
▁bear	-4820
▁boys	-4821
▁brut	-4822
▁cart	-4823
▁cash	-4824
▁code	-4825
▁crit	-4826
▁cuts	-4827
▁deem	-4828
▁dies	-4829
▁duty	-4830
▁elim	-4831
▁enem	-4832
▁fees	-4833
▁fell	-4834
▁file	-4835
▁fing	-4836
▁fish	-4837
▁fool	-4838
▁four	-4839
▁garn	-4840
▁gaza	-4841
▁grav	-4842
▁hars	-4843
▁hobb	-4844
▁holy	-4845
▁insp	-4846
▁item	-4847
▁junk	-4848
▁jury	-4849
▁king	-4850
▁loan	-4851
▁ours	-4852
▁path	-4853
▁pays	-4854
▁port	-4855
▁pray	-4856
▁prem	-4857
▁prey	-4858
▁puts	-4859
▁quit	-4860
▁ramp	-4861
▁rare	-4862
▁reck	-4863
▁room	-4864
▁rude	-4865
▁shot	-4866
▁shut	-4867
▁sist	-4868
▁size	-4869
▁skin	-4870
▁spot	-4871
▁stra	-4872
▁tatt	-4873
▁tens	-4874
▁ther	-4875
▁tips	-4876
▁trau	-4877
▁vary	-4878
▁vast	-4879
▁weap	-4880
▁winn	-4881
Employ	-4882
alysis	-4883
anasia	-4884
atures	-4885
eaning	-4886
erally	-4887
esting	-4888
icious	-4889
inally	-4890
ington	-4891
itable	-4892
orship	-4893
pecial	-4894
porary	-4895
priced	-4896
riment	-4897
school	-4898
terror	-4899
washed	-4900
▁Again	-4901
▁Apple	-4902
▁Hamas	-4903
▁Order	-4904
▁Polit	-4905
▁Rugby	-4906
▁Scott	-4907
▁South	-4908
▁Think	-4909
▁Today	-4910
▁Women	-4911
▁accur	-4912
▁ahead	-4913
▁anger	-4914
▁armed	-4915
▁awful	-4916
▁categ	-4917
▁crowd	-4918
▁decor	-4919
▁demon	-4920
▁films	-4921
▁flash	-4922
▁folks	-4923
▁genre	-4924
▁gonna	-4925
▁goods	-4926
▁holds	-4927
▁ideal	-4928
▁idiot	-4929
▁inequ	-4930
▁kinds	-4931
▁lands	-4932
▁leads	-4933
▁legit	-4934
▁limit	-4935
▁loves	-4936
▁metal	-4937
▁named	-4938
▁names	-4939
▁plain	-4940
▁plays	-4941
▁react	-4942
▁reimb	-4943
▁sauce	-4944
▁scare	-4945
▁shape	-4946
▁shoes	-4947
▁sites	-4948
▁style	-4949
▁tacos	-4950
▁tasty	-4951
▁thank	-4952
▁trail	-4953
▁trick	-4954
▁trump	-4955
▁turns	-4956
▁twice	-4957
▁users	-4958
▁valid	-4959
▁wanna	-4960
▁wings	-4961
Besides	-4962
because	-4963
bottled	-4964
ibility	-4965
jection	-4966
ocratic	-4967
pective	-4968
respect	-4969
▁Before	-4970
▁Cathol	-4971
▁County	-4972
▁Econom	-4973
▁Hitler	-4974
▁Honest	-4975
▁Pilate	-4976
▁Soccer	-4977
▁Twitch	-4978
▁actors	-4979
▁advice	-4980
▁attack	-4981
▁begins	-4982
▁behalf	-4983
▁beings	-4984
▁breath	-4985
▁burden	-4986
▁burned	-4987
▁carbon	-4988
▁caring	-4989
▁checks	-4990
▁christ	-4991
▁cities	-4992
▁closed	-4993
▁coffee	-4994
▁colour	-4995
▁combat	-4996
▁compar	-4997
▁criter	-4998
▁deaths	-4999
▁desire	-5000
▁diplom	-5001
▁doctor	-5002
▁doesnt	-5003
▁domain	-5004
▁ending	-5005
▁ensure	-5006
▁events	-5007
▁fights	-5008
▁flavor	-5009
▁flawed	-5010
▁forces	-5011
▁forgot	-5012
▁fortun	-5013
▁fossil	-5014
▁gather	-5015
▁hearts	-5016
▁ideals	-5017
▁incomp	-5018
▁insane	-5019
▁inside	-5020
▁invent	-5021
▁liable	-5022
▁lonely	-5023
▁losing	-5024
▁manage	-5025
▁morals	-5026
▁muslim	-5027
▁neighb	-5028
▁obtain	-5029
▁online	-5030
▁passen	-5031
▁pieces	-5032
▁points	-5033
▁ponder	-5034
▁posted	-5035
▁potato	-5036
▁princi	-5037
▁proced	-5038
▁rating	-5039
▁router	-5040
▁rubber	-5041
▁smoker	-5042
▁solved	-5043
▁spirit	-5044
▁stance	-5045
▁stolen	-5046
▁struct	-5047
▁supply	-5048
▁surely	-5049
▁surger	-5050
▁tasted	-5051
▁toward	-5052
▁wholly	-5053
▁window	-5054
▁yogurt	-5055
Although	-5056
Everyone	-5057
Football	-5058
olarship	-5059
standing	-5060
▁African	-5061
▁Indians	-5062
▁Judaism	-5063
▁Michael	-5064
▁Perhaps	-5065
▁Science	-5066
▁Special	-5067
▁Straits	-5068
▁accomod	-5069
▁applied	-5070
▁attacks	-5071
▁cheaper	-5072
▁collect	-5073
▁concern	-5074
▁conduct	-5075
▁consult	-5076
▁context	-5077
▁earlier	-5078
▁engaged	-5079
▁enjoyed	-5080
▁evening	-5081
▁evolved	-5082
▁failure	-5083
▁finding	-5084
▁funding	-5085
▁hobbies	-5086
▁injured	-5087
▁insured	-5088
▁machine	-5089
▁mustard	-5090
▁numbers	-5091
▁possess	-5092
▁predict	-5093
▁privacy	-5094
▁privile	-5095
▁proceed	-5096
▁program	-5097
▁rampant	-5098
▁remains	-5099
▁repairs	-5100
▁revenue	-5101
▁scratch	-5102
▁sisters	-5103
▁skilled	-5104
▁steroid	-5105
▁stories	-5106
▁sympath	-5107
▁tactics	-5108
▁theater	-5109
▁tobacco	-5110
▁typical	-5111
▁unhappy	-5112
▁western	-5113
▁whereas	-5114
estinians	-5115
uthanasia	-5116
▁Baseball	-5117
▁Explorer	-5118
▁Facebook	-5119
▁National	-5120
▁Religion	-5121
▁Remember	-5122
▁absolute	-5123
▁annoying	-5124
▁answered	-5125
▁atheists	-5126
▁billions	-5127
▁campaign	-5128
▁ceremony	-5129
▁cigarett	-5130
▁clothing	-5131
▁comments	-5132
▁complete	-5133
▁concrete	-5134
▁constant	-5135
▁controll	-5136
▁database	-5137
▁distinct	-5138
▁election	-5139
▁everyday	-5140
▁external	-5141
▁familiar	-5142
▁grateful	-5143
▁hardware	-5144
▁hospital	-5145
▁includes	-5146
▁industry	-5147
▁insanity	-5148
▁intimacy	-5149
▁landlord	-5150
▁liberals	-5151
▁mentally	-5152
▁nobility	-5153
▁occasion	-5154
▁patterns	-5155
▁portions	-5156
▁projects	-5157
▁promotes	-5158
▁pursuing	-5159
▁receipts	-5160
▁received	-5161
▁remained	-5162
▁soldiers	-5163
▁strongly	-5164
▁struggle	-5165
▁studying	-5166
▁supports	-5167
▁unemploy	-5168
▁unwanted	-5169
especially	-5170
▁According	-5171
▁Australia	-5172
▁Everybody	-5173
▁Evolution	-5174
▁accepting	-5175
▁advertise	-5176
▁apartment	-5177
▁attempted	-5178
▁attentive	-5179
▁boyfriend	-5180
▁celebrate	-5181
▁childhood	-5182
▁connected	-5183
▁continues	-5184
▁copyright	-5185
▁degrading	-5186
▁detriment	-5187
▁diabetics	-5188
▁distribut	-5189
▁encounter	-5190
▁enhancing	-5191
▁enjoyable	-5192
▁extension	-5193
▁fantastic	-5194
▁governing	-5195
▁hospitals	-5196
▁immigrant	-5197
▁increases	-5198
▁installed	-5199
▁legalized	-5200
▁listening	-5201
▁motivated	-5202
▁offensive	-5203
▁permanent	-5204
▁piercings	-5205
▁pregnancy	-5206
▁producers	-5207
▁providing	-5208
▁provision	-5209
▁reimburse	-5210
▁seemingly	-5211
▁singapore	-5212
▁suggested	-5213
▁temporary	-5214
▁Absolutely	-5215
▁Definitely	-5216
▁Everything	-5217
▁Government	-5218
▁Washington	-5219
▁Wellington	-5220
▁acceptance	-5221
▁additional	-5222
▁aggression	-5223
▁appearance	-5224
▁attempting	-5225
▁attractive	-5226
▁confidence	-5227
▁connection	-5228
▁constantly	-5229
▁department	-5230
▁discussion	-5231
▁disrespect	-5232
▁documented	-5233
▁encouraged	-5234
▁extensions	-5235
▁honorifics	-5236
▁liberalism	-5237
▁occupation	-5238
▁overpriced	-5239
▁propaganda	-5240
▁scientists	-5241
▁vaccinated	-5242
▁visitation	-5243
▁Furthermore	-5244
▁assumptions	-5245
▁brainwashed	-5246
▁communities	-5247
▁concentrate	-5248
▁dishwashers	-5249
▁explanation	-5250
▁governments	-5251
▁ingredients	-5252
▁integration	-5253
▁perspective	-5254
▁pornography	-5255
▁potentially	-5256
▁practically	-5257
▁restaurants	-5258
▁scholarship	-5259
▁Constitution	-5260
▁intellectual	-5261
▁specifically	-5262
▁communication	-5263
▁contributions	-5264
▁fundamentally	-5265
▁individuality	-5266
▁representation	-5267
▁transportation	-5268
................	-5269
pir	-5270
▁ed	-5271
prot	-5272
▁aid	-5273
▁gov	-5274
▁ice	-5275
arify	-5276
bsite	-5277
▁batt	-5278
▁door	-5279
▁fans	-5280
▁jerk	-5281
▁skip	-5282
▁taco	-5283
inding	-5284
oughly	-5285
▁bever	-5286
▁bully	-5287
▁corru	-5288
▁fruit	-5289
▁steak	-5290
protect	-5291
▁filled	-5292
▁leader	-5293
▁minded	-5294
▁unable	-5295
▁bombers	-5296
▁clarify	-5297
▁doctors	-5298
▁limited	-5299
▁version	-5300
▁website	-5301
▁abstract	-5302
▁optional	-5303
▁presence	-5304
▁scenario	-5305
▁beverages	-5306
▁civilians	-5307
▁commission	-5308
▁corruption	-5309
▁meaningful	-5310
▁statements	-5311
▁conservative	-5312
▁imprisonment	-5313
-7	-5314
.,	-5315
1/	-5316
2,	-5317
30	-5318
4.	-5319
BA	-5320
BT	-5321
By	-5322
DH	-5323
DP	-5324
EA	-5325
Gs	-5326
HS	-5327
IL	-5328
Is	-5329
OD	-5330
PE	-5331
Sh	-5332
UK	-5333
gl	-5334
ns	-5335
yn	-5336
▁?	-5337
▁z	-5338
-11	-5339
.50	-5340
/11	-5341
AYS	-5342
Are	-5343
Bay	-5344
Bec	-5345
Col	-5346
DHD	-5347
ERE	-5348
GEN	-5349
God	-5350
Hey	-5351
ION	-5352
ONE	-5353
OOD	-5354
OOL	-5355
ORM	-5356
OUN	-5357
PGs	-5358
Pro	-5359
ROT	-5360
VIL	-5361
alu	-5362
ata	-5363
bal	-5364
bri	-5365
can	-5366
cap	-5367
cre	-5368
dom	-5369
dra	-5370
esb	-5371
etc	-5372
eve	-5373
gar	-5374
gay	-5375
gia	-5376
ias	-5377
ibl	-5378
ios	-5379
lel	-5380
mat	-5381
mit	-5382
ogy	-5383
oir	-5384
ois	-5385
oom	-5386
oop	-5387
org	-5388
pan	-5389
ray	-5390
roc	-5391
rup	-5392
sel	-5393
set	-5394
sex	-5395
sum	-5396
win	-5397
wor	-5398
▁14	-5399
3.	-5400
alk	-5401
fam	-5402
oli	-5403
▁17	-5404
▁35	-5405
▁75	-5406
▁AK	-5407
▁Cr	-5408
▁IT	-5409
▁Lo	-5410
▁OJ	-5411
▁SO	-5412
▁SP	-5413
▁Sm	-5414
▁Su	-5415
▁Uk	-5416
▁Up	-5417
▁cy	-5418
▁gy	-5419
▁hi	-5420
▁ug	-5421
▁ut	-5422
▁ya	-5423
)...	-5424
Even	-5425
OOOO	-5426
Once	-5427
Porn	-5428
STER	-5429
TIAL	-5430
Then	-5431
Tube	-5432
affe	-5433
akin	-5434
alls	-5435
anta	-5436
ares	-5437
arma	-5438
astr	-5439
atur	-5440
coin	-5441
ctly	-5442
ctob	-5443
ctor	-5444
cuss	-5445
dden	-5446
ding	-5447
dist	-5448
each	-5449
enda	-5450
epsi	-5451
esis	-5452
evil	-5453
fair	-5454
fted	-5455
girl	-5456
hold	-5457
hole	-5458
ibly	-5459
icro	-5460
ilst	-5461
ique	-5462
itor	-5463
keys	-5464
lets	-5465
leum	-5466
lime	-5467
lude	-5468
made	-5469
oded	-5470
oned	-5471
prof	-5472
quor	-5473
raid	-5474
rees	-5475
sely	-5476
stic	-5477
sued	-5478
uase	-5479
uits	-5480
ulin	-5481
unks	-5482
uros	-5483
vail	-5484
vate	-5485
vors	-5486
week	-5487
word	-5488
yers	-5489
▁1/2	-5490
▁18,	-5491
▁AND	-5492
▁Bur	-5493
▁CAN	-5494
▁CON	-5495
▁Cob	-5496
▁Cos	-5497
▁DUI	-5498
▁Dar	-5499
NO	-5500
Spe	-5501
hum	-5502
odi	-5503
see	-5504
▁Gl	-5505
▁MM	-5506
▁NY	-5507
▁oh	-5508
IGHT	-5509
Mart	-5510
Sure	-5511
aren	-5512
arts	-5513
bage	-5514
conf	-5515
even	-5516
ften	-5517
hist	-5518
indu	-5519
irlf	-5520
kept	-5521
pera	-5522
udes	-5523
ulum	-5524
unge	-5525
▁Aff	-5526
▁Are	-5527
▁Did	-5528
▁Exp	-5529
▁Fat	-5530
▁Fox	-5531
▁GDP	-5532
▁Has	-5533
▁Mat	-5534
▁Men	-5535
▁Mes	-5536
▁Mon	-5537
▁NAS	-5538
▁Nap	-5539
▁OUR	-5540
▁PMA	-5541
▁Pri	-5542
▁SCH	-5543
▁Tex	-5544
▁Two	-5545
▁WOR	-5546
▁WWI	-5547
▁Web	-5548
▁YES	-5549
▁Yet	-5550
▁amb	-5551
▁ars	-5552
▁bri	-5553
▁bud	-5554
▁ect	-5555
▁eye	-5556
▁gad	-5557
▁gal	-5558
▁gap	-5559
▁hes	-5560
▁hun	-5561
▁lbs	-5562
▁mad	-5563
▁mas	-5564
▁mid	-5565
▁mud	-5566
▁ner	-5567
▁nom	-5568
▁oce	-5569
▁oun	-5570
▁owe	-5571
▁pir	-5572
▁rib	-5573
▁rif	-5574
▁riv	-5575
▁rot	-5576
▁six	-5577
▁sor	-5578
▁tro	-5579
▁umb	-5580
▁vol	-5581
▁wet	-5582
▁wis	-5583
▁wow	-5584
Aside	-5585
GENTS	-5586
Where	-5587
after	-5588
allel	-5589
althy	-5590
ample	-5591
apted	-5592
arant	-5593
atred	-5594
bably	-5595
based	-5596
birth	-5597
blown	-5598
ching	-5599
TM	-5600
pop	-5601
▁OF	-5602
▁ow	-5603
arry	-5604
bish	-5605
gins	-5606
igan	-5607
obia	-5608
race	-5609
rise	-5610
supp	-5611
uish	-5612
▁Bit	-5613
▁Run	-5614
▁ads	-5615
▁dry	-5616
chair	-5617
ciety	-5618
claim	-5619
cracy	-5620
eanor	-5621
eeing	-5622
ensed	-5623
entic	-5624
etime	-5625
gally	-5626
group	-5627
heads	-5628
icial	-5629
icing	-5630
iency	-5631
iffer	-5632
iling	-5633
imony	-5634
inary	-5635
inent	-5636
ining	-5637
inois	-5638
inton	-5639
ippie	-5640
isons	-5641
itage	-5642
itate	-5643
itors	-5644
ivers	-5645
ivity	-5646
liers	-5647
oenix	-5648
oolen	-5649
ooses	-5650
orate	-5651
order	-5652
otomy	-5653
ource	-5654
ourse	-5655
prove	-5656
raine	-5657
rants	-5658
rific	-5659
riple	-5660
rives	-5661
ropic	-5662
sides	-5663
somet	-5664
tedly	-5665
thank	-5666
thern	-5667
under	-5668
uries	-5669
utral	-5670
versy	-5671
vince	-5672
wards	-5673
▁....	-5674
▁9/11	-5675
▁ADHD	-5676
▁Benc	-5677
▁City	-5678
▁Cont	-5679
▁Eden	-5680
▁Give	-5681
▁Hall	-5682
▁Keep	-5683
▁Kids	-5684
▁Kore	-5685
▁Kurt	-5686
▁Lord	-5687
▁Mill	-5688
▁Modi	-5689
▁Mont	-5690
▁Next	-5691
▁Nope	-5692
▁Part	-5693
▁Phys	-5694
▁Porn	-5695
▁Serv	-5696
▁Soft	-5697
▁Stop	-5698
▁Sund	-5699
▁Supp	-5700
▁Take	-5701
▁Tues	-5702
▁Went	-5703
▁York	-5704
▁abus	-5705
▁alle	-5706
▁asse	-5707
▁astr	-5708
▁bart	-5709
▁bath	-5710
▁biol	-5711
▁blah	-5712
▁bord	-5713
▁bout	-5714
▁bowl	-5715
▁bust	-5716
▁cast	-5717
▁chow	-5718
▁clos	-5719
▁coer	-5720
▁cogn	-5721
▁cook	-5722
▁core	-5723
▁curb	-5724
▁dads	-5725
▁deaf	-5726
▁decl	-5727
▁dick	-5728
▁diet	-5729
▁dude	-5730
▁eBay	-5731
▁ends	-5732
▁fake	-5733
▁favs	-5734
▁forb	-5735
▁grew	-5736
▁hack	-5737
▁hous	-5738
▁iPod	-5739
▁isnt	-5740
▁lapt	-5741
▁legs	-5742
▁lesb	-5743
▁loss	-5744
▁meas	-5745
▁olds	-5746
▁owed	-5747
▁pita	-5748
▁pose	-5749
▁pour	-5750
▁pred	-5751
▁pull	-5752
▁puzz	-5753
▁reli	-5754
▁rice	-5755
▁runs	-5756
▁rush	-5757
▁scum	-5758
▁sens	-5759
▁shif	-5760
▁shit	-5761
▁sire	-5762
▁slim	-5763
▁slip	-5764
▁soul	-5765
▁suck	-5766
▁suic	-5767
▁sush	-5768
▁sust	-5769
▁thin	-5770
▁thru	-5771
▁tree	-5772
▁ugly	-5773
▁unhe	-5774
▁urge	-5775
▁vegg	-5776
▁wand	-5777
▁weed	-5778
▁wide	-5779
▁wild	-5780
▁wins	-5781
▁writ	-5782
▁zero	-5783
!_____	-5784
70,000	-5785
Anyway	-5786
ENTIAL	-5787
agging	-5788
aiting	-5789
alyzed	-5790
belief	-5791
called	-5792
ccable	-5793
cooked	-5794
ctober	-5795
earing	-5796
encies	-5797
errent	-5798
father	-5799
formed	-5800
herent	-5801
humane	-5802
icated	-5803
ifying	-5804
inance	-5805
iously	-5806
ipment	-5807
isdict	-5808
istent	-5809
istics	-5810
itchen	-5811
itutes	-5812
lation	-5813
ledged	-5814
lessly	-5815
opping	-5816
people	-5817
pocrit	-5818
rained	-5819
ravity	-5820
respon	-5821
resses	-5822
rition	-5823
roleum	-5824
social	-5825
terday	-5826
uctose	-5827
ushing	-5828
verted	-5829
▁2006,	-5830
▁Belie	-5831
▁Books	-5832
▁Check	-5833
▁Civil	-5834
▁Class	-5835
▁Crime	-5836
▁Croat	-5837
▁Event	-5838
▁House	-5839
▁Major	-5840
▁NEVER	-5841
▁Often	-5842
▁Opera	-5843
▁Power	-5844
▁SPICE	-5845
▁Santa	-5846
▁Satur	-5847
▁Truth	-5848
▁Until	-5849
▁Whats	-5850
▁White	-5851
▁_____	-5852
▁actor	-5853
▁adapt	-5854
▁advis	-5855
▁alien	-5856
▁apart	-5857
▁atroc	-5858
▁audio	-5859
▁award	-5860
▁bands	-5861
▁blank	-5862
▁blind	-5863
▁bucks	-5864
▁calls	-5865
▁capab	-5866
▁colon	-5867
▁crack	-5868
▁crash	-5869
▁cruel	-5870
▁decoy	-5871
▁decre	-5872
▁didnt	-5873
▁drain	-5874
▁explo	-5875
▁fails	-5876
▁fence	-5877
▁fewer	-5878
▁firms	-5879
▁frust	-5880
▁funds	-5881
▁gangs	-5882
▁girlf	-5883
▁green	-5884
▁greet	-5885
▁hopes	-5886
▁hyper	-5887
▁image	-5888
▁incon	-5889
▁indic	-5890
▁infin	-5891
▁innov	-5892
▁input	-5893
▁irrit	-5894
▁jackp	-5895
▁japan	-5896
▁knock	-5897
▁loses	-5898
▁lying	-5899
▁magic	-5900
▁merit	-5901
▁mixed	-5902
▁newly	-5903
▁newsp	-5904
▁ounce	-5905
▁outdo	-5906
▁owned	-5907
▁pants	-5908
▁peers	-5909
▁pests	-5910
▁prior	-5911
▁prize	-5912
▁prost	-5913
▁races	-5914
▁realm	-5915
▁rebel	-5916
▁rebut	-5917
▁route	-5918
▁screw	-5919
▁seven	-5920
▁shame	-5921
▁shout	-5922
▁sight	-5923
▁sizes	-5924
▁skate	-5925
▁slide	-5926
▁solid	-5927
▁sorts	-5928
▁souls	-5929
▁spell	-5930
▁spent	-5931
▁split	-5932
▁squee	-5933
▁stagn	-5934
▁stere	-5935
▁stood	-5936
▁sugar	-5937
▁sweet	-5938
▁swing	-5939
▁syrup	-5940
▁teeth	-5941
▁thong	-5942
▁track	-5943
▁trend	-5944
▁tries	-5945
▁truck	-5946
▁uncle	-5947
▁uncom	-5948
▁unfit	-5949
▁vegan	-5950
▁voted	-5951
▁whore	-5952
▁wives	-5953
▁wrest	-5954
Because	-5955
allenge	-5956
covered	-5957
defense	-5958
helming	-5959
irectly	-5960
itation	-5961
ivalent	-5962
leeping	-5963
lexible	-5964
mission	-5965
ologies	-5966
ongress	-5967
ophobia	-5968
parents	-5969
perfect	-5970
raction	-5971
rapment	-5972
reation	-5973
related	-5974
tarians	-5975
vinceme	-5976
violent	-5977
▁AGENTS	-5978
▁Action	-5979
▁Almost	-5980
▁Better	-5981
▁Cobain	-5982
▁Cubans	-5983
▁Engine	-5984
▁France	-5985
▁Health	-5986
▁Making	-5987
▁McCain	-5988
▁Murder	-5989
▁Person	-5990
▁Pretty	-5991
▁Rights	-5992
▁SCHOOL	-5993
▁Saddam	-5994
▁Sounds	-5995
▁Spring	-5996
▁Though	-5997
▁acknow	-5998
▁affili	-5999
▁afraid	-6000
▁agenda	-6001
▁anarch	-6002
▁assist	-6003
▁backed	-6004
▁banned	-6005
▁became	-6006
▁bitter	-6007
▁boring	-6008
▁bottom	-6009
▁brings	-6010
▁campus	-6011
▁cancer	-6012
▁comply	-6013
▁corner	-6014
▁crisis	-6015
▁decade	-6016
▁deemed	-6017
▁defeat	-6018
▁devote	-6019
▁dining	-6020
▁distur	-6021
▁drunks	-6022
▁duties	-6023
▁evolve	-6024
▁excuse	-6025
▁famous	-6026
▁fellow	-6027
▁felons	-6028
▁female	-6029
▁finish	-6030
▁freeze	-6031
▁gallon	-6032
▁garden	-6033
▁growth	-6034
▁harder	-6035
▁incent	-6036
▁incest	-6037
▁indeed	-6038
▁insens	-6039
▁intend	-6040
▁interf	-6041
▁intrud	-6042
▁israel	-6043
▁issued	-6044
▁kidney	-6045
▁leaves	-6046
▁legacy	-6047
▁legend	-6048
▁liquor	-6049
▁masses	-6050
▁medium	-6051
▁messes	-6052
▁minute	-6053
▁neglig	-6054
▁notary	-6055
▁opened	-6056
▁orders	-6057
▁pedoph	-6058
▁placed	-6059
▁pledge	-6060
▁powers	-6061
▁prejud	-6062
▁proves	-6063
▁purely	-6064
▁pursue	-6065
▁raised	-6066
▁raises	-6067
▁rarely	-6068
▁rebell	-6069
▁recall	-6070
▁regret	-6071
▁relief	-6072
▁repeat	-6073
▁ruined	-6074
▁scared	-6075
▁scores	-6076
▁screen	-6077
▁seated	-6078
▁selves	-6079
▁serves	-6080
▁severe	-6081
▁sexism	-6082
▁showed	-6083
▁silent	-6084
▁slowly	-6085
▁solves	-6086
▁spoken	-6087
▁stated	-6088
▁steaks	-6089
▁stream	-6090
▁strike	-6091
▁strive	-6092
▁sudden	-6093
▁suffic	-6094
▁summer	-6095
▁tables	-6096
▁talent	-6097
▁tastes	-6098
▁taxing	-6099
▁territ	-6100
▁thanks	-6101
▁theyre	-6102
▁throat	-6103
▁toilet	-6104
▁towing	-6105
▁tracks	-6106
▁troops	-6107
▁undoub	-6108
▁unions	-6109
▁vision	-6110
▁waited	-6111
▁waters	-6112
▁weaker	-6113
▁wishes	-6114
▁worthy	-6115
!!!!!!!!	-6116
Secondly	-6117
abortion	-6118
bringing	-6119
fortable	-6120
gorithms	-6121
idelines	-6122
ifically	-6123
ophistic	-6124
ribution	-6125
whatever	-6126
▁Arizona	-6127
▁Bitcoin	-6128
▁Britain	-6129
▁Britian	-6130
▁Committ	-6131
▁Conserv	-6132
▁Depends	-6133
▁Firstly	-6134
▁Germany	-6135
▁Islamic	-6136
▁Mexican	-6137
▁October	-6138
▁Redskin	-6139
▁Shouldn	-6140
▁Society	-6141
▁Support	-6142
▁Tuesday	-6143
▁Ukraine	-6144
▁Usually	-6145
▁YouTube	-6146
▁accepts	-6147
▁alright	-6148
▁applies	-6149
▁arrived	-6150
▁assault	-6151
▁asshole	-6152
▁bastard	-6153
▁beating	-6154
▁becuase	-6155
▁beleive	-6156
▁besides	-6157
▁billion	-6158
▁borders	-6159
▁burgers	-6160
▁careful	-6161
▁chronic	-6162
▁classic	-6163
▁closely	-6164
▁colored	-6165
▁commits	-6166
▁compete	-6167
▁confuse	-6168
▁consume	-6169
▁contest	-6170
▁covered	-6171
▁creates	-6172
▁crowded	-6173
▁curious	-6174
▁dealers	-6175
▁decades	-6176
▁decline	-6177
▁default	-6178
▁defence	-6179
▁defined	-6180
▁desires	-6181
▁dictate	-6182
▁discred	-6183
▁elegant	-6184
▁envirom	-6185
▁finally	-6186
▁fitness	-6187
▁focused	-6188
▁foolish	-6189
▁forcing	-6190
▁frankly	-6191
▁garbage	-6192
▁gravity	-6193
▁guarant	-6194
▁handled	-6195
▁harmony	-6196
▁harsher	-6197
▁herself	-6198
▁hostess	-6199
▁hostile	-6200
▁ignored	-6201
▁illness	-6202
▁immoral	-6203
▁impound	-6204
▁infring	-6205
▁insulin	-6206
▁kitchen	-6207
▁lecture	-6208
▁lessons	-6209
▁liberal	-6210
▁liberty	-6211
▁licence	-6212
▁magical	-6213
▁minimal	-6214
▁monitor	-6215
▁neither	-6216
▁network	-6217
▁neutral	-6218
▁opening	-6219
▁operate	-6220
▁opposed	-6221
▁patient	-6222
▁payment	-6223
▁physics	-6224
▁planned	-6225
▁prevail	-6226
▁propose	-6227
▁rapists	-6228
▁ratings	-6229
▁recycle	-6230
▁reflect	-6231
▁reverse	-6232
▁secular	-6233
▁secured	-6234
▁servers	-6235
▁settled	-6236
▁shelter	-6237
▁shocked	-6238
▁stating	-6239
▁statute	-6240
▁stepson	-6241
▁strange	-6242
▁strateg	-6243
▁strikes	-6244
▁succeed	-6245
▁supreme	-6246
▁surgery	-6247
▁sustain	-6248
▁tattoos	-6249
▁teaches	-6250
▁tension	-6251
▁thereby	-6252
▁torture	-6253
▁trusted	-6254
▁victory	-6255
▁visited	-6256
▁winning	-6257
▁wrapped	-6258
Americans	-6259
Christian	-6260
Evolution	-6261
Therefore	-6262
anthropic	-6263
elevision	-6264
ensorship	-6265
istically	-6266
terrorism	-6267
▁Canadian	-6268
▁Catholic	-6269
▁European	-6270
▁Honestly	-6271
▁Illinois	-6272
▁Millions	-6273
▁Montreal	-6274
▁Northern	-6275
▁Probably	-6276
▁Saturday	-6277
▁Software	-6278
▁Watching	-6279
▁accurate	-6280
▁achieved	-6281
▁admitted	-6282
▁affected	-6283
▁articles	-6284
▁artistic	-6285
▁attempts	-6286
▁bankrupt	-6287
▁benefici	-6288
▁bullshit	-6289
▁calories	-6290
▁category	-6291
▁cheating	-6292
▁civilian	-6293
▁contains	-6294
▁coverage	-6295
▁coworker	-6296
▁critical	-6297
▁cultures	-6298
▁defining	-6299
▁destroys	-6300
▁diabetes	-6301
▁disagree	-6302
▁dressing	-6303
▁electric	-6304
▁elements	-6305
▁employee	-6306
▁enforced	-6307
▁equality	-6308
▁equation	-6309
▁examples	-6310
▁executed	-6311
▁existing	-6312
▁expenses	-6313
▁families	-6314
▁filtered	-6315
▁followed	-6316
▁frontmen	-6317
▁fructose	-6318
▁heritage	-6319
▁hypocrit	-6320
▁immature	-6321
▁inherent	-6322
▁inhumane	-6323
▁interact	-6324
▁investig	-6325
▁involves	-6326
▁japanese	-6327
▁licensed	-6328
▁lifetime	-6329
▁marrying	-6330
▁maturity	-6331
▁numerous	-6332
▁official	-6333
▁opposite	-6334
▁outright	-6335
▁parallel	-6336
▁pictures	-6337
▁platform	-6338
▁pleasure	-6339
▁presents	-6340
▁pressure	-6341
▁programm	-6342
▁relevant	-6343
▁reminded	-6344
▁removing	-6345
▁republic	-6346
▁rightful	-6347
▁shouldnt	-6348
▁starving	-6349
▁stealing	-6350
▁steroids	-6351
▁straight	-6352
▁strictly	-6353
▁subjects	-6354
▁substant	-6355
▁suicidal	-6356
▁supervis	-6357
▁survival	-6358
▁suspects	-6359
▁taxation	-6360
▁taxpayer	-6361
▁throught	-6362
▁ultimate	-6363
▁vacation	-6364
▁valuable	-6365
▁violated	-6366
▁violates	-6367
▁waitress	-6368
▁warnings	-6369
▁whenever	-6370
▁Advancing	-6371
▁Bencoolen	-6372
▁Otherwise	-6373
▁abolished	-6374
▁addiction	-6375
▁adulthood	-6376
▁affecting	-6377
▁attitudes	-6378
▁authentic	-6379
▁carefully	-6380
▁challenge	-6381
▁christmas	-6382
▁commiting	-6383
▁completed	-6384
▁component	-6385
▁conceived	-6386
▁consumers	-6387
▁contracts	-6388
▁creatures	-6389
▁crossings	-6390
▁daughters	-6391
▁decorated	-6392
▁deterrent	-6393
▁diplomacy	-6394
▁disbelief	-6395
▁discussed	-6396
▁elsewhere	-6397
▁endeavors	-6398
▁equipment	-6399
▁everybody	-6400
▁expecting	-6401
▁finishing	-6402
▁illogical	-6403
▁impeached	-6404
▁impressed	-6405
▁improving	-6406
▁incorrect	-6407
▁ingrained	-6408
▁intention	-6409
▁jurisdict	-6410
▁magically	-6411
▁mentioned	-6412
▁militants	-6413
▁overrated	-6414
▁parenting	-6415
▁patriotic	-6416
▁petroleum	-6417
▁pollution	-6418
▁practiced	-6419
▁principle	-6420
▁prisoners	-6421
▁privilege	-6422
▁professor	-6423
▁profiling	-6424
▁reasoning	-6425
▁regularly	-6426
▁regulated	-6427
▁remaining	-6428
▁resulting	-6429
▁scenarios	-6430
▁screening	-6431
▁sexuality	-6432
▁solutions	-6433
▁stability	-6434
▁suppliers	-6435
▁supported	-6436
▁underwear	-6437
▁witnesses	-6438
▁Euthanasia	-6439
▁Eventually	-6440
▁Scientolog	-6441
▁accidental	-6442
▁accomodate	-6443
▁addressing	-6444
▁advantages	-6445
▁approached	-6446
▁betterment	-6447
▁charitable	-6448
▁cigarettes	-6449
▁commitment	-6450
▁committing	-6451
▁comparison	-6452
▁constructs	-6453
▁contribute	-6454
▁dedication	-6455
▁determined	-6456
▁discussing	-6457
▁efficiency	-6458
▁employment	-6459
▁encourages	-6460
▁engagement	-6461
▁entrapment	-6462
▁equivalent	-6463
▁eventually	-6464
▁exceptions	-6465
▁expression	-6466
▁foreigners	-6467
▁girlfriend	-6468
▁homophobia	-6469
▁impeccable	-6470
▁impression	-6471
▁incredibly	-6472
▁indirectly	-6473
▁industries	-6474
▁intentions	-6475
▁moderation	-6476
▁obligation	-6477
▁passengers	-6478
▁percentage	-6479
▁politician	-6480
▁possession	-6481
▁production	-6482
▁prosecuted	-6483
▁protesting	-6484
▁references	-6485
▁respecting	-6486
▁skateboard	-6487
▁successful	-6488
▁sufficient	-6489
▁supposedly	-6490
ophisticated	-6491
▁Affirmative	-6492
▁Scientology	-6493
▁accountable	-6494
▁authorities	-6495
▁citizenship	-6496
▁complaining	-6497
▁complicated	-6498
▁considering	-6499
▁contributed	-6500
▁controlling	-6501
▁controversy	-6502
▁detrimental	-6503
▁expectation	-6504
▁experiences	-6505
▁homosexuals	-6506
▁implemented	-6507
▁insensitive	-6508
▁intelligent	-6509
▁interpreted	-6510
▁involvement	-6511
▁meaningless	-6512
▁participate	-6513
▁politically	-6514
▁recommended	-6515
▁technically	-6516
▁theological	-6517
▁undoubtedly	-6518
▁Additionally	-6519
▁capabilities	-6520
▁christianity	-6521
▁dictatorship	-6522
▁embarrassing	-6523
▁implications	-6524
▁independence	-6525
▁organization	-6526
▁palestinians	-6527
▁requirements	-6528
▁restrictions	-6529
▁universities	-6530
▁Conservatives	-6531
▁automatically	-6532
▁disrespectful	-6533
▁documentation	-6534
▁environmental	-6535
▁philanthropic	-6536
▁philosophical	-6537
▁reimbursement	-6538
▁revolutionary	-6539
▁significantly	-6540
▁uncomfortable	-6541
▁implementation	-6542
▁scientifically	-6543
▁characteristics	-6544
▁24	-6545
▁nd	-6546
fast	-6547
▁ate	-6548
etary	-6549
icate	-6550
▁beef	-6551
▁gods	-6552
▁odds	-6553
▁daily	-6554
▁deeds	-6555
▁frequ	-6556
▁funny	-6557
▁india	-6558
▁print	-6559
▁lately	-6560
▁merely	-6561
▁secure	-6562
▁sister	-6563
▁thrown	-6564
ensation	-6565
▁amounts	-6566
▁binding	-6567
▁comment	-6568
▁couples	-6569
▁hitting	-6570
▁manager	-6571
▁message	-6572
▁posting	-6573
▁reprodu	-6574
▁studies	-6575
▁concepts	-6576
▁monetary	-6577
▁planning	-6578
▁tortured	-6579
▁breakfast	-6580
▁offenders	-6581
▁processes	-6582
▁controlled	-6583
▁productive	-6584
▁combination	-6585
▁perceptions	-6586
▁recognition	-6587
▁compensation	-6588
**.	-6589
.**	-6590
.4)	-6591
/20	-6592
1/1	-6593
22,	-6594
:1)	-6595
:30	-6596
ATE	-6597
ATO	-6598
BOD	-6599
ELF	-6600
Fox	-6601
IAT	-6602
ICK	-6603
INT	-6604
MMI	-6605
TER	-6606
axy	-6607
cca	-6608
coz	-6609
eks	-6610
xxx	-6611
yrs	-6612
▁Kn	-6613
.(2)	-6614
?!?!	-6615
ARLY	-6616
Both	-6617
CESS	-6618
DING	-6619
ESID	-6620
ETAL	-6621
From	-6622
HAHA	-6623
Jazz	-6624
Plus	-6625
Tell	-6626
Wake	-6627
When	-6628
ajun	-6629
aska	-6630
beye	-6631
cape	-6632
comm	-6633
cott	-6634
ddit	-6635
disp	-6636
draw	-6637
eker	-6638
from	-6639
gets	-6640
grad	-6641
igma	-6642
immy	-6643
ioca	-6644
kins	-6645
lcom	-6646
lymp	-6647
mark	-6648
neck	-6649
octr	-6650
offs	-6651
osyn	-6652
oxes	-6653
prop	-6654
rule	-6655
sels	-6656
skin	-6657
task	-6658
ubby	-6659
unts	-6660
wife	-6661
▁1.5	-6662
▁197	-6663
▁198	-6664
▁ARE	-6665
▁CLE	-6666
▁DES	-6667
▁Dav	-6668
▁FPS	-6669
▁Guj	-6670
▁Hah	-6671
▁IMM	-6672
▁NBA	-6673
▁NHS	-6674
▁Nye	-6675
▁Obi	-6676
▁PCs	-6677
▁PET	-6678
▁Pho	-6679
▁Reg	-6680
▁SHO	-6681
▁Smo	-6682
▁Veg	-6683
▁WHY	-6684
▁eup	-6685
▁flo	-6686
▁flu	-6687
▁psy	-6688
Civil	-6689
IATEL	-6690
abili	-6691
addin	-6692
algia	-6693
aried	-6694
arina	-6695
armed	-6696
arrhe	-6697
astru	-6698
aware	-6699
dog	-6700
gov	-6701
mak	-6702
ugs	-6703
▁2)	-6704
▁23	-6705
▁27	-6706
▁2:	-6707
▁Jr	-6708
HING	-6709
amia	-6710
erog	-6711
fits	-6712
gger	-6713
mber	-6714
view	-6715
▁Dog	-6716
▁Ext	-6717
▁obn	-6718
▁vel	-6719
00.00	-6720
ailro	-6721
chief	-6722
ctrum	-6723
eddit	-6724
educt	-6725
edule	-6726
ellar	-6727
emocr	-6728
hamed	-6729
imits	-6730
infor	-6731
ispan	-6732
issed	-6733
itude	-6734
learn	-6735
matic	-6736
oided	-6737
ondon	-6738
phone	-6739
rench	-6740
rooms	-6741
roper	-6742
rowth	-6743
suits	-6744
track	-6745
weeks	-6746
words	-6747
worth	-6748
▁9-11	-6749
▁Answ	-6750
▁Arab	-6751
▁BROT	-6752
▁Bang	-6753
▁CMMI	-6754
▁Code	-6755
▁Coke	-6756
▁Cops	-6757
▁Darf	-6758
▁EVIL	-6759
▁Fair	-6760
▁Flor	-6761
▁GOOD	-6762
▁HAVE	-6763
▁High	-6764
▁IDEA	-6765
▁Isra	-6766
▁Lady	-6767
▁Marg	-6768
▁Mark	-6769
▁NASA	-6770
▁Nazi	-6771
▁Nebr	-6772
▁Poly	-6773
▁STOP	-6774
▁Scot	-6775
▁Serb	-6776
▁Star	-6777
▁Time	-6778
▁Tony	-6779
▁UNIF	-6780
▁WWII	-6781
▁anec	-6782
▁anni	-6783
▁asks	-6784
▁bags	-6785
▁bcoz	-6786
▁bike	-6787
▁blue	-6788
▁bomb	-6789
▁cope	-6790
▁delu	-6791
▁deny	-6792
▁ears	-6793
▁eggs	-6794
▁epic	-6795
▁fidd	-6796
▁foot	-6797
▁gamb	-6798
▁glad	-6799
UNS	-6800
bec	-6801
raz	-6802
▁xt	-6803
****	-6804
Only	-6805
beit	-6806
conc	-6807
ndra	-6808
raff	-6809
▁COM	-6810
▁Cra	-6811
▁HES	-6812
▁ILL	-6813
▁Inc	-6814
▁Yea	-6815
chism	-6816
erved	-6817
false	-6818
ickst	-6819
ictim	-6820
olved	-6821
opath	-6822
press	-6823
razil	-6824
uncon	-6825
urism	-6826
urred	-6827
▁COMP	-6828
▁GUNS	-6829
▁Saud	-6830
▁Town	-6831
▁defi	-6832
▁elab	-6833
▁emer	-6834
▁fals	-6835
▁fict	-6836
▁govt	-6837
▁grey	-6838
▁guac	-6839
▁ills	-6840
▁infr	-6841
▁iraq	-6842
▁irks	-6843
▁irre	-6844
▁jock	-6845
▁joke	-6846
▁jump	-6847
▁loud	-6848
▁maso	-6849
▁medd	-6850
▁mode	-6851
▁mund	-6852
▁narr	-6853
▁navy	-6854
▁nerd	-6855
▁nerv	-6856
▁oath	-6857
▁obed	-6858
▁obsc	-6859
▁pair	-6860
▁parf	-6861
▁peer	-6862
▁penn	-6863
▁phen	-6864
▁phot	-6865
▁plea	-6866
▁pork	-6867
▁pudd	-6868
▁punn	-6869
▁ride	-6870
▁rose	-6871
▁sarc	-6872
▁scam	-6873
▁semi	-6874
▁seni	-6875
▁sets	-6876
▁tabs	-6877
▁tick	-6878
▁trib	-6879
▁tube	-6880
▁vars	-6881
▁void	-6882
▁wake	-6883
▁yell	-6884
▁zeal	-6885
Doctor	-6886
Donald	-6887
Having	-6888
IATELY	-6889
ITians	-6890
acious	-6891
ackson	-6892
actory	-6893
acular	-6894
ademic	-6895
anning	-6896
armacy	-6897
arrhea	-6898
ashion	-6899
oby	-6900
ubs	-6901
Cult	-6902
OULD	-6903
ears	-6904
etiz	-6905
iped	-6906
uals	-6907
yles	-6908
▁2.0	-6909
▁Des	-6910
▁Dri	-6911
agles	-6912
arass	-6913
itect	-6914
leach	-6915
legal	-6916
oated	-6917
separ	-6918
ubble	-6919
▁Each	-6920
▁Roll	-6921
▁Room	-6922
▁chip	-6923
▁jung	-6924
▁mile	-6925
▁pear	-6926
Thanks	-6927
always	-6928
assion	-6929
atedly	-6930
atriot	-6931
aurant	-6932
before	-6933
byists	-6934
culate	-6935
earned	-6936
ecided	-6937
ential	-6938
estors	-6939
ferior	-6940
giance	-6941
gument	-6942
harast	-6943
icipal	-6944
idates	-6945
idemic	-6946
iforms	-6947
iginal	-6948
incipl	-6949
intend	-6950
irteen	-6951
issues	-6952
itance	-6953
itives	-6954
itting	-6955
lander	-6956
makers	-6957
mother	-6958
obiles	-6959
ocking	-6960
oinism	-6961
okemon	-6962
omatic	-6963
omeday	-6964
onents	-6965
oooooo	-6966
osynth	-6967
ourney	-6968
pected	-6969
placed	-6970
quakes	-6971
ranted	-6972
reedom	-6973
rested	-6974
rifice	-6975
rogant	-6976
romagn	-6977
suming	-6978
target	-6979
triple	-6980
ublime	-6981
ugging	-6982
vember	-6983
weight	-6984
worthy	-6985
▁30.00	-6986
▁Blame	-6987
▁Cajun	-6988
▁Child	-6989
▁Close	-6990
▁Cuban	-6991
▁David	-6992
▁Drive	-6993
▁Gener	-6994
▁Israe	-6995
▁Korea	-6996
▁Legal	-6997
▁Loved	-6998
▁Monro	-6999
She	-7000
Sim	-7001
UST	-7002
ado	-7003
eur	-7004
fty	-7005
hil	-7006
key	-7007
lew	-7008
nce	-7009
uke	-7010
urg	-7011
▁Te	-7012
Here	-7013
agan	-7014
ahoo	-7015
arad	-7016
ctop	-7017
imed	-7018
olid	-7019
scar	-7020
your	-7021
▁Big	-7022
▁FAT	-7023
▁dod	-7024
▁doo	-7025
▁eug	-7026
▁org	-7027
▁row	-7028
alian	-7029
brain	-7030
ocity	-7031
oleon	-7032
stead	-7033
▁Jews	-7034
▁ball	-7035
▁disd	-7036
▁diss	-7037
▁dole	-7038
▁whim	-7039
▁wise	-7040
amanth	-7041
arader	-7042
chohol	-7043
ctopus	-7044
icking	-7045
▁Hindu	-7046
▁Irish	-7047
▁Olymp	-7048
▁Oscar	-7049
▁Rolls	-7050
▁Runes	-7051
▁Saudi	-7052
▁Shall	-7053
▁Sheld	-7054
▁Sorry	-7055
▁Steve	-7056
▁Three	-7057
▁Vegas	-7058
▁Wrong	-7059
▁Yahoo	-7060
▁admin	-7061
▁agony	-7062
▁ahold	-7063
▁aimed	-7064
▁anecd	-7065
▁angry	-7066
▁anime	-7067
▁archa	-7068
▁asser	-7069
▁aunts	-7070
▁babys	-7071
▁backs	-7072
▁badge	-7073
▁banks	-7074
▁basil	-7075
▁bigot	-7076
▁blast	-7077
▁blown	-7078
▁board	-7079
▁bombs	-7080
▁breed	-7081
▁brief	-7082
▁brink	-7083
▁broad	-7084
▁brush	-7085
▁caffe	-7086
▁calor	-7087
▁caram	-7088
▁clock	-7089
▁cloud	-7090
▁confr	-7091
▁curry	-7092
▁dance	-7093
▁decay	-7094
▁delux	-7095
▁depos	-7096
▁desec	-7097
▁dirty	-7098
▁disad	-7099
-8	-7100
24	-7101
3)	-7102
EE	-7103
TLE	-7104
aph	-7105
eld	-7106
eto	-7107
ett	-7108
has	-7109
lay	-7110
lla	-7111
pel	-7112
tit	-7113
uce	-7114
uty	-7115
vil	-7116
▁58	-7117
▁Po	-7118
▁Sl	-7119
▁eb	-7120
▁yo	-7121
anct	-7122
atly	-7123
elda	-7124
ican	-7125
lett	-7126
lity	-7127
rill	-7128
roar	-7129
tuce	-7130
▁dos	-7131
▁gut	-7132
▁iPh	-7133
acted	-7134
arded	-7135
civil	-7136
eppel	-7137
esion	-7138
level	-7139
rella	-7140
thier	-7141
would	-7142
▁FOUN	-7143
▁clin	-7144
▁pill	-7145
▁spin	-7146
awking	-7147
center	-7148
except	-7149
famous	-7150
ingent	-7151
morrow	-7152
titles	-7153
▁Going	-7154
▁Gujar	-7155
▁doctr	-7156
▁dream	-7157
▁drown	-7158
▁earns	-7159
▁embry	-7160
▁enemy	-7161
▁enter	-7162
▁eugen	-7163
▁evalu	-7164
▁expos	-7165
▁faces	-7166
▁fancy	-7167
▁farqu	-7168
▁femal	-7169
▁femin	-7170
▁fired	-7171
▁fixed	-7172
▁flaws	-7173
▁flood	-7174
▁fried	-7175
▁fuels	-7176
▁gases	-7177
▁giant	-7178
▁glass	-7179
▁globe	-7180
▁gramm	-7181
▁grows	-7182
▁guard	-7183
▁guest	-7184
▁habit	-7185
▁hamas	-7186
▁harms	-7187
▁heads	-7188
▁hypro	-7189
▁isnot	-7190
▁jerse	-7191
▁jokes	-7192
▁label	-7193
▁legis	-7194
▁libel	-7195
▁lifes	-7196
▁limbs	-7197
▁lists	-7198
▁looph	-7199
Te	-7200
.5.	-7201
All	-7202
ECT	-7203
aus	-7204
bar	-7205
med	-7206
nal	-7207
oti	-7208
pal	-7209
ras	-7210
ued	-7211
vei	-7212
▁Da	-7213
agle	-7214
alot	-7215
atng	-7216
esec	-7217
geon	-7218
imer	-7219
late	-7220
such	-7221
uses	-7222
▁BET	-7223
▁cel	-7224
▁fad	-7225
▁len	-7226
▁pit	-7227
▁som	-7228
Which	-7229
acter	-7230
irgin	-7231
nting	-7232
ocate	-7233
plice	-7234
▁Plan	-7235
▁anal	-7236
▁apes	-7237
▁cert	-7238
▁fasc	-7239
▁http	-7240
antics	-7241
astics	-7242
believ	-7243
estion	-7244
ointed	-7245
ournal	-7246
police	-7247
▁EVERY	-7248
▁Thats	-7249
▁brace	-7250
▁eaten	-7251
▁magaz	-7252
▁males	-7253
▁match	-7254
▁messy	-7255
▁meted	-7256
▁monop	-7257
▁motor	-7258
▁nerve	-7259
▁nukes	-7260
▁obama	-7261
▁olive	-7262
▁optim	-7263
▁overd	-7264
▁overl	-7265
▁overt	-7266
▁overw	-7267
▁parad	-7268
▁paran	-7269
▁perce	-7270
▁pluse	-7271
▁posts	-7272
▁prett	-7273
▁range	-7274
▁rates	-7275
▁recre	-7276
▁recyc	-7277
▁remod	-7278
▁reply	-7279
▁reuse	-7280
▁roads	-7281
▁sales	-7282
▁scary	-7283
▁scold	-7284
▁seeds	-7285
▁sends	-7286
▁shade	-7287
▁shell	-7288
▁shops	-7289
▁skept	-7290
▁skill	-7291
▁slept	-7292
▁smell	-7293
▁sneak	-7294
▁solar	-7295
▁spect	-7296
▁stain	-7297
▁stead	-7298
▁stimu	-7299
)?	-7300
-1	-7301
09	-7302
:5	-7303
LU	-7304
WO	-7305
fy	-7306
sm	-7307
▁_	-7308
:59	-7309
ANS	-7310
Can	-7311
aos	-7312
may	-7313
orr	-7314
▁2/	-7315
▁IM	-7316
IANS	-7317
anic	-7318
aret	-7319
cust	-7320
etly	-7321
orse	-7322
porn	-7323
▁ATM	-7324
▁Pan	-7325
▁Res	-7326
▁Tea	-7327
▁VER	-7328
▁dip	-7329
▁doz	-7330
▁fly	-7331
human	-7332
idesp	-7333
marks	-7334
olate	-7335
sight	-7336
▁Hair	-7337
▁Laws	-7338
▁VERY	-7339
▁West	-7340
▁YOUR	-7341
▁dess	-7342
▁educ	-7343
▁grab	-7344
▁neck	-7345
▁owes	-7346
▁salv	-7347
▁sink	-7348
▁suff	-7349
▁torn	-7350
Person	-7351
arsely	-7352
ermany	-7353
isting	-7354
uating	-7355
udents	-7356
▁Brian	-7357
▁chaos	-7358
▁fines	-7359
▁nicer	-7360
▁nomad	-7361
▁prone	-7362
▁stret	-7363
▁strip	-7364
▁swear	-7365
▁swift	-7366
▁sword	-7367
▁takea	-7368
▁teams	-7369
▁tells	-7370
▁texts	-7371
▁towel	-7372
▁tower	-7373
▁trait	-7374
▁trees	-7375
▁tribe	-7376
▁tubby	-7377
▁twist	-7378
▁unple	-7379
▁unsub	-7380
▁upper	-7381
▁urban	-7382
▁versa	-7383
▁voice	-7384
▁weigh	-7385
▁wiser	-7386
▁wound	-7387
.......	-7388
Firstly	-7389
Further	-7390
Through	-7391
Without	-7392
alities	-7393
amantha	-7394
anctity	-7395
arendra	-7396
arently	-7397
athetic	-7398
bortion	-7399
.'	-7400
50	-7401
Im	-7402
Of	-7403
Un	-7404
bq	-7405
ht	-7406
ka	-7407
oz	-7408
▁!	-7409
VES	-7410
ein	-7411
ffs	-7412
hom	-7413
htm	-7414
iat	-7415
ida	-7416
oty	-7417
ull	-7418
ups	-7419
yal	-7420
▁;)	-7421
▁ED	-7422
ELON	-7423
Like	-7424
Well	-7425
asty	-7426
html	-7427
inch	-7428
inis	-7429
othe	-7430
ston	-7431
▁EAT	-7432
▁Hor	-7433
▁Moz	-7434
▁STU	-7435
▁San	-7436
▁anc	-7437
▁bbq	-7438
▁lie	-7439
▁ton	-7440
▁vul	-7441
▁wou	-7442
Would	-7443
ckets	-7444
major	-7445
▁Game	-7446
▁Real	-7447
▁Such	-7448
▁Thus	-7449
▁blat	-7450
▁cite	-7451
▁dear	-7452
▁hafe	-7453
▁mayo	-7454
▁rage	-7455
▁stal	-7456
amages	-7457
enment	-7458
imated	-7459
ultane	-7460
▁FELON	-7461
▁Putin	-7462
▁cheer	-7463
▁logos	-7464
▁nowad	-7465
capital	-7466
charged	-7467
choicer	-7468
correct	-7469
deserve	-7470
develop	-7471
eograph	-7472
ervable	-7473
esional	-7474
essinis	-7475
estones	-7476
everage	-7477
habited	-7478
hemisms	-7479
history	-7480
ianship	-7481
idelity	-7482
ienable	-7483
isition	-7484
issions	-7485
lightly	-7486
meaning	-7487
omplice	-7488
onerate	-7489
orderly	-7490
ourcing	-7491
playing	-7492
process	-7493
raffles	-7494
respass	-7495
riculum	-7496
riminal	-7497
roduced	-7498
science	-7499
?(	-7500
Be	-7501
ga	-7502
gu	-7503
ii	-7504
ja	-7505
ni	-7506
ok	-7507
tw	-7508
ws	-7509
Cub	-7510
Our	-7511
rew	-7512
roy	-7513
tal	-7514
war	-7515
▁34	-7516
▁Id	-7517
Comp	-7518
Fire	-7519
anse	-7520
bery	-7521
elve	-7522
fail	-7523
icit	-7524
ites	-7525
▁Att	-7526
▁Pak	-7527
▁Too	-7528
▁dig	-7529
▁hey	-7530
▁liv	-7531
▁rat	-7532
▁sed	-7533
▁spr	-7534
prise	-7535
stone	-7536
▁THAT	-7537
▁arms	-7538
▁shor	-7539
▁tiny	-7540
▁wood	-7541
encing	-7542
soever	-7543
▁aband	-7544
▁abund	-7545
▁brand	-7546
▁drama	-7547
▁forth	-7548
▁gland	-7549
▁hates	-7550
▁items	-7551
▁loose	-7552
▁manga	-7553
▁paren	-7554
▁prest	-7555
▁snake	-7556
▁tight	-7557
▁undes	-7558
▁usual	-7559
▁waves	-7560
Perhaps	-7561
Raffles	-7562
icapped	-7563
sequent	-7564
stalgia	-7565
strated	-7566
support	-7567
ulating	-7568
usiness	-7569
versity	-7570
▁Africa	-7571
▁Anyone	-7572
▁Asleep	-7573
▁Blacks	-7574
▁Brazil	-7575
▁Caesar	-7576
▁Canada	-7577
▁Clause	-7578
▁Coming	-7579
▁Darfur	-7580
▁Disney	-7581
▁French	-7582
▁Garden	-7583
▁German	-7584
▁Google	-7585
▁Growth	-7586
▁Indeed	-7587
▁Indies	-7588
▁Isreal	-7589
▁Kickst	-7590
▁Ladies	-7591
▁Mathem	-7592
▁Monroe	-7593
▁PRESID	-7594
▁Police	-7595
▁Prayer	-7596
▁Reddit	-7597
▁Regard	-7598
▁Rowing	-7599
17	-7600
45	-7601
99	-7602
?.	-7603
An	-7604
CK	-7605
CO	-7606
FL	-7607
IR	-7608
Pr	-7609
TA	-7610
!),	-7611
dep	-7612
ggy	-7613
reh	-7614
uge	-7615
uts	-7616
▁13	-7617
▁BE	-7618
..."	-7619
Thou	-7620
edit	-7621
iche	-7622
itly	-7623
mong	-7624
rend	-7625
yond	-7626
▁Him	-7627
▁RES	-7628
▁cos	-7629
▁dre	-7630
▁fur	-7631
▁pse	-7632
about	-7633
annum	-7634
rical	-7635
tical	-7636
▁1000	-7637
▁Char	-7638
▁Gold	-7639
▁beer	-7640
▁dise	-7641
▁mein	-7642
▁moth	-7643
▁scri	-7644
▁till	-7645
People	-7646
actors	-7647
essing	-7648
secure	-7649
tering	-7650
▁Great	-7651
▁North	-7652
▁Union	-7653
▁began	-7654
▁camer	-7655
▁dried	-7656
▁imply	-7657
▁month	-7658
▁obnox	-7659
▁pseud	-7660
▁radio	-7661
▁soggy	-7662
▁theor	-7663
ificate	-7664
▁Seeing	-7665
▁Social	-7666
▁Sunday	-7667
▁Surely	-7668
▁Taking	-7669
▁Things	-7670
▁Wouldn	-7671
▁absent	-7672
▁accomm	-7673
▁admire	-7674
▁affirm	-7675
▁albeit	-7676
▁assert	-7677
▁assets	-7678
▁astron	-7679
▁attend	-7680
▁attent	-7681
▁autism	-7682
▁awhile	-7683
▁bashed	-7684
▁basket	-7685
▁beyond	-7686
▁biased	-7687
▁blacks	-7688
▁bloody	-7689
▁bright	-7690
▁brutal	-7691
▁bubble	-7692
▁budget	-7693
▁builds	-7694
▁buried	-7695
▁butter	-7696
▁button	-7697
▁caesar	-7698
▁center	-7699
PP	-7700
▁x	-7701
Sue	-7702
ada	-7703
esy	-7704
ora	-7705
vin	-7706
▁ce	-7707
▁na	-7708
anch	-7709
elgi	-7710
grim	-7711
illy	-7712
inem	-7713
inge	-7714
orms	-7715
rich	-7716
term	-7717
▁Asi	-7718
▁Old	-7719
▁Par	-7720
▁cat	-7721
▁hel	-7722
▁joe	-7723
▁lid	-7724
▁wen	-7725
2,000	-7726
Until	-7727
Women	-7728
enter	-7729
grims	-7730
pause	-7731
rying	-7732
ureau	-7733
▁Cold	-7734
▁Mesa	-7735
▁Sher	-7736
▁boun	-7737
▁desk	-7738
▁hook	-7739
▁mate	-7740
▁rats	-7741
▁rust	-7742
▁spec	-7743
▁welf	-7744
▁wing	-7745
Limits	-7746
consin	-7747
▁Using	-7748
▁cease	-7749
▁drunk	-7750
▁helpl	-7751
▁lemon	-7752
▁rated	-7753
▁telgi	-7754
▁usage	-7755
▁wrote	-7756
odating	-7757
▁Jewish	-7758
▁London	-7759
▁bailed	-7760
▁chicks	-7761
▁cliche	-7762
▁cloths	-7763
▁connot	-7764
▁conver	-7765
▁copies	-7766
▁cracks	-7767
▁debase	-7768
▁deduct	-7769
▁deeply	-7770
▁deluxe	-7771
▁denies	-7772
▁depart	-7773
▁desert	-7774
▁devast	-7775
▁diesel	-7776
▁disall	-7777
▁disast	-7778
▁disreg	-7779
▁domest	-7780
▁doomed	-7781
▁double	-7782
▁empire	-7783
▁engage	-7784
▁equals	-7785
▁esteem	-7786
▁exclus	-7787
▁expert	-7788
▁expire	-7789
▁explic	-7790
▁expose	-7791
▁favour	-7792
▁felony	-7793
▁filing	-7794
▁finder	-7795
▁finger	-7796
▁fixing	-7797
▁foetus	-7798
▁formed	-7799
-47	-7800
aul	-7801
imm	-7802
yes	-7803
▁AL	-7804
▁CO	-7805
▁Mr	-7806
Cola	-7807
aden	-7808
iage	-7809
ners	-7810
omma	-7811
otal	-7812
urvy	-7813
wers	-7814
▁ALW	-7815
▁Deb	-7816
▁FMA	-7817
▁Jar	-7818
▁ram	-7819
▁ris	-7820
ardly	-7821
eties	-7822
iance	-7823
iders	-7824
known	-7825
polit	-7826
uters	-7827
▁Lets	-7828
▁butt	-7829
▁cord	-7830
▁deed	-7831
▁lied	-7832
▁mope	-7833
▁reel	-7834
▁rope	-7835
▁stor	-7836
▁tone	-7837
Either	-7838
achers	-7839
carina	-7840
esteem	-7841
ipping	-7842
▁Curvy	-7843
▁Guess	-7844
▁Momma	-7845
▁aging	-7846
▁beers	-7847
▁chill	-7848
▁mopey	-7849
▁payer	-7850
▁risks	-7851
▁spoon	-7852
eppelin	-7853
▁ALWAYS	-7854
▁Smarts	-7855
▁aiding	-7856
▁assign	-7857
▁classy	-7858
▁commen	-7859
▁crises	-7860
▁dollar	-7861
▁former	-7862
▁fruits	-7863
▁fulfil	-7864
▁garage	-7865
▁garlic	-7866
▁giants	-7867
▁golden	-7868
▁google	-7869
▁grease	-7870
▁greasy	-7871
▁grunge	-7872
▁gutted	-7873
▁handed	-7874
▁hatred	-7875
▁hiding	-7876
▁hippie	-7877
▁hiring	-7878
▁hugely	-7879
▁humble	-7880
▁hungry	-7881
▁iPhone	-7882
▁incarc	-7883
▁indian	-7884
▁injury	-7885
▁instit	-7886
▁insult	-7887
▁judged	-7888
▁jungle	-7889
▁kicked	-7890
▁ladies	-7891
▁laptop	-7892
▁latter	-7893
▁likley	-7894
▁linear	-7895
▁loaded	-7896
▁lously	-7897
▁loving	-7898
▁lowest	-7899
cil	-7900
elf	-7901
ila	-7902
wer	-7903
▁40	-7904
▁SI	-7905
▁Sk	-7906
alli	-7907
also	-7908
beat	-7909
dest	-7910
ideo	-7911
thal	-7912
uate	-7913
▁30,	-7914
▁Bab	-7915
▁GOP	-7916
▁Hum	-7917
▁Sch	-7918
▁Set	-7919
▁Sin	-7920
▁Wan	-7921
▁meh	-7922
▁pil	-7923
▁pul	-7924
▁wil	-7925
asant	-7926
estal	-7927
itain	-7928
usion	-7929
▁boss	-7930
▁bulk	-7931
▁wave	-7932
charge	-7933
skinny	-7934
▁Cause	-7935
▁RIGHT	-7936
▁compe	-7937
▁couch	-7938
▁score	-7939
▁sloth	-7940
▁tired	-7941
▁wider	-7942
allible	-7943
welling	-7944
▁Associ	-7945
▁Except	-7946
▁Others	-7947
▁SISTER	-7948
▁acting	-7949
▁advent	-7950
▁broken	-7951
▁eagles	-7952
▁impair	-7953
▁lethal	-7954
▁makind	-7955
▁massac	-7956
▁master	-7957
▁menace	-7958
▁messed	-7959
▁misdem	-7960
▁motion	-7961
▁muscle	-7962
▁mutual	-7963
▁negoti	-7964
▁nicely	-7965
▁notify	-7966
▁occurs	-7967
▁offend	-7968
▁opinon	-7969
▁organs	-7970
▁outcry	-7971
▁outlaw	-7972
▁owning	-7973
▁packed	-7974
▁palist	-7975
▁papers	-7976
▁parish	-7977
▁patent	-7978
▁payers	-7979
▁pearls	-7980
▁physic	-7981
▁picket	-7982
▁pirate	-7983
▁polite	-7984
▁posses	-7985
▁prerog	-7986
▁proved	-7987
▁pseudo	-7988
▁pulled	-7989
▁purpos	-7990
▁puzzle	-7991
▁qualif	-7992
▁racial	-7993
▁racing	-7994
▁railro	-7995
▁reckon	-7996
▁recycl	-7997
▁reddit	-7998
▁redone	-7999
0'	-8000
5)	-8001
:-	-8002
Ds	-8003
afe	-8004
cip	-8005
ief	-8006
uum	-8007
▁ME	-8008
▁wk	-8009
Next	-8010
allu	-8011
andy	-8012
avel	-8013
oena	-8014
uine	-8015
▁Aqu	-8016
▁Bas	-8017
▁Bay	-8018
▁Cop	-8019
▁Int	-8020
▁Mad	-8021
▁Med	-8022
▁Mis	-8023
▁alt	-8024
▁bum	-8025
▁ous	-8026
▁via	-8027
acity	-8028
istan	-8029
orous	-8030
osing	-8031
otion	-8032
ulate	-8033
▁2000	-8034
▁Copy	-8035
▁Jazz	-8036
▁Macs	-8037
▁View	-8038
▁beac	-8039
▁chef	-8040
▁cous	-8041
▁cure	-8042
▁ease	-8043
▁hasn	-8044
▁hole	-8045
▁mins	-8046
▁reci	-8047
▁ruin	-8048
▁sees	-8049
▁shap	-8050
▁tele	-8051
cially	-8052
monies	-8053
▁1822,	-8054
▁abort	-8055
▁chalk	-8056
▁deity	-8057
▁scale	-8058
▁stole	-8059
▁yield	-8060
Atheism	-8061
▁Anakin	-8062
▁Basing	-8063
▁detest	-8064
▁enjoys	-8065
▁reflex	-8066
▁rental	-8067
▁repair	-8068
▁resemb	-8069
▁resent	-8070
▁resist	-8071
▁resort	-8072
▁ribeye	-8073
▁rivals	-8074
▁robots	-8075
▁rolled	-8076
▁rooted	-8077
▁rotten	-8078
▁routes	-8079
▁saving	-8080
▁scrape	-8081
▁scream	-8082
▁script	-8083
▁shares	-8084
▁sooner	-8085
▁sorrow	-8086
▁speaks	-8087
▁specul	-8088
▁spends	-8089
▁square	-8090
▁stayed	-8091
▁stigma	-8092
▁stings	-8093
▁strugg	-8094
▁submit	-8095
▁survey	-8096
▁suspic	-8097
▁temper	-8098
▁terrif	-8099
AM	-8100
sp	-8101
yr	-8102
---	-8103
100	-8104
bre	-8105
mis	-8106
orp	-8107
una	-8108
une	-8109
uns	-8110
▁Hi	-8111
▁bf	-8112
...)	-8113
erce	-8114
etry	-8115
fire	-8116
inds	-8117
itig	-8118
mind	-8119
oler	-8120
▁Pet	-8121
▁Tig	-8122
▁div	-8123
▁hip	-8124
▁max	-8125
▁mun	-8126
▁pra	-8127
▁rud	-8128
▁ups	-8129
acial	-8130
atley	-8131
fight	-8132
heart	-8133
pared	-8134
▁Home	-8135
▁News	-8136
▁Wars	-8137
▁Were	-8138
▁chin	-8139
▁hind	-8140
▁unst	-8141
▁vice	-8142
anging	-8143
▁THERE	-8144
▁agent	-8145
▁doors	-8146
▁faced	-8147
▁joint	-8148
▁micro	-8149
▁plate	-8150
▁pound	-8151
▁roles	-8152
▁sushi	-8153
▁tooth	-8154
▁vague	-8155
Arizona	-8156
intendo	-8157
matized	-8158
▁Mother	-8159
▁ballot	-8160
▁begged	-8161
▁counts	-8162
▁dating	-8163
▁handle	-8164
▁ironic	-8165
▁stands	-8166
▁theore	-8167
▁topics	-8168
▁touchy	-8169
▁trauma	-8170
▁travel	-8171
▁tricky	-8172
▁truths	-8173
▁twenty	-8174
▁unprof	-8175
▁unsure	-8176
▁update	-8177
▁valley	-8178
▁viable	-8179
▁victor	-8180
▁voices	-8181
▁warned	-8182
▁weapon	-8183
▁welcom	-8184
▁whilst	-8185
▁whould	-8186
▁widesp	-8187
▁winter	-8188
▁worlds	-8189
American	-8190
Employee	-8191
Employer	-8192
Religion	-8193
Speaking	-8194
although	-8195
araderie	-8196
disposed	-8197
ensively	-8198
estinian	-8199
Sn	-8200
gs	-8201
GAL	-8202
Tab	-8203
YES	-8204
aed	-8205
mos	-8206
ota	-8207
tly	-8208
▁EU	-8209
▁GO	-8210
▁ON	-8211
ALLY	-8212
BODY	-8213
Will	-8214
aled	-8215
aste	-8216
down	-8217
keep	-8218
plet	-8219
▁Ter	-8220
▁fan	-8221
▁ord	-8222
▁sin	-8223
abled	-8224
astly	-8225
astro	-8226
inets	-8227
least	-8228
lifer	-8229
umber	-8230
▁Case	-8231
▁Fame	-8232
▁RPGs	-8233
▁clap	-8234
▁hood	-8235
▁inal	-8236
▁stom	-8237
▁subs	-8238
▁trip	-8239
▁virt	-8240
ormous	-8241
▁asses	-8242
▁drast	-8243
▁frame	-8244
▁plans	-8245
▁shall	-8246
▁spice	-8247
▁stage	-8248
▁stops	-8249
▁taxed	-8250
▁towns	-8251
▁undis	-8252
achment	-8253
iblical	-8254
ishment	-8255
istered	-8256
▁Castro	-8257
▁Cosmos	-8258
▁Hispan	-8259
▁Middle	-8260
▁contam	-8261
▁export	-8262
▁heroin	-8263
▁refute	-8264
▁smokes	-8265
▁uproar	-8266
everyone	-8267
grateful	-8268
harastra	-8269
hilating	-8270
ichotomy	-8271
ifferent	-8272
inciples	-8273
ividuals	-8274
opefully	-8275
original	-8276
question	-8277
ributive	-8278
separate	-8279
students	-8280
vantaged	-8281
venience	-8282
▁100,000	-8283
▁Aladdin	-8284
▁Alcohol	-8285
▁Atheism	-8286
▁BROTHER	-8287
▁Banning	-8288
▁Believe	-8289
▁CLEARLY	-8290
▁Certain	-8291
▁Clinton	-8292
▁College	-8293
▁Croatia	-8294
▁Despite	-8295
▁Driving	-8296
▁Enlight	-8297
▁Example	-8298
▁Extreme	-8299
▁lac	-8300
▁Florida	-8301
▁Frankly	-8302
▁Germans	-8303
▁Gujarat	-8304
▁Hawking	-8305
▁IITians	-8306
▁Imagine	-8307
▁Instant	-8308
▁Israeli	-8309
▁Killing	-8310
▁Lawyers	-8311
▁NOTHING	-8312
▁Neither	-8313
▁Ocarina	-8314
▁PROCESS	-8315
▁Patriot	-8316
▁Plastic	-8317
▁Pokemon	-8318
▁Problem	-8319
▁Provide	-8320
▁Service	-8321
▁Sheldon	-8322
▁Someone	-8323
▁Student	-8324
▁Suicide	-8325
▁Thought	-8326
▁UNIFORM	-8327
▁Violent	-8328
▁Whoever	-8329
▁abiding	-8330
▁abstain	-8331
▁abusive	-8332
▁adapted	-8333
▁advised	-8334
▁advisor	-8335
▁affects	-8336
▁aggress	-8337
▁anarchy	-8338
▁ancient	-8339
▁anguish	-8340
▁anticip	-8341
▁anytime	-8342
▁anyways	-8343
▁appeals	-8344
▁appears	-8345
▁appetiz	-8346
▁approve	-8347
▁artists	-8348
▁ashamed	-8349
▁babysit	-8350
▁bargain	-8351
▁battles	-8352
▁bigotry	-8353
▁billing	-8354
▁bloated	-8355
▁bombing	-8356
▁britain	-8357
▁burning	-8358
▁caramel	-8359
▁century	-8360
▁channel	-8361
▁charity	-8362
▁chooses	-8363
▁claimed	-8364
▁closest	-8365
▁coerced	-8366
▁colours	-8367
▁combine	-8368
▁consens	-8369
▁consist	-8370
▁constit	-8371
▁counsel	-8372
▁cruelty	-8373
▁cutting	-8374
▁decency	-8375
▁decides	-8376
▁defeats	-8377
▁deliber	-8378
▁demands	-8379
▁deprive	-8380
▁dessert	-8381
▁discour	-8382
▁disdain	-8383
▁dropped	-8384
▁drought	-8385
▁educate	-8386
▁elevate	-8387
▁enacted	-8388
▁enemies	-8389
▁english	-8390
▁entrees	-8391
▁excited	-8392
▁exclude	-8393
▁existed	-8394
▁experts	-8395
▁expired	-8396
▁explore	-8397
▁extreme	-8398
▁falsify	-8399
▁farquer	-8400
▁fashion	-8401
▁feeding	-8402
▁females	-8403
▁fiction	-8404
▁fingers	-8405
▁firearm	-8406
▁flavors	-8407
▁flavour	-8408
▁follows	-8409
▁forbidd	-8410
▁forward	-8411
▁freezer	-8412
▁fucking	-8413
▁fulfill	-8414
▁funeral	-8415
▁gadgets	-8416
▁gallons	-8417
▁generic	-8418
▁governs	-8419
▁greeted	-8420
▁grilled	-8421
▁gunning	-8422
▁happend	-8423
▁harmful	-8424
▁hearted	-8425
▁housing	-8426
▁imposed	-8427
▁impress	-8428
▁indefin	-8429
▁indoctr	-8430
▁initial	-8431
▁install	-8432
▁intrins	-8433
▁invaded	-8434
▁joining	-8435
▁killers	-8436
▁kingdom	-8437
▁lettuce	-8438
▁located	-8439
▁lottery	-8440
▁lustful	-8441
▁managed	-8442
▁margins	-8443
▁mariage	-8444
▁measure	-8445
▁monkeys	-8446
▁monster	-8447
▁mundane	-8448
▁muslims	-8449
▁negated	-8450
▁neglect	-8451
▁nervous	-8452
▁notions	-8453
▁octopus	-8454
▁offence	-8455
▁offices	-8456
▁oneself	-8457
▁optimum	-8458
▁organis	-8459
▁origins	-8460
▁outdoor	-8461
▁outlaws	-8462
▁overpop	-8463
▁oversee	-8464
▁package	-8465
▁parfait	-8466
▁pastime	-8467
▁pennies	-8468
▁persuit	-8469
▁phoenix	-8470
▁platter	-8471
▁pleased	-8472
▁pointed	-8473
▁portray	-8474
▁pouring	-8475
▁praying	-8476
▁prescri	-8477
▁prisons	-8478
▁prolong	-8479
▁promise	-8480
▁prosper	-8481
▁pudding	-8482
▁pushing	-8483
▁radical	-8484
▁reached	-8485
▁reaches	-8486
▁readily	-8487
▁realise	-8488
▁redress	-8489
▁reduced	-8490
▁refused	-8491
▁rehabil	-8492
▁remodel	-8493
▁results	-8494
▁retards	-8495
▁revenge	-8496
▁robbery	-8497
▁rolling	-8498
▁roughly	-8499
▁routine	-8500
▁rubbish	-8501
▁screwed	-8502
▁seconds	-8503
▁sending	-8504
▁seniors	-8505
▁serving	-8506
▁sexting	-8507
▁shipped	-8508
▁shorter	-8509
▁singing	-8510
▁sitting	-8511
▁sleeker	-8512
▁smarter	-8513
▁sourced	-8514
▁sources	-8515
▁squeeze	-8516
▁station	-8517
▁stellar	-8518
▁stimuli	-8519
▁studied	-8520
▁symbols	-8521
▁tapioca	-8522
▁tenders	-8523
▁testing	-8524
▁thereof	-8525
▁trigger	-8526
▁twisted	-8527
▁unarmed	-8528
▁undergo	-8529
▁unknown	-8530
▁updates	-8531
▁varsity	-8532
▁veggies	-8533
▁venture	-8534
▁verdict	-8535
▁washing	-8536
▁watches	-8537
▁weapons	-8538
▁weekend	-8539
▁welfare	-8540
▁worship	-8541
▁writers	-8542
abilizing	-8543
cientific	-8544
depending	-8545
education	-8546
ffesional	-8547
formation	-8548
mongering	-8549
political	-8550
pretation	-8551
quisition	-8552
something	-8553
▁Anything	-8554
▁Assuming	-8555
▁Beverage	-8556
▁Children	-8557
▁Computer	-8558
▁Congress	-8559
▁Consider	-8560
▁Creation	-8561
▁Criminal	-8562
▁Generals	-8563
▁Israelis	-8564
▁Liberals	-8565
▁Margaret	-8566
▁McDonald	-8567
▁Mexicans	-8568
▁Michigan	-8569
▁Minister	-8570
▁Moreover	-8571
▁Napoleon	-8572
▁Narendra	-8573
▁Nebraska	-8574
▁Nobility	-8575
▁November	-8576
▁Olympics	-8577
▁Personal	-8578
▁Physical	-8579
▁Politics	-8580
▁Redskins	-8581
▁Samantha	-8582
▁Scotland	-8583
▁Students	-8584
▁Uniforms	-8585
▁academic	-8586
▁accounts	-8587
▁accusing	-8588
▁adultery	-8589
▁advanced	-8590
▁agencies	-8591
▁alchohol	-8592
▁ambition	-8593
▁analysis	-8594
▁applying	-8595
▁approved	-8596
▁arrogant	-8597
▁assuming	-8598
▁athletic	-8599
▁attended	-8600
▁attitude	-8601
▁bathroom	-8602
▁bookmark	-8603
▁boosting	-8604
▁bothered	-8605
▁boutique	-8606
▁breaking	-8607
▁breeding	-8608
▁brothers	-8609
▁browsing	-8610
▁caffeine	-8611
▁checking	-8612
▁coherent	-8613
▁colonial	-8614
▁combined	-8615
▁comeback	-8616
▁confront	-8617
▁congress	-8618
▁consumed	-8619
▁contacts	-8620
▁contrary	-8621
▁controls	-8622
▁converts	-8623
▁cracking	-8624
▁criteria	-8625
▁damaging	-8626
▁delusion	-8627
▁deprives	-8628
▁deserved	-8629
▁designer	-8630
▁detailed	-8631
▁diabetic	-8632
▁dialysis	-8633
▁diarrhea	-8634
▁disabled	-8635
▁discover	-8636
▁diseases	-8637
▁displays	-8638
▁disprove	-8639
▁distance	-8640
▁doctrine	-8641
▁dogmatic	-8642
▁domestic	-8643
▁download	-8644
▁engaging	-8645
▁enjoying	-8646
▁enormous	-8647
▁entering	-8648
▁exposure	-8649
▁extended	-8650
▁features	-8651
▁focusing	-8652
▁football	-8653
▁fountain	-8654
▁freedoms	-8655
▁gambling	-8656
▁geograph	-8657
▁grandeur	-8658
▁handsome	-8659
▁hardship	-8660
▁harmless	-8661
▁helpless	-8662
▁hesitate	-8663
▁homeless	-8664
▁homelife	-8665
▁homemade	-8666
▁ideology	-8667
▁illegals	-8668
▁improper	-8669
▁incident	-8670
▁incompat	-8671
▁inferior	-8672
▁insecure	-8673
▁intended	-8674
▁interven	-8675
▁intimate	-8676
▁intruder	-8677
▁invasion	-8678
▁irrespon	-8679
▁jackpots	-8680
▁judgment	-8681
▁judicial	-8682
▁lawsuits	-8683
▁lesbians	-8684
▁licenses	-8685
▁lifelong	-8686
▁likewise	-8687
▁magazine	-8688
▁managing	-8689
▁manpower	-8690
▁material	-8691
▁minority	-8692
▁misinter	-8693
▁motivate	-8694
▁mountain	-8695
▁normally	-8696
▁nowadays	-8697
▁obedient	-8698
▁occurred	-8699
▁offended	-8700
▁offender	-8701
▁opponent	-8702
▁ordering	-8703
▁overdose	-8704
▁parental	-8705
▁pedestal	-8706
▁plastics	-8707
▁pleasing	-8708
▁policies	-8709
▁policing	-8710
▁politian	-8711
▁predates	-8712
▁pressing	-8713
▁probable	-8714
▁produced	-8715
▁prohibit	-8716
▁proposed	-8717
▁purposes	-8718
▁railroad	-8719
▁reaching	-8720
▁reacting	-8721
▁rebuttal	-8722
▁recorded	-8723
▁recycled	-8724
▁referral	-8725
▁reflects	-8726
▁reformed	-8727
▁regarded	-8728
▁register	-8729
▁religeon	-8730
▁reported	-8731
▁resource	-8732
▁returned	-8733
▁reviewed	-8734
▁rewarded	-8735
▁sacrific	-8736
▁salaried	-8737
▁salaries	-8738
▁scarlett	-8739
▁schedule	-8740
▁sentence	-8741
▁sentient	-8742
▁shifting	-8743
▁slightly	-8744
▁sparsely	-8745
▁speakers	-8746
▁spectrum	-8747
▁spitting	-8748
▁stagnant	-8749
▁stalkers	-8750
▁steering	-8751
▁stepping	-8752
▁stereoty	-8753
▁suddenly	-8754
▁suitable	-8755
▁superman	-8756
▁surprise	-8757
▁takeaway	-8758
▁tarannum	-8759
▁themself	-8760
▁theology	-8761
▁theories	-8762
▁thinkers	-8763
▁thirteen	-8764
▁thousand	-8765
▁throwing	-8766
▁tolerate	-8767
▁tomorrow	-8768
▁touching	-8769
▁transfer	-8770
▁trespass	-8771
▁turnover	-8772
▁umbrella	-8773
▁unbeliev	-8774
▁underage	-8775
▁unearned	-8776
▁unlikely	-8777
▁unstable	-8778
▁velocity	-8779
▁weekends	-8780
▁winnings	-8781
▁withdraw	-8782
Personally	-8783
astructure	-8784
democratic	-8785
ominations	-8786
osynthesis	-8787
protection	-8788
romagnetic	-8789
targetting	-8790
▁Committee	-8791
▁EVERYBODY	-8792
▁Economist	-8793
▁Generally	-8794
▁Hispanics	-8795
▁Political	-8796
▁Yesterday	-8797
▁abilities	-8798
▁acomplice	-8799
▁ancestors	-8800
▁anecdotal	-8801
▁answering	-8802
▁architect	-8803
▁arguement	-8804
▁arresting	-8805
▁associate	-8806
▁attacking	-8807
▁awareness	-8808
▁birthdays	-8809
▁bookmarks	-8810
▁buildings	-8811
▁centuries	-8812
▁classical	-8813
▁clockwise	-8814
▁cognitive	-8815
▁comparing	-8816
▁compounds	-8817
▁confident	-8818
▁consisted	-8819
▁countless	-8820
▁coworkers	-8821
▁criterium	-8822
▁curiosity	-8823
▁customers	-8824
▁defending	-8825
▁delivered	-8826
▁demanding	-8827
▁democracy	-8828
▁depresses	-8829
▁destroyed	-8830
▁direction	-8831
▁discovery	-8832
▁displayed	-8833
▁disputing	-8834
▁diversity	-8835
▁downloads	-8836
▁downsides	-8837
▁elaborate	-8838
▁elections	-8839
▁eliminate	-8840
▁engineers	-8841
▁essential	-8842
▁estimated	-8843
▁ethnicity	-8844
▁execution	-8845
▁exonerate	-8846
▁factories	-8847
▁financing	-8848
▁followers	-8849
▁fortunate	-8850
▁garnished	-8851
▁gathering	-8852
▁greatness	-8853
▁headlines	-8854
▁highlight	-8855
▁identical	-8856
▁ignorance	-8857
▁illegally	-8858
▁immediate	-8859
▁imperfect	-8860
▁incentive	-8861
▁inhabited	-8862
▁initiated	-8863
▁injection	-8864
▁interfere	-8865
▁investing	-8866
▁knowingly	-8867
▁languages	-8868
▁liability	-8869
▁liberties	-8870
▁lobbyists	-8871
▁locations	-8872
▁loopholes	-8873
▁malicious	-8874
▁masochism	-8875
▁mentality	-8876
▁municipal	-8877
▁murderers	-8878
▁neighbors	-8879
▁neighbour	-8880
▁nostalgia	-8881
▁nutrition	-8882
▁obtaining	-8883
▁officials	-8884
▁operating	-8885
▁opponents	-8886
▁organisms	-8887
▁overblown	-8888
▁ownership	-8889
▁paperwork	-8890
▁paralyzed	-8891
▁performed	-8892
▁permitted	-8893
▁perpetual	-8894
▁personnel	-8895
▁pointless	-8896
▁possesion	-8897
▁practical	-8898
▁prejudice	-8899
▁premature	-8900
▁procedure	-8901
▁prohibits	-8902
▁prosecute	-8903
▁purchased	-8904
▁qualities	-8905
▁rebellion	-8906
▁recording	-8907
▁reference	-8908
▁regarding	-8909
▁rejection	-8910
▁retaining	-8911
▁sacrifice	-8912
▁sarcastic	-8913
▁satisfied	-8914
▁schooling	-8915
▁seasoning	-8916
▁selection	-8917
▁semantics	-8918
▁senseless	-8919
▁sentences	-8920
▁sentiment	-8921
▁separated	-8922
▁societies	-8923
▁sociopath	-8924
▁spiritual	-8925
▁strategic	-8926
▁streaming	-8927
▁strongest	-8928
▁structure	-8929
▁superiors	-8930
▁suspended	-8931
▁taxpayers	-8932
▁uncertain	-8933
▁undermine	-8934
▁unhealthy	-8935
▁unnatural	-8936
▁unrelated	-8937
▁unwilling	-8938
▁virtually	-8939
▁workplace	-8940
▁worthless	-8941
▁wrestling	-8942
appropriate	-8943
stitutional	-8944
ultaneously	-8945
▁Convinceme	-8946
▁Fatherless	-8947
▁Healthcare	-8948
▁Maharastra	-8949
▁Management	-8950
▁Republican	-8951
▁Television	-8952
▁alcoholism	-8953
▁algorithms	-8954
▁allegiance	-8955
▁applicants	-8956
▁atrocities	-8957
▁bankruptcy	-8958
▁biological	-8959
▁castration	-8960
▁ceremonies	-8961
▁classified	-8962
▁compassion	-8963
▁concerning	-8964
▁conditions	-8965
▁consenting	-8966
▁continuous	-8967
▁controller	-8968
▁cosleeping	-8969
▁curriculum	-8970
▁decriminal	-8971
▁deductions	-8972
▁disability	-8973
▁discharged	-8974
▁discredits	-8975
▁distribute	-8976
▁disturbing	-8977
▁electrical	-8978
▁eliminated	-8979
▁empathetic	-8980
▁enviroment	-8981
▁euphemisms	-8982
▁experiment	-8983
▁facilities	-8984
▁fascinated	-8985
▁foundation	-8986
▁guidelines	-8987
▁healthcare	-8988
▁heartaches	-8989
▁highschool	-8990
▁hyprocracy	-8991
▁immigrants	-8992
▁imprisoned	-8993
▁incentives	-8994
▁inequality	-8995
▁inflexible	-8996
▁inherently	-8997
▁initiating	-8998
▁introduced	-8999
▁investment	-9000
▁legalizing	-9001
▁legitimacy	-9002
▁lifestyles	-9003
▁medication	-9004
▁milestones	-9005
▁minorities	-9006
▁motivation	-9007
▁negatively	-9008
▁negligence	-9009
▁newspapers	-9010
▁objectives	-9011
▁obligatory	-9012
▁observable	-9013
▁opposition	-9014
▁oppressive	-9015
▁originally	-9016
▁overcooked	-9017
▁overweight	-9018
▁parenthood	-9019
▁patriotism	-9020
▁peacefully	-9021
▁perception	-9022
▁performing	-9023
▁physically	-9024
▁popularity	-9025
▁positively	-9026
▁preference	-9027
▁pretending	-9028
▁principles	-9029
▁procedures	-9030
▁programmed	-9031
▁questioned	-9032
▁recognizes	-9033
▁repeatedly	-9034
▁respectful	-9035
▁separation	-9036
▁signatures	-9037
▁smartphone	-9038
▁soundtrack	-9039
▁standpoint	-9040
▁strengthen	-9041
▁stretching	-9042
▁structures	-9043
▁subjective	-9044
▁subsequent	-9045
▁supervisor	-9046
▁sympathize	-9047
▁television	-9048
▁traditions	-9049
▁undermined	-9050
▁unemployed	-9051
▁unpleasant	-9052
▁upbringing	-9053
▁victimless	-9054
▁whatsoever	-9055
▁wheelchair	-9056
▁widespread	-9057
▁worthwhile	-9058
▁Association	-9059
▁Engineering	-9060
▁Individuals	-9061
▁Institution	-9062
▁Kickstarter	-9063
▁accordingly	-9064
▁adventurism	-9065
▁affirmation	-9066
▁association	-9067
▁automobiles	-9068
▁businessman	-9069
▁camaraderie	-9070
▁celebrating	-9071
▁celebration	-9072
▁certificate	-9073
▁competitors	-9074
▁compression	-9075
▁consumption	-9076
▁contentious	-9077
▁controllers	-9078
▁corporation	-9079
▁correctness	-9080
▁creatoinism	-9081
▁credibility	-9082
▁definitions	-9083
▁departments	-9084
▁destination	-9085
▁distraction	-9086
▁drastically	-9087
▁earthquakes	-9088
▁embarrassed	-9089
▁exclusively	-9090
▁extensively	-9091
▁financially	-9092
▁handicapped	-9093
▁immigration	-9094
▁implication	-9095
▁inalienable	-9096
▁inheritance	-9097
▁interaction	-9098
▁legislation	-9099
▁manufacture	-9100
▁misdemeanor	-9101
▁nationality	-9102
▁observation	-9103
▁outsourcing	-9104
▁outstanding	-9105
▁predictions	-9106
▁predisposed	-9107
▁prerogative	-9108
▁problematic	-9109
▁proceedings	-9110
▁progressive	-9111
▁prohibiting	-9112
▁prosecution	-9113
▁protectable	-9114
▁protections	-9115
▁questioning	-9116
▁requirement	-9117
▁restriction	-9118
▁selfishness	-9119
▁significant	-9120
▁situational	-9121
▁spectacular	-9122
▁speculative	-9123
▁substantial	-9124
▁superiority	-9125
▁surrounding	-9126
▁temperature	-9127
▁theoretical	-9128
▁traumatized	-9129
▁unfortunate	-9130
▁Californians	-9131
▁Libertarians	-9132
▁PRESIDENTIAL	-9133
▁acknowledged	-9134
▁administered	-9135
▁annihilating	-9136
▁associations	-9137
▁circumstance	-9138
▁conditioning	-9139
▁corporations	-9140
▁creationists	-9141
▁demonstrated	-9142
▁dramatically	-9143
▁economically	-9144
▁expectations	-9145
▁geographical	-9146
▁grandparents	-9147
▁guardianship	-9148
▁hypocritical	-9149
▁increasingly	-9150
▁individually	-9151
▁institutions	-9152
▁investigated	-9153
▁jurisdiction	-9154
▁overwhelming	-9155
▁representing	-9156
▁satisfaction	-9157
▁scholarships	-9158
▁successfully	-9159
▁surroundings	-9160
▁transmission	-9161
▁unemployment	-9162
▁unprofession	-9163
▁vaccinations	-9164
▁Enlightenment	-9165
▁accommodating	-9166
▁beneficiaries	-9167
▁consideration	-9168
▁contradictory	-9169
▁destabilizing	-9170
▁disadvantaged	-9171
▁establishment	-9172
▁imperfections	-9173
▁incarceration	-9174
▁individualist	-9175
▁international	-9176
▁intrinsically	-9177
▁justification	-9178
▁opportunities	-9179
▁participating	-9180
▁rationalizing	-9181
▁skateboarding	-9182
▁sophisticated	-9183
▁traditionally	-9184
▁Scientologists	-9185
▁Thoughtprocess	-9186
▁constitutional	-9187
▁disappointment	-9188
▁impressionable	-9189
▁infrastructure	-9190
▁interpretation	-9191
▁misinterpreted	-9192
▁photosynthesis	-9193
unconstitutional	-9194
▁electromagnetic	-9195
▁representatives	-9196
▁eg	-9197
field	-9198
▁imag	-9199
▁thor	-9200
piracy	-9201
▁votes	-9202
▁argued	-9203
▁basing	-9204
▁battle	-9205
▁larger	-9206
▁damages	-9207
protected	-9208
▁commonly	-9209
▁included	-9210
▁invested	-9211
▁conflicts	-9212
▁described	-9213
▁producing	-9214
▁reproduce	-9215
▁terrorism	-9216
▁conspiracy	-9217
▁frequently	-9218
▁thoroughly	-9219
▁advancement	-9220
▁communicate	-9221
▁unprotected	-9222
▁evolutionary	-9223
!?!	-9224
-15	-9225
-80	-9226
-88	-9227
.99	-9228
/50	-9229
24"	-9230
30'	-9231
34.	-9232
347	-9233
4-7	-9234
457	-9235
:45	-9236
ACK	-9237
ASS	-9238
BLU	-9239
CHI	-9240
CLU	-9241
ECK	-9242
EVE	-9243
GBT	-9244
IFA	-9245
Isn	-9246
LBT	-9247
NOC	-9248
TAK	-9249
TML	-9250
WOW	-9251
YPE	-9252
gdr	-9253
gpa	-9254
iws	-9255
sns	-9256
-15'	-9257
-20'	-9258
-80)	-9259
.(3)	-9260
/201	-9261
/50.	-9262
100.	-9263
1711	-9264
3471	-9265
6-88	-9266
ASSI	-9267
Anim	-9268
BLUF	-9269
Cuba	-9270
Does	-9271
EGAL	-9272
Gras	-9273
HICK	-9274
IEVE	-9275
ISCO	-9276
IVIL	-9277
NESS	-9278
ORML	-9279
OUNT	-9280
Play	-9281
Snap	-9282
TAKE	-9283
TAPS	-9284
Toby	-9285
guns	-9286
logy	-9287
okov	-9288
oopl	-9289
orpo	-9290
ougl	-9291
raud	-9292
span	-9293
sume	-9294
umni	-9295
usgs	-9296
ymor	-9297
▁"24	-9298
▁2/3	-9299
?3.	-9300
iiy	-9301
rgu	-9302
Argu	-9303
Keep	-9304
NATO	-9305
iiyt	-9306
▁(1)	-9307
▁24/	-9308
▁2:2	-9309
▁36,	-9310
▁40,	-9311
▁40?	-9312
▁DaV	-9313
▁EEE	-9314
▁FUN	-9315
▁IMH	-9316
▁IMO	-9317
▁IND	-9318
▁ITT	-9319
▁NFL	-9320
▁Sky	-9321
▁aka	-9322
▁dyn	-9323
▁ftw	-9324
▁lyr	-9325
▁xtk	-9326
*****	-9327
01711	-9328
1000.	-9329
BLUFF	-9330
Being	-9331
Canad	-9332
Color	-9333
EAGAL	-9334
EALLY	-9335
ECTED	-9336
ERVES	-9337
IGHTS	-9338
INTED	-9339
ITATE	-9340
OUNTR	-9341
Props	-9342
Relig	-9343
Scott	-9344
Share	-9345
UALLY	-9346
Video	-9347
Worse	-9348
acify	-9349
admis	-9350
agasc	-9351
agued	-9352
ajedy	-9353
amiah	-9354
ancip	-9355
ascot	-9356
becca	-9357
break	-9358
brium	-9359
cCain	-9360
chiat	-9361
eauty	-9362
ercil	-9363
euros	-9364
evalu	-9365
glass	-9366
handy	-9367
homes	-9368
iiytg	-9369
jimmy	-9370
ocado	-9371
ollyw	-9372
onkey	-9373
orris	-9374
party	-9375
plete	-9376
poena	-9377
quila	-9378
ribly	-9379
smart	-9380
spare	-9381
stein	-9382
sugar	-9383
taste	-9384
topia	-9385
uebec	-9386
urkey	-9387
uscan	-9388
utiny	-9389
works	-9390
xymor	-9391
ysmor	-9392
▁11-1	-9393
▁1976	-9394
▁1999	-9395
▁1:45	-9396
▁2/3'	-9397
▁2013	-9398
▁2015	-9399
37.	-9400
67.	-9401
URP	-9402
URT	-9403
URPR	-9404
blum	-9405
bono	-9406
eems	-9407
elax	-9408
imsy	-9409
misp	-9410
okay	-9411
osrs	-9412
rina	-9413
symm	-9414
▁1/4	-9415
▁80'	-9416
▁Leg	-9417
▁OLD	-9418
▁yrs	-9419
afina	-9420
blume	-9421
demon	-9422
girls	-9423
regon	-9424
rogen	-9425
teach	-9426
xteen	-9427
▁1/4)	-9428
▁7:30	-9429
▁8:30	-9430
▁BACK	-9431
▁Babe	-9432
▁Bond	-9433
▁Budd	-9434
▁COLL	-9435
▁CONN	-9436
▁Cran	-9437
▁Dais	-9438
▁Debt	-9439
▁EDIT	-9440
▁Flay	-9441
▁GNOC	-9442
▁HAPP	-9443
▁HATE	-9444
▁HECK	-9445
▁HINT	-9446
▁HTML	-9447
▁HURT	-9448
▁Haha	-9449
▁Know	-9450
▁LGBT	-9451
▁MUST	-9452
▁Moon	-9453
▁Pete	-9454
▁RESU	-9455
▁SELF	-9456
▁Toby	-9457
▁Veto	-9458
▁WORK	-9459
▁WORN	-9460
▁WebD	-9461
▁amok	-9462
▁bias	-9463
▁boom	-9464
▁borr	-9465
▁budd	-9466
▁bugs	-9467
▁buzz	-9468
▁cafe	-9469
▁dull	-9470
▁ebil	-9471
▁folk	-9472
▁fond	-9473
▁gimm	-9474
▁muds	-9475
▁nosy	-9476
▁owls	-9477
▁wann	-9478
▁zone	-9479
400.00	-9480
?!?!?!	-9481
ASSIVE	-9482
Bleach	-9483
Democr	-9484
Lastly	-9485
OINTED	-9486
Playst	-9487
Snapil	-9488
Snitch	-9489
Speech	-9490
URPRIS	-9491
USTICE	-9492
Unions	-9493
Unless	-9494
abokov	-9495
adilla	-9496
agneto	-9497
ancies	-9498
anilla	-9499
crab	-9500
▁Mcn	-9501
1000)	-9502
ajast	-9503
▁2002	-9504
30,000	-9505
OUNTRY	-9506
Surely	-9507
ajasth	-9508
animal	-9509
aphics	-9510
asaden	-9511
atersc	-9512
aulter	-9513
awarma	-9514
chiefs	-9515
cilman	-9516
cipher	-9517
cisely	-9518
client	-9519
commer	-9520
crimes	-9521
ctrine	-9522
destru	-9523
drogen	-9524
erials	-9525
estlew	-9526
family	-9527
gdrass	-9528
heimer	-9529
iapted	-9530
ibrill	-9531
ifiers	-9532
ilhelm	-9533
imming	-9534
incere	-9535
incest	-9536
ineman	-9537
inemat	-9538
inials	-9539
irgins	-9540
ittata	-9541
ixteen	-9542
levant	-9543
lifted	-9544
mercil	-9545
onosrs	-9546
orilla	-9547
ottery	-9548
palice	-9549
powers	-9550
ppered	-9551
profit	-9552
proper	-9553
ptiles	-9554
rengen	-9555
stique	-9556
tinent	-9557
uddles	-9558
uinely	-9559
ussels	-9560
valent	-9561
wanted	-9562
winism	-9563
winner	-9564
▁"24".	-9565
▁*"...	-9566
▁10-20	-9567
▁10/20	-9568
▁1000'	-9569
▁1837.	-9570
▁1930'	-9571
▁1967.	-9572
▁2015!	-9573
▁23-11	-9574
▁Aquin	-9575
▁Asada	-9576
▁Asian	-9577
▁Buddh	-9578
▁Caffe	-9579
▁Charl	-9580
▁Contr	-9581
▁Death	-9582
▁Enfor	-9583
▁FIGHT	-9584
▁Files	-9585
▁Filet	-9586
▁Flash	-9587
▁Harry	-9588
▁IMMED	-9589
▁Incre	-9590
▁LOLTV	-9591
▁LOVES	-9592
▁Laden	-9593
▁Larry	-9594
▁Lucky	-9595
▁METAL	-9596
▁Mcnab	-9597
▁Medic	-9598
▁Nazis	-9599
ACT	-9600
Chr	-9601
DCT	-9602
Amaz	-9603
clip	-9604
deep	-9605
mato	-9606
▁DIS	-9607
▁HAV	-9608
Chris	-9609
alaxy	-9610
choic	-9611
clips	-9612
upper	-9613
▁24/9	-9614
▁DISA	-9615
▁Elon	-9616
▁Flew	-9617
▁bona	-9618
▁flex	-9619
▁lids	-9620
!!!!!)	-9621
!)....	-9622
Amazon	-9623
Change	-9624
Choice	-9625
ergart	-9626
ilized	-9627
omsday	-9628
uckoos	-9629
▁24/96	-9630
▁Front	-9631
▁PCsIf	-9632
▁Porpo	-9633
▁SHOLD	-9634
▁Sandy	-9635
▁Schia	-9636
▁Skept	-9637
▁Spicy	-9638
▁Starb	-9639
▁Sunde	-9640
▁Swear	-9641
▁Takei	-9642
▁Tasty	-9643
▁Teens	-9644
▁Texas	-9645
▁WebDe	-9646
▁Years	-9647
▁altog	-9648
▁arise	-9649
▁ashes	-9650
▁bored	-9651
▁bouts	-9652
▁carto	-9653
▁cheek	-9654
▁chief	-9655
▁divid	-9656
▁dodge	-9657
▁dynam	-9658
▁earli	-9659
▁floor	-9660
▁folkl	-9661
▁foxes	-9662
▁furry	-9663
▁harry	-9664
▁harsh	-9665
▁hefty	-9666
▁holes	-9667
▁holid	-9668
▁juicy	-9669
▁juven	-9670
▁kevin	-9671
▁lofty	-9672
▁mitig	-9673
▁naive	-9674
▁obsur	-9675
▁onset	-9676
▁pagan	-9677
▁pepsi	-9678
▁picks	-9679
▁piece	-9680
▁prsns	-9681
▁recie	-9682
▁royal	-9683
▁rusty	-9684
▁scoop	-9685
▁scrub	-9686
▁semes	-9687
▁sewer	-9688
▁silly	-9689
▁siren	-9690
▁snobb	-9691
▁solja	-9692
▁soror	-9693
▁spicy	-9694
▁splur	-9695
▁stoop	-9696
▁straw	-9697
▁thief	-9698
▁threw	-9699
Coke	-9700
▁CPS	-9701
▁UPS	-9702
▁gym	-9703
LLING	-9704
alyst	-9705
lemen	-9706
scape	-9707
shell	-9708
▁Fein	-9709
▁Mask	-9710
▁Skin	-9711
▁akin	-9712
▁fert	-9713
▁juxt	-9714
▁maln	-9715
▁task	-9716
000.00	-9717
Around	-9718
ECTION	-9719
ILLING	-9720
alysts	-9721
amming	-9722
imizes	-9723
ishers	-9724
keeper	-9725
ophers	-9726
▁Guant	-9727
▁Roman	-9728
▁Worse	-9729
▁Worth	-9730
▁empir	-9731
▁fiber	-9732
▁ledge	-9733
▁neoli	-9734
▁ruler	-9735
▁scarc	-9736
▁squad	-9737
▁stunt	-9738
▁tools	-9739
▁trips	-9740
▁umbil	-9741
▁unpre	-9742
▁unvei	-9743
▁upset	-9744
▁veiws	-9745
▁xtklp	-9746
0171100	-9747
6000.00	-9748
70,000?	-9749
Animals	-9750
Another	-9751
FireFox	-9752
ICKNESS	-9753
Imagine	-9754
Sublime	-9755
amorous	-9756
anchise	-9757
archers	-9758
asadena	-9759
aunting	-9760
becouse	-9761
believe	-9762
commits	-9763
creased	-9764
decided	-9765
destroy	-9766
discuss	-9767
drafted	-9768
eminist	-9769
estrong	-9770
failure	-9771
finally	-9772
finance	-9773
freedom	-9774
gorithm	-9775
iblings	-9776
ifiable	-9777
ighteen	-9778
illegal	-9779
impress	-9780
instein	-9781
iomatic	-9782
ipulate	-9783
irginia	-9784
legally	-9785
manager	-9786
nership	-9787
olerant	-9788
ooooooo	-9789
operate	-9790
ophiles	-9791
popular	-9792
preting	-9793
regated	-9794
reinfor	-9795
rejimmy	-9796
russels	-9797
siblity	-9798
someday	-9799
CAR	-9800
deen	-9801
nsed	-9802
weak	-9803
▁INC	-9804
hairs	-9805
hired	-9806
olita	-9807
pairs	-9808
pover	-9809
▁Coca	-9810
▁Gene	-9811
▁palm	-9812
▁palt	-9813
▁palu	-9814
▁vert	-9815
abbing	-9816
enator	-9817
ltered	-9818
piring	-9819
ubator	-9820
▁Conqu	-9821
▁INCOM	-9822
▁Manip	-9823
▁Mesop	-9824
▁Steak	-9825
▁domin	-9826
▁unpet	-9827
poverty	-9828
quiring	-9829
repairs	-9830
ropolit	-9831
tential	-9832
udgment	-9833
ullness	-9834
vesting	-9835
waiting	-9836
xymoron	-9837
zheimer	-9838
▁30.00,	-9839
▁60-80)	-9840
▁ANYONE	-9841
▁Addict	-9842
▁Adding	-9843
▁Blairs	-9844
▁Bollyw	-9845
▁Burger	-9846
▁Crimes	-9847
▁Crisis	-9848
▁DISAPP	-9849
▁Democr	-9850
▁Donald	-9851
▁FATHER	-9852
▁Fairly	-9853
▁Galaxy	-9854
▁HAHAHA	-9855
▁HAPPIN	-9856
▁Hammon	-9857
▁Hardly	-9858
▁Humank	-9859
▁INCOME	-9860
▁Lastly	-9861
▁Leagle	-9862
▁Loaded	-9863
▁Lolita	-9864
▁Malays	-9865
▁Mcnabb	-9866
▁Misuse	-9867
▁Morris	-9868
▁Mozill	-9869
▁NASCAR	-9870
▁Number	-9871
▁Oregon	-9872
▁Palace	-9873
▁Remove	-9874
▁Reserv	-9875
▁Schiav	-9876
▁Sharma	-9877
▁Skills	-9878
▁Spoken	-9879
▁Subway	-9880
▁Triple	-9881
▁Truman	-9882
▁Tupper	-9883
▁Victim	-9884
▁Westbr	-9885
▁Whilst	-9886
▁Winter	-9887
▁Wishes	-9888
▁Wonder	-9889
▁aggreg	-9890
▁amoral	-9891
▁angles	-9892
▁bacter	-9893
▁barbar	-9894
▁beaten	-9895
▁biomet	-9896
▁brewed	-9897
▁brothe	-9898
▁bureau	-9899
,10	-9900
103	-9901
9,10	-9902
Huge	-9903
addy	-9904
belt	-9905
chev	-9906
engg	-9907
etti	-9908
scro	-9909
ummy	-9910
unno	-9911
wait	-9912
▁42)	-9913
▁BEL	-9914
▁Bye	-9915
▁Eye	-9916
▁ISR	-9917
conno	-9918
contr	-9919
daddy	-9920
ossom	-9921
train	-9922
truck	-9923
truth	-9924
uwait	-9925
▁160'	-9926
▁Crow	-9927
▁ISRO	-9928
▁inev	-9929
▁loos	-9930
emengg	-9931
ghetti	-9932
rehens	-9933
rocket	-9934
scroll	-9935
▁29,10	-9936
▁Scary	-9937
▁Sport	-9938
▁bulld	-9939
▁cutsc	-9940
▁dunno	-9941
▁govts	-9942
▁mommy	-9943
▁yummy	-9944
Parents	-9945
address	-9946
aghetti	-9947
payment	-9948
trained	-9949
uctance	-9950
ushchev	-9951
▁Kuwait	-9952
▁Sports	-9953
▁aliens	-9954
▁bypass	-9955
▁camper	-9956
▁canada	-9957
▁caseNo	-9958
▁cathol	-9959
▁celery	-9960
▁celled	-9961
▁chatng	-9962
▁cheesy	-9963
▁chipot	-9964
▁clergy	-9965
▁closer	-9966
▁convey	-9967
▁crazed	-9968
▁curios	-9969
▁decoys	-9970
▁dissap	-9971
▁divide	-9972
▁dosage	-9973
▁dosent	-9974
▁dreamt	-9975
▁drowns	-9976
▁dysmor	-9977
▁embroy	-9978
▁embryo	-9979
▁enrich	-9980
▁envoir	-9981
▁eventh	-9982
▁execut	-9983
▁extras	-9984
▁exwife	-9985
▁facial	-9986
▁firmly	-9987
▁frustr	-9988
▁galaxy	-9989
▁gallop	-9990
▁gamble	-9991
▁greedy	-9992
▁hemisp	-9993
▁hiking	-9994
▁hiways	-9995
▁hoodie	-9996
▁houses	-9997
▁imagin	-9998
▁immune	-9999
loe	-10000
mym	-10001
php	-10002
EVER	-10003
VERS	-10004
haul	-10005
nwer	-10006
ohan	-10007
olph	-10008
phia	-10009
phir	-10010
▁PhD	-10011
▁mph	-10012
EVERY	-10013
plays	-10014
▁ANAL	-10015
▁Pran	-10016
▁Twit	-10017
▁ackn	-10018
▁emph	-10019
▁nuer	-10020
▁nuke	-10021
▁wavy	-10022
ceeded	-10023
create	-10024
ctonic	-10025
denial	-10026
integr	-10027
leshed	-10028
mymuse	-10029
otamia	-10030
ubborn	-10031
▁Dolph	-10032
▁False	-10033
▁Hamur	-10034
▁Hussi	-10035
▁Lohan	-10036
▁Phili	-10037
▁Proof	-10038
▁ackno	-10039
▁draws	-10040
▁hopel	-10041
▁nucle	-10042
▁nuits	-10043
▁panic	-10044
▁russi	-10045
▁whloe	-10046
ibalism	-10047
ilators	-10048
iloring	-10049
knowing	-10050
ocolate	-10051
phiroth	-10052
riendly	-10053
▁BETTER	-10054
▁Carter	-10055
▁Philip	-10056
▁Pranab	-10057
▁Prince	-10058
▁asnwer	-10059
▁emphas	-10060
▁exceed	-10061
▁filler	-10062
▁incons	-10063
▁insurg	-10064
▁ironed	-10065
▁jacket	-10066
▁jurors	-10067
▁juxtap	-10068
▁layers	-10069
▁layman	-10070
▁livest	-10071
▁margar	-10072
▁mascot	-10073
▁merger	-10074
▁merits	-10075
▁microb	-10076
▁mixing	-10077
▁models	-10078
▁monopo	-10079
▁neatly	-10080
▁nerves	-10081
▁nobles	-10082
▁nuance	-10083
▁obsurd	-10084
▁oceans	-10085
▁offset	-10086
▁ordeal	-10087
▁paluza	-10088
▁parano	-10089
▁peopel	-10090
▁pituit	-10091
▁poetry	-10092
▁prague	-10093
▁presti	-10094
▁psycho	-10095
▁purist	-10096
▁reconf	-10097
▁respir	-10098
▁ridden	-10099
4.5	-10100
AST	-10101
EMA	-10102
FMA	-10103
PID	-10104
SID	-10105
ANTS	-10106
MAST	-10107
OAST	-10108
clos	-10109
rots	-10110
▁RTS	-10111
▁SST	-10112
AMAST	-10113
Court	-10114
class	-10115
queer	-10116
▁FEMA	-10117
▁Mean	-10118
▁SSID	-10119
▁auto	-10120
AMASTE	-10121
OASTED	-10122
addict	-10123
clical	-10124
mascul	-10125
▁Trust	-10126
▁WANTS	-10127
▁boobs	-10128
▁divis	-10129
▁likli	-10130
▁riots	-10131
▁steam	-10132
▁steel	-10133
Already	-10134
astrous	-10135
ivizing	-10136
olished	-10137
onizing	-10138
▁Listed	-10139
▁STUPID	-10140
▁aggree	-10141
▁angers	-10142
▁cheque	-10143
▁desean	-10144
▁faults	-10145
▁influx	-10146
▁rifles	-10147
▁ruiner	-10148
▁sedate	-10149
▁sensit	-10150
▁shifts	-10151
▁shoots	-10152
▁shreds	-10153
▁sirens	-10154
▁soccer	-10155
▁socioh	-10156
▁solely	-10157
▁soothe	-10158
▁specim	-10159
▁sprout	-10160
▁steams	-10161
▁sticks	-10162
▁strata	-10163
▁streng	-10164
▁sucked	-10165
▁tarter	-10166
▁tattoo	-10167
▁temple	-10168
▁theres	-10169
▁thirty	-10170
▁tolerl	-10171
▁trends	-10172
▁tribes	-10173
▁tribun	-10174
▁tuscan	-10175
▁uncles	-10176
▁upkeep	-10177
▁vacuum	-10178
▁valued	-10179
▁verify	-10180
▁versus	-10181
▁volley	-10182
▁volunt	-10183
▁wander	-10184
▁weighs	-10185
▁wouold	-10186
Colorado	-10187
Congress	-10188
Creation	-10189
EVERYONE	-10190
Feminist	-10191
IDIATELY	-10192
ISCOVERS	-10193
IVILIANS	-10194
Improper	-10195
Judgment	-10196
Shopping	-10197
UICKNESS	-10198
addicted	-10199
311	-10200
VIC	-10201
VICT	-10202
caut	-10203
▁180	-10204
▁50'	-10205
▁SAY	-10206
goers	-10207
going	-10208
preme	-10209
ricts	-10210
▁Clan	-10211
▁Sinn	-10212
▁THEN	-10213
▁facr	-10214
▁pizz	-10215
▁redo	-10216
VICTED	-10217
nature	-10218
strate	-10219
▁RESUL	-10220
▁Relax	-10221
▁mango	-10222
▁pills	-10223
despite	-10224
supreme	-10225
uffling	-10226
▁Cheese	-10227
▁Nature	-10228
▁flimsy	-10229
▁forego	-10230
▁inflam	-10231
▁pizzas	-10232
▁plight	-10233
▁secual	-10234
▁unfail	-10235
▁unfath	-10236
andalism	-10237
argument	-10238
arsimony	-10239
aterscor	-10240
attached	-10241
attering	-10242
avelling	-10243
believer	-10244
birthday	-10245
breather	-10246
business	-10247
cautions	-10248
centered	-10249
changing	-10250
chipping	-10251
choicers	-10252
cklessly	-10253
closures	-10254
complete	-10255
ctifying	-10256
cussions	-10257
epidemic	-10258
ergarten	-10259
ermining	-10260
ervience	-10261
esadilla	-10262
existing	-10263
fireThis	-10264
graduate	-10265
herishes	-10266
icesnsed	-10267
ignoring	-10268
ilibrium	-10269
incurred	-10270
inforces	-10271
istature	-10272
ligizing	-10273
messinis	-10274
olerance	-10275
ourgirls	-10276
ourished	-10277
powerful	-10278
religion	-10279
roughout	-10280
rushchev	-10281
spanking	-10282
stranger	-10283
strategy	-10284
strating	-10285
thankyou	-10286
uishable	-10287
underage	-10288
wardness	-10289
xication	-10290
zeppelin	-10291
▁(!!!!!)	-10292
▁112,000	-10293
▁Actions	-10294
▁Aquinas	-10295
▁Arabian	-10296
▁BELIEVE	-10297
▁COUNTRY	-10298
▁Cheesec	-10299
/10	-10300
20'	-10301
ANI	-10302
EEN	-10303
MEN	-10304
SAN	-10305
8/10	-10306
GANI	-10307
MENT	-10308
SAND	-10309
WEEN	-10310
bani	-10311
chah	-10312
huff	-10313
mery	-10314
▁HAN	-10315
▁MAN	-10316
▁nah	-10317
48/10	-10318
SANDS	-10319
UMENT	-10320
amole	-10321
donat	-10322
ppery	-10323
▁FOOD	-10324
▁Lock	-10325
▁Park	-10326
▁sins	-10327
GUMENT	-10328
ORGANI	-10329
amedic	-10330
attley	-10331
chahal	-10332
donatm	-10333
huffle	-10334
▁1920'	-10335
▁Allah	-10336
▁Emery	-10337
▁Neigh	-10338
▁feeds	-10339
▁fraud	-10340
▁hallu	-10341
▁hurts	-10342
▁loser	-10343
▁spark	-10344
▁twins	-10345
▁unita	-10346
▁windy	-10347
OUSANDS	-10348
alantly	-10349
donatmt	-10350
etscape	-10351
however	-10352
lippery	-10353
orseful	-10354
▁Arabia	-10355
▁cereal	-10356
▁flying	-10357
▁halluc	-10358
▁losses	-10359
▁mystic	-10360
▁salmon	-10361
▁settle	-10362
▁smarty	-10363
▁storms	-10364
aramedic	-10365
iversify	-10366
▁BETWEEN	-10367
▁Chronic	-10368
▁Collect	-10369
▁Complet	-10370
▁Contain	-10371
▁Cuckoos	-10372
▁DaVinci	-10373
▁Debates	-10374
▁Develop	-10375
▁Discuss	-10376
▁Enforce	-10377
▁Finally	-10378
▁FireFox	-10379
▁General	-10380
▁Georgia	-10381
▁Glaring	-10382
▁Granted	-10383
▁Guantan	-10384
▁HANDING	-10385
▁Hearing	-10386
▁Honesty	-10387
▁Introdu	-10388
▁Iranian	-10389
▁Jackson	-10390
▁KILLING	-10391
▁Keeping	-10392
▁Knowing	-10393
▁Legally	-10394
▁Luckily	-10395
▁MASSIVE	-10396
▁Magneto	-10397
▁Minimum	-10398
▁Neurons	-10399
DMA	-10400
One	-10401
mmm	-10402
neo	-10403
0.00	-10404
Donn	-10405
Fund	-10406
Hmmm	-10407
ITOR	-10408
ORON	-10409
Paci	-10410
alyp	-10411
ayne	-10412
mmmm	-10413
raze	-10414
sama	-10415
60.00	-10416
Craze	-10417
Layne	-10418
arene	-10419
cycle	-10420
hmmmm	-10421
laced	-10422
neath	-10423
oungh	-10424
▁Jung	-10425
▁MDMA	-10426
▁gaze	-10427
▁noun	-10428
▁nude	-10429
▁seaf	-10430
ITORED	-10431
ORONIC	-10432
alypse	-10433
letton	-10434
▁alley	-10435
▁limew	-10436
▁osama	-10437
▁unsec	-10438
Donnell	-10439
Pacific	-10440
arCraze	-10441
olutley	-10442
recycle	-10443
▁COMPLE	-10444
▁eoungh	-10445
▁machin	-10446
▁mandit	-10447
▁strife	-10448
▁unreal	-10449
01711001	-10450
Donnells	-10451
ONITORED	-10452
andering	-10453
elligent	-10454
keletton	-10455
ocalypse	-10456
▁Hitting	-10457
▁Jungles	-10458
▁MORONIC	-10459
▁Ordered	-10460
▁RESULTS	-10461
▁ROASTED	-10462
▁Rajasth	-10463
▁Russian	-10464
▁SURPRIS	-10465
▁Saddams	-10466
▁Setting	-10467
▁Sixteen	-10468
▁Sliders	-10469
▁Temengg	-10470
▁Thanksg	-10471
▁Twitter	-10472
▁Viewing	-10473
▁Western	-10474
▁abandon	-10475
▁abusing	-10476
▁adamant	-10477
▁adopter	-10478
▁adulter	-10479
▁afterno	-10480
▁altered	-10481
▁altough	-10482
▁annoyed	-10483
▁astrong	-10484
▁athiest	-10485
▁atleast	-10486
▁attests	-10487
▁averted	-10488
▁beaches	-10489
▁beacuse	-10490
▁begging	-10491
▁blatant	-10492
▁blocked	-10493
▁boycott	-10494
▁breadth	-10495
▁bribing	-10496
▁buddies	-10497
▁bulldog	-10498
▁bullied	-10499
1.)	-10500
▁6.	-10501
phab	-10502
▁(99	-10503
▁FAM	-10504
▁WOM	-10505
..1.)	-10506
domen	-10507
oetus	-10508
omena	-10509
▁FAMI	-10510
▁horr	-10511
▁pedi	-10512
▁pets	-10513
▁unlo	-10514
ascist	-10515
coming	-10516
foetus	-10517
outube	-10518
phabet	-10519
worked	-10520
▁86-88	-10521
▁Claim	-10522
▁Flies	-10523
▁Schum	-10524
▁WOMAN	-10525
▁booze	-10526
▁felon	-10527
▁horse	-10528
▁hosts	-10529
▁misin	-10530
Youtube	-10531
acebook	-10532
borhood	-10533
evances	-10534
opsicle	-10535
▁Claims	-10536
▁FAMILY	-10537
▁agency	-10538
▁agrees	-10539
▁boyard	-10540
▁circum	-10541
▁earned	-10542
▁lifere	-10543
▁misled	-10544
▁pediat	-10545
▁scenes	-10546
▁sugget	-10547
Facebook	-10548
distract	-10549
▁abdomen	-10550
▁bulling	-10551
▁caliber	-10552
▁caloric	-10553
▁calorie	-10554
▁carrots	-10555
▁catastr	-10556
▁centers	-10557
▁checked	-10558
▁cinemat	-10559
▁clinics	-10560
▁clinton	-10561
▁compels	-10562
▁condemn	-10563
▁condoms	-10564
▁congrad	-10565
▁cookies	-10566
▁cousins	-10567
▁crooked	-10568
▁crossed	-10569
▁cutscen	-10570
▁darkest	-10571
▁decoded	-10572
▁defiant	-10573
▁defraud	-10574
▁denotes	-10575
▁descrim	-10576
▁desired	-10577
▁dissent	-10578
▁donkeys	-10579
▁dumbass	-10580
▁earners	-10581
▁element	-10582
▁emancip	-10583
▁enhance	-10584
▁enlight	-10585
▁essence	-10586
▁eternal	-10587
▁eugenic	-10588
▁experim	-10589
▁explode	-10590
▁extream	-10591
▁failing	-10592
▁fooling	-10593
▁freakin	-10594
▁gasping	-10595
▁germany	-10596
▁glutiny	-10597
▁grabbed	-10598
▁grandpa	-10599
jdr	-10600
▁7,	-10601
▁78	-10602
bury	-10603
gypt	-10604
jdrk	-10605
umbo	-10606
▁LOB	-10607
▁irr	-10608
▁sni	-10609
Sorry	-10610
ategy	-10611
hands	-10612
kjdrk	-10613
lined	-10614
oined	-10615
▁DAYS	-10616
▁Orle	-10617
▁snee	-10618
▁snob	-10619
erbury	-10620
fficer	-10621
joined	-10622
office	-10623
osling	-10624
porate	-10625
umbent	-10626
▁Achie	-10627
▁Egypt	-10628
▁Jimmy	-10629
▁Sands	-10630
▁clubs	-10631
▁doggy	-10632
▁jumbo	-10633
▁plumb	-10634
▁sicko	-10635
asingly	-10636
ijkjdrk	-10637
▁Facial	-10638
▁cleanl	-10639
▁excuss	-10640
▁gained	-10641
▁joking	-10642
▁obsess	-10643
▁orient	-10644
▁prides	-10645
▁revert	-10646
▁salads	-10647
▁sniffs	-10648
▁snitch	-10649
▁thrill	-10650
▁urging	-10651
▁visits	-10652
▁visual	-10653
▁widely	-10654
grabbing	-10655
handsome	-10656
▁Gosling	-10657
▁LOBSTER	-10658
▁Officer	-10659
▁Orleans	-10660
▁amended	-10661
▁athelet	-10662
▁chasing	-10663
▁cleaner	-10664
▁cleanse	-10665
▁gaining	-10666
▁hackman	-10667
▁horrors	-10668
▁hyperin	-10669
▁impacts	-10670
▁inadmis	-10671
▁irrecon	-10672
▁islands	-10673
▁largely	-10674
▁lenient	-10675
▁lightly	-10676
▁lineman	-10677
▁lobster	-10678
▁lunches	-10679
▁mandort	-10680
▁masterp	-10681
▁maximum	-10682
▁misused	-10683
▁monthly	-10684
▁moronic	-10685
▁mussels	-10686
▁nomadic	-10687
▁nuanced	-10688
▁nuclear	-10689
▁nuitsen	-10690
▁obliged	-10691
▁organiz	-10692
▁orginal	-10693
▁outfits	-10694
▁outlets	-10695
▁outlive	-10696
▁overpay	-10697
▁overtax	-10698
▁persist	-10699
CAT	-10700
ITH	-10701
Inc	-10702
PIT	-10703
▁97	-10704
▁99	-10705
PITE	-10706
THER	-10707
UCAT	-10708
cogn	-10709
cumb	-10710
▁DUM	-10711
▁LIT	-10712
▁MAT	-10713
ITHOU	-10714
almon	-10715
arker	-10716
atsby	-10717
isked	-10718
romos	-10719
wires	-10720
▁DUMB	-10721
▁Does	-10722
▁Doll	-10723
ITHOUT	-10724
amentI	-10725
cogniz	-10726
ostrom	-10727
uslims	-10728
▁OTHER	-10729
▁barre	-10730
▁barri	-10731
▁combo	-10732
▁exhib	-10733
▁misle	-10734
▁tires	-10735
UCATION	-10736
inatory	-10737
ltimate	-10738
muslims	-10739
surance	-10740
▁Bleach	-10741
▁Dollar	-10742
▁Gatsby	-10743
▁Incumb	-10744
▁LITTLE	-10745
▁MATTER	-10746
▁Salmon	-10747
▁accomp	-10748
▁custod	-10749
▁darker	-10750
▁fatter	-10751
▁grader	-10752
▁rowing	-10753
▁weeded	-10754
Incident	-10755
accident	-10756
hibition	-10757
ironment	-10758
romosome	-10759
▁Bostrom	-10760
▁DESPITE	-10761
▁WITHOUT	-10762
▁barrels	-10763
▁barrist	-10764
▁entails	-10765
▁frisked	-10766
▁guessed	-10767
▁picking	-10768
▁pitiful	-10769
▁pledged	-10770
▁pockets	-10771
▁poisons	-10772
▁poluted	-10773
▁praises	-10774
▁prepost	-10775
▁presupp	-10776
▁pretext	-10777
▁rebirth	-10778
▁recieve	-10779
▁recover	-10780
▁reduces	-10781
▁reeling	-10782
▁relieve	-10783
▁removes	-10784
▁replied	-10785
▁replies	-10786
▁revenoo	-10787
▁rewards	-10788
▁rivaled	-10789
▁roadway	-10790
▁robbers	-10791
▁rubbery	-10792
▁rubbing	-10793
▁satisfy	-10794
▁savings	-10795
▁scoring	-10796
▁seafood	-10797
▁sensory	-10798
▁sexWhat	-10799
Edd	-10800
shr	-10801
hosp	-10802
osph	-10803
shad	-10804
shir	-10805
,000'	-10806
,000,	-10807
Eddie	-10808
amsay	-10809
beats	-10810
dding	-10811
index	-10812
ortex	-10813
▁Bern	-10814
▁HERE	-10815
▁Laci	-10816
▁Lenn	-10817
▁vari	-10818
likely	-10819
murder	-10820
osphor	-10821
shirts	-10822
should	-10823
urring	-10824
▁Field	-10825
▁chats	-10826
▁enshr	-10827
▁ethic	-10828
▁falls	-10829
▁grams	-10830
▁homes	-10831
▁retal	-10832
▁seams	-10833
20,000,	-10834
assault	-10835
atching	-10836
isexual	-10837
shadows	-10838
▁1,000'	-10839
▁Cannot	-10840
▁Lennon	-10841
▁Pledge	-10842
▁Ramsay	-10843
▁cortex	-10844
▁favors	-10845
▁futher	-10846
▁futile	-10847
▁retali	-10848
▁shield	-10849
▁variab	-10850
▁varies	-10851
▁wastes	-10852
Theology	-10853
hospital	-10854
osphoric	-10855
unlikely	-10856
watching	-10857
▁Bernard	-10858
▁Chances	-10859
▁fallacy	-10860
▁falling	-10861
▁frontal	-10862
▁glasses	-10863
▁hateful	-10864
▁nodding	-10865
▁painful	-10866
▁promiss	-10867
▁shooter	-10868
▁sickens	-10869
▁sinking	-10870
▁skaters	-10871
▁skipped	-10872
▁soldier	-10873
▁someday	-10874
▁sorting	-10875
▁sounded	-10876
▁splurge	-10877
▁staging	-10878
▁starter	-10879
▁stealth	-10880
▁stemmed	-10881
▁sterile	-10882
▁stimual	-10883
▁stomach	-10884
▁storage	-10885
▁streets	-10886
▁sublime	-10887
▁swapped	-10888
▁teenage	-10889
▁terrace	-10890
▁themIts	-10891
▁thinner	-10892
▁thisNot	-10893
▁tissues	-10894
▁tonight	-10895
▁topping	-10896
▁touched	-10897
▁touches	-10898
▁traitor	-10899
10/	-10900
?',	-10901
DON	-10902
drop	-10903
elev	-10904
otte	-10905
ropy	-10906
▁Atl	-10907
▁GET	-10908
▁THe	-10909
eleve	-10910
engen	-10911
ffirm	-10912
raped	-10913
senal	-10914
▁Impr	-10915
▁Teen	-10916
▁damp	-10917
▁devi	-10918
▁gaps	-10919
▁laps	-10920
church	-10921
ealing	-10922
ederal	-10923
ributr	-10924
uicide	-10925
▁Atlas	-10926
▁Pepsi	-10927
▁chime	-10928
▁cooks	-10929
▁encod	-10930
▁hotel	-10931
▁pasta	-10932
▁pitch	-10933
Suicide	-10934
claimed	-10935
eaffirm	-10936
inguine	-10937
itchell	-10938
righted	-10939
veryman	-10940
▁Server	-10941
▁Tengen	-10942
▁chased	-10943
▁league	-10944
▁lieing	-10945
▁mistak	-10946
▁perman	-10947
▁regime	-10948
▁squeez	-10949
▁todays	-10950
▁transm	-10951
▁treaty	-10952
avesdrop	-10953
culation	-10954
elevated	-10955
enuating	-10956
everyman	-10957
istribut	-10958
wrighted	-10959
▁Arsenal	-10960
▁Dealing	-10961
▁Federal	-10962
▁appease	-10963
▁condone	-10964
▁confirm	-10965
▁damning	-10966
▁designs	-10967
▁deviate	-10968
▁earthly	-10969
▁engross	-10970
▁entropy	-10971
▁environ	-10972
▁forgive	-10973
▁pitched	-10974
▁reevalu	-10975
▁richier	-10976
▁tricked	-10977
▁tweleve	-10978
▁unaware	-10979
▁unclear	-10980
▁undeser	-10981
▁undiscl	-10982
▁unheard	-10983
▁unified	-10984
▁unloved	-10985
▁unsubst	-10986
▁utility	-10987
▁vanilla	-10988
▁vaulter	-10989
▁venting	-10990
▁virgins	-10991
▁visible	-10992
▁warning	-10993
▁weakens	-10994
▁weighed	-10995
▁wingers	-10996
▁zealots	-10997
!!!!!!!!!	-10998
Comparing	-10999
.'-	-11000
EED	-11001
eek	-11002
▁??	-11003
REED	-11004
Seek	-11005
irds	-11006
ricy	-11007
▁ITS	-11008
▁Lee	-11009
▁MED	-11010
▁Ott	-11011
Desec	-11012
dging	-11013
lands	-11014
named	-11015
sized	-11016
▁2011	-11017
▁MEDC	-11018
▁Pric	-11019
▁pean	-11020
▁roof	-11021
▁swap	-11022
▁tape	-11023
▁veto	-11024
REEDOM	-11025
astram	-11026
atured	-11027
island	-11028
odging	-11029
ricide	-11030
▁Donov	-11031
▁birds	-11032
▁burns	-11033
▁mercy	-11034
▁pricy	-11035
▁wests	-11036
abiding	-11037
ardized	-11038
astrami	-11039
grounds	-11040
ledging	-11041
pecific	-11042
pocricy	-11043
ricting	-11044
ridging	-11045
▁Border	-11046
▁COLLIS	-11047
▁Living	-11048
▁excers	-11049
▁headed	-11050
▁headqu	-11051
▁housew	-11052
▁mocked	-11053
▁neglet	-11054
▁peices	-11055
▁seeped	-11056
▁unconf	-11057
featured	-11058
gression	-11059
pastrami	-11060
specific	-11061
therwise	-11062
ypocricy	-11063
▁Donovan	-11064
▁FREEDOM	-11065
▁Ottoman	-11066
▁Pricing	-11067
▁arrests	-11068
▁distort	-11069
▁distric	-11070
▁judging	-11071
▁lodging	-11072
▁peanuts	-11073
▁quarter	-11074
DISCOVERS	-11075
Democrats	-11076
Otherwise	-11077
Paramedic	-11078
Religions	-11079
abrejimmy	-11080
according	-11081
actresses	-11082
afflement	-11083
allengers	-11084
anitation	-11085
ansiapted	-11086
anterbury	-11087
arization	-11088
arvesting	-11089
automatic	-11090
awareness	-11091
bringback	-11092
classical	-11093
cological	-11094
criptions	-11095
developed	-11096
diversify	-11097
elligence	-11098
employers	-11099
iji	-11100
Kurt	-11101
ueso	-11102
▁3.0	-11103
▁Dec	-11104
▁Rec	-11105
▁Sec	-11106
Pepsi	-11107
ecces	-11108
ijack	-11109
otony	-11110
thats	-11111
touch	-11112
value	-11113
▁ACLU	-11114
▁Berm	-11115
▁Fiji	-11116
▁Term	-11117
▁arts	-11118
▁gunk	-11119
▁lows	-11120
▁occa	-11121
▁park	-11122
▁turt	-11123
Assume	-11124
elping	-11125
necces	-11126
olping	-11127
versey	-11128
▁Apply	-11129
▁Citiz	-11130
▁Micro	-11131
▁Terma	-11132
▁bites	-11133
▁energ	-11134
▁hping	-11135
▁indec	-11136
▁lowas	-11137
▁parag	-11138
▁shock	-11139
▁stock	-11140
ijacked	-11141
imistic	-11142
unistic	-11143
▁Berman	-11144
▁especi	-11145
▁gPepsi	-11146
▁gunned	-11147
▁misery	-11148
▁pilfer	-11149
▁singed	-11150
▁turtle	-11151
▁Citizen	-11152
▁Decades	-11153
▁Helping	-11154
▁Microso	-11155
▁bigoted	-11156
▁dealing	-11157
▁flashes	-11158
▁languag	-11159
▁prosthe	-11160
▁refered	-11161
▁refutes	-11162
▁spinach	-11163
eneration	-11164
erosexual	-11165
ervitives	-11166
icipating	-11167
ictimless	-11168
implement	-11169
inspiring	-11170
intensive	-11171
interpret	-11172
istration	-11173
itigation	-11174
ivestrong	-11175
jectively	-11176
lusionary	-11177
neccesary	-11178
oligizing	-11179
omination	-11180
omosexual	-11181
orization	-11182
reatening	-11183
rehensive	-11184
ributable	-11185
rightness	-11186
ropolitan	-11187
scrollers	-11188
skeletton	-11189
socialist	-11190
sometimes	-11191
supported	-11192
tolerance	-11193
validates	-11194
▁29,10:59	-11195
▁Arrested	-11196
▁Business	-11197
▁CarCraze	-11198
▁Churches	-11199
**:	-11200
25.	-11201
EST	-11202
UNG	-11203
cube	-11204
echn	-11205
oobs	-11206
▁10,	-11207
▁109	-11208
▁Blv	-11209
▁MTV	-11210
Techn	-11211
UNGER	-11212
balls	-11213
boobs	-11214
drink	-11215
isket	-11216
osses	-11217
ulses	-11218
▁BEST	-11219
▁Blvd	-11220
▁FIFA	-11221
▁eats	-11222
▁filt	-11223
▁grip	-11224
▁husk	-11225
▁naut	-11226
▁ribs	-11227
almost	-11228
change	-11229
histor	-11230
orized	-11231
vented	-11232
▁Seems	-11233
▁godly	-11234
▁herbs	-11235
▁sells	-11236
arriage	-11237
lusions	-11238
vention	-11239
ventive	-11240
▁HUNGER	-11241
▁Marily	-11242
▁Within	-11243
▁affair	-11244
▁bosses	-11245
▁camera	-11246
▁config	-11247
▁confis	-11248
▁destru	-11249
▁havent	-11250
▁holder	-11251
▁hunker	-11252
▁oppose	-11253
▁static	-11254
Marriage	-11255
OOOOOOOO	-11256
acefully	-11257
assisted	-11258
distinct	-11259
drinking	-11260
esbefore	-11261
terblume	-11262
▁Marilyn	-11263
▁brisket	-11264
▁destiny	-11265
▁genetic	-11266
▁parking	-11267
▁speaker	-11268
▁suffice	-11269
askhistor	-11270
mandering	-11271
▁DESERVES	-11272
▁Disagree	-11273
▁Doctrine	-11274
▁Dolphins	-11275
▁Eighteen	-11276
▁Engineer	-11277
▁FOUNDING	-11278
▁Fidelity	-11279
▁Gamecube	-11280
▁HESITATE	-11281
▁Hinduism	-11282
▁Homeland	-11283
▁Islander	-11284
▁Japanese	-11285
▁Justices	-11286
▁Madagasc	-11287
▁Majority	-11288
▁Mathemat	-11289
▁Mitchell	-11290
▁Mountain	-11291
▁Mozillia	-11292
▁Nazarene	-11293
▁Netscape	-11294
▁Nintendo	-11295
▁Peterson	-11296
▁Pharmacy	-11297
▁Pilgrims	-11298
▁Popsicle	-11299
New	-11300
exc	-11301
new	-11302
▁49	-11303
OMOT	-11304
cann	-11305
etto	-11306
ewel	-11307
ioen	-11308
ioph	-11309
izio	-11310
▁494	-11311
▁glo	-11312
Maybe	-11313
ORPGs	-11314
anned	-11315
enned	-11316
excus	-11317
fying	-11318
hetto	-11319
ioeng	-11320
ouned	-11321
panic	-11322
▁4949	-11323
▁GONE	-11324
▁Work	-11325
▁gale	-11326
▁glam	-11327
▁mumb	-11328
▁pads	-11329
▁salt	-11330
0,000,	-11331
ascent	-11332
ennedy	-11333
ewelry	-11334
icient	-11335
ollege	-11336
quares	-11337
riends	-11338
▁Apart	-11339
▁Blair	-11340
▁Dying	-11341
▁beats	-11342
▁chunk	-11343
▁delet	-11344
▁irony	-11345
▁merci	-11346
▁moder	-11347
▁munch	-11348
▁tends	-11349
▁walks	-11350
50,000,	-11351
OMOTING	-11352
Squares	-11353
brother	-11354
calates	-11355
college	-11356
estures	-11357
friends	-11358
ierarch	-11359
iophile	-11360
planned	-11361
▁FELONI	-11362
▁Giving	-11363
▁Inizio	-11364
▁Lioeng	-11365
▁brunch	-11366
▁cultiv	-11367
▁delete	-11368
▁escape	-11369
▁ghetto	-11370
▁gloves	-11371
▁outlet	-11372
▁sugest	-11373
250,000,	-11374
Gestures	-11375
friendsj	-11376
ilifying	-11377
ointment	-11378
sanctity	-11379
▁Kennedy	-11380
▁MMORPGs	-11381
▁Workers	-11382
▁airways	-11383
▁arouned	-11384
▁awfully	-11385
▁cultist	-11386
▁impract	-11387
▁inexcus	-11388
▁intends	-11389
▁jewelry	-11390
▁mumbles	-11391
▁nascent	-11392
▁offends	-11393
▁postion	-11394
▁suscept	-11395
▁Basinets	-11396
▁FELONIES	-11397
▁Powermat	-11398
▁Recently	-11399
-70	-11400
Vpr	-11401
fix	-11402
LVpr	-11403
pris	-11404
prom	-11405
pute	-11406
raya	-11407
▁DHS	-11408
putee	-11409
repan	-11410
▁Glen	-11411
▁Unit	-11412
▁Vish	-11413
▁cute	-11414
▁smok	-11415
600.00	-11416
LVprin	-11417
achute	-11418
luding	-11419
rayaan	-11420
urpris	-11421
▁60-70	-11422
▁Vishn	-11423
▁aided	-11424
▁billy	-11425
▁demac	-11426
▁immat	-11427
▁immor	-11428
▁meats	-11429
▁ticks	-11430
balance	-11431
olistic	-11432
ternity	-11433
▁Mostly	-11434
▁Vishnu	-11435
▁chican	-11436
▁clothe	-11437
▁demacr	-11438
▁demons	-11439
▁dozens	-11440
▁flames	-11441
▁grants	-11442
▁honors	-11443
▁monies	-11444
▁refine	-11445
▁refres	-11446
▁smoked	-11447
▁smoken	-11448
▁smooth	-11449
▁terman	-11450
national	-11451
promotes	-11452
▁Surpris	-11453
▁amputee	-11454
▁debatng	-11455
▁popping	-11456
andrayaan	-11457
inational	-11458
repancies	-11459
▁Relaxing	-11460
▁Starbuck	-11461
▁Subpoena	-11462
▁Teachers	-11463
▁Termaion	-11464
▁Terrible	-11465
▁Ultimate	-11466
▁Whatsapp	-11467
▁Williams	-11468
▁actively	-11469
▁addicted	-11470
▁adopters	-11471
▁advocate	-11472
▁alchahal	-11473
▁algorith	-11474
▁alleging	-11475
▁allusion	-11476
▁alphabet	-11477
▁altering	-11478
▁analysts	-11479
▁appalled	-11480
▁appeared	-11481
▁approval	-11482
▁approves	-11483
▁arguably	-11484
▁armchair	-11485
▁assigned	-11486
▁astronom	-11487
▁attached	-11488
▁audacity	-11489
▁avoiding	-11490
▁awaiting	-11491
▁bacteria	-11492
▁barbaric	-11493
▁barriers	-11494
▁beacause	-11495
▁bearable	-11496
▁belonged	-11497
▁blowback	-11498
▁blurring	-11499
BER	-11500
DER	-11501
ERS	-11502
BERT	-11503
gett	-11504
ilia	-11505
rony	-11506
ruff	-11507
▁Ann	-11508
▁TVs	-11509
▁VOT	-11510
▁Ved	-11511
BERTY	-11512
ERSON	-11513
ETHER	-11514
aracy	-11515
iliar	-11516
ilily	-11517
onize	-11518
ronym	-11519
ruffy	-11520
▁Ange	-11521
▁Pont	-11522
▁Soup	-11523
▁VOTE	-11524
▁Vers	-11525
▁apro	-11526
▁coup	-11527
▁medi	-11528
▁trem	-11529
IBERTY	-11530
andora	-11531
ilient	-11532
minded	-11533
wesome	-11534
▁Angel	-11535
▁Cross	-11536
▁Roald	-11537
▁Versa	-11538
▁aprox	-11539
▁bodys	-11540
▁deont	-11541
▁frees	-11542
▁gross	-11543
▁karma	-11544
▁medal	-11545
▁nones	-11546
▁recru	-11547
forgett	-11548
iconize	-11549
ilments	-11550
ocaracy	-11551
▁PERSON	-11552
▁Vedder	-11553
▁approx	-11554
▁detail	-11555
▁funded	-11556
▁lyrics	-11557
▁medioc	-11558
▁shaped	-11559
Cultural	-11560
ishments	-11561
rentices	-11562
sibilily	-11563
uspected	-11564
▁Awesome	-11565
▁FOUNDER	-11566
▁Improve	-11567
▁LIBERTY	-11568
▁Pandora	-11569
▁Pontias	-11570
▁Slander	-11571
▁WHETHER	-11572
▁accross	-11573
▁acronym	-11574
▁assumes	-11575
▁buckets	-11576
▁coupled	-11577
▁hanging	-11578
▁mileage	-11579
▁recruit	-11580
▁reports	-11581
▁scruffy	-11582
▁stupied	-11583
▁tequila	-11584
▁thrives	-11585
▁tremend	-11586
aviconize	-11587
cientists	-11588
reatments	-11589
suspected	-11590
▁Versaill	-11591
▁ailments	-11592
▁biblical	-11593
▁boyardee	-11594
▁brighter	-11595
▁brushing	-11596
▁bulldogs	-11597
▁cartoons	-11598
▁centiped	-11599
?".	-11600
COT	-11601
ucy	-11602
Cops	-11603
brit	-11604
ltly	-11605
▁BOT	-11606
▁Rib	-11607
COTTS	-11608
antib	-11609
iblic	-11610
icros	-11611
nicer	-11612
urban	-11613
▁Lucy	-11614
▁Ribs	-11615
▁belt	-11616
▁delt	-11617
▁melt	-11618
Police	-11619
gnosed	-11620
oultly	-11621
rosion	-11622
▁Early	-11623
▁assem	-11624
▁footh	-11625
▁ruden	-11626
▁wiped	-11627
aringly	-11628
customs	-11629
gnosedc	-11630
hearing	-11631
icrosot	-11632
ourning	-11633
redible	-11634
▁BOTTLE	-11635
▁Biblic	-11636
▁Neuros	-11637
▁Twelve	-11638
▁equity	-11639
▁replic	-11640
▁reserv	-11641
▁signif	-11642
▁triple	-11643
antibact	-11644
gnosedca	-11645
▁BOTTLEE	-11646
▁cooking	-11647
▁extinct	-11648
▁fearing	-11649
▁lesbian	-11650
▁perpetr	-11651
▁rearing	-11652
▁sharing	-11653
▁signing	-11654
TAPSCOTTS	-11655
▁analyzed	-11656
▁archbish	-11657
▁assemble	-11658
▁bouncing	-11659
▁childrem	-11660
▁chipotle	-11661
▁chopping	-11662
▁civility	-11663
▁cleaning	-11664
▁clearing	-11665
▁clinical	-11666
▁colonies	-11667
▁commerce	-11668
▁commerci	-11669
▁communes	-11670
▁compared	-11671
▁concentr	-11672
▁concerns	-11673
▁condones	-11674
▁confused	-11675
▁constitu	-11676
▁contamin	-11677
▁convicts	-11678
▁corrupts	-11679
▁credible	-11680
▁creditor	-11681
▁crinials	-11682
▁crossing	-11683
▁cyclical	-11684
▁darkness	-11685
▁deadbeat	-11686
▁deafness	-11687
▁declared	-11688
▁defeated	-11689
▁defended	-11690
▁deifying	-11691
▁demeanor	-11692
▁demonize	-11693
▁deprived	-11694
▁devoting	-11695
▁difficul	-11696
▁director	-11697
▁disaster	-11698
▁disheart	-11699
(7.	-11700
box	-11701
xof	-11702
▁Kh	-11703
(7.6	-11704
gged	-11705
joke	-11706
mang	-11707
▁5).	-11708
▁Kat	-11709
▁Kor	-11710
(7.63	-11711
..."*	-11712
Solid	-11713
angas	-11714
ilize	-11715
manga	-11716
oxide	-11717
rages	-11718
ucked	-11719
ugged	-11720
unged	-11721
waves	-11722
▁Duck	-11723
▁Kill	-11724
▁bang	-11725
▁muti	-11726
▁slag	-11727
▁slaw	-11728
▁slay	-11729
▁tang	-11730
▁tuck	-11731
▁warf	-11732
angers	-11733
edding	-11734
entral	-11735
lights	-11736
volved	-11737
▁Burit	-11738
▁Chang	-11739
▁Koran	-11740
▁bangs	-11741
▁judis	-11742
▁sland	-11743
▁slayn	-11744
▁slope	-11745
angment	-11746
liances	-11747
▁32,000	-11748
▁Burito	-11749
▁Monday	-11750
▁Sanger	-11751
▁Tigers	-11752
▁hinder	-11753
▁mugged	-11754
▁passes	-11755
▁poorer	-11756
▁rigged	-11757
▁serval	-11758
▁stages	-11759
▁struck	-11760
angering	-11761
everages	-11762
ichangas	-11763
isonally	-11764
lectures	-11765
oxically	-11766
▁Central	-11767
▁Evolved	-11768
▁Katrina	-11769
▁basicly	-11770
▁dangers	-11771
▁declare	-11772
▁dioxide	-11773
▁enrages	-11774
▁futures	-11775
▁judisum	-11776
▁lastest	-11777
▁manages	-11778
▁passion	-11779
▁shucked	-11780
▁tangled	-11781
▁uncared	-11782
▁utilize	-11783
▁warfare	-11784
▁wedding	-11785
Beverages	-11786
▁Aquafina	-11787
▁airwaves	-11788
▁diverted	-11789
▁dividend	-11790
▁dominant	-11791
▁doomsday	-11792
▁downside	-11793
▁drowning	-11794
▁earliest	-11795
▁earnings	-11796
▁emerging	-11797
▁encoding	-11798
▁energies	-11799
Ing	-11800
eye	-11801
kaw	-11802
Thus	-11803
ccis	-11804
oung	-11805
thew	-11806
tuse	-11807
▁Agn	-11808
▁Ign	-11809
▁PoA	-11810
▁raw	-11811
These	-11812
Think	-11813
Thong	-11814
agnos	-11815
akeas	-11816
atman	-11817
nikaw	-11818
theft	-11819
useum	-11820
▁adds	-11821
▁bake	-11822
▁buss	-11823
▁draw	-11824
▁gIng	-11825
▁sung	-11826
Muslim	-11827
harise	-11828
herita	-11829
istake	-11830
ziness	-11831
▁Ignor	-11832
▁buyer	-11833
▁calam	-11834
▁feats	-11835
▁flake	-11836
▁stake	-11837
▁waive	-11838
agnosis	-11839
ccisary	-11840
everthe	-11841
gherita	-11842
veloper	-11843
▁Agnost	-11844
▁Batman	-11845
▁Effect	-11846
▁Native	-11847
▁Option	-11848
▁amoung	-11849
▁aslong	-11850
▁biting	-11851
▁calend	-11852
▁flakey	-11853
▁museum	-11854
▁obtuse	-11855
▁priori	-11856
▁senior	-11857
▁waking	-11858
▁waving	-11859
akeasies	-11860
distance	-11861
harisees	-11862
ologians	-11863
perately	-11864
▁Matthew	-11865
▁Mistake	-11866
▁addings	-11867
▁bussing	-11868
▁calamar	-11869
▁devised	-11870
▁drawing	-11871
▁fleshed	-11872
▁handker	-11873
▁horrend	-11874
▁notices	-11875
nikawater	-11876
▁Agnostic	-11877
▁Ignorant	-11878
▁Neverthe	-11879
▁calamari	-11880
▁epidemic	-11881
▁episodic	-11882
▁esteemed	-11883
▁evaluate	-11884
▁evolveto	-11885
▁exhibits	-11886
▁fairness	-11887
▁feminine	-11888
▁fighters	-11889
▁finishes	-11890
▁firearms	-11891
▁flexible	-11892
▁folklore	-11893
▁foothold	-11894
▁footwear	-11895
▁forgiven	-11896
▁fracking	-11897
▁fraction	-11898
▁freaking	-11899
?),	-11900
ARN	-11901
jee	-11902
EARN	-11903
Mell	-11904
auth	-11905
both	-11906
▁Sta	-11907
Melli	-11908
apons	-11909
atern	-11910
uumed	-11911
vited	-11912
▁Jedi	-11913
▁Ruth	-11914
▁Stat	-11915
▁coat	-11916
▁cock	-11917
▁coll	-11918
▁cove	-11919
▁flat	-11920
▁nons	-11921
▁omit	-11922
During	-11923
author	-11924
feited	-11925
herjee	-11926
icular	-11927
inians	-11928
ornell	-11929
pecing	-11930
wapons	-11931
▁Eater	-11932
▁LEARN	-11933
▁Stern	-11934
▁clunk	-11935
▁coach	-11936
▁coath	-11937
▁covet	-11938
▁cycle	-11939
▁moons	-11940
▁runes	-11941
▁setup	-11942
▁spons	-11943
Wearing	-11944
indians	-11945
invited	-11946
kherjee	-11947
tenance	-11948
▁Staley	-11949
▁Status	-11950
▁bucket	-11951
▁clunky	-11952
▁collap	-11953
▁nonsmo	-11954
▁prophe	-11955
▁repent	-11956
▁repost	-11957
▁united	-11958
Melliare	-11959
icularly	-11960
ormities	-11961
ravating	-11962
ristians	-11963
suitable	-11964
ukherjee	-11965
▁Cornell	-11966
▁Forcing	-11967
▁blossom	-11968
▁ewapons	-11969
▁fratern	-11970
▁freeing	-11971
▁instinc	-11972
uninvited	-11973
▁assaults	-11974
▁collapse	-11975
▁contrace	-11976
▁formally	-11977
▁freeways	-11978
▁freezing	-11979
▁frequent	-11980
▁freshmen	-11981
▁garnered	-11982
▁greatlyI	-11983
▁handguns	-11984
▁happiest	-11985
▁heartach	-11986
▁holidays	-11987
▁homeland	-11988
▁horribly	-11989
▁horrific	-11990
▁housewif	-11991
▁humblebr	-11992
▁hunkered	-11993
▁hydrogen	-11994
▁hyperinf	-11995
▁imfamous	-11996
▁impropri	-11997
▁improvis	-11998
▁impulses	-11999
coh	-12000
Bush	-12001
PROT	-12002
educ	-12003
piss	-12004
push	-12005
ushi	-12006
▁STE	-12007
chata	-12008
oopla	-12009
ostco	-12010
▁Miss	-12011
▁STEP	-12012
▁benn	-12013
▁cats	-12014
▁corp	-12015
▁luke	-12016
cohlic	-12017
invent	-12018
pushed	-12019
quered	-12020
rasing	-12021
▁Anand	-12022
▁Fireb	-12023
▁Fries	-12024
▁Judge	-12025
▁Paris	-12026
▁Sushi	-12027
▁YOURS	-12028
▁benif	-12029
▁brute	-12030
▁curly	-12031
▁debit	-12032
▁hatch	-12033
▁lukew	-12034
▁menus	-12035
▁togas	-12036
imizing	-12037
▁Costco	-12038
▁Motion	-12039
▁Scotts	-12040
▁UNPROT	-12041
▁corpus	-12042
▁deadly	-12043
▁hoopla	-12044
▁uneduc	-12045
▁wordsG	-12046
▁Firebug	-12047
▁INstead	-12048
▁Missile	-12049
▁Obesity	-12050
▁Scottsd	-12051
▁benifit	-12052
▁bennies	-12053
▁dressed	-12054
▁empires	-12055
▁happier	-12056
▁italian	-12057
▁policeA	-12058
▁threats	-12059
▁wordsGo	-12060
▁worries	-12061
anagement	-12062
aphrasing	-12063
▁Horchata	-12064
▁YOURSELF	-12065
▁alcohlic	-12066
▁consoles	-12067
▁creature	-12068
▁generals	-12069
▁incharge	-12070
▁incompet	-12071
▁incurred	-12072
▁indepent	-12073
▁infringe	-12074
▁injuries	-12075
▁insanely	-12076
▁inspired	-12077
▁inspires	-12078
▁instills	-12079
▁intervei	-12080
▁inventor	-12081
▁inviting	-12082
▁israelis	-12083
▁jokingly	-12084
▁juvenile	-12085
▁keyboard	-12086
▁knocking	-12087
▁laughing	-12088
▁legalize	-12089
▁limiting	-12090
▁lobotomy	-12091
▁luckiest	-12092
▁lukewarm	-12093
▁manChris	-12094
▁manScott	-12095
▁managers	-12096
▁mandates	-12097
▁marginal	-12098
▁massacre	-12099
PEG	-12100
Cold	-12101
JPEG	-12102
Nope	-12103
Read	-12104
bred	-12105
harm	-12106
olds	-12107
▁17.	-12108
orial	-12109
oured	-12110
▁Dope	-12111
▁SHOW	-12112
▁burg	-12113
▁clip	-12114
▁subj	-12115
anyway	-12116
artial	-12117
gholds	-12118
ploded	-12119
thouse	-12120
▁asker	-12121
▁clams	-12122
▁colle	-12123
▁entre	-12124
▁shred	-12125
▁subpe	-12126
anistan	-12127
ausible	-12128
efiting	-12129
harmony	-12130
healthy	-12131
idences	-12132
obvious	-12133
through	-12134
▁artist	-12135
▁blouse	-12136
▁busted	-12137
▁curses	-12138
▁drives	-12139
▁enters	-12140
▁entree	-12141
▁kissed	-12142
▁poison	-12143
▁poured	-12144
▁rounds	-12145
▁subjug	-12146
▁sweets	-12147
▁undead	-12148
ongholds	-12149
pasadena	-12150
▁Answers	-12151
▁Private	-12152
▁bestial	-12153
▁burgess	-12154
▁discret	-12155
▁healthi	-12156
▁homeown	-12157
▁mergers	-12158
▁resorts	-12159
▁subpeon	-12160
▁talents	-12161
americans	-12162
enefiting	-12163
ghanistan	-12164
interbred	-12165
▁Biblical	-12166
▁borrower	-12167
▁colleges	-12168
▁doubters	-12169
▁illegaly	-12170
▁imploded	-12171
▁measured	-12172
▁measures	-12173
▁mediocre	-12174
▁mentions	-12175
▁mischief	-12176
▁mistaken	-12177
▁misunder	-12178
▁modeling	-12179
▁moderate	-12180
▁moraless	-12181
▁mourning	-12182
▁mudsling	-12183
▁mutation	-12184
▁mystique	-12185
▁negleted	-12186
▁neoliber	-12187
▁obscured	-12188
▁obsessed	-12189
▁occupied	-12190
▁offenses	-12191
▁offering	-12192
▁offsides	-12193
▁operates	-12194
▁ordinary	-12195
▁organism	-12196
▁outdoors	-12197
▁outlined	-12198
▁outsider	-12199
imba	-12200
isey	-12201
loan	-12202
redo	-12203
uise	-12204
vise	-12205
weed	-12206
xtel	-12207
ceded	-12208
fredo	-12209
raise	-12210
▁DOES	-12211
▁Jang	-12212
▁bred	-12213
▁crab	-12214
▁cram	-12215
▁gyro	-12216
▁priz	-12217
▁vise	-12218
Foxtel	-12219
ccount	-12220
ferent	-12221
▁Craig	-12222
▁DOESN	-12223
▁Jango	-12224
▁Kimba	-12225
▁Linds	-12226
▁Organ	-12227
▁Small	-12228
▁borne	-12229
▁chair	-12230
▁crank	-12231
▁crown	-12232
▁dared	-12233
▁insct	-12234
▁insin	-12235
Account	-12236
idering	-12237
secuted	-12238
▁advers	-12239
▁asleep	-12240
▁confer	-12241
▁crying	-12242
▁devout	-12243
▁dreams	-12244
▁lovers	-12245
▁noisey	-12246
▁prizes	-12247
▁senses	-12248
▁stalls	-12249
OTENTIAL	-12250
xiomatic	-12251
▁Lindsay	-12252
▁Sandyto	-12253
▁alfredo	-12254
▁craving	-12255
▁hangers	-12256
▁illeter	-12257
▁insight	-12258
▁opposes	-12259
▁pretend	-12260
▁sandals	-12261
▁theists	-12262
▁diferent	-12263
▁disguise	-12264
▁embarass	-12265
▁failures	-12266
▁insctinc	-12267
▁insights	-12268
▁overhaul	-12269
▁overlook	-12270
▁overturn	-12271
▁oxymoron	-12272
▁paranoia	-12273
▁patented	-12274
▁pathetic	-12275
▁patience	-12276
▁payraise	-12277
▁peppered	-12278
▁perceive	-12279
▁perished	-12280
▁pilgrims	-12281
▁pirating	-12282
▁playable	-12283
▁plumbing	-12284
▁politely	-12285
▁pollutes	-12286
▁potatoes	-12287
▁potheads	-12288
▁preceded	-12289
▁prestige	-12290
▁prettier	-12291
▁ptential	-12292
▁publicly	-12293
▁pursuits	-12294
▁randomly	-12295
▁realizes	-12296
▁receives	-12297
▁reckless	-12298
▁recreate	-12299
').	-12300
.).	-12301
BTW	-12302
▁3,	-12303
▁31	-12304
Have	-12305
Note	-12306
ankl	-12307
aval	-12308
avol	-12309
bars	-12310
doll	-12311
have	-12312
lley	-12313
save	-12314
▁3,8	-12315
▁Isn	-12316
METAL	-12317
aveat	-12318
avola	-12319
ponge	-12320
▁heav	-12321
▁orph	-12322
▁tuna	-12323
aycare	-12324
heaval	-12325
pongeb	-12326
ristle	-12327
▁3,800	-12328
▁Alley	-12329
▁Farqu	-12330
▁Hands	-12331
▁Lunch	-12332
▁brave	-12333
▁famed	-12334
▁hurst	-12335
▁idoli	-12336
▁muddy	-12337
▁plead	-12338
▁repon	-12339
▁roast	-12340
▁wrist	-12341
arsight	-12342
dollars	-12343
ostered	-12344
▁Andrew	-12345
▁Expose	-12346
▁Marine	-12347
▁Polyam	-12348
▁Priest	-12349
▁archae	-12350
▁assort	-12351
▁caveat	-12352
▁expand	-12353
▁extend	-12354
▁frankl	-12355
▁idoliz	-12356
▁orphan	-12357
▁refers	-12358
▁relate	-12359
▁selfes	-12360
▁thread	-12361
mentThis	-12362
pongebob	-12363
stration	-12364
ultimate	-12365
▁Contact	-12366
▁Daycare	-12367
▁Farquar	-12368
▁afflict	-12369
▁baffles	-12370
▁cashing	-12371
▁curries	-12372
▁diavola	-12373
▁gristle	-12374
▁heavily	-12375
▁nuerons	-12376
▁pierced	-12377
▁protest	-12378
▁threads	-12379
arsighted	-12380
otherwise	-12381
▁agreeing	-12382
▁capacity	-12383
▁decipher	-12384
▁fostered	-12385
▁invented	-12386
▁prisoner	-12387
▁regulars	-12388
▁regulate	-12389
▁reliance	-12390
▁reminder	-12391
▁reposted	-12392
▁reptiles	-12393
▁reserved	-12394
▁rudeness	-12395
▁russians	-12396
▁salvaged	-12397
▁sanctity	-12398
▁sciences	-12399
eys	-12400
yss	-12401
chup	-12402
dull	-12403
upac	-12404
▁2:1	-12405
▁Cup	-12406
▁GAY	-12407
▁Var	-12408
▁gee	-12409
Third	-12410
ccess	-12411
ghbor	-12412
irits	-12413
vator	-12414
▁bigI	-12415
▁buys	-12416
▁curt	-12417
▁desn	-12418
▁fits	-12419
▁frys	-12420
▁pugs	-12421
▁sits	-12422
▁snap	-12423
Public	-12424
etchup	-12425
jected	-12426
orneys	-12427
▁Third	-12428
▁Tupac	-12429
▁abyss	-12430
▁cheat	-12431
▁cheif	-12432
▁crisp	-12433
▁genes	-12434
▁infam	-12435
dullted	-12436
ieghbor	-12437
success	-12438
▁Minion	-12439
▁Public	-12440
▁RIGHTS	-12441
▁curtis	-12442
▁desper	-12443
▁dought	-12444
▁excess	-12445
▁fought	-12446
▁genome	-12447
▁horror	-12448
▁infant	-12449
▁inject	-12450
▁scarce	-12451
▁string	-12452
▁viewed	-12453
orically	-12454
standard	-12455
▁Spirits	-12456
▁Various	-12457
▁Witness	-12458
▁article	-12459
▁cheated	-12460
▁debateI	-12461
▁instant	-12462
▁ketchup	-12463
▁organic	-12464
▁viewers	-12465
▁viewing	-12466
▁whereby	-12467
▁bombings	-12468
▁childits	-12469
▁decrease	-12470
▁doughter	-12471
▁elevator	-12472
▁infamous	-12473
▁nieghbor	-12474
▁overtime	-12475
▁rejected	-12476
▁scolding	-12477
▁screamed	-12478
▁scrubbed	-12479
▁security	-12480
▁selected	-12481
▁senators	-12482
▁servants	-12483
▁shameful	-12484
▁shawarma	-12485
▁shopping	-12486
▁sickness	-12487
▁singling	-12488
▁slanders	-12489
▁sleeping	-12490
▁slippery	-12491
▁smacking	-12492
▁smelling	-12493
▁smoothly	-12494
▁someones	-12495
▁specials	-12496
▁speeches	-12497
▁spinoffs	-12498
▁sponosrs	-12499
cup	-12500
Lord	-12501
asks	-12502
athu	-12503
atta	-12504
aven	-12505
eign	-12506
ford	-12507
rica	-12508
sign	-12509
▁Ref	-12510
▁nav	-12511
▁phr	-12512
▁phy	-12513
Power	-12514
achio	-12515
akota	-12516
efine	-12517
erica	-12518
given	-12519
hatta	-12520
occup	-12521
ordon	-12522
venir	-12523
venue	-12524
▁desp	-12525
▁dign	-12526
▁duke	-12527
▁nowA	-12528
▁pike	-12529
▁reme	-12530
▁sord	-12531
amford	-12532
bodies	-12533
parent	-12534
▁Lousy	-12535
▁atoms	-12536
▁dathu	-12537
▁downh	-12538
▁finds	-12539
▁phase	-12540
▁remed	-12541
▁simpl	-12542
▁surve	-12543
abhatta	-12544
inating	-12545
itating	-12546
vereign	-12547
▁Avenue	-12548
▁Gordon	-12549
▁Lakota	-12550
▁Reform	-12551
▁accent	-12552
▁africa	-12553
▁blamed	-12554
▁despic	-12555
▁heaven	-12556
▁lessen	-12557
▁meddle	-12558
▁navies	-12559
▁phrase	-12560
▁remand	-12561
▁sordid	-12562
gerating	-12563
istachio	-12564
marriage	-12565
yabhatta	-12566
▁160,000	-12567
▁america	-12568
▁bullets	-12569
▁dignity	-12570
▁remeber	-12571
▁seating	-12572
▁simpler	-12573
▁sincere	-12574
▁superst	-12575
occupying	-12576
parenting	-12577
▁Advocate	-12578
▁Stamford	-12579
▁downhill	-12580
▁fourmost	-12581
▁initiate	-12582
▁languags	-12583
▁narrator	-12584
▁pharmacy	-12585
▁redefine	-12586
▁remanded	-12587
▁remedies	-12588
▁semester	-12589
▁sexually	-12590
▁souvenir	-12591
▁sponsors	-12592
▁staffing	-12593
▁statuses	-12594
▁stomping	-12595
▁stooping	-12596
▁strapped	-12597
▁strategy	-12598
▁stubborn	-12599
".*	-12600
bps	-12601
lug	-12602
rug	-12603
▁2-	-12604
▁22	-12605
▁JF	-12606
▁Jo	-12607
Plug	-12608
ianc	-12609
iane	-12610
ogus	-12611
▁70'	-12612
▁JFK	-12613
▁Jim	-12614
▁Joe	-12615
▁aug	-12616
3,000	-12617
licts	-12618
luded	-12619
since	-12620
▁Drug	-12621
▁Jade	-12622
▁Mush	-12623
▁idol	-12624
▁kbps	-12625
▁leaf	-12626
▁obli	-12627
▁scab	-12628
▁smug	-12629
aptain	-12630
ardian	-12631
nachos	-12632
rients	-12633
▁Diane	-12634
▁Throw	-12635
▁WOULD	-12636
▁asian	-12637
▁bogus	-12638
▁cents	-12639
▁fianc	-12640
▁opens	-12641
▁petul	-12642
▁poker	-12643
▁posed	-12644
▁smith	-12645
Captain	-12646
loading	-12647
▁53,000	-12648
▁Misjud	-12649
▁aching	-12650
▁crappy	-12651
▁infect	-12652
▁issueI	-12653
▁prince	-12654
▁thongs	-12655
▁throng	-12656
▁zealot	-12657
erelicts	-12658
guardian	-12659
▁Baiting	-12660
▁augment	-12661
▁bashing	-12662
▁diction	-12663
▁smokers	-12664
▁sniffer	-12665
▁throngs	-12666
▁Mushroom	-12667
▁excluded	-12668
▁petulant	-12669
▁stuffing	-12670
▁suburban	-12671
▁supplied	-12672
▁surveill	-12673
▁survived	-12674
▁sweating	-12675
▁swimming	-12676
▁swingers	-12677
▁sympathy	-12678
▁talented	-12679
▁teamwork	-12680
▁tempting	-12681
▁terminal	-12682
▁textures	-12683
▁theaters	-12684
▁theorist	-12685
▁theorize	-12686
▁thereIts	-12687
▁threaten	-12688
▁throughs	-12689
▁tijkjdrk	-12690
▁tolerant	-12691
▁tribunal	-12692
▁underpay	-12693
▁unveiled	-12694
▁upheaval	-12695
▁validate	-12696
▁validity	-12697
▁ventures	-12698
▁versions	-12699
View	-12700
arne	-12701
▁BOM	-12702
▁STP	-12703
adequ	-12704
hower	-12705
ilber	-12706
licit	-12707
never	-12708
olier	-12709
print	-12710
ravel	-12711
urren	-12712
▁BOMB	-12713
▁cunt	-12714
▁dime	-12715
▁iced	-12716
▁pail	-12717
accept	-12718
cepted	-12719
erates	-12720
ilbert	-12721
imates	-12722
inates	-12723
prints	-12724
velope	-12725
▁BOMBS	-12726
▁Carne	-12727
▁Darth	-12728
▁Media	-12729
▁badly	-12730
▁blant	-12731
▁brung	-12732
▁cunts	-12733
▁email	-12734
▁potty	-12735
▁steer	-12736
▁undoc	-12737
Viewers	-12738
ception	-12739
ceptive	-12740
enhower	-12741
ensives	-12742
oherent	-12743
▁Gurren	-12744
▁Korean	-12745
▁elicit	-12746
▁holier	-12747
▁hoping	-12748
▁intake	-12749
▁partly	-12750
▁retard	-12751
▁sauces	-12752
adequate	-12753
editated	-12754
oderates	-12755
stations	-12756
▁Gilbert	-12757
▁Italian	-12758
▁Nations	-12759
▁aborted	-12760
▁bitrate	-12761
▁blaring	-12762
▁donates	-12763
▁factual	-12764
▁riskier	-12765
▁unravel	-12766
Moderates	-12767
isenhower	-12768
▁Horrible	-12769
▁climates	-12770
▁develope	-12771
▁fallible	-12772
▁peaceful	-12773
▁sizeable	-12774
▁unaccept	-12775
▁vitality	-12776
▁volation	-12777
▁wanderer	-12778
▁wasteful	-12779
▁welcomes	-12780
▁whouldnt	-12781
▁wilfully	-12782
▁winnable	-12783
▁worrying	-12784
▁writting	-12785
!!!!!!!!!!	-12786
..........	-12787
LVprincess	-12788
OOOOOOOOOD	-12789
Television	-12790
Throughout	-12791
__________	-12792
aedophiles	-12793
aggerating	-12794
alestinian	-12795
arrassment	-12796
artnership	-12797
capitalism	-12798
christians	-12799
200	-12800
300	-12801
500	-12802
Mix	-12803
bra	-12804
via	-12805
yea	-12806
,500	-12807
brah	-12808
▁---	-12809
▁58.	-12810
▁ACT	-12811
▁Boy	-12812
▁Doy	-12813
▁Toy	-12814
▁WHO	-12815
▁WWE	-12816
▁gpa	-12817
▁mto	-12818
2005)	-12819
Tried	-12820
abMix	-12821
ausal	-12822
dited	-12823
▁58.6	-12824
▁Boyz	-12825
▁Chim	-12826
▁aids	-12827
▁egot	-12828
▁fade	-12829
▁kidd	-12830
!!!!!!	-12831
Whites	-12832
braham	-12833
causal	-12834
jiiytg	-12835
uition	-12836
▁2,500	-12837
▁Chick	-12838
▁Doyle	-12839
▁bowls	-12840
▁deals	-12841
▁drill	-12842
▁incom	-12843
▁saves	-12844
▁worng	-12845
astised	-12846
fjiiytg	-12847
inition	-12848
spastic	-12849
umental	-12850
umented	-12851
unition	-12852
▁(2005)	-12853
▁Edited	-12854
▁TabMix	-12855
▁Toyota	-12856
▁chains	-12857
▁colors	-12858
▁kiddos	-12859
▁native	-12860
▁theseg	-12861
▁trials	-12862
compared	-12863
munition	-12864
rumental	-12865
▁Abraham	-12866
▁Chicken	-12867
▁ILLEGAL	-12868
▁Partial	-12869
▁Schiavo	-12870
▁Wilhelm	-12871
▁credits	-12872
▁egotist	-12873
▁episode	-12874
▁inspire	-12875
▁obscure	-12876
▁reenter	-12877
▁seeming	-12878
▁tipping	-12879
▁tuition	-12880
▁unpetty	-12881
ffinition	-12882
▁ACTUALLY	-12883
▁answerer	-12884
▁incoming	-12885
▁manually	-12886
▁producer	-12887
▁realized	-12888
▁sfjiiytg	-12889
▁successf	-12890
cognizable	-12891
convenient	-12892
convinceme	-12893
corrective	-12894
cumstances	-12895
denialists	-12896
developing	-12897
distracted	-12898
essimistic	-12899
,,,	-12900
bey	-12901
beas	-12902
cult	-12903
duty	-12904
iana	-12905
ickn	-12906
lons	-12907
onde	-12908
ribe	-12909
robe	-12910
sien	-12911
uick	-12912
xism	-12913
▁OFF	-12914
anism	-12915
icked	-12916
▁Dick	-12917
▁Didn	-12918
▁Stal	-12919
▁cath	-12920
▁ditt	-12921
▁guid	-12922
▁mism	-12923
▁obey	-12924
▁rave	-12925
▁twat	-12926
ammals	-12927
atribe	-12928
felons	-12929
isiana	-12930
ittles	-12931
raints	-12932
▁Hsien	-12933
▁Notre	-12934
▁OFFIC	-12935
▁argum	-12936
▁attem	-12937
▁ditto	-12938
▁effin	-12939
▁emper	-12940
▁guide	-12941
▁hybri	-12942
▁maker	-12943
▁nickn	-12944
▁seedy	-12945
▁shitt	-12946
ardrobe	-12947
culture	-12948
ointing	-12949
▁OFFICI	-12950
▁Stalin	-12951
▁atteme	-12952
▁blonde	-12953
▁comped	-12954
▁habeas	-12955
▁hybrid	-12956
▁length	-12957
▁locals	-12958
▁wicked	-12959
contrary	-12960
liganism	-12961
ouisiana	-12962
▁Anybody	-12963
▁Factory	-12964
▁argumnt	-12965
▁charger	-12966
▁compare	-12967
▁compost	-12968
▁dumbest	-12969
▁emperor	-12970
▁hybrids	-12971
▁laptops	-12972
▁mammals	-12973
▁marxism	-12974
▁raising	-12975
▁warrent	-12976
rationale	-12977
▁OFFICIAL	-12978
▁attemept	-12979
▁compound	-12980
▁diatribe	-12981
▁guidance	-12982
▁nickname	-12983
▁religous	-12984
▁spankage	-12985
▁wardrobe	-12986
government	-12987
ierarchies	-12988
impressing	-12989
incomplete	-12990
liferation	-12991
ooliganism	-12992
ournalists	-12993
propaganda	-12994
recklessly	-12995
reinforced	-12996
responding	-12997
ulesbefore	-12998
utstanding	-12999
OMS	-13000
DOMS	-13001
abye	-13002
into	-13003
mary	-13004
okes	-13005
▁21'	-13006
▁RAM	-13007
▁dna	-13008
asary	-13009
ceful	-13010
elato	-13011
heavy	-13012
iscal	-13013
thora	-13014
ultan	-13015
unint	-13016
unkie	-13017
▁fias	-13018
▁infu	-13019
▁perj	-13020
▁perv	-13021
▁spew	-13022
▁wint	-13023
ghtful	-13024
months	-13025
number	-13026
ummary	-13027
umping	-13028
versed	-13029
▁1972,	-13030
▁Heart	-13031
▁Mabye	-13032
▁Shias	-13033
▁cousc	-13034
▁malay	-13035
▁premi	-13036
▁speed	-13037
igorous	-13038
▁Junkie	-13039
▁Little	-13040
▁Shinto	-13041
▁Sultan	-13042
▁adjust	-13043
▁clones	-13044
▁evokes	-13045
▁fiasco	-13046
▁fiscal	-13047
▁gelato	-13048
▁infuri	-13049
▁voided	-13050
▁yearly	-13051
essasary	-13052
ordinary	-13053
▁CONDOMS	-13054
▁Rebecca	-13055
▁Summary	-13056
▁jumping	-13057
▁perjury	-13058
▁refuses	-13059
▁winters	-13060
▁wronged	-13061
▁wrongly	-13062
emocratic	-13063
▁Alliance	-13064
▁bastards	-13065
▁beverage	-13066
▁couscous	-13067
▁divisive	-13068
▁imperson	-13069
▁plethora	-13070
▁premiere	-13071
▁speeding	-13072
▁succeful	-13073
▁vigorous	-13074
▁10/20/201	-13075
▁Achieving	-13076
▁Addictive	-13077
▁Algorithm	-13078
▁Amendment	-13079
▁Basically	-13080
▁Believing	-13081
▁Bollywood	-13082
▁CIVILIANS	-13083
▁CONVICTED	-13084
▁Certainly	-13085
▁Character	-13086
▁Christain	-13087
▁Christmas	-13088
▁Classical	-13089
▁Companies	-13090
▁Container	-13091
▁Continent	-13092
▁Countries	-13093
▁Darwinism	-13094
▁Dichotomy	-13095
▁Distribut	-13096
▁Economics	-13097
▁Expensive	-13098
▁HAPPINESS	-13099
00,	-13100
cail	-13101
mory	-13102
norm	-13103
ocks	-13104
oppa	-13105
▁WAT	-13106
6,000	-13107
asual	-13108
dress	-13109
emper	-13110
first	-13111
haria	-13112
lting	-13113
money	-13114
perse	-13115
ptown	-13116
uated	-13117
usual	-13118
▁2014	-13119
▁Down	-13120
▁Goal	-13121
▁dens	-13122
▁gown	-13123
▁sake	-13124
34.24"	-13125
46,000	-13126
Semper	-13127
apting	-13128
cailly	-13129
casual	-13130
insane	-13131
istory	-13132
liants	-13133
ulated	-13134
unless	-13135
▁2100,	-13136
▁Beast	-13137
▁Brill	-13138
▁Toppa	-13139
▁WATER	-13140
▁armor	-13141
▁bless	-13142
▁clown	-13143
▁dated	-13144
▁mouse	-13145
▁rambl	-13146
▁reper	-13147
Gravity	-13148
arassal	-13149
ireless	-13150
▁Armory	-13151
▁Brilli	-13152
▁Choice	-13153
▁Sharia	-13154
▁Uptown	-13155
▁stocks	-13156
dressing	-13157
▁JUSTICE	-13158
▁donated	-13159
▁idiotic	-13160
▁melting	-13161
▁treason	-13162
▁unusual	-13163
permanent	-13164
▁Contrary	-13165
▁Sarassal	-13166
▁abundant	-13167
▁adapting	-13168
▁appelate	-13169
▁arguable	-13170
▁assholeI	-13171
▁blessing	-13172
▁condemns	-13173
▁disperse	-13174
▁microbes	-13175
▁overhead	-13176
▁socailly	-13177
▁underach	-13178
▁underper	-13179
▁wireless	-13180
▁workable	-13181
▁Healthier	-13182
▁Hopefully	-13183
▁Humankind	-13184
▁Hypocricy	-13185
▁Insurance	-13186
▁Judgement	-13187
▁Knowledge	-13188
▁Louisiana	-13189
▁Marijuana	-13190
▁Meanwhile	-13191
▁Microsoft	-13192
▁Mukherjee	-13193
▁PROMOTING	-13194
▁Pharisees	-13195
▁Realistic	-13196
▁Regarding	-13197
▁Reservoir	-13198
▁Resources	-13199
,!!	-13200
dub	-13201
rub	-13202
tip	-13203
tym	-13204
▁38	-13205
aire	-13206
free	-13207
ilty	-13208
mile	-13209
pire	-13210
tree	-13211
▁Hip	-13212
▁INS	-13213
▁dub	-13214
agile	-13215
athon	-13216
eyond	-13217
iping	-13218
ipist	-13219
ntire	-13220
smell	-13221
treeh	-13222
▁,,!!	-13223
▁Dead	-13224
▁club	-13225
▁etym	-13226
▁juvy	-13227
▁ship	-13228
▁vile	-13229
empire	-13230
evable	-13231
reason	-13232
things	-13233
xample	-13234
▁2013,	-13235
▁Shrub	-13236
▁brack	-13237
▁delay	-13238
▁furor	-13239
▁jerks	-13240
▁spree	-13241
Example	-13242
Similar	-13243
duboard	-13244
herself	-13245
sibilty	-13246
treehug	-13247
▁Beyond	-13248
▁Either	-13249
▁Entire	-13250
▁allien	-13251
▁compul	-13252
▁limits	-13253
▁piping	-13254
cievable	-13255
▁bailing	-13256
▁bounced	-13257
▁bracket	-13258
▁compuls	-13259
▁dubious	-13260
▁factory	-13261
▁fragile	-13262
▁ourself	-13263
▁tooltip	-13264
....!!!!!	-13265
▁debating	-13266
▁dictates	-13267
▁dragging	-13268
▁fiddling	-13269
▁marathon	-13270
▁painfree	-13271
▁tendency	-13272
▁unionism	-13273
▁unreason	-13274
▁visually	-13275
apointment	-13276
nerability	-13277
treehugger	-13278
uppression	-13279
▁Deadlines	-13280
▁Inventive	-13281
▁SURPRISED	-13282
▁Seriously	-13283
▁Spongebob	-13284
▁Starbucks	-13285
▁THOUSANDS	-13286
▁Teenagers	-13287
▁Unionists	-13288
▁Wondering	-13289
▁abridging	-13290
▁absoultly	-13291
▁accompany	-13292
▁accounted	-13293
▁admitting	-13294
▁adulterer	-13295
▁affection	-13296
▁affiliate	-13297
▁afflicted	-13298
▁afternoon	-13299
15)	-13300
Ick	-13301
Mob	-13302
eck	-13303
obe	-13304
▁Ut	-13305
20!!	-13306
Born	-13307
achy	-13308
cles	-13309
corn	-13310
obly	-13311
uade	-13312
uire	-13313
▁Bob	-13314
▁Rob	-13315
▁Und	-13316
▁bob	-13317
5.15)	-13318
Mobil	-13319
atles	-13320
check	-13321
itech	-13322
lasty	-13323
llite	-13324
▁1995	-13325
▁avid	-13326
▁bach	-13327
▁bite	-13328
▁bits	-13329
▁cigs	-13330
▁deck	-13331
▁poli	-13332
▁redI	-13333
▁rite	-13334
(5.15)	-13335
School	-13336
aguire	-13337
appear	-13338
config	-13339
corned	-13340
geball	-13341
igious	-13342
illary	-13343
orious	-13344
others	-13345
served	-13346
suffer	-13347
▁Adobe	-13348
▁Bobby	-13349
▁Under	-13350
▁Utama	-13351
▁annie	-13352
▁apple	-13353
▁beach	-13354
▁juvin	-13355
▁unite	-13356
Hillary	-13357
Keeping	-13358
atering	-13359
earable	-13360
entious	-13361
fighter	-13362
oplasty	-13363
▁Babies	-13364
▁appall	-13365
▁bachel	-13366
▁hitech	-13367
▁poliit	-13368
▁remark	-13369
▁slower	-13370
▁statue	-13371
▁subord	-13372
▁trendy	-13373
▁writer	-13374
atellite	-13375
bearable	-13376
odgeball	-13377
valuable	-13378
▁Beatles	-13379
▁Maguire	-13380
▁blanket	-13381
▁heretic	-13382
▁muscles	-13383
▁preachy	-13384
▁revived	-13385
disappear	-13386
dodgeball	-13387
hopefully	-13388
inoplasty	-13389
offenders	-13390
▁catering	-13391
▁juvinile	-13392
▁paycheck	-13393
▁persuade	-13394
▁probobly	-13395
▁storages	-13396
hinoplasty	-13397
rehensible	-13398
▁aggressor	-13399
"),	-13400
"--	-13401
▁DD	-13402
▁DV	-13403
▁Dh	-13404
▁Vl	-13405
Mark	-13406
mass	-13407
rite	-13408
▁DDR	-13409
▁Das	-13410
▁Del	-13411
▁Det	-13412
▁Due	-13413
Somet	-13414
cewed	-13415
▁Aids	-13416
▁DVDs	-13417
▁Delt	-13418
▁Dhal	-13419
▁Dome	-13420
▁Fuck	-13421
▁Vlad	-13422
▁disk	-13423
▁dism	-13424
▁mars	-13425
▁wats	-13426
assist	-13427
iliffs	-13428
inting	-13429
losing	-13430
ouglas	-13431
▁Dasan	-13432
▁Delta	-13433
▁Detro	-13434
▁Liter	-13435
▁Tiger	-13436
▁Where	-13437
▁Write	-13438
▁disse	-13439
▁gloss	-13440
▁reser	-13441
Freedom	-13442
ailiffs	-13443
▁Columb	-13444
▁Dasani	-13445
▁Docket	-13446
▁Sheria	-13447
▁Vladim	-13448
▁adhere	-13449
▁disill	-13450
▁dissem	-13451
▁edible	-13452
▁overhe	-13453
▁scewed	-13454
▁spaces	-13455
▁sucker	-13456
▁Detroit	-13457
▁Douglas	-13458
▁cleaned	-13459
▁skeptic	-13460
▁suckerp	-13461
Something	-13462
assistant	-13463
▁Columbus	-13464
▁Vladimir	-13465
▁bailiffs	-13466
▁discreet	-13467
▁motorway	-13468
▁overheat	-13469
▁pointing	-13470
▁reserves	-13471
▁resulted	-13472
▁suffered	-13473
▁traffice	-13474
▁Literally	-13475
▁agonizing	-13476
▁agressive	-13477
▁alcoholic	-13478
▁alongside	-13479
▁animosity	-13480
▁annoyance	-13481
▁answerers	-13482
▁appalling	-13483
▁appetizer	-13484
▁appointed	-13485
▁assaulted	-13486
▁asserting	-13487
▁assertion	-13488
▁assessing	-13489
▁assurance	-13490
▁astronomy	-13491
▁athiestic	-13492
▁attending	-13493
▁attorneys	-13494
▁axiomatic	-13495
▁bachelors	-13496
▁bartender	-13497
▁beleivers	-13498
▁belittles	-13499
7,	-13500
").	-13501
Cue	-13502
bad	-13503
ggo	-13504
ido	-13505
irh	-13506
oes	-13507
roz	-13508
PECT	-13509
chas	-13510
fell	-13511
pals	-13512
sein	-13513
will	-13514
▁dro	-13515
▁pad	-13516
cuits	-13517
rozen	-13518
years	-13519
▁Burn	-13520
▁Cash	-13521
▁aare	-13522
▁enab	-13523
▁fate	-13524
▁heat	-13525
▁hits	-13526
▁whip	-13527
▁wirh	-13528
▁woes	-13529
chaser	-13530
ussein	-13531
▁Burns	-13532
▁Cance	-13533
▁WORLD	-13534
▁drove	-13535
▁flies	-13536
▁flush	-13537
▁petty	-13538
▁reput	-13539
express	-13540
iscuits	-13541
whether	-13542
▁Cancel	-13543
▁Terror	-13544
▁assure	-13545
▁befell	-13546
▁centry	-13547
▁fallen	-13548
▁frozen	-13549
▁incite	-13550
▁preggo	-13551
▁snakes	-13552
▁tender	-13553
incipals	-13554
▁Hussein	-13555
▁RESPECT	-13556
▁Serbian	-13557
▁andwill	-13558
▁chemist	-13559
▁flyable	-13560
▁fundido	-13561
▁justise	-13562
▁moments	-13563
▁proving	-13564
▁rounded	-13565
▁section	-13566
▁shortly	-13567
▁willful	-13568
▁Reaffirm	-13569
▁biscuits	-13570
▁blocking	-13571
▁cheerful	-13572
▁enabling	-13573
▁majoring	-13574
▁spirited	-13575
▁blatantly	-13576
▁bloodline	-13577
▁bracelets	-13578
▁breakdown	-13579
▁breakneck	-13580
▁broadband	-13581
▁brutality	-13582
▁burgesses	-13583
▁buzzwords	-13584
▁calculate	-13585
▁calendars	-13586
▁cardboard	-13587
▁catholics	-13588
▁certainty	-13589
▁chastised	-13590
▁chemistry	-13591
▁chocolate	-13592
▁cigarette	-13593
▁citizenry	-13594
▁cityscape	-13595
▁civilised	-13596
▁civilized	-13597
▁classroom	-13598
▁cockfight	-13599
19	-13600
BI	-13601
19)	-13602
NBA	-13603
adv	-13604
doo	-13605
fin	-13606
ius	-13607
oot	-13608
sim	-13609
▁ie	-13610
ampa	-13611
hear	-13612
imin	-13613
kews	-13614
mani	-13615
obah	-13616
ooch	-13617
oofy	-13618
trap	-13619
▁Cir	-13620
▁FBI	-13621
▁Jul	-13622
▁MIR	-13623
▁awe	-13624
▁lab	-13625
▁toy	-13626
obahn	-13627
ouses	-13628
rease	-13629
uming	-13630
▁(19)	-13631
▁Bott	-13632
▁MIRI	-13633
▁WNBA	-13634
▁boot	-13635
▁doom	-13636
▁exes	-13637
▁sigh	-13638
▁woul	-13639
HICKEN	-13640
ansion	-13641
encour	-13642
finish	-13643
ibrate	-13644
reaseM	-13645
simply	-13646
ungies	-13647
▁Imani	-13648
▁Sound	-13649
▁Tampa	-13650
▁Times	-13651
▁bikes	-13652
▁binge	-13653
▁devil	-13654
▁dimin	-13655
▁goofy	-13656
▁pooch	-13657
▁prise	-13658
▁reads	-13659
▁skews	-13660
athcare	-13661
utobahn	-13662
vibrate	-13663
▁Beware	-13664
▁Bottle	-13665
▁Houses	-13666
▁awared	-13667
▁genius	-13668
▁insist	-13669
▁labour	-13670
▁suited	-13671
▁whants	-13672
▁woulld	-13673
Teachers	-13674
assuming	-13675
encourge	-13676
▁Bungies	-13677
▁CHICKEN	-13678
▁Damages	-13679
▁GreaseM	-13680
▁athlete	-13681
▁reconno	-13682
▁torrent	-13683
advancing	-13684
arranging	-13685
▁Autobahn	-13686
▁blasting	-13687
▁commuter	-13688
▁dedicate	-13689
▁monotony	-13690
▁wrestles	-13691
▁Institute	-13692
▁canfinish	-13693
▁cognitely	-13694
▁commision	-13695
▁computers	-13696
▁concealed	-13697
▁conquered	-13698
▁constants	-13699
FY	-13700
SD	-13701
wr	-13702
yd	-13703
CON	-13704
FYI	-13705
hyd	-13706
yri	-13707
▁SW	-13708
▁TJ	-13709
▁TP	-13710
▁Tj	-13711
CONS	-13712
Much	-13713
odor	-13714
open	-13715
rime	-13716
trad	-13717
yria	-13718
▁LOT	-13719
▁LSD	-13720
▁Tap	-13721
▁Tin	-13722
▁vic	-13723
icher	-13724
odoro	-13725
▁GLBT	-13726
▁Gods	-13727
▁NATO	-13728
▁blim	-13729
▁dawn	-13730
▁hips	-13731
▁notm	-13732
eating	-13733
▁Nobel	-13734
▁Prime	-13735
▁Prost	-13736
▁Recca	-13737
▁Syria	-13738
▁dehyd	-13739
▁dodgy	-13740
defined	-13741
esimony	-13742
getable	-13743
instead	-13744
omodoro	-13745
rounder	-13746
▁Youtub	-13747
▁blimem	-13748
▁dearly	-13749
▁deeper	-13750
▁nuking	-13751
▁pricey	-13752
▁richer	-13753
▁therap	-13754
▁Phoenix	-13755
▁Physics	-13756
▁Ygdrass	-13757
▁arsenal	-13758
▁customs	-13759
▁inflate	-13760
▁notmove	-13761
▁profits	-13762
▁sliding	-13763
▁tending	-13764
▁therapy	-13765
▁violate	-13766
▁Buddhism	-13767
▁Pomodoro	-13768
▁courtesy	-13769
▁granting	-13770
▁relieved	-13771
▁seminary	-13772
▁tesimony	-13773
▁Ygdrassil	-13774
▁Youtubers	-13775
▁contained	-13776
▁cooperate	-13777
▁corrected	-13778
▁corrosion	-13779
▁custodial	-13780
▁decreased	-13781
▁decreases	-13782
▁dedicated	-13783
▁defensive	-13784
▁defibrill	-13785
▁definetly	-13786
▁democrats	-13787
▁demograph	-13788
▁depravity	-13789
▁derelicts	-13790
▁desecrate	-13791
▁designing	-13792
▁desisions	-13793
▁desperate	-13794
▁devolping	-13795
▁dichotomy	-13796
▁differnce	-13797
▁disallows	-13798
▁disappear	-13799
CJ	-13800
102	-13801
CJA	-13802
etn	-13803
jas	-13804
low	-13805
owl	-13806
▁IR	-13807
102"	-13808
agna	-13809
ambs	-13810
ayer	-13811
flow	-13812
ietn	-13813
itas	-13814
mild	-13815
none	-13816
ooey	-13817
otas	-13818
▁Dom	-13819
▁IRS	-13820
▁Lef	-13821
▁nin	-13822
Tejas	-13823
adult	-13824
arity	-13825
atine	-13826
dirty	-13827
▁Bowl	-13828
▁Iced	-13829
▁Left	-13830
▁YCJA	-13831
▁arab	-13832
▁pubs	-13833
▁thay	-13834
asagna	-13835
ietnam	-13836
liment	-13837
odeled	-13838
oulder	-13839
patine	-13840
pelled	-13841
▁Chose	-13842
▁Domin	-13843
▁dozen	-13844
▁euros	-13845
▁gooey	-13846
▁juice	-13847
▁lambs	-13848
▁ninja	-13849
▁saved	-13850
itering	-13851
▁Enable	-13852
▁Player	-13853
▁arabic	-13854
▁arrive	-13855
▁childs	-13856
▁fellas	-13857
▁quotas	-13858
▁rarity	-13859
▁raving	-13860
▁relive	-13861
▁rushed	-13862
▁tribal	-13863
▁wrongs	-13864
enerally	-13865
eriously	-13866
majority	-13867
▁Boulder	-13868
▁Vietnam	-13869
▁airflow	-13870
▁avoided	-13871
▁heading	-13872
▁interra	-13873
▁lasagna	-13874
▁probaly	-13875
Generally	-13876
Increased	-13877
Seriously	-13878
▁Medicaid	-13879
▁childish	-13880
▁degraded	-13881
▁expelled	-13882
▁magicaly	-13883
▁spacious	-13884
▁symbolic	-13885
fatherless	-13886
thankfully	-13887
▁Conquests	-13888
▁Dominican	-13889
▁EDUCATION	-13890
▁Notmymuse	-13891
▁Palpatine	-13892
▁Parliment	-13893
▁discourse	-13894
▁disgusted	-13895
▁disintegr	-13896
▁dismissed	-13897
▁disregard	-13898
▁districts	-13899
";	-13900
ho	-13901
Add	-13902
BOR	-13903
Was	-13904
asi	-13905
xia	-13906
▁PS	-13907
Coca	-13908
bush	-13909
enis	-13910
reen	-13911
▁Arv	-13912
▁PSP	-13913
▁cit	-13914
▁hai	-13915
▁hav	-13916
▁haz	-13917
▁itI	-13918
▁maj	-13919
!....	-13920
Added	-13921
BORTI	-13922
acism	-13923
green	-13924
ionic	-13925
lemon	-13926
▁fiat	-13927
▁flip	-13928
▁havn	-13929
▁itin	-13930
orexia	-13931
orpion	-13932
ortals	-13933
sionic	-13934
▁Arvay	-13935
▁Glory	-13936
▁Wales	-13937
▁fades	-13938
▁honey	-13939
▁ought	-13940
▁penis	-13941
▁quasi	-13942
BORTION	-13943
iltered	-13944
powered	-13945
▁9/112.	-13946
▁Arvayo	-13947
▁Beauty	-13948
▁League	-13949
▁Racism	-13950
▁citric	-13951
▁hailed	-13952
▁hazard	-13953
▁majest	-13954
▁partys	-13955
▁reborn	-13956
▁resurg	-13957
▁runner	-13958
▁virgin	-13959
▁vulgar	-13960
▁dipping	-13961
▁gimmick	-13962
▁gorilla	-13963
▁majesty	-13964
▁mortals	-13965
▁needing	-13966
▁ooooooo	-13967
▁psionic	-13968
▁ABORTION	-13969
▁Filtered	-13970
▁Pakistan	-13971
▁Scorpion	-13972
▁anorexia	-13973
▁bracelet	-13974
▁consular	-13975
▁divorced	-13976
▁gimmicks	-13977
▁holdinds	-13978
▁retarded	-13979
andardized	-13980
▁complains	-13981
▁dominance	-13982
▁downright	-13983
▁eachother	-13984
▁eavesdrop	-13985
▁economyHe	-13986
▁embryonic	-13987
▁emissions	-13988
▁empirical	-13989
▁emptiness	-13990
▁emulating	-13991
▁escalates	-13992
▁especialy	-13993
▁ethically	-13994
▁etymology	-13995
▁everyones	-13996
▁everytime	-13997
▁exception	-13998
▁excersise	-13999
?2.	-14000
Get	-14001
beh	-14002
bly	-14003
xic	-14004
▁ov	-14005
apen	-14006
ldom	-14007
ngus	-14008
only	-14009
xico	-14010
afted	-14011
cibly	-14012
ental	-14013
issol	-14014
mokes	-14015
nyder	-14016
tress	-14017
ueled	-14018
umble	-14019
unism	-14020
▁IMHO	-14021
▁fare	-14022
▁hers	-14023
▁mock	-14024
▁nose	-14025
▁outr	-14026
Living	-14027
Simply	-14028
alapen	-14029
chigan	-14030
smokes	-14031
▁Angus	-14032
▁ovens	-14033
▁scans	-14034
▁wills	-14035
Culture	-14036
Ichigan	-14037
accines	-14038
brainer	-14039
discrim	-14040
oneless	-14041
▁30,000	-14042
▁Dissol	-14043
▁Mental	-14044
▁Reason	-14045
▁Serbia	-14046
▁Snyder	-14047
▁fueled	-14048
▁marvel	-14049
▁mascul	-14050
▁mexico	-14051
▁misbeh	-14052
▁seldom	-14053
Internet	-14054
alapenos	-14055
lemental	-14056
ortation	-14057
▁Charter	-14058
▁anarcho	-14059
▁careers	-14060
▁clearer	-14061
▁guilted	-14062
▁lowered	-14063
▁outrage	-14064
▁outster	-14065
▁shafted	-14066
▁stumble	-14067
▁Einstein	-14068
▁MIchigan	-14069
▁Vaccines	-14070
▁boneless	-14071
▁divorces	-14072
▁forcibly	-14073
▁mattress	-14074
▁nautical	-14075
▁prolongs	-14076
▁shutting	-14077
▁Communism	-14078
▁bettering	-14079
▁enjoyment	-14080
▁excessive	-14081
▁executing	-14082
▁expansion	-14083
▁expertise	-14084
▁expirence	-14085
▁explained	-14086
▁exploited	-14087
▁expressed	-14088
▁extreamly	-14089
▁favourite	-14090
▁feminists	-14091
▁fireworks	-14092
▁flavorful	-14093
▁flavoring	-14094
▁forbidden	-14095
▁foreigner	-14096
▁foresight	-14097
▁forfeited	-14098
▁forgiving	-14099
arb	-14100
lum	-14101
mom	-14102
ooo	-14103
xty	-14104
▁CD	-14105
▁eh	-14106
ALso	-14107
anim	-14108
arbb	-14109
cass	-14110
cion	-14111
idow	-14112
ptor	-14113
sens	-14114
ylum	-14115
▁BIG	-14116
▁STD	-14117
▁mol	-14118
aping	-14119
arbbi	-14120
ereby	-14121
erted	-14122
odity	-14123
otter	-14124
rille	-14125
▁Step	-14126
▁fame	-14127
▁lear	-14128
▁sooo	-14129
▁toli	-14130
ongrel	-14131
▁Fatal	-14132
▁IETab	-14133
▁Steph	-14134
▁Still	-14135
▁THEIR	-14136
▁arsen	-14137
▁comic	-14138
▁disob	-14139
▁nexty	-14140
▁widow	-14141
animity	-14142
cassary	-14143
lawyers	-14144
▁Amidal	-14145
▁Grille	-14146
▁asylum	-14147
▁feared	-14148
▁learnt	-14149
▁molest	-14150
▁nereby	-14151
▁phenom	-14152
▁safely	-14153
▁safest	-14154
▁surviv	-14155
▁toliet	-14156
whomever	-14157
▁Amidala	-14158
▁Married	-14159
▁Profits	-14160
▁Smoking	-14161
▁Stephen	-14162
▁arsenic	-14163
▁disobey	-14164
▁examine	-14165
▁fortune	-14166
▁gaurant	-14167
▁mongrel	-14168
▁populum	-14169
▁reaping	-14170
▁sagging	-14171
▁trotter	-14172
▁worsens	-14173
merciless	-14174
▁Argument	-14175
▁behaving	-14176
▁beleives	-14177
▁coercion	-14178
▁eternity	-14179
▁inserted	-14180
▁laziness	-14181
▁plugging	-14182
▁referred	-14183
▁Arguments	-14184
▁commodity	-14185
▁fortitude	-14186
▁framework	-14187
▁franchise	-14188
▁frustrate	-14189
▁galloping	-14190
▁generated	-14191
▁generates	-14192
▁genuinely	-14193
▁graduated	-14194
▁gravitate	-14195
▁grounding	-14196
▁guacamole	-14197
▁guarantee	-14198
▁hardships	-14199
Co	-14200
aad	-14201
lyt	-14202
pes	-14203
sta	-14204
yet	-14205
▁47	-14206
▁NK	-14207
▁iy	-14208
▁nw	-14209
▁yr	-14210
Apes	-14211
come	-14212
odka	-14213
omas	-14214
orst	-14215
rack	-14216
veal	-14217
▁5.3	-14218
▁NKR	-14219
▁eve	-14220
▁kud	-14221
▁nes	-14222
Books	-14223
Karen	-14224
Worst	-14225
alist	-14226
ileve	-14227
lousy	-14228
ophic	-14229
▁Mand	-14230
▁Ster	-14231
▁UNIT	-14232
▁loCo	-14233
▁shed	-14234
Health	-14235
aaders	-14236
lytize	-14237
▁greed	-14238
▁hindu	-14239
▁intim	-14240
▁kicks	-14241
▁kudos	-14242
▁loyal	-14243
▁revel	-14244
▁seeks	-14245
▁vodka	-14246
reating	-14247
▁Mandal	-14248
▁Thomas	-14249
▁flight	-14250
▁lifeRe	-14251
▁reveal	-14252
▁ruling	-14253
▁stable	-14254
▁Manipur	-14255
▁beileve	-14256
▁contend	-14257
▁deposit	-14258
▁gangsta	-14259
▁intimid	-14260
▁loyalty	-14261
▁nobodys	-14262
▁Sterling	-14263
▁Treating	-14264
▁assisted	-14265
▁consumes	-14266
▁hinduism	-14267
▁impacted	-14268
▁leaaders	-14269
▁undercap	-14270
▁dependant	-14271
▁forwarded	-14272
▁haveboobs	-14273
▁headquart	-14274
▁heartache	-14275
▁heartbeat	-14276
▁heartedly	-14277
▁heathcare	-14278
▁honorable	-14279
▁hopefully	-14280
▁household	-14281
▁iincurred	-14282
▁imitating	-14283
▁impartial	-14284
▁impending	-14285
▁impounded	-14286
▁inability	-14287
▁inception	-14288
▁incidents	-14289
▁inclusion	-14290
▁increased	-14291
▁incubator	-14292
▁incumbent	-14293
▁indicates	-14294
▁indisting	-14295
▁infection	-14296
▁informing	-14297
▁instances	-14298
▁institute	-14299
?).	-14300
idy	-14301
moe	-14302
sle	-14303
▁IV	-14304
King	-14305
RAEL	-14306
athe	-14307
ingy	-14308
mult	-14309
reed	-14310
shed	-14311
than	-14312
▁16,	-14313
▁600	-14314
▁Eld	-14315
▁iit	-14316
▁rox	-14317
▁uno	-14318
aling	-14319
ingle	-14320
oldly	-14321
shmoe	-14322
▁1985	-14323
▁Boom	-14324
▁Whos	-14325
▁cows	-14326
▁hygi	-14327
▁pine	-14328
▁tidy	-14329
▁triv	-14330
ISRAEL	-14331
Single	-14332
entire	-14333
esause	-14334
quence	-14335
street	-14336
▁Elder	-14337
▁Whoop	-14338
▁affin	-14339
▁angri	-14340
▁cried	-14341
▁gloom	-14342
▁guise	-14343
▁hound	-14344
▁roxas	-14345
▁urges	-14346
bearing	-14347
issable	-14348
multise	-14349
▁Palest	-14350
▁agreed	-14351
▁boldly	-14352
▁hassle	-14353
▁hygien	-14354
▁idiots	-14355
▁landsl	-14356
▁loathe	-14357
▁morsel	-14358
▁plants	-14359
▁stingy	-14360
▁sugary	-14361
Nintendo	-14362
entirely	-14363
existent	-14364
multisex	-14365
▁angrier	-14366
▁besause	-14367
▁blindly	-14368
▁comprom	-14369
▁dialing	-14370
▁empower	-14371
▁evident	-14372
▁hounded	-14373
▁hygiene	-14374
▁impeach	-14375
▁meeting	-14376
▁milions	-14377
▁payback	-14378
▁somkers	-14379
▁supoena	-14380
▁trivial	-14381
▁ILLEAGAL	-14382
▁Scottish	-14383
▁Security	-14384
▁affinity	-14385
▁invading	-14386
▁sequence	-14387
▁snobbish	-14388
▁summoned	-14389
▁thingies	-14390
etributive	-14391
▁Palestine	-14392
▁bloodshed	-14393
▁committer	-14394
▁empowered	-14395
▁enforcers	-14396
▁healthier	-14397
▁insulting	-14398
▁integrate	-14399
7'	-14400
AG	-14401
BC	-14402
fej	-14403
yer	-14404
▁BN	-14405
▁Bi	-14406
Best	-14407
FLAG	-14408
Such	-14409
eple	-14410
hfej	-14411
itum	-14412
oost	-14413
soon	-14414
▁16.	-14415
▁Ary	-14416
▁BBC	-14417
▁BNP	-14418
▁FAR	-14419
▁Pap	-14420
▁Son	-14421
▁WAY	-14422
▁het	-14423
▁mir	-14424
...17	-14425
Order	-14426
agann	-14427
times	-14428
▁Dare	-14429
▁Papa	-14430
▁oral	-14431
Lagann	-14432
lawyer	-14433
oolish	-14434
riages	-14435
▁15-20	-14436
▁Aryan	-14437
▁Biker	-14438
▁PFLAG	-14439
▁Peach	-14440
▁ihfej	-14441
▁mirac	-14442
▁river	-14443
▁roost	-14444
Germany	-14445
Ordered	-14446
emtimes	-14447
foolish	-14448
married	-14449
pliment	-14450
▁Gather	-14451
▁Poeple	-14452
▁SHOULD	-14453
▁ethics	-14454
▁Hammond	-14455
▁Meaning	-14456
▁airship	-14457
▁archaic	-14458
▁bailout	-14459
▁jerseys	-14460
▁miracle	-14461
▁plagued	-14462
▁tablets	-14463
soemtimes	-14464
▁Humanity	-14465
▁disputes	-14466
▁driveand	-14467
▁frittata	-14468
▁hopeless	-14469
▁produces	-14470
▁reasoned	-14471
peacefully	-14472
scientific	-14473
▁Marriages	-14474
▁Schooling	-14475
▁attourney	-14476
▁infinitum	-14477
▁inspected	-14478
▁intensive	-14479
▁interveiw	-14480
▁intrested	-14481
▁invention	-14482
▁inventive	-14483
▁investors	-14484
▁iteration	-14485
▁jalapenos	-14486
▁justifies	-14487
▁juxtapost	-14488
▁landslide	-14489
▁lawmakers	-14490
▁legendary	-14491
▁lessening	-14492
▁licensees	-14493
▁liklihood	-14494
▁machinery	-14495
▁makingwhy	-14496
▁manditory	-14497
▁marketers	-14498
▁masculine	-14499
''	-14500
):	-14501
70	-14502
75	-14503
GB	-14504
IM	-14505
Oh	-14506
cd	-14507
uo	-14508
GBs	-14509
IMO	-14510
cdc	-14511
fan	-14512
ums	-14513
▁wt	-14514
-47'	-14515
LICE	-14516
heck	-14517
ilos	-14518
plus	-14519
sage	-14520
▁(75	-14521
▁256	-14522
▁Ate	-14523
▁mos	-14524
▁wtf	-14525
OLICE	-14526
adism	-14527
clean	-14528
indus	-14529
plate	-14530
saves	-14531
▁Asus	-14532
▁Took	-14533
▁loot	-14534
▁nine	-14535
atical	-14536
eopard	-14537
ffused	-14538
ocaust	-14539
unatic	-14540
▁facto	-14541
▁kilos	-14542
▁mosqu	-14543
▁pleas	-14544
▁somke	-14545
▁wring	-14546
amation	-14547
awesome	-14548
emplate	-14549
eopardy	-14550
ootball	-14551
▁10,000	-14552
▁Hindus	-14553
▁Lately	-14554
▁POLICE	-14555
▁Sadism	-14556
▁Tookie	-14557
▁adding	-14558
▁append	-14559
▁forums	-14560
▁namely	-14561
▁subtly	-14562
▁vastly	-14563
olocaust	-14564
riencing	-14565
ropology	-14566
▁affairs	-14567
▁fastest	-14568
▁letters	-14569
▁lunatic	-14570
▁mosques	-14571
▁quoting	-14572
▁sausage	-14573
▁Football	-14574
▁churches	-14575
▁contries	-14576
▁diffused	-14577
▁historic	-14578
▁jeopardy	-14579
▁noticing	-14580
▁recourse	-14581
thropology	-14582
treatments	-14583
▁Guantanam	-14584
▁Holocaust	-14585
▁appendage	-14586
▁campaigns	-14587
▁chicanery	-14588
▁circulate	-14589
▁graduates	-14590
▁hindering	-14591
▁massively	-14592
▁masterpie	-14593
▁materials	-14594
▁matricide	-14595
▁meatballs	-14596
▁moremaybe	-14597
▁multitude	-14598
▁nationals	-14599
.1	-14600
4,	-14601
6)	-14602
EO	-14603
AYB	-14604
Bye	-14605
Who	-14606
did	-14607
lut	-14608
▁HS	-14609
AYBE	-14610
cand	-14611
ndia	-14612
odes	-14613
qaed	-14614
▁(6)	-14615
▁Phe	-14616
▁SEO	-14617
India	-14618
ousis	-14619
qaeda	-14620
▁Iron	-14621
▁Long	-14622
▁Maul	-14623
▁Much	-14624
▁apps	-14625
▁bean	-14626
▁cann	-14627
▁isol	-14628
▁lamp	-14629
erodes	-14630
▁1984,	-14631
▁MAYBE	-14632
▁Malay	-14633
▁Phelp	-14634
▁brown	-14635
▁corny	-14636
▁gover	-14637
▁noted	-14638
▁probl	-14639
▁qaeda	-14640
▁shirt	-14641
Finally	-14642
Meaning	-14643
fathers	-14644
overall	-14645
quility	-14646
▁50/50.	-14647
▁Longer	-14648
▁Lousis	-14649
▁Phelps	-14650
▁cannon	-14651
▁critic	-14652
▁erodes	-14653
▁pacify	-14654
▁sinful	-14655
▁sloths	-14656
symmetry	-14657
▁authoir	-14658
▁kidding	-14659
▁manners	-14660
▁summers	-14661
▁transpl	-14662
Canadians	-14663
anquility	-14664
particles	-14665
▁Imprison	-14666
▁Sanction	-14667
▁balanced	-14668
▁commence	-14669
▁covering	-14670
▁isolated	-14671
▁literacy	-14672
▁mislaced	-14673
▁openings	-14674
▁tectonic	-14675
candidates	-14676
▁Charlotte	-14677
▁Lousisana	-14678
▁Vilifying	-14679
▁criticize	-14680
▁cutscenes	-14681
▁goverment	-14682
▁innocents	-14683
▁necassary	-14684
▁neccisary	-14685
▁neglected	-14686
▁negligent	-14687
▁networked	-14688
▁nevermind	-14689
▁newspaper	-14690
▁nominated	-14691
▁nonesense	-14692
▁notorious	-14693
▁obligated	-14694
▁oblivious	-14695
▁oppressed	-14696
▁organized	-14697
▁otherside	-14698
▁outsiders	-14699
!(	-14700
8,	-14701
Af	-14702
Fr	-14703
PM	-14704
SA	-14705
sa	-14706
din	-14707
lys	-14708
nis	-14709
too	-14710
▁oz	-14711
▁yu	-14712
List	-14713
cher	-14714
lave	-14715
remo	-14716
riad	-14717
test	-14718
▁50.	-14719
▁NSA	-14720
▁Sti	-14721
▁btw	-14722
▁hay	-14723
▁rim	-14724
After	-14725
lyssa	-14726
oList	-14727
slave	-14728
unnis	-14729
▁Odin	-14730
▁aler	-14731
▁daft	-14732
▁dele	-14733
▁pink	-14734
▁sine	-14735
▁undo	-14736
vering	-14737
▁2018,	-14738
▁Stipe	-14739
▁deleg	-14740
▁ocean	-14741
▁pinko	-14742
▁provo	-14743
▁robes	-14744
▁swoon	-14745
▁thick	-14746
Frankly	-14747
answers	-14748
estinal	-14749
nestlew	-14750
▁Alyssa	-14751
▁Sunnis	-14752
▁alerts	-14753
▁bullet	-14754
▁hayday	-14755
▁myriad	-14756
▁shades	-14757
▁unjust	-14758
destruct	-14759
ouvering	-14760
removing	-14761
supposed	-14762
▁Classic	-14763
▁England	-14764
▁INDIANS	-14765
videoList	-14766
▁Thatcher	-14767
▁brothels	-14768
▁improved	-14769
▁momentum	-14770
▁passport	-14771
▁piercing	-14772
▁training	-14773
▁Polyamory	-14774
▁Porpoises	-14775
[...]
