<unk>	0
<s>	0
</s>	0
▁t	-0
▁a	-1
he	-2
in	-3
▁the	-4
▁w	-5
re	-6
ou	-7
▁s	-8
on	-9
▁b	-10
ha	-11
er	-12
▁i	-13
▁c	-14
▁m	-15
▁o	-16
nd	-17
▁to	-18
▁p	-19
▁f	-20
ing	-21
es	-22
▁I	-23
▁d	-24
or	-25
en	-26
▁be	-27
▁l	-28
al	-29
it	-30
at	-31
▁and	-32
an	-33
ed	-34
▁n	-35
▁y	-36
▁in	-37
▁of	-38
st	-39
hat	-40
▁g	-41
ve	-42
▁you	-43
om	-44
▁is	-45
le	-46
ot	-47
ly	-48
▁ha	-49
ld	-50
ic	-51
se	-52
▁e	-53
pp	-54
ll	-55
ar	-56
▁that	-57
▁it	-58
hi	-59
ion	-60
▁re	-61
app	-62
ould	-63
as	-64
▁[	-65
ent	-66
et	-67
ut	-68
her	-69
▁on	-70
ver	-71
ow	-72
ay	-73
ri	-74
▁u	-75
oo	-76
▁for	-77
ac	-78
▁not	-79
▁an	-80
▁T	-81
▁have	-82
▁th	-83
id	-84
gh	-85
ke	-86
ith	-87
▁st	-88
▁he	-89
op	-90
▁with	-91
▁are	-92
▁we	-93
▁li	-94
▁as	-95
his	-96
out	-97
ill	-98
ur	-99
ec	-100
▁would	-101
▁do	-102
▁or	-103
ce	-104
ers	-105
is	-106
▁h	-107
ro	-108
ir	-109
me	-110
ad	-111
▁can	-112
▁was	-113
ome	-114
▁but	-115
▁they	-116
ch	-117
▁wh	-118
▁mo	-119
ter	-120
▁so	-121
▁your	-122
au	-123
▁se	-124
ood	-125
ust	-126
▁me	-127
▁The	-128
▁k	-129
one	-130
ally	-131
ation	-132
▁my	-133
li	-134
ght	-135
▁ab	-136
▁S	-137
▁if	-138
▁sh	-139
▁j	-140
▁de	-141
▁con	-142
ess	-143
▁ne	-144
ant	-145
▁A	-146
0]	-147
han	-148
our	-149
▁this	-150
ol	-151
▁bec	-152
▁al	-153
ain	-154
▁com	-155
▁ex	-156
eop	-157
eople	-158
▁at	-159
▁su	-160
ment	-161
ause	-162
▁all	-163
ink	-164
▁people	-165
20]	-166
▁go	-167
▁there	-168
est	-169
▁pro	-170
▁will	-171
ble	-172
nt	-173
ge	-174
ul	-175
il	-176
▁because	-177
fe	-178
and	-179
mp	-180
▁should	-181
▁le	-182
▁them	-183
▁W	-184
ct	-185
ather	-186
qu	-187
▁some	-188
very	-189
▁wor	-190
us	-191
▁think	-192
th	-193
▁get	-194
ous	-195
▁ma	-196
ther	-197
▁sp	-198
▁like	-199
▁what	-200
▁C	-201
ate	-202
▁fr	-203
▁good	-204
▁just	-205
erson	-206
ect	-207
▁M	-208
▁person	-209
▁than	-210
if	-211
▁v	-212
▁hi	-213
▁r	-214
▁any	-215
▁more	-216
▁F	-217
▁who	-218
ity	-219
ice	-220
un	-221
▁whe	-222
▁about	-223
▁their	-224
▁tr	-225
▁B	-226
▁It	-227
▁(	-228
now	-229
▁If	-230
am	-231
ive	-232
ci	-233
▁don	-234
▁ti	-235
▁from	-236
▁father	-237
▁by	-238
▁other	-239
ong	-240
▁bet	-241
▁has	-242
ort	-243
▁ta	-244
▁know	-245
▁no	-246
▁one	-247
▁pl	-248
ven	-249
▁la	-250
▁fe	-251
▁see	-252
▁out	-253
▁ri	-254
▁better	-255
▁us	-256
▁P	-257
ig	-258
▁lo	-259
ore	-260
are	-261
lie	-262
so	-263
▁up	-264
res	-265
▁un	-266
▁then	-267
lf	-268
▁were	-269
um	-270
ough	-271
king	-272
os	-273
art	-274
▁H	-275
▁belie	-276
▁Y	-277
de	-278
ays	-279
end	-280
ff	-281
all	-282
ving	-283
▁time	-284
▁want	-285
ap	-286
▁ad	-287
▁ag	-288
▁"	-289
ies	-290
el	-291
act	-292
ich	-293
hing	-294
▁had	-295
ist	-296
▁pr	-297
▁our	-298
red	-299
ound	-300
ast	-301
▁ar	-302
▁law	-303
▁only	-304
▁life	-305
▁believe	-306
im	-307
lp	-308
▁every	-309
ud	-310
▁en	-311
▁int	-312
▁help	-313
ence	-314
▁him	-315
ack	-316
▁does	-317
▁could	-318
▁right	-319
ook	-320
▁ac	-321
▁N	-322
ind	-323
uch	-324
▁need	-325
ame	-326
der	-327
▁when	-328
ase	-329
▁thing	-330
ie	-331
▁R	-332
▁te	-333
ions	-334
pt	-335
▁comp	-336
▁make	-337
▁much	-338
▁E	-339
▁O	-340
ace	-341
▁am	-342
▁off	-343
▁also	-344
▁act	-345
▁did	-346
▁exp	-347
able	-348
od	-349
ms	-350
su	-351
▁comm	-352
ab	-353
▁may	-354
ide	-355
▁gr	-356
▁chi	-357
iv	-358
omet	-359
ard	-360
ight	-361
▁even	-362
▁really	-363
▁way	-364
ool	-365
ose	-366
▁man	-367
..	-368
ine	-369
▁dis	-370
▁cl	-371
self	-372
▁how	-373
▁cont	-374
▁most	-375
▁which	-376
les	-377
▁wr	-378
▁child	-379
▁feel	-380
▁1	-381
ious	-382
reat	-383
▁someone	-384
ure	-385
ount	-386
▁pre	-387
▁ser	-388
ep	-389
age	-390
▁We	-391
ry	-392
▁bot	-393
▁being	-394
ite	-395
▁say	-396
▁been	-397
irst	-398
ag	-399
ved	-400
▁po	-401
▁again	-402
ach	-403
▁qu	-404
ways	-405
ass	-406
▁her	-407
▁his	-408
▁soci	-409
uc	-410
▁over	-411
▁somet	-412
▁work	-413
▁always	-414
ire	-415
har	-416
lic	-417
iz	-418
▁U	-419
ever	-420
▁You	-421
▁und	-422
ting	-423
ue	-424
wn	-425
less	-426
▁res	-427
▁ch	-428
▁cri	-429
▁wat	-430
chool	-431
ory	-432
ason	-433
ty	-434
ated	-435
thing	-436
▁very	-437
▁under	-438
ear	-439
ousy	-440
▁G	-441
ful	-442
int	-443
ree	-444
▁br	-445
▁dec	-446
▁pol	-447
other	-448
▁cons	-449
1]	-450
ical	-451
ves	-452
▁lousy	-453
▁school	-454
ru	-455
als	-456
ste	-457
▁happ	-458
▁reason	-459
▁she	-460
ub	-461
▁L	-462
ost	-463
▁So	-464
▁op	-465
ade	-466
▁mean	-467
2]	-468
▁D	-469
ens	-470
ick	-471
orm	-472
ren	-473
▁In	-474
▁its	-475
▁own	-476
▁This	-477
▁cour	-478
▁never	-479
▁having	-480
ak	-481
itt	-482
oney	-483
▁imp	-484
▁food	-485
▁money	-486
▁place	-487
▁first	-488
ish	-489
▁rec	-490
▁going	-491
▁something	-492
▁use	-493
▁dif	-494
▁count	-495
▁world	-496
▁att	-497
ition	-498
oy	-499
ance	-500
▁mar	-501
▁per	-502
ary	-503
▁part	-504
...	-505
▁pay	-506
▁back	-507
ult	-508
vern	-509
▁where	-510
ia	-511
ail	-512
gal	-513
kes	-514
orn	-515
▁best	-516
▁look	-517
▁stud	-518
▁take	-519
▁year	-520
▁govern	-521
▁-	-522
urn	-523
vol	-524
hile	-525
rent	-526
ress	-527
▁def	-528
ations	-529
▁great	-530
ber	-531
iew	-532
ons	-533
ual	-534
▁They	-535
▁here	-536
ents	-537
▁personal	-538
5]	-539
▁2	-540
ety	-541
ial	-542
▁har	-543
▁inc	-544
▁why	-545
▁long	-546
▁many	-547
ob	-548
fore	-549
▁too	-550
▁into	-551
▁diffe	-552
ft	-553
▁fri	-554
▁pur	-555
ually	-556
oc	-557
▁aw	-558
▁But	-559
▁app	-560
▁chan	-561
3]	-562
▁less	-563
▁wrong	-564
og	-565
ert	-566
ian	-567
lig	-568
min	-569
ates	-570
▁bas	-571
▁lot	-572
▁mur	-573
▁case	-574
▁things	-575
ign	-576
own	-577
▁government	-578
4]	-579
ra	-580
▁ke	-581
fter	-582
▁che	-583
▁kill	-584
▁supp	-585
▁acc	-586
▁new	-587
▁put	-588
The	-589
▁sa	-590
▁able	-591
▁such	-592
▁these	-593
aff	-594
▁others	-595
__	-596
gu	-597
arn	-598
ict	-599
ody	-600
▁gu	-601
▁sy	-602
▁well	-603
▁yourself	-604
▁won	-605
▁love	-606
6]	-607
▁Al	-608
▁How	-609
▁inf	-610
▁pos	-611
▁still	-612
▁underst	-613
▁anything	-614
hed	-615
ily	-616
▁find	-617
8]	-618
cept	-619
▁big	-620
▁got	-621
▁turn	-622
▁allow	-623
▁court	-624
▁order	-625
▁another	-626
▁without	-627
ittle	-628
▁both	-629
▁same	-630
▁quest	-631
▁little	-632
7]	-633
▁sm	-634
mple	-635
uman	-636
▁min	-637
▁made	-638
▁water	-639
▁proble	-640
▁wouldn	-641
ef	-642
ible	-643
▁found	-644
▁those	-645
▁common	-646
ks	-647
eri	-648
hip	-649
led	-650
ably	-651
▁ide	-652
▁kid	-653
▁try	-654
apore	-655
▁Sing	-656
▁give	-657
▁makes	-658
▁while	-659
▁Singapore	-660
▁ob	-661
ince	-662
▁dr	-663
▁bad	-664
▁dep	-665
▁des	-666
inion	-667
▁rest	-668
▁There	-669
▁after	-670
▁legal	-671
▁society	-672
vers	-673
arent	-674
▁resp	-675
9]	-676
ger	-677
▁bl	-678
▁bu	-679
▁sc	-680
▁ext	-681
▁rel	-682
▁sit	-683
▁thr	-684
▁fact	-685
▁keep	-686
▁view	-687
ically	-688
▁might	-689
▁opinion	-690
tc	-691
ense	-692
▁etc	-693
ution	-694
▁sure	-695
▁J	-696
ave	-697
ces	-698
ors	-699
ating	-700
ought	-701
▁used	-702
affles	-703
ertain	-704
▁doesn	-705
▁relig	-706
▁syste	-707
▁country	-708
▁different	-709
▁understand	-710
ither	-711
▁friend	-712
MV	-713
be	-714
con	-715
per	-716
▁My	-717
alth	-718
arqu	-719
▁add	-720
▁isn	-721
▁come	-722
▁real	-723
▁spec	-724
▁defin	-725
▁human	-726
▁learn	-727
▁rights	-728
ouse	-729
▁eff	-730
ments	-731
▁requ	-732
av	-733
hes	-734
mer	-735
mes	-736
▁co	-737
▁ev	-738
ific	-739
ular	-740
▁And	-741
▁bus	-742
▁mat	-743
▁spe	-744
▁didn	-745
▁high	-746
▁point	-747
▁before	-748
▁However	-749
▁against	-750
vel	-751
▁each	-752
).	-753
00	-754
ener	-755
▁emp	-756
▁ind	-757
bably	-758
ublic	-759
▁doing	-760
▁invol	-761
▁seems	-762
▁rather	-763
▁Raffles	-764
▁everyone	-765
▁eas	-766
▁pursu	-767
its	-768
ord	-769
▁No	-770
▁si	-771
▁col	-772
▁rep	-773
▁argu	-774
▁bott	-775
▁must	-776
▁Farqu	-777
▁around	-778
▁certain	-779
▁through	-780
get	-781
▁fo	-782
vice	-783
▁char	-784
▁self	-785
▁span	-786
▁children	-787
sw	-788
any	-789
ath	-790
ked	-791
rug	-792
ute	-793
▁fu	-794
here	-795
▁end	-796
▁ter	-797
conom	-798
iness	-799
▁call	-800
▁done	-801
▁show	-802
▁tell	-803
though	-804
▁crime	-805
▁least	-806
▁enough	-807
▁experi	-808
▁police	-809
▁system	-810
gr	-811
iss	-812
ket	-813
sel	-814
▁job	-815
▁parent	-816
▁nothing	-817
xt	-818
▁3	-819
ait	-820
▁US	-821
▁tw	-822
▁opt	-823
▁set	-824
otect	-825
▁answ	-826
▁inte	-827
▁kids	-828
uation	-829
▁murder	-830
▁protect	-831
▁support	-832
▁probably	-833
ox	-834
tty	-835
▁adv	-836
▁cur	-837
▁tri	-838
▁down	-839
▁students	-840
If	-841
ey	-842
hy	-843
ss	-844
yp	-845
▁'	-846
ced	-847
ise	-848
lse	-849
▁im	-850
ness	-851
read	-852
▁exa	-853
▁fam	-854
▁fin	-855
▁now	-856
▁pri	-857
itely	-858
▁care	-859
▁ever	-860
▁idea	-861
▁unif	-862
▁whole	-863
ucation	-864
▁accept	-865
▁happen	-866
▁thought	-867
▁Farquhar	-868
▁experience	-869
pl	-870
tern	-871
▁since	-872
▁question	-873
!!	-874
ib	-875
te	-876
ism	-877
loy	-878
oup	-879
▁He	-880
▁fl	-881
band	-882
ings	-883
▁For	-884
▁day	-885
▁str	-886
▁sub	-887
▁else	-888
▁hard	-889
▁laws	-890
▁class	-891
▁start	-892
▁state	-893
▁become	-894
▁crimin	-895
▁likely	-896
▁social	-897
▁fatherless	-898
ond	-899
ider	-900
▁either	-901
cc	-902
uck	-903
▁Ch	-904
▁ed	-905
▁hus	-906
▁ref	-907
▁wom	-908
▁yes	-909
▁home	-910
▁issu	-911
▁kind	-912
▁econom	-913
▁public	-914
▁example	-915
▁actually	-916
day	-917
ject	-918
▁sur	-919
vious	-920
selves	-921
▁pretty	-922
hen	-923
rit	-924
▁gi	-925
ames	-926
ides	-927
ower	-928
▁CMV	-929
▁bur	-930
▁car	-931
▁cas	-932
▁ent	-933
▁let	-934
▁loc	-935
▁mor	-936
▁reg	-937
▁rem	-938
▁sal	-939
▁sex	-940
▁two	-941
▁typ	-942
ident	-943
ility	-944
lease	-945
▁away	-946
▁disc	-947
▁prop	-948
▁wait	-949
▁change	-950
▁health	-951
▁husband	-952
▁business	-953
12]	-954
ball	-955
▁years	-956
▁though	-957
▁pursuit	-958
aw	-959
we	-960
▁5	-961
for	-962
gin	-963
ove	-964
▁di	-965
ater	-966
imes	-967
ross	-968
▁cle	-969
▁fun	-970
▁nat	-971
iting	-972
meric	-973
▁That	-974
▁sign	-975
▁exist	-976
▁marri	-977
▁means	-978
▁times	-979
▁employ	-980
▁expect	-981
▁involved	-982
▁situation	-983
ics	-984
▁lead	-985
▁poss	-986
▁pres	-987
▁anyone	-988
▁effect	-989
lt	-990
sp	-991
▁.	-992
air	-993
jor	-994
not	-995
old	-996
use	-997
▁Be	-998
enef	-999
ices	-1000
mend	-1001
rest	-1002
▁cor	-1003
▁sec	-1004
ities	-1005
stead	-1006
▁drug	-1007
▁live	-1008
▁said	-1009
▁seem	-1010
▁drink	-1011
▁gener	-1012
▁happy	-1013
▁needs	-1014
▁stand	-1015
▁contin	-1016
▁family	-1017
▁getting	-1018
ationship	-1019
▁definitely	-1020
▁relationship	-1021
ages	-1022
dered	-1023
ially	-1024
velop	-1025
▁left	-1026
▁prod	-1027
▁parents	-1028
▁consider	-1029
up	-1030
11]	-1031
ake	-1032
ope	-1033
▁To	-1034
▁ro	-1035
____	-1036
cing	-1037
ivid	-1038
ning	-1039
oint	-1040
ries	-1041
▁Ind	-1042
▁Yes	-1043
▁cho	-1044
▁deb	-1045
▁dri	-1046
▁old	-1047
▁val	-1048
orney	-1049
▁perf	-1050
▁based	-1051
▁benef	-1052
▁colle	-1053
▁death	-1054
▁small	-1055
▁Americ	-1056
▁matter	-1057
▁saying	-1058
▁problem	-1059
▁education	-1060
▁aff	-1061
▁grow	-1062
▁develop	-1063
▁service	-1064
▁themselves	-1065
ng	-1066
mon	-1067
ont	-1068
land	-1069
olog	-1070
▁bre	-1071
▁far	-1072
▁mal	-1073
▁pun	-1074
▁run	-1075
▁sha	-1076
▁ste	-1077
▁top	-1078
▁win	-1079
aught	-1080
ction	-1081
▁book	-1082
▁agree	-1083
▁major	-1084
▁answer	-1085
▁inform	-1086
▁proper	-1087
▁instead	-1088
▁attorney	-1089
▁criminal	-1090
ures	-1091
lu	-1092
ne	-1093
▁*	-1094
14]	-1095
16]	-1096
ech	-1097
▁As	-1098
▁St	-1099
▁TV	-1100
body	-1101
mber	-1102
utes	-1103
▁equ	-1104
▁fil	-1105
▁loo	-1106
▁mov	-1107
▁num	-1108
▁pat	-1109
▁tal	-1110
ately	-1111
cient	-1112
▁body	-1113
▁free	-1114
▁full	-1115
▁hand	-1116
▁lawy	-1117
▁next	-1118
▁pass	-1119
▁play	-1120
▁prov	-1121
▁side	-1122
▁simp	-1123
▁took	-1124
▁night	-1125
▁making	-1126
▁individ	-1127
▁argument	-1128
▁problems	-1129
cy	-1130
emp	-1131
ier	-1132
▁few	-1133
▁tax	-1134
▁war	-1135
▁conv	-1136
▁cust	-1137
ortant	-1138
▁decis	-1139
▁commun	-1140
▁important	-1141
),	-1142
15]	-1143
bor	-1144
ese	-1145
fox	-1146
iol	-1147
ize	-1148
joy	-1149
med	-1150
ork	-1151
ards	-1152
arly	-1153
rect	-1154
vent	-1155
▁ask	-1156
▁det	-1157
▁ins	-1158
▁mon	-1159
▁pot	-1160
▁red	-1161
ading	-1162
icken	-1163
▁bill	-1164
▁last	-1165
▁open	-1166
irefox	-1167
ortion	-1168
▁cause	-1169
▁const	-1170
▁enjoy	-1171
▁games	-1172
▁local	-1173
▁moral	-1174
▁offic	-1175
▁watch	-1176
▁course	-1177
▁depend	-1178
▁option	-1179
▁uniform	-1180
▁everything	-1181
▁personally	-1182
llow	-1183
▁sol	-1184
ently	-1185
▁stop	-1186
▁spend	-1187
▁follow	-1188
▁market	-1189
It	-1190
az	-1191
▁4	-1192
▁K	-1193
aur	-1194
icy	-1195
ten	-1196
▁IE	-1197
▁Re	-1198
▁av	-1199
▁wi	-1200
ided	-1201
ives	-1202
most	-1203
side	-1204
ware	-1205
ying	-1206
▁She	-1207
▁abs	-1208
▁cre	-1209
▁est	-1210
▁med	-1211
▁pop	-1212
▁uni	-1213
astic	-1214
ecess	-1215
ively	-1216
▁When	-1217
▁game	-1218
▁hear	-1219
▁teac	-1220
▁went	-1221
aurant	-1222
gether	-1223
▁bring	-1224
▁comes	-1225
▁price	-1226
▁sport	-1227
▁super	-1228
▁choice	-1229
▁killed	-1230
▁simply	-1231
▁spouse	-1232
▁taking	-1233
▁chicken	-1234
▁respons	-1235
▁Although	-1236
▁religion	-1237
▁together	-1238
17]	-1239
19]	-1240
rib	-1241
son	-1242
▁dog	-1243
▁men	-1244
▁move	-1245
gn	-1246
ho	-1247
13]	-1248
18]	-1249
You	-1250
ans	-1251
ari	-1252
lle	-1253
the	-1254
uss	-1255
▁Sp	-1256
▁Un	-1257
▁em	-1258
arch	-1259
fort	-1260
ited	-1261
reme	-1262
unch	-1263
ural	-1264
▁eat	-1265
▁gun	-1266
▁ret	-1267
▁tru	-1268
ering	-1269
onest	-1270
pping	-1271
where	-1272
▁Also	-1273
▁Well	-1274
▁dire	-1275
▁dont	-1276
▁fast	-1277
▁gets	-1278
▁guil	-1279
▁hold	-1280
▁inst	-1281
▁true	-1282
▁viol	-1283
ancing	-1284
▁First	-1285
▁given	-1286
▁maybe	-1287
▁polit	-1288
▁using	-1289
▁woman	-1290
▁worth	-1291
▁cannot	-1292
▁coming	-1293
▁comple	-1294
▁debate	-1295
▁itself	-1296
▁longer	-1297
▁strong	-1298
▁trying	-1299
▁allowed	-1300
▁bottles	-1301
▁college	-1302
▁correct	-1303
▁friends	-1304
▁knowing	-1305
▁looking	-1306
▁perfect	-1307
▁schools	-1308
▁interest	-1309
▁countries	-1310
▁restaurant	-1311
▁lar	-1312
▁adult	-1313
▁design	-1314
▁economy	-1315
co	-1316
gg	-1317
▁,	-1318
▁V	-1319
ars	-1320
erv	-1321
fer	-1322
hil	-1323
ici	-1324
ili	-1325
ina	-1326
ner	-1327
oot	-1328
osp	-1329
uge	-1330
urt	-1331
▁10	-1332
▁An	-1333
▁ce	-1334
▁sl	-1335
ared	-1336
ased	-1337
ield	-1338
ists	-1339
ital	-1340
ivil	-1341
lain	-1342
▁ass	-1343
▁aut	-1344
▁bit	-1345
▁fig	-1346
▁guy	-1347
▁inn	-1348
▁leg	-1349
▁lic	-1350
▁mus	-1351
▁non	-1352
▁tea	-1353
ished	-1354
ready	-1355
▁Many	-1356
▁Most	-1357
▁With	-1358
▁came	-1359
▁cost	-1360
▁cult	-1361
▁deal	-1362
▁hour	-1363
▁ille	-1364
▁land	-1365
▁line	-1366
▁main	-1367
▁pain	-1368
▁proc	-1369
▁says	-1370
▁type	-1371
▁vide	-1372
▁wear	-1373
idence	-1374
▁India	-1375
▁brain	-1376
▁break	-1377
▁cases	-1378
▁fight	-1379
▁group	-1380
▁inter	-1381
▁leave	-1382
▁produ	-1383
▁prove	-1384
▁sound	-1385
▁speak	-1386
▁three	-1387
ational	-1388
▁charge	-1389
▁compet	-1390
▁myself	-1391
▁office	-1392
▁contact	-1393
▁minutes	-1394
▁serious	-1395
▁shouldn	-1396
▁student	-1397
▁sometimes	-1398
ify	-1399
ted	-1400
gram	-1401
▁requi	-1402
licious	-1403
▁program	-1404
▁spanking	-1405
",	-1406
".	-1407
ix	-1408
ps	-1409
sk	-1410
ged	-1411
hys	-1412
ile	-1413
oun	-1414
▁Th	-1415
▁sk	-1416
avor	-1417
fend	-1418
ines	-1419
ized	-1420
like	-1421
ring	-1422
▁cap	-1423
▁ele	-1424
▁exc	-1425
▁fre	-1426
▁inv	-1427
▁jud	-1428
▁vis	-1429
olute	-1430
▁Just	-1431
▁Will	-1432
▁anim	-1433
▁clot	-1434
▁conc	-1435
▁conf	-1436
▁gave	-1437
▁harm	-1438
▁ment	-1439
▁name	-1440
▁nice	-1441
▁plan	-1442
▁poor	-1443
▁seen	-1444
▁sing	-1445
▁Every	-1446
▁equal	-1447
▁heart	-1448
▁truly	-1449
ression	-1450
▁People	-1451
▁almost	-1452
▁figure	-1453
▁necess	-1454
▁number	-1455
▁punish	-1456
▁theory	-1457
▁unless	-1458
▁already	-1459
▁company	-1460
▁illegal	-1461
▁married	-1462
▁require	-1463
▁respect	-1464
▁working	-1465
▁differen	-1466
▁specific	-1467
▁whatever	-1468
▁certainly	-1469
▁individual	-1470
cu	-1471
esp	-1472
lud	-1473
▁art	-1474
▁sat	-1475
▁stay	-1476
ecially	-1477
▁custom	-1478
▁position	-1479
▁delicious	-1480
bs	-1481
ck	-1482
ee	-1483
ju	-1484
zy	-1485
acc	-1486
acy	-1487
aid	-1488
ark	-1489
dit	-1490
iam	-1491
ied	-1492
ild	-1493
ogn	-1494
ric	-1495
ses	-1496
wit	-1497
▁19	-1498
▁Is	-1499
▁PE	-1500
▁ra	-1501
aces	-1502
andw	-1503
ians	-1504
ilar	-1505
ling	-1506
orms	-1507
rist	-1508
view	-1509
▁Can	-1510
▁Not	-1511
▁adm	-1512
▁buy	-1513
▁cra	-1514
▁die	-1515
▁din	-1516
▁low	-1517
▁sim	-1518
▁unt	-1519
▁wal	-1520
fully	-1521
rible	-1522
story	-1523
▁Some	-1524
▁What	-1525
▁aren	-1526
▁deli	-1527
▁grad	-1528
▁huge	-1529
▁once	-1530
▁step	-1531
▁tend	-1532
▁wife	-1533
▁word	-1534
ftware	-1535
ommend	-1536
▁creat	-1537
▁final	-1538
▁knows	-1539
▁sandw	-1540
▁story	-1541
▁table	-1542
▁trust	-1543
▁living	-1544
▁second	-1545
▁states	-1546
▁wanted	-1547
▁William	-1548
▁healthy	-1549
▁outside	-1550
▁process	-1551
▁reasons	-1552
▁subject	-1553
▁evidence	-1554
▁thinking	-1555
▁community	-1556
▁questions	-1557
▁recommend	-1558
▁information	-1559
▁responsible	-1560
ls	-1561
itted	-1562
▁comb	-1563
▁stat	-1564
▁tast	-1565
▁exact	-1566
▁house	-1567
▁sense	-1568
▁easier	-1569
▁convict	-1570
▁ordered	-1571
20	-1572
In	-1573
OT	-1574
ts	-1575
vy	-1576
!!!	-1577
000	-1578
com	-1579
cri	-1580
cum	-1581
eth	-1582
ges	-1583
gle	-1584
ime	-1585
ken	-1586
man	-1587
mat	-1588
oid	-1589
omp	-1590
oof	-1591
oth	-1592
ows	-1593
rat	-1594
ris	-1595
ths	-1596
ube	-1597
ues	-1598
▁Ob	-1599
▁Pl	-1600
▁ve	-1601
itiz	-1602
llig	-1603
osed	-1604
sequ	-1605
▁All	-1606
▁Ire	-1607
▁bel	-1608
▁cop	-1609
▁due	-1610
▁eng	-1611
▁fit	-1612
▁mil	-1613
▁occ	-1614
▁opp	-1615
▁ori	-1616
anies	-1617
anted	-1618
ouble	-1619
uring	-1620
▁choo	-1621
▁evol	-1622
▁film	-1623
▁fore	-1624
▁form	-1625
▁jail	-1626
▁lose	-1627
▁mind	-1628
▁mist	-1629
▁past	-1630
▁phil	-1631
▁phys	-1632
▁purp	-1633
▁read	-1634
▁rich	-1635
▁risk	-1636
▁sell	-1637
▁sent	-1638
▁thus	-1639
ential	-1640
member	-1641
ternet	-1642
▁Somet	-1643
▁books	-1644
▁cheap	-1645
▁early	-1646
▁helps	-1647
▁innoc	-1648
▁issue	-1649
▁judge	-1650
▁large	-1651
▁lives	-1652
▁movie	-1653
▁music	-1654
▁often	-1655
▁power	-1656
▁proof	-1657
▁until	-1658
▁value	-1659
▁worse	-1660
ibility	-1661
itution	-1662
olutely	-1663
▁across	-1664
▁action	-1665
▁called	-1666
▁chance	-1667
▁cheese	-1668
▁consci	-1669
▁direct	-1670
▁disapp	-1671
▁easily	-1672
▁guilty	-1673
▁honest	-1674
▁invest	-1675
▁issues	-1676
▁lawyer	-1677
▁nature	-1678
▁origin	-1679
▁please	-1680
▁policy	-1681
▁result	-1682
▁review	-1683
▁wonder	-1684
▁Ireland	-1685
▁animals	-1686
▁classes	-1687
▁decided	-1688
▁extreme	-1689
▁helping	-1690
▁however	-1691
▁learned	-1692
▁plastic	-1693
▁similar	-1694
▁special	-1695
▁univers	-1696
▁writing	-1697
▁abortion	-1698
▁accident	-1699
▁complete	-1700
▁continue	-1701
▁expected	-1702
▁friendly	-1703
▁sandwich	-1704
▁political	-1705
▁therefore	-1706
pis	-1707
pect	-1708
▁esp	-1709
▁gre	-1710
▁fant	-1711
▁appro	-1712
▁incre	-1713
▁tried	-1714
▁includ	-1715
▁decision	-1716
--	-1717
He	-1718
So	-1719
em	-1720
10]	-1721
But	-1722
aim	-1723
ana	-1724
ank	-1725
cts	-1726
gan	-1727
hol	-1728
igh	-1729
ird	-1730
lls	-1731
oke	-1732
ony	-1733
oub	-1734
rap	-1735
rom	-1736
rop	-1737
umb	-1738
▁--	-1739
▁Cl	-1740
▁Li	-1741
▁Ne	-1742
▁pe	-1743
This	-1744
ault	-1745
ched	-1746
ency	-1747
gers	-1748
ient	-1749
imum	-1750
lish	-1751
ocus	-1752
ouch	-1753
over	-1754
resh	-1755
▁bar	-1756
▁boo	-1757
▁cir	-1758
▁div	-1759
▁enc	-1760
▁hot	-1761
▁tac	-1762
▁tow	-1763
▁wee	-1764
▁yet	-1765
aking	-1766
ances	-1767
ative	-1768
atory	-1769
force	-1770
illed	-1771
ional	-1772
itary	-1773
ology	-1774
right	-1775
▁Even	-1776
▁Your	-1777
▁area	-1778
▁assu	-1779
▁beha	-1780
▁city	-1781
▁dead	-1782
▁dist	-1783
▁emot	-1784
▁fail	-1785
▁foot	-1786
▁hope	-1787
▁host	-1788
▁hurt	-1789
▁male	-1790
▁mass	-1791
▁mill	-1792
▁miss	-1793
▁paid	-1794
▁post	-1795
▁prof	-1796
▁qual	-1797
▁rent	-1798
▁rese	-1799
▁rout	-1800
▁send	-1801
▁serv	-1802
▁sour	-1803
▁team	-1804
▁test	-1805
▁trad	-1806
▁wasn	-1807
lement	-1808
▁Canad	-1809
▁China	-1810
▁begin	-1811
▁citiz	-1812
▁civil	-1813
▁clear	-1814
▁close	-1815
▁crazy	-1816
▁cross	-1817
▁field	-1818
▁focus	-1819
▁fresh	-1820
▁fries	-1821
▁keeps	-1822
▁labor	-1823
▁later	-1824
▁level	-1825
▁media	-1826
▁shows	-1827
▁teach	-1828
▁thats	-1829
▁women	-1830
▁works	-1831
▁write	-1832
itional	-1833
▁Christ	-1834
▁amount	-1835
▁attent	-1836
▁burger	-1837
▁choose	-1838
▁circum	-1839
▁contro	-1840
▁defend	-1841
▁record	-1842
▁scient	-1843
▁simple	-1844
▁single	-1845
▁taught	-1846
▁America	-1847
▁actions	-1848
▁capital	-1849
▁consequ	-1850
▁current	-1851
▁employe	-1852
▁founder	-1853
▁history	-1854
▁meaning	-1855
▁obvious	-1856
▁regular	-1857
▁talking	-1858
▁teacher	-1859
▁marriage	-1860
▁recently	-1861
▁somebody	-1862
▁advancing	-1863
▁arguments	-1864
▁companies	-1865
▁extremely	-1866
▁religious	-1867
▁completely	-1868
▁punishment	-1869
dd	-1870
cipl	-1871
edom	-1872
miss	-1873
▁docu	-1874
▁epis	-1875
▁news	-1876
▁affect	-1877
▁attemp	-1878
▁discipl	-1879
▁freedom	-1880
▁usually	-1881
▁committed	-1882
ER	-1883
to	-1884
vi	-1885
▁7	-1886
asy	-1887
hib	-1888
hie	-1889
hor	-1890
sec	-1891
ush	-1892
way	-1893
▁30	-1894
▁ID	-1895
▁On	-1896
▁id	-1897
cial	-1898
echn	-1899
enal	-1900
fact	-1901
gest	-1902
ging	-1903
icul	-1904
more	-1905
mosp	-1906
nect	-1907
oved	-1908
ract	-1909
rate	-1910
ream	-1911
rive	-1912
room	-1913
▁Don	-1914
▁age	-1915
▁cal	-1916
▁cha	-1917
▁dan	-1918
▁dem	-1919
▁fat	-1920
▁ful	-1921
▁gir	-1922
▁hit	-1923
▁mom	-1924
▁ple	-1925
▁rac	-1926
▁rid	-1927
▁tip	-1928
▁vot	-1929
There	-1930
ledge	-1931
ooked	-1932
riend	-1933
rimin	-1934
witch	-1935
▁Than	-1936
▁alco	-1937
▁days	-1938
▁dish	-1939
▁easy	-1940
▁fine	-1941
▁fund	-1942
▁imag	-1943
▁lack	-1944
▁list	-1945
▁porn	-1946
▁rece	-1947
▁scen	-1948
▁seek	-1949
▁suff	-1950
▁surv	-1951
▁wage	-1952
▁ways	-1953
icular	-1954
urance	-1955
urther	-1956
verage	-1957
▁above	-1958
▁accom	-1959
▁avail	-1960
▁becom	-1961
▁boost	-1962
▁brows	-1963
▁build	-1964
▁front	-1965
▁impro	-1966
▁lunch	-1967
▁minor	-1968
▁quick	-1969
▁quite	-1970
▁shoot	-1971
▁takes	-1972
▁topic	-1973
▁train	-1974
▁video	-1975
▁weird	-1976
stances	-1977
▁Please	-1978
▁actual	-1979
▁atmosp	-1980
▁belief	-1981
▁couldn	-1982
▁danger	-1983
▁during	-1984
▁entire	-1985
▁extens	-1986
▁indust	-1987
▁months	-1988
▁mother	-1989
▁places	-1990
▁prefer	-1991
▁prohib	-1992
▁regard	-1993
▁sexual	-1994
▁sports	-1995
▁within	-1996
mendment	-1997
▁Firefox	-1998
▁Without	-1999
▁address	-2000
▁bottled	-2001
▁clothes	-2002
▁contain	-2003
▁defense	-2004
▁depends	-2005
▁drivers	-2006
▁enforce	-2007
▁general	-2008
▁happens	-2009
▁natural	-2010
▁popular	-2011
▁reality	-2012
▁spanked	-2013
▁trouble	-2014
▁whether	-2015
▁willing	-2016
▁American	-2017
▁although	-2018
▁complain	-2019
▁football	-2020
▁function	-2021
▁innocent	-2022
▁intellig	-2023
▁military	-2024
▁property	-2025
▁services	-2026
▁software	-2027
▁teachers	-2028
▁uniforms	-2029
▁watching	-2030
▁employees	-2031
▁happening	-2032
▁absolutely	-2033
▁atmosphere	-2034
▁difference	-2035
▁disappoint	-2036
▁particular	-2037
▁scientific	-2038
▁8	-2039
▁cr	-2040
rant	-2041
▁dat	-2042
ingly	-2043
▁prom	-2044
▁episod	-2045
▁object	-2046
▁founding	-2047
▁possible	-2048
▁previous	-2049
▁necessary	-2050
▁discipline	-2051
▁especially	-2052
.*	-2053
.5	-2054
OO	-2055
go	-2056
ip	-2057
ny	-2058
wh	-2059
▁6	-2060
▁9	-2061
aut	-2062
cha	-2063
ffe	-2064
gue	-2065
idd	-2066
iju	-2067
irm	-2068
lev	-2069
ned	-2070
new	-2071
ott	-2072
ran	-2073
rer	-2074
uce	-2075
▁Ex	-2076
▁FF	-2077
▁Of	-2078
▁UK	-2079
▁gl	-2080
▁ju	-2081
▁ok	-2082
▁ru	-2083
....	-2084
arth	-2085
atic	-2086
cise	-2087
eral	-2088
haps	-2089
hood	-2090
ibly	-2091
ined	-2092
line	-2093
medi	-2094
ones	-2095
orce	-2096
osop	-2097
oubt	-2098
real	-2099
rely	-2100
rito	-2101
rupt	-2102
uted	-2103
uter	-2104
work	-2105
▁Eng	-2106
▁God	-2107
▁Let	-2108
▁Mac	-2109
▁NOT	-2110
▁Our	-2111
▁USA	-2112
▁dad	-2113
▁dam	-2114
▁dut	-2115
▁ign	-2116
▁lim	-2117
▁log	-2118
▁mag	-2119
▁par	-2120
▁sle	-2121
▁sto	-2122
accin	-2123
cribe	-2124
ethod	-2125
icide	-2126
ivity	-2127
urons	-2128
▁Yout	-2129
▁cant	-2130
▁coup	-2131
▁deep	-2132
▁exer	-2133
▁expl	-2134
▁face	-2135
▁fair	-2136
▁felt	-2137
▁goes	-2138
▁held	-2139
▁jobs	-2140
▁mand	-2141
▁nood	-2142
▁norm	-2143
▁prep	-2144
▁priv	-2145
▁safe	-2146
▁sett	-2147
▁sort	-2148
▁surp	-2149
▁town	-2150
▁wish	-2151
atives	-2152
ijuana	-2153
ounter	-2154
ration	-2155
▁Gener	-2156
▁Other	-2157
▁Since	-2158
▁These	-2159
▁abuse	-2160
▁alone	-2161
▁along	-2162
▁argue	-2163
▁black	-2164
▁carry	-2165
▁clean	-2166
▁doubt	-2167
▁estab	-2168
▁heard	-2169
▁influ	-2170
▁loved	-2171
▁lower	-2172
▁neigh	-2173
▁offer	-2174
▁refer	-2175
▁salad	-2176
▁sever	-2177
▁share	-2178
▁smart	-2179
▁steak	-2180
▁taken	-2181
▁techn	-2182
▁treat	-2183
iculous	-2184
▁asking	-2185
▁belong	-2186
▁caught	-2187
▁consum	-2188
▁courts	-2189
▁create	-2190
▁crimes	-2191
▁detail	-2192
▁dinner	-2193
▁events	-2194
▁faster	-2195
▁giving	-2196
▁immedi	-2197
▁member	-2198
▁method	-2199
▁movies	-2200
▁notice	-2201
▁prison	-2202
▁recogn	-2203
▁resour	-2204
▁return	-2205
▁series	-2206
▁speech	-2207
▁vaccin	-2208
________	-2209
▁alcohol	-2210
▁benefit	-2211
▁burrito	-2212
▁connect	-2213
▁constru	-2214
▁continu	-2215
▁discuss	-2216
▁firefox	-2217
▁imagine	-2218
▁killing	-2219
▁lawyers	-2220
▁license	-2221
▁million	-2222
▁missing	-2223
▁persons	-2224
▁playing	-2225
▁present	-2226
▁purpose	-2227
▁quality	-2228
▁realize	-2229
▁survive	-2230
▁Canadian	-2231
▁citizens	-2232
▁drinking	-2233
▁exercise	-2234
▁internet	-2235
▁majority	-2236
▁murdered	-2237
▁philosop	-2238
▁properly	-2239
▁remember	-2240
▁requires	-2241
▁terrible	-2242
▁Sometimes	-2243
▁available	-2244
▁conscious	-2245
▁decisions	-2246
▁knowledge	-2247
▁marijuana	-2248
▁potential	-2249
▁religions	-2250
▁ridiculous	-2251
▁immediately	-2252
▁circumstances	-2253
▁box	-2254
▁lat	-2255
▁sci	-2256
esome	-2257
▁base	-2258
▁dogs	-2259
▁menu	-2260
▁wont	-2261
ternal	-2262
▁apply	-2263
▁aware	-2264
▁reven	-2265
▁advant	-2266
▁forget	-2267
▁produc	-2268
▁status	-2269
▁fantasy	-2270
▁fathers	-2271
▁growing	-2272
▁episodes	-2273
."	-2274
.2	-2275
1.	-2276
Al	-2277
ED	-2278
IT	-2279
MA	-2280
My	-2281
io	-2282
no	-2283
tt	-2284
za	-2285
CMV	-2286
How	-2287
aus	-2288
cks	-2289
erm	-2290
fic	-2291
ilt	-2292
iod	-2293
ler	-2294
ley	-2295
oud	-2296
que	-2297
ral	-2298
ror	-2299
ury	-2300
vir	-2301
zon	-2302
▁12	-2303
▁50	-2304
▁DA	-2305
▁Ed	-2306
▁ap	-2307
▁ca	-2308
▁ph	-2309
Edit	-2310
abet	-2311
airs	-2312
ario	-2313
asia	-2314
atch	-2315
ceed	-2316
cket	-2317
ders	-2318
etus	-2319
pera	-2320
pped	-2321
rict	-2322
sing	-2323
tain	-2324
ters	-2325
that	-2326
▁Man	-2327
▁Now	-2328
▁One	-2329
▁Pro	-2330
▁Rep	-2331
▁Who	-2332
▁Why	-2333
▁dom	-2334
▁fac	-2335
▁gas	-2336
▁hat	-2337
▁hor	-2338
▁ill	-2339
▁lea	-2340
▁mem	-2341
▁mis	-2342
▁mot	-2343
▁neg	-2344
▁pap	-2345
▁piz	-2346
▁ten	-2347
▁thi	-2348
▁tot	-2349
▁unc	-2350
▁wit	-2351
aches	-2352
acter	-2353
aging	-2354
andid	-2355
antly	-2356
apped	-2357
arely	-2358
azing	-2359
derer	-2360
ences	-2361
ening	-2362
icket	-2363
ictim	-2364
ience	-2365
light	-2366
ories	-2367
owing	-2368
ribut	-2369
urity	-2370
uthan	-2371
verse	-2372
viron	-2373
▁Both	-2374
▁Then	-2375
▁appe	-2376
▁bloc	-2377
▁busy	-2378
▁card	-2379
▁dest	-2380
▁fall	-2381
▁flaw	-2382
▁gain	-2383
▁gone	-2384
▁half	-2385
▁hire	-2386
▁inde	-2387
▁jack	-2388
▁knew	-2389
▁lost	-2390
▁luck	-2391
▁mach	-2392
▁meal	-2393
▁mode	-2394
▁ones	-2395
▁port	-2396
▁sale	-2397
▁seat	-2398
▁seve	-2399
▁slow	-2400
▁talk	-2401
▁told	-2402
▁user	-2403
arents	-2404
ensive	-2405
idered	-2406
ording	-2407
ottled	-2408
resent	-2409
▁After	-2410
▁Being	-2411
▁While	-2412
▁Would	-2413
▁achie	-2414
▁admit	-2415
▁among	-2416
▁asked	-2417
▁basis	-2418
▁bread	-2419
▁built	-2420
▁claim	-2421
▁event	-2422
▁extra	-2423
▁goals	-2424
▁guess	-2425
▁ident	-2426
▁liber	-2427
▁light	-2428
▁looks	-2429
▁posit	-2430
▁raise	-2431
▁scene	-2432
▁serve	-2433
▁spank	-2434
▁strug	-2435
▁stuck	-2436
▁trade	-2437
▁wages	-2438
▁worry	-2439
ability	-2440
agement	-2441
artment	-2442
ionally	-2443
ization	-2444
▁Scient	-2445
▁access	-2446
▁allows	-2447
▁aspect	-2448
▁author	-2449
▁behavi	-2450
▁casual	-2451
▁commit	-2452
▁couple	-2453
▁diabet	-2454
▁drinks	-2455
▁effort	-2456
▁forced	-2457
▁intent	-2458
▁mistak	-2459
▁nation	-2460
▁normal	-2461
▁paying	-2462
▁period	-2463
▁pocket	-2464
▁prices	-2465
▁prosec	-2466
▁racist	-2467
▁served	-2468
▁server	-2469
▁tenant	-2470
▁ticket	-2471
▁unlike	-2472
entially	-2473
fortable	-2474
▁Youtube	-2475
▁amazing	-2476
▁answers	-2477
▁becomes	-2478
▁brother	-2479
▁complic	-2480
▁content	-2481
▁culture	-2482
▁divorce	-2483
▁environ	-2484
▁feeling	-2485
▁helpful	-2486
▁justice	-2487
▁methods	-2488
▁neurons	-2489
▁noodles	-2490
▁officer	-2491
▁prevent	-2492
▁putting	-2493
▁receive	-2494
▁request	-2495
▁selfish	-2496
▁setting	-2497
▁several	-2498
▁started	-2499
▁towards	-2500
▁watched	-2501
▁witness	-2502
uthanasia	-2503
▁approach	-2504
▁benefits	-2505
▁customer	-2506
▁describe	-2507
▁economic	-2508
▁exciting	-2509
▁greatest	-2510
▁instance	-2511
▁learning	-2512
▁murderer	-2513
▁national	-2514
▁officers	-2515
▁physical	-2516
▁programs	-2517
▁provides	-2518
▁research	-2519
▁restrict	-2520
▁standard	-2521
▁Christian	-2522
▁Education	-2523
▁basically	-2524
▁criminals	-2525
▁employers	-2526
▁influence	-2527
▁insurance	-2528
▁mandatory	-2529
▁represent	-2530
▁somewhere	-2531
▁suffering	-2532
▁acceptable	-2533
▁considered	-2534
▁reasonable	-2535
▁settlement	-2536
▁understood	-2537
▁development	-2538
▁differently	-2539
▁enforcement	-2540
▁intelligence	-2541
▁consciousness	-2542
ash	-2543
ager	-2544
▁pet	-2545
▁var	-2546
▁meat	-2547
▁pers	-2548
▁vers	-2549
▁grade	-2550
mission	-2551
▁decide	-2552
▁ground	-2553
▁science	-2554
▁various	-2555
▁warrant	-2556
▁required	-2557
▁solution	-2558
▁objective	-2559
▁developing	-2560
.3	-2561
CE	-2562
EN	-2563
IA	-2564
ex	-2565
gs	-2566
gy	-2567
hn	-2568
ma	-2569
tr	-2570
ys	-2571
ze	-2572
Don	-2573
For	-2574
Yes	-2575
ale	-2576
arr	-2577
ato	-2578
dem	-2579
ell	-2580
erk	-2581
gor	-2582
hic	-2583
how	-2584
ien	-2585
ker	-2586
law	-2587
leb	-2588
let	-2589
obb	-2590
ode	-2591
oss	-2592
pre	-2593
put	-2594
tar	-2595
ton	-2596
ude	-2597
ung	-2598
unk	-2599
yes	-2600
▁**	-2601
▁1/	-2602
▁20	-2603
▁AI	-2604
▁At	-2605
▁Or	-2606
▁hy	-2607
▁ir	-2608
▁pu	-2609
▁sw	-2610
▁ur	-2611
acks	-2612
aged	-2613
ants	-2614
augh	-2615
bers	-2616
book	-2617
ccer	-2618
cell	-2619
dern	-2620
enty	-2621
ered	-2622
gree	-2623
ired	-2624
irth	-2625
itle	-2626
ixed	-2627
know	-2628
lled	-2629
lude	-2630
mony	-2631
oard	-2632
olit	-2633
ongs	-2634
ooks	-2635
osex	-2636
redi	-2637
soci	-2638
ster	-2639
sure	-2640
upid	-2641
ured	-2642
used	-2643
ward	-2644
ween	-2645
wise	-2646
zona	-2647
▁...	-2648
▁200	-2649
▁Act	-2650
▁App	-2651
▁Che	-2652
▁Com	-2653
▁Eur	-2654
▁Fri	-2655
▁Ham	-2656
▁Its	-2657
▁Nor	-2658
▁Sec	-2659
▁aud	-2660
▁bab	-2661
▁bro	-2662
▁bul	-2663
▁cli	-2664
▁cut	-2665
▁ess	-2666
▁fem	-2667
▁fut	-2668
▁gen	-2669
▁gri	-2670
▁hig	-2671
▁hom	-2672
▁imm	-2673
▁ing	-2674
▁lob	-2675
▁obs	-2676
▁oil	-2677
▁sac	-2678
▁saf	-2679
▁sau	-2680
▁smo	-2681
▁son	-2682
▁tab	-2683
▁unf	-2684
▁yog	-2685
alist	-2686
alled	-2687
asing	-2688
ature	-2689
ccess	-2690
ecial	-2691
ender	-2692
enses	-2693
hange	-2694
iddle	-2695
ified	-2696
ortun	-2697
riate	-2698
ufact	-2699
which	-2700
▁Beef	-2701
▁Brit	-2702
▁Comp	-2703
▁Food	-2704
▁Good	-2705
▁Plus	-2706
▁alot	-2707
▁band	-2708
▁born	-2709
▁cold	-2710
▁cool	-2711
▁copy	-2712
▁corn	-2713
▁crit	-2714
▁date	-2715
▁dram	-2716
▁emer	-2717
▁exec	-2718
▁fill	-2719
▁firm	-2720
▁glob	-2721
▁hate	-2722
▁kept	-2723
▁load	-2724
▁lots	-2725
▁meet	-2726
▁mess	-2727
▁mine	-2728
▁none	-2729
▁pick	-2730
▁pool	-2731
▁rate	-2732
▁rely	-2733
▁role	-2734
▁sick	-2735
▁sole	-2736
▁star	-2737
▁taco	-2738
▁temp	-2739
▁vari	-2740
▁walk	-2741
▁warm	-2742
action	-2743
alance	-2744
ancial	-2745
ederal	-2746
enalty	-2747
esides	-2748
ficult	-2749
fortun	-2750
hesive	-2751
ishing	-2752
orship	-2753
overed	-2754
ressed	-2755
rizona	-2756
▁Count	-2757
▁Mario	-2758
▁Opera	-2759
▁advis	-2760
▁basic	-2761
▁beaut	-2762
▁bland	-2763
▁bookm	-2764
▁cards	-2765
▁celeb	-2766
▁chain	-2767
▁chose	-2768
▁clerk	-2769
▁cream	-2770
▁curvy	-2771
▁drugs	-2772
▁earth	-2773
▁elect	-2774
▁gives	-2775
▁grand	-2776
▁hours	-2777
▁lawsu	-2778
▁names	-2779
▁organ	-2780
▁owner	-2781
▁paper	-2782
▁party	-2783
▁patio	-2784
▁pizza	-2785
▁polic	-2786
▁pract	-2787
▁pregn	-2788
▁prost	-2789
▁satis	-2790
▁sides	-2791
▁sleep	-2792
▁space	-2793
▁stars	-2794
▁stick	-2795
▁taxes	-2796
▁title	-2797
▁today	-2798
▁touch	-2799
▁views	-2800
▁young	-2801
However	-2802
cellent	-2803
osexual	-2804
venient	-2805
viously	-2806
▁Europe	-2807
▁Friday	-2808
▁assume	-2809
▁candid	-2810
▁career	-2811
▁cooked	-2812
▁degree	-2813
▁demand	-2814
▁device	-2815
▁estate	-2816
▁exists	-2817
▁extent	-2818
▁flavor	-2819
▁gender	-2820
▁grades	-2821
▁helped	-2822
▁incred	-2823
▁liable	-2824
▁listen	-2825
▁looked	-2826
▁middle	-2827
▁modern	-2828
▁plenty	-2829
▁purcha	-2830
▁reduce	-2831
▁remove	-2832
▁search	-2833
▁senten	-2834
▁stupid	-2835
▁terror	-2836
▁useful	-2837
▁victim	-2838
▁videos	-2839
▁waiter	-2840
redients	-2841
ropriate	-2842
volution	-2843
▁English	-2844
▁Parents	-2845
▁achieve	-2846
▁advance	-2847
▁beliefs	-2848
▁between	-2849
▁biggest	-2850
▁brought	-2851
▁driving	-2852
▁exactly	-2853
▁explain	-2854
▁foreign	-2855
▁granted	-2856
▁greatly	-2857
▁include	-2858
▁legally	-2859
▁letting	-2860
▁minimum	-2861
▁options	-2862
▁passing	-2863
▁penalty	-2864
▁portion	-2865
▁profess	-2866
▁quickly	-2867
▁reading	-2868
▁records	-2869
▁removed	-2870
▁reviews	-2871
▁running	-2872
▁suicide	-2873
▁surpris	-2874
▁systems	-2875
▁telling	-2876
▁trading	-2877
▁turning	-2878
▁wearing	-2879
ervatives	-2880
▁Republic	-2881
▁audience	-2882
▁behavior	-2883
▁cohesive	-2884
▁controll	-2885
▁delivery	-2886
▁directly	-2887
▁document	-2888
▁happened	-2889
▁manufact	-2890
▁mistakes	-2891
▁morality	-2892
▁neighbor	-2893
▁opportun	-2894
▁original	-2895
▁possibly	-2896
▁products	-2897
▁severely	-2898
▁socially	-2899
▁stopping	-2900
▁supposed	-2901
▁thoughts	-2902
▁Obviously	-2903
▁amendment	-2904
▁authority	-2905
▁character	-2906
▁complaint	-2907
▁container	-2908
▁correctly	-2909
▁dangerous	-2910
▁depending	-2911
▁difficult	-2912
▁effective	-2913
▁evolution	-2914
▁excellent	-2915
▁financial	-2916
▁generally	-2917
▁including	-2918
▁interests	-2919
▁president	-2920
▁resources	-2921
▁socialism	-2922
▁typically	-2923
▁wonderful	-2924
▁convenient	-2925
▁definition	-2926
▁discussion	-2927
▁generation	-2928
▁graduation	-2929
▁consequence	-2930
▁effectively	-2931
▁environment	-2932
▁interesting	-2933
▁traditional	-2934
▁disappointed	-2935
▁relationships	-2936
dom	-2937
ita	-2938
▁15	-2939
cent	-2940
▁odd	-2941
ached	-2942
▁pict	-2943
▁upon	-2944
▁accur	-2945
▁staff	-2946
▁promot	-2947
▁awesome	-2948
▁justify	-2949
▁respond	-2950
▁designed	-2951
▁following	-2952
▁competition	-2953
**	-2954
.)	-2955
.-	-2956
.0	-2957
//	-2958
47	-2959
AS	-2960
As	-2961
GH	-2962
LE	-2963
RA	-2964
To	-2965
UT	-2966
af	-2967
bl	-2968
cl	-2969
ea	-2970
hr	-2971
lo	-2972
mb	-2973
ni	-2974
oT	-2975
ww	-2976
▁:	-2977
-20	-2978
.00	-2979
://	-2980
:1.	-2981
And	-2982
GHT	-2983
add	-2984
ald	-2985
ams	-2986
att	-2987
bec	-2988
but	-2989
car	-2990
chi	-2991
cip	-2992
def	-2993
hab	-2994
hai	-2995
hio	-2996
ino	-2997
jud	-2998
lus	-2999
ohn	-3000
oly	-3001
oon	-3002
org	-3003
ots	-3004
pet	-3005
rav	-3006
top	-3007
ttp	-3008
uff	-3009
und	-3010
uth	-3011
www	-3012
you	-3013
▁18	-3014
▁Ad	-3015
▁Am	-3016
▁Ar	-3017
▁Bl	-3018
▁Ca	-3019
▁Fr	-3020
▁Gu	-3021
▁Le	-3022
▁PC	-3023
▁Ro	-3024
▁TH	-3025
▁WW	-3026
▁bi	-3027
▁da	-3028
▁iP	-3029
▁sn	-3030
Good	-3031
IGHT	-3032
With	-3033
ache	-3034
aked	-3035
angu	-3036
arks	-3037
care	-3038
efin	-3039
empt	-3040
esar	-3041
ffee	-3042
fice	-3043
form	-3044
hone	-3045
icer	-3046
icip	-3047
iful	-3048
ills	-3049
ison	-3050
lect	-3051
lies	-3052
llar	-3053
lord	-3054
ltim	-3055
mary	-3056
omin	-3057
orry	-3058
oses	-3059
oted	-3060
ourn	-3061
pend	-3062
peri	-3063
plom	-3064
rain	-3065
reci	-3066
reng	-3067
rial	-3068
ruct	-3069
tery	-3070
time	-3071
tion	-3072
uals	-3073
urch	-3074
▁100	-3075
▁Any	-3076
▁IRA	-3077
▁Mal	-3078
▁Mus	-3079
▁OoT	-3080
▁Ser	-3081
▁air	-3082
▁cau	-3083
▁civ	-3084
▁cow	-3085
▁fru	-3086
▁god	-3087
▁hab	-3088
▁hur	-3089
▁lay	-3090
▁lit	-3091
▁nor	-3092
▁rap	-3093
▁rib	-3094
▁rul	-3095
▁saw	-3096
▁sil	-3097
▁squ	-3098
▁sue	-3099
▁swe	-3100
▁tap	-3101
▁tar	-3102
▁unn	-3103
Point	-3104
_____	-3105
abase	-3106
alism	-3107
aries	-3108
aring	-3109
avors	-3110
erate	-3111
feren	-3112
icles	-3113
iding	-3114
iliar	-3115
ister	-3116
itten	-3117
izing	-3118
lieve	-3119
llars	-3120
lling	-3121
ocrat	-3122
ograp	-3123
onent	-3124
oogle	-3125
oring	-3126
rived	-3127
spect	-3128
stand	-3129
tered	-3130
thern	-3131
urred	-3132
ussia	-3133
vered	-3134
▁Cont	-3135
▁Face	-3136
▁From	-3137
▁John	-3138
▁Like	-3139
▁Luck	-3140
▁Mont	-3141
▁More	-3142
▁Take	-3143
▁Thai	-3144
▁ages	-3145
▁bail	-3146
▁bank	-3147
▁butt	-3148
▁code	-3149
▁dark	-3150
▁dumb	-3151
▁duty	-3152
▁ende	-3153
▁fear	-3154
▁fees	-3155
▁fish	-3156
▁four	-3157
▁fulf	-3158
▁gall	-3159
▁goal	-3160
▁grav	-3161
▁hair	-3162
▁hobb	-3163
▁hosp	-3164
▁inhe	-3165
▁inju	-3166
▁intr	-3167
▁late	-3168
▁loan	-3169
▁meas	-3170
▁note	-3171
▁onto	-3172
▁pack	-3173
▁plus	-3174
▁poll	-3175
▁prog	-3176
▁race	-3177
▁shop	-3178
▁site	-3179
▁size	-3180
▁soon	-3181
▁stre	-3182
▁suit	-3183
▁term	-3184
▁tons	-3185
▁tran	-3186
▁wind	-3187
Please	-3188
atures	-3189
engers	-3190
friend	-3191
gorith	-3192
icient	-3193
illing	-3194
inding	-3195
ington	-3196
itions	-3197
orning	-3198
resses	-3199
▁Defin	-3200
▁Hamas	-3201
▁Liber	-3202
▁Thank	-3203
▁Those	-3204
▁areas	-3205
▁aside	-3206
▁autom	-3207
▁avoid	-3208
▁bills	-3209
▁birth	-3210
▁check	-3211
▁contr	-3212
▁cover	-3213
▁decor	-3214
▁ended	-3215
▁facts	-3216
▁favor	-3217
▁feels	-3218
▁films	-3219
▁force	-3220
▁fully	-3221
▁goods	-3222
▁hands	-3223
▁haven	-3224
▁insan	-3225
▁known	-3226
▁langu	-3227
▁lived	-3228
▁meant	-3229
▁model	-3230
▁motiv	-3231
▁naked	-3232
▁notic	-3233
▁oblig	-3234
▁regul	-3235
▁rehab	-3236
▁relat	-3237
▁sauce	-3238
▁songs	-3239
▁study	-3240
▁subst	-3241
▁sucks	-3242
▁tacos	-3243
▁taste	-3244
▁tests	-3245
▁toler	-3246
▁total	-3247
▁trans	-3248
▁trial	-3249
▁ultim	-3250
▁visit	-3251
▁weeks	-3252
▁worst	-3253
ception	-3254
riminal	-3255
ulation	-3256
vancing	-3257
▁Change	-3258
▁County	-3259
▁Econom	-3260
▁Indian	-3261
▁Person	-3262
▁Russia	-3263
▁Thanks	-3264
▁Twitch	-3265
▁Unless	-3266
▁adults	-3267
▁afford	-3268
▁arrest	-3269
▁associ	-3270
▁attend	-3271
▁barely	-3272
▁bigger	-3273
▁bother	-3274
▁bottle	-3275
▁causes	-3276
▁coffee	-3277
▁colour	-3278
▁concer	-3279
▁condem	-3280
▁cowork	-3281
▁decent	-3282
▁destro	-3283
▁diplom	-3284
▁domain	-3285
▁driver	-3286
▁encour	-3287
▁ending	-3288
▁engine	-3289
▁expert	-3290
▁facing	-3291
▁filled	-3292
▁future	-3293
▁gather	-3294
▁global	-3295
▁gotten	-3296
▁groups	-3297
▁hearts	-3298
▁highly	-3299
▁ignore	-3300
▁integr	-3301
▁memory	-3302
▁mental	-3303
▁moment	-3304
▁mostly	-3305
▁moving	-3306
▁needed	-3307
▁offers	-3308
▁plates	-3309
▁played	-3310
▁poorly	-3311
▁potato	-3312
▁profit	-3313
▁remain	-3314
▁report	-3315
▁retain	-3316
▁router	-3317
▁safety	-3318
▁soccer	-3319
▁source	-3320
▁streng	-3321
▁strict	-3322
▁superi	-3323
▁supply	-3324
▁switch	-3325
▁tasted	-3326
▁threat	-3327
▁voting	-3328
▁walked	-3329
▁yogurt	-3330
▁British	-3331
▁Special	-3332
▁ability	-3333
▁absence	-3334
▁accompl	-3335
▁anymore	-3336
▁appreci	-3337
▁aspects	-3338
▁attract	-3339
▁average	-3340
▁balance	-3341
▁browser	-3342
▁careful	-3343
▁changed	-3344
▁charged	-3345
▁cheaper	-3346
▁choices	-3347
▁clearly	-3348
▁collect	-3349
▁consent	-3350
▁control	-3351
▁convers	-3352
▁corrupt	-3353
▁counter	-3354
▁created	-3355
▁custody	-3356
▁debates	-3357
▁details	-3358
▁federal	-3359
▁further	-3360
▁himself	-3361
▁hobbies	-3362
▁hurting	-3363
▁improve	-3364
▁leaving	-3365
▁matters	-3366
▁mention	-3367
▁mistake	-3368
▁mustard	-3369
▁pattern	-3370
▁perform	-3371
▁perhaps	-3372
▁primary	-3373
▁proceed	-3374
▁product	-3375
▁project	-3376
▁repairs	-3377
▁showing	-3378
▁skilled	-3379
▁smaller	-3380
▁success	-3381
▁treated	-3382
▁variety	-3383
▁violent	-3384
▁written	-3385
ensorship	-3386
ification	-3387
▁Everyone	-3388
▁Facebook	-3389
▁Montreal	-3390
▁Northern	-3391
▁activity	-3392
▁addition	-3393
▁allowing	-3394
▁believed	-3395
▁building	-3396
▁computer	-3397
▁contempt	-3398
▁cultural	-3399
▁database	-3400
▁hardware	-3401
▁honestly	-3402
▁humanity	-3403
▁informed	-3404
▁inherent	-3405
▁interpre	-3406
▁landlord	-3407
▁language	-3408
▁portions	-3409
▁pregnant	-3410
▁prepared	-3411
▁provided	-3412
▁punished	-3413
▁purchase	-3414
▁pursuing	-3415
▁relation	-3416
▁shooting	-3417
▁signific	-3418
▁speaking	-3419
▁struggle	-3420
▁studying	-3421
▁teaching	-3422
rimination	-3423
▁advantage	-3424
▁agreement	-3425
▁attention	-3426
▁beautiful	-3427
▁beginning	-3428
▁component	-3429
▁convicted	-3430
▁copyright	-3431
▁currently	-3432
▁diabetics	-3433
▁direction	-3434
▁emotional	-3435
▁establish	-3436
▁existence	-3437
▁expensive	-3438
▁extension	-3439
▁installed	-3440
▁ourselves	-3441
▁presented	-3442
▁protected	-3443
▁referring	-3444
▁sentenced	-3445
▁standards	-3446
▁surprised	-3447
▁universal	-3448
▁violation	-3449
▁wondering	-3450
fortunately	-3451
▁Wellington	-3452
▁additional	-3453
▁candidates	-3454
▁capitalism	-3455
▁discovered	-3456
▁everywhere	-3457
▁homosexual	-3458
▁industrial	-3459
▁university	-3460
▁vaccinated	-3461
▁appropriate	-3462
▁comfortable	-3463
▁differences	-3464
▁ingredients	-3465
▁possibility	-3466
▁prohibition	-3467
▁Christianity	-3468
▁constitution	-3469
▁conversation	-3470
▁prostitution	-3471
▁understanding	-3472
▁discrimination	-3473
arily	-3474
rency	-3475
rison	-3476
▁data	-3477
▁five	-3478
▁pita	-3479
▁puts	-3480
ingdom	-3481
▁tough	-3482
ination	-3483
▁latest	-3484
▁surger	-3485
▁parties	-3486
▁percent	-3487
▁wouldnt	-3488
▁accurate	-3489
▁baseball	-3490
▁communic	-3491
▁currency	-3492
▁everyday	-3493
▁external	-3494
▁imprison	-3495
▁attempted	-3496
▁competent	-3497
▁documents	-3498
▁permission	-3499
▁necessarily	-3500
!"	-3501
.(	-3502
30	-3503
6,	-3504
7.	-3505
?"	-3506
FL	-3507
Gs	-3508
MM	-3509
MO	-3510
ON	-3511
PI	-3512
PS	-3513
Re	-3514
SI	-3515
TM	-3516
ax	-3517
by	-3518
eg	-3519
ga	-3520
ok	-3521
ov	-3522
pe	-3523
uz	-3524
ws	-3525
ye	-3526
.2.	-3527
.3.	-3528
.50	-3529
Any	-3530
Bay	-3531
ENT	-3532
ERY	-3533
Its	-3534
Let	-3535
PGs	-3536
abb	-3537
ama	-3538
arm	-3539
ask	-3540
avy	-3541
bal	-3542
bel	-3543
bur	-3544
can	-3545
cho	-3546
cul	-3547
den	-3548
eds	-3549
enc	-3550
ery	-3551
ets	-3552
fra	-3553
gar	-3554
gen	-3555
ift	-3556
ils	-3557
irt	-3558
isc	-3559
ium	-3560
lay	-3561
lim	-3562
mic	-3563
nds	-3564
nel	-3565
oca	-3566
odi	-3567
off	-3568
ole	-3569
oms	-3570
orr	-3571
ped	-3572
ppy	-3573
ron	-3574
rup	-3575
tun	-3576
upp	-3577
urb	-3578
val	-3579
vis	-3580
▁1)	-3581
▁14	-3582
▁16	-3583
▁24	-3584
▁28	-3585
▁Do	-3586
▁Go	-3587
▁IS	-3588
▁Im	-3589
▁Mc	-3590
▁NO	-3591
▁OK	-3592
▁Ok	-3593
▁SO	-3594
▁Te	-3595
▁Uk	-3596
,000	-3597
1000	-3598
Also	-3599
EDIT	-3600
PICE	-3601
Sure	-3602
Your	-3603
acca	-3604
aced	-3605
ancy	-3606
anth	-3607
arri	-3608
aste	-3609
ateg	-3610
athe	-3611
aybe	-3612
born	-3613
coin	-3614
ding	-3615
each	-3616
eted	-3617
fect	-3618
ften	-3619
gain	-3620
gust	-3621
head	-3622
hent	-3623
hind	-3624
http	-3625
ican	-3626
icro	-3627
idal	-3628
idel	-3629
illa	-3630
inis	-3631
ires	-3632
izes	-3633
jury	-3634
lime	-3635
mpat	-3636
olly	-3637
omen	-3638
orer	-3639
ourt	-3640
outh	-3641
part	-3642
ping	-3643
ptop	-3644
quor	-3645
ried	-3646
sher	-3647
stic	-3648
stor	-3649
sume	-3650
they	-3651
ties	-3652
uban	-3653
ulin	-3654
vert	-3655
ysis	-3656
▁1/2	-3657
▁197	-3658
▁198	-3659
▁Acc	-3660
▁BUT	-3661
▁Bet	-3662
▁Bit	-3663
▁Bri	-3664
▁Bur	-3665
▁DMV	-3666
▁Dep	-3667
▁Esp	-3668
▁Had	-3669
▁Ill	-3670
▁Min	-3671
▁New	-3672
▁PMA	-3673
▁Pal	-3674
▁Per	-3675
▁Pho	-3676
▁Run	-3677
▁Wor	-3678
▁Wow	-3679
▁agg	-3680
▁ago	-3681
▁bow	-3682
▁boy	-3683
▁bri	-3684
▁cup	-3685
▁cuz	-3686
▁den	-3687
▁dev	-3688
▁emb	-3689
▁fal	-3690
▁fee	-3691
▁gan	-3692
▁gar	-3693
▁hum	-3694
▁key	-3695
▁lid	-3696
▁lie	-3697
▁lif	-3698
▁mad	-3699
▁mer	-3700
▁net	-3701
▁nut	-3702
▁pad	-3703
▁ped	-3704
▁sad	-3705
▁sep	-3706
▁shi	-3707
▁spl	-3708
▁sum	-3709
▁upd	-3710
!!!!!	-3711
Every	-3712
While	-3713
achos	-3714
adict	-3715
affic	-3716
agers	-3717
althy	-3718
ament	-3719
ankly	-3720
arify	-3721
avour	-3722
azine	-3723
burse	-3724
ching	-3725
ctose	-3726
eding	-3727
ensed	-3728
eroid	-3729
erves	-3730
estic	-3731
estin	-3732
fraid	-3733
gency	-3734
ggest	-3735
group	-3736
happy	-3737
hical	-3738
hicle	-3739
human	-3740
icial	-3741
iders	-3742
inced	-3743
incip	-3744
inois	-3745
inton	-3746
irect	-3747
iring	-3748
ision	-3749
istic	-3750
itals	-3751
itled	-3752
liers	-3753
mical	-3754
onder	-3755
oolen	-3756
orant	-3757
orary	-3758
orate	-3759
osite	-3760
ounds	-3761
ourse	-3762
ously	-3763
point	-3764
raine	-3765
rated	-3766
retty	-3767
ropic	-3768
round	-3769
sides	-3770
sport	-3771
uable	-3772
uting	-3773
water	-3774
▁Base	-3775
▁Benc	-3776
▁Char	-3777
▁Chin	-3778
▁Cons	-3779
▁Foot	-3780
▁Germ	-3781
▁Hall	-3782
▁Iran	-3783
▁Look	-3784
▁Make	-3785
▁Modi	-3786
▁Ohio	-3787
▁Only	-3788
▁York	-3789
▁abol	-3790
▁acid	-3791
▁acts	-3792
▁adap	-3793
▁adop	-3794
▁adul	-3795
▁anal	-3796
▁asse	-3797
▁ball	-3798
▁beat	-3799
▁bout	-3800
▁cart	-3801
▁cash	-3802
▁cere	-3803
▁chow	-3804
▁cogn	-3805
▁cops	-3806
▁cred	-3807
▁deaf	-3808
▁desp	-3809
▁dies	-3810
▁disp	-3811
▁eBay	-3812
▁earn	-3813
▁eyes	-3814
▁feed	-3815
▁feet	-3816
▁file	-3817
▁fire	-3818
▁flag	-3819
▁gays	-3820
▁gift	-3821
▁guns	-3822
▁guys	-3823
▁head	-3824
▁holy	-3825
▁hung	-3826
▁insp	-3827
▁jury	-3828
▁kick	-3829
▁link	-3830
▁lust	-3831
▁near	-3832
▁oper	-3833
▁outs	-3834
▁plat	-3835
▁pred	-3836
▁rare	-3837
▁reim	-3838
▁road	-3839
▁rule	-3840
▁scar	-3841
▁scre	-3842
▁sens	-3843
▁situ	-3844
▁slap	-3845
▁stra	-3846
▁tabs	-3847
▁text	-3848
▁thir	-3849
▁thru	-3850
▁tool	-3851
▁urge	-3852
▁uses	-3853
▁vegg	-3854
▁weak	-3855
▁week	-3856
▁whom	-3857
▁winn	-3858
▁writ	-3859
acking	-3860
cooked	-3861
employ	-3862
ermine	-3863
etting	-3864
hentic	-3865
hether	-3866
icious	-3867
ission	-3868
levant	-3869
ligion	-3870
lished	-3871
lusion	-3872
manent	-3873
petrat	-3874
ravity	-3875
tation	-3876
wanted	-3877
▁2006,	-3878
▁Apple	-3879
▁Class	-3880
▁Maybe	-3881
▁Obama	-3882
▁Often	-3883
▁Polit	-3884
▁RIGHT	-3885
▁Right	-3886
▁SPICE	-3887
▁Think	-3888
▁Watch	-3889
▁actor	-3890
▁agent	-3891
▁armed	-3892
▁award	-3893
▁bever	-3894
▁block	-3895
▁bunch	-3896
▁catch	-3897
▁cheer	-3898
▁color	-3899
▁couch	-3900
▁decoy	-3901
▁deter	-3902
▁dream	-3903
▁drunk	-3904
▁empty	-3905
▁fails	-3906
▁farqu	-3907
▁fault	-3908
▁fence	-3909
▁fetus	-3910
▁flaws	-3911
▁frust	-3912
▁girlf	-3913
▁girls	-3914
▁grant	-3915
▁grown	-3916
▁guilt	-3917
▁immig	-3918
▁innov	-3919
▁intim	-3920
▁jackp	-3921
▁laugh	-3922
▁leads	-3923
▁logic	-3924
▁meals	-3925
▁mixed	-3926
▁moved	-3927
▁newly	-3928
▁occas	-3929
▁occur	-3930
▁older	-3931
▁overp	-3932
▁owned	-3933
▁peace	-3934
▁peers	-3935
▁persu	-3936
▁plays	-3937
▁prime	-3938
▁rated	-3939
▁reach	-3940
▁realm	-3941
▁route	-3942
▁sacri	-3943
▁scrat	-3944
▁sends	-3945
▁shell	-3946
▁short	-3947
▁signs	-3948
▁sites	-3949
▁smoke	-3950
▁solve	-3951
▁spect	-3952
▁squee	-3953
▁steal	-3954
▁steps	-3955
▁stuff	-3956
▁sweet	-3957
▁syrup	-3958
▁terms	-3959
▁thank	-3960
▁towns	-3961
▁trail	-3962
▁trave	-3963
▁truck	-3964
▁truth	-3965
▁union	-3966
▁users	-3967
▁vegan	-3968
▁wants	-3969
▁weren	-3970
▁whose	-3971
▁words	-3972
arriage	-3973
bottled	-3974
defense	-3975
getting	-3976
gusting	-3977
igation	-3978
ologies	-3979
onestly	-3980
ountain	-3981
rapment	-3982
ressive	-3983
tarians	-3984
▁Better	-3985
▁Either	-3986
▁France	-3987
▁Muslim	-3988
▁Really	-3989
▁School	-3990
▁Second	-3991
▁Spring	-3992
▁States	-3993
▁actors	-3994
▁advert	-3995
▁afraid	-3996
▁anarch	-3997
▁anyway	-3998
▁appeal	-3999
▁appear	-4000
▁assist	-4001
▁assump	-4002
▁attack	-4003
▁behind	-4004
▁brains	-4005
▁burden	-4006
▁buying	-4007
▁calcul	-4008
▁caring	-4009
▁civili	-4010
▁claims	-4011
▁client	-4012
▁combat	-4013
▁county	-4014
▁damage	-4015
▁deaths	-4016
▁dining	-4017
▁disast	-4018
▁duties	-4019
▁eating	-4020
▁enjoys	-4021
▁female	-4022
▁fights	-4023
▁fortun	-4024
▁habits	-4025
▁higher	-4026
▁impact	-4027
▁income	-4028
▁indeed	-4029
▁intrud	-4030
▁invent	-4031
▁island	-4032
▁issued	-4033
▁laptop	-4034
▁legacy	-4035
▁lesson	-4036
▁liquor	-4037
▁losing	-4038
▁mature	-4039
▁medium	-4040
▁minors	-4041
▁morals	-4042
▁nachos	-4043
▁nobody	-4044
▁observ	-4045
▁obtain	-4046
▁offend	-4047
▁orders	-4048
▁owners	-4049
▁passed	-4050
▁phones	-4051
▁prejud	-4052
▁proven	-4053
▁rating	-4054
▁recent	-4055
▁reform	-4056
▁refuse	-4057
▁reward	-4058
▁satisf	-4059
▁seated	-4060
▁seeing	-4061
▁seemed	-4062
▁signed	-4063
▁silent	-4064
▁skills	-4065
▁spread	-4066
▁starts	-4067
▁steaks	-4068
▁street	-4069
▁stress	-4070
▁strive	-4071
▁struct	-4072
▁sympat	-4073
▁tables	-4074
▁tastes	-4075
▁termin	-4076
▁toward	-4077
▁values	-4078
▁waited	-4079
▁window	-4080
Everyone	-4081
atically	-4082
ecessary	-4083
gorithms	-4084
levision	-4085
lication	-4086
ological	-4087
ribution	-4088
standing	-4089
▁Another	-4090
▁Arizona	-4091
▁Besides	-4092
▁Bitcoin	-4093
▁Bottled	-4094
▁Clinton	-4095
▁Contact	-4096
▁Farquar	-4097
▁Further	-4098
▁General	-4099
▁Malacca	-4100
▁Manager	-4101
▁Perhaps	-4102
▁Ukraine	-4103
▁account	-4104
▁arrived	-4105
▁beating	-4106
▁burgers	-4107
▁changes	-4108
▁charges	-4109
▁clarify	-4110
▁concent	-4111
▁concept	-4112
▁conflic	-4113
▁constit	-4114
▁consult	-4115
▁decides	-4116
▁decline	-4117
▁default	-4118
▁destroy	-4119
▁disturb	-4120
▁dollars	-4121
▁enjoyed	-4122
▁expense	-4123
▁factors	-4124
▁finally	-4125
▁fitness	-4126
▁follows	-4127
▁forever	-4128
▁gravity	-4129
▁greater	-4130
▁harmony	-4131
▁harsher	-4132
▁hearing	-4133
▁hostess	-4134
▁injured	-4135
▁insulin	-4136
▁involve	-4137
▁keeping	-4138
▁lawsuit	-4139
▁logical	-4140
▁magical	-4141
▁massive	-4142
▁medical	-4143
▁morning	-4144
▁murders	-4145
▁noticed	-4146
▁numbers	-4147
▁partner	-4148
▁patient	-4149
▁planned	-4150
▁possess	-4151
▁prepare	-4152
▁privacy	-4153
▁private	-4154
▁produce	-4155
▁provide	-4156
▁referen	-4157
▁related	-4158
▁revenue	-4159
▁selling	-4160
▁servers	-4161
▁somehow	-4162
▁stating	-4163
▁statute	-4164
▁staying	-4165
▁stepson	-4166
▁steroid	-4167
▁stories	-4168
▁suggest	-4169
▁suppose	-4170
▁suspect	-4171
▁theater	-4172
▁traffic	-4173
▁unhappy	-4174
▁useless	-4175
▁vehicle	-4176
▁waiting	-4177
▁wanting	-4178
▁whereas	-4179
▁winning	-4180
▁workers	-4181
anthropic	-4182
bursement	-4183
▁Baseball	-4184
▁Football	-4185
▁Honestly	-4186
▁Illinois	-4187
▁Personal	-4188
▁Probably	-4189
▁Software	-4190
▁accepted	-4191
▁arrested	-4192
▁articles	-4193
▁benefici	-4194
▁bringing	-4195
▁comments	-4196
▁commited	-4197
▁compared	-4198
▁contract	-4199
▁convince	-4200
▁coworker	-4201
▁creation	-4202
▁cultures	-4203
▁dramatic	-4204
▁employer	-4205
▁endeavor	-4206
▁entitled	-4207
▁executed	-4208
▁familiar	-4209
▁farquhar	-4210
▁favorite	-4211
▁features	-4212
▁fighting	-4213
▁followed	-4214
▁fructose	-4215
▁horrible	-4216
▁identity	-4217
▁increase	-4218
▁industry	-4219
▁insanity	-4220
▁internal	-4221
▁licensed	-4222
▁machines	-4223
▁magazine	-4224
▁maintain	-4225
▁mentally	-4226
▁negative	-4227
▁official	-4228
▁opposite	-4229
▁optional	-4230
▁patterns	-4231
▁politics	-4232
▁positive	-4233
▁powerful	-4234
▁rational	-4235
▁security	-4236
▁standing	-4237
▁stronger	-4238
▁strongly	-4239
▁substant	-4240
▁supervis	-4241
▁supports	-4242
▁unemploy	-4243
▁universe	-4244
▁According	-4245
▁Advancing	-4246
▁Amendment	-4247
▁Bencoolen	-4248
▁Something	-4249
▁accepting	-4250
▁according	-4251
▁attentive	-4252
▁authentic	-4253
▁beverages	-4254
▁bookmarks	-4255
▁childhood	-4256
▁consumers	-4257
▁continues	-4258
▁convinced	-4259
▁courtroom	-4260
▁crossings	-4261
▁decorated	-4262
▁determine	-4263
▁developed	-4264
▁diplomacy	-4265
▁emergency	-4266
▁encounter	-4267
▁enjoyable	-4268
▁expecting	-4269
▁fantastic	-4270
▁finishing	-4271
▁fundament	-4272
▁hospitals	-4273
▁implement	-4274
▁impressed	-4275
▁justified	-4276
▁malicious	-4277
▁obviously	-4278
▁otherwise	-4279
▁perpetrat	-4280
▁processes	-4281
▁respected	-4282
▁seriously	-4283
▁statement	-4284
▁suppliers	-4285
▁temporary	-4286
▁transport	-4287
▁Definitely	-4288
▁Especially	-4289
▁Euthanasia	-4290
▁Everything	-4291
▁Scientolog	-4292
▁accidental	-4293
▁accomplish	-4294
▁addressing	-4295
▁attractive	-4296
▁casualties	-4297
▁commission	-4298
▁connection	-4299
▁conscience	-4300
▁constructs	-4301
▁contradict	-4302
▁controller	-4303
▁department	-4304
▁depression	-4305
▁disgusting	-4306
▁entrapment	-4307
▁euthanasia	-4308
▁eventually	-4309
▁extensions	-4310
▁girlfriend	-4311
▁incredible	-4312
▁liberalism	-4313
▁meaningful	-4314
▁passengers	-4315
▁philosophy	-4316
▁population	-4317
▁protecting	-4318
▁protection	-4319
▁recognized	-4320
▁relatively	-4321
▁respecting	-4322
▁situations	-4323
▁terrorists	-4324
▁throughout	-4325
▁ultimately	-4326
▁visitation	-4327
▁Scientology	-4328
▁complicated	-4329
▁emotionally	-4330
▁essentially	-4331
▁established	-4332
▁individuals	-4333
▁opportunity	-4334
▁potentially	-4335
▁practically	-4336
▁recommended	-4337
▁restaurants	-4338
▁significant	-4339
▁unnecessary	-4340
▁consequences	-4341
▁neighborhood	-4342
▁restrictions	-4343
▁Conservatives	-4344
▁Unfortunately	-4345
▁philanthropic	-4346
▁reimbursement	-4347
________________	-4348
pay	-4349
crib	-4350
▁ice	-4351
▁sou	-4352
▁beef	-4353
▁odds	-4354
▁rice	-4355
cribed	-4356
▁frequ	-4357
▁marry	-4358
▁stops	-4359
▁tasty	-4360
pective	-4361
▁leader	-4362
▁effects	-4363
▁increas	-4364
▁kingdom	-4365
▁revenge	-4366
▁surgery	-4367
▁version	-4368
▁freedoms	-4369
▁included	-4370
▁petition	-4371
▁pictures	-4372
▁promotes	-4373
▁spending	-4374
▁customers	-4375
▁economics	-4376
▁advantages	-4377
▁conviction	-4378
▁percentage	-4379
▁perspective	-4380
▁imprisonment	-4381
-7	-4382
CT	-4383
OD	-4384
UN	-4385
oz	-4386
tw	-4387
---	-4388
-47	-4389
.3)	-4390
:30	-4391
AST	-4392
CES	-4393
OOD	-4394
Why	-4395
agn	-4396
ais	-4397
ats	-4398
cle	-4399
CH	-4400
/20	-4401
All	-4402
alt	-4403
ded	-4404
don	-4405
dro	-4406
duc	-4407
eah	-4408
eem	-4409
eks	-4410
eld	-4411
enn	-4412
eps	-4413
esa	-4414
etc	-4415
ext	-4416
fty	-4417
iat	-4418
iet	-4419
ilg	-4420
ins	-4421
iti	-4422
nic	-4423
nly	-4424
nox	-4425
oby	-4426
ogs	-4427
omy	-4428
ote	-4429
oti	-4430
raq	-4431
shi	-4432
sub	-4433
tic	-4434
ubs	-4435
ule	-4436
ycl	-4437
▁!!	-4438
▁,,	-4439
▁2.	-4440
▁27	-4441
▁2:	-4442
▁:)	-4443
▁DN	-4444
▁Ga	-4445
▁Ge	-4446
▁Gr	-4447
▁IT	-4448
▁LO	-4449
▁UN	-4450
▁gy	-4451
▁nu	-4452
!!!!	-4453
CESS	-4454
From	-4455
OOOO	-4456
Only	-4457
TENT	-4458
Tell	-4459
Tube	-4460
VERY	-4461
Well	-4462
ague	-4463
aism	-4464
ajor	-4465
akin	-4466
aled	-4467
ales	-4468
anks	-4469
arat	-4470
argu	-4471
arma	-4472
aves	-4473
bear	-4474
bery	-4475
beye	-4476
ches	-4477
dden	-4478
dict	-4479
edic	-4480
egas	-4481
elda	-4482
epsi	-4483
eria	-4484
esty	-4485
fail	-4486
fait	-4487
gins	-4488
gled	-4489
hier	-4490
hips	-4491
hize	-4492
ilet	-4493
ioca	-4494
ique	-4495
izer	-4496
laws	-4497
lawy	-4498
ldon	-4499
"?	-4500
.4	-4501
18	-4502
3,	-4503
An	-4504
By	-4505
HY	-4506
PE	-4507
na	-4508
rt	-4509
ug	-4510
xi	-4511
xx	-4512
▁)	-4513
MMI	-4514
TER	-4515
agu	-4516
din	-4517
fin	-4518
ggy	-4519
ifi	-4520
inc	-4521
mit	-4522
rel	-4523
rip	-4524
ser	-4525
vey	-4526
xxx	-4527
▁CO	-4528
▁Fi	-4529
▁cy	-4530
▁yr	-4531
eker	-4532
ends	-4533
esec	-4534
gant	-4535
itor	-4536
lear	-4537
lets	-4538
load	-4539
lons	-4540
lues	-4541
made	-4542
move	-4543
ndra	-4544
neak	-4545
nger	-4546
obil	-4547
oken	-4548
oler	-4549
onym	-4550
opey	-4551
oret	-4552
otry	-4553
phol	-4554
rass	-4555
rees	-4556
sels	-4557
skin	-4558
soft	-4559
spap	-4560
such	-4561
teen	-4562
tuce	-4563
urvy	-4564
vate	-4565
viol	-4566
well	-4567
what	-4568
with	-4569
ypoc	-4570
▁1.5	-4571
▁2.0	-4572
▁ATM	-4573
▁Bas	-4574
▁CIA	-4575
▁DNA	-4576
▁Exp	-4577
▁FMA	-4578
▁FPS	-4579
▁Fin	-4580
▁Guj	-4581
▁IDE	-4582
▁Jar	-4583
▁Jud	-4584
▁Law	-4585
▁Mex	-4586
▁Moz	-4587
▁Obi	-4588
▁Reg	-4589
▁Sup	-4590
▁THE	-4591
▁Try	-4592
▁WHY	-4593
▁WWI	-4594
▁aid	-4595
▁ann	-4596
▁ant	-4597
▁bag	-4598
▁buc	-4599
!)	-4600
'-	-4601
10	-4602
2)	-4603
3.	-4604
5)	-4605
NO	-4606
Or	-4607
RO	-4608
ca	-4609
do	-4610
fl	-4611
sc	-4612
▁z	-4613
Inc	-4614
Spe	-4615
esy	-4616
got	-4617
lex	-4618
rae	-4619
she	-4620
win	-4621
▁40	-4622
▁Ha	-4623
Some	-4624
Than	-4625
They	-4626
What	-4627
atur	-4628
imer	-4629
ised	-4630
lcom	-4631
pper	-4632
▁Add	-4633
▁PRO	-4634
▁Par	-4635
▁dip	-4636
▁dra	-4637
▁fan	-4638
▁fas	-4639
▁fix	-4640
▁gay	-4641
▁hes	-4642
▁hon	-4643
▁lad	-4644
▁liv	-4645
▁mid	-4646
▁oli	-4647
▁ons	-4648
▁pup	-4649
▁quo	-4650
▁rob	-4651
▁rub	-4652
▁ske	-4653
▁sli	-4654
▁tre	-4655
▁wes	-4656
Aside	-4657
Civil	-4658
Could	-4659
First	-4660
Where	-4661
acial	-4662
adays	-4663
alien	-4664
amant	-4665
ample	-4666
arass	-4667
arate	-4668
arden	-4669
aried	-4670
aused	-4671
aware	-4672
based	-4673
board	-4674
ciety	-4675
cured	-4676
earls	-4677
ellig	-4678
enter	-4679
erial	-4680
erior	-4681
erium	-4682
erous	-4683
etary	-4684
exist	-4685
field	-4686
guish	-4687
hance	-4688
iance	-4689
iforn	-4690
ilgri	-4691
inded	-4692
infor	-4693
ipped	-4694
ishes	-4695
isted	-4696
itude	-4697
kends	-4698
known	-4699
'.	-4700
-1	-4701
5.	-4702
50	-4703
AN	-4704
CK	-4705
IF	-4706
LY	-4707
We	-4708
].	-4709
of	-4710
▁/	-4711
amp	-4712
azz	-4713
eat	-4714
eck	-4715
oin	-4716
▁EU	-4717
▁Fl	-4718
▁Id	-4719
▁Tw	-4720
▁wa	-4721
hang	-4722
ials	-4723
lves	-4724
omed	-4725
oral	-4726
rink	-4727
riot	-4728
▁Abs	-4729
▁Gam	-4730
▁Web	-4731
▁ine	-4732
▁max	-4733
▁pal	-4734
▁rif	-4735
addin	-4736
astly	-4737
inter	-4738
leach	-4739
learn	-4740
lical	-4741
limin	-4742
lined	-4743
lines	-4744
lying	-4745
mples	-4746
ntary	-4747
ocide	-4748
odate	-4749
ondly	-4750
order	-4751
orrow	-4752
owded	-4753
phone	-4754
posed	-4755
quest	-4756
raeli	-4757
rical	-4758
riced	-4759
ricul	-4760
ringe	-4761
rives	-4762
roduc	-4763
senal	-4764
somet	-4765
track	-4766
ubble	-4767
ugins	-4768
umans	-4769
ureau	-4770
urely	-4771
urned	-4772
ushed	-4773
utral	-4774
weeks	-4775
▁Bush	-4776
▁CMMI	-4777
▁Coke	-4778
▁Expl	-4779
▁IDEA	-4780
▁Iraq	-4781
▁Jazz	-4782
▁King	-4783
▁Kore	-4784
▁Lion	-4785
▁Macs	-4786
▁Mark	-4787
▁Mesa	-4788
▁Ocar	-4789
▁Once	-4790
▁Over	-4791
▁Phys	-4792
▁Poke	-4793
▁Pres	-4794
▁RPGs	-4795
▁Serb	-4796
▁Span	-4797
▁Star	-4798
▁Stra	-4799
bq	-4800
pm	-4801
eur	-4802
iec	-4803
isl	-4804
key	-4805
lam	-4806
ock	-4807
wer	-4808
▁En	-4809
▁Oh	-4810
▁Wr	-4811
▁vo	-4812
Even	-4813
abin	-4814
also	-4815
chit	-4816
come	-4817
endo	-4818
hand	-4819
hest	-4820
ived	-4821
lief	-4822
lter	-4823
roat	-4824
rout	-4825
▁Fat	-4826
▁Rec	-4827
▁bbq	-4828
▁dig	-4829
▁hop	-4830
▁ver	-4831
acted	-4832
atern	-4833
ordin	-4834
▁Aust	-4835
▁Supp	-4836
▁Sure	-4837
▁Thus	-4838
▁Unif	-4839
▁Very	-4840
▁abus	-4841
▁anni	-4842
▁anti	-4843
▁baby	-4844
▁batt	-4845
▁bear	-4846
▁bele	-4847
▁blow	-4848
▁bone	-4849
▁boss	-4850
▁bump	-4851
▁camp	-4852
▁cell	-4853
▁chec	-4854
▁clap	-4855
▁cook	-4856
▁corp	-4857
▁coun	-4858
▁degr	-4859
▁dess	-4860
▁dial	-4861
▁dick	-4862
▁diss	-4863
▁doct	-4864
▁drop	-4865
▁envy	-4866
▁evil	-4867
▁exon	-4868
▁fals	-4869
▁fidd	-4870
▁fuel	-4871
▁hang	-4872
▁hund	-4873
▁iPod	-4874
▁ills	-4875
▁item	-4876
▁jump	-4877
▁lady	-4878
▁lazy	-4879
▁loud	-4880
▁mayo	-4881
▁mult	-4882
▁olds	-4883
▁peer	-4884
▁phen	-4885
▁plea	-4886
▁pork	-4887
▁push	-4888
▁rage	-4889
▁ramp	-4890
▁reac	-4891
▁rele	-4892
▁remo	-4893
▁repl	-4894
▁roll	-4895
▁room	-4896
▁ruin	-4897
▁runs	-4898
▁salv	-4899
?'	-4900
Of	-4901
PM	-4902
.2)	-4903
che	-4904
eed	-4905
nam	-4906
oli	-4907
uli	-4908
▁AK	-4909
▁ST	-4910
Just	-4911
aims	-4912
cust	-4913
down	-4914
fast	-4915
good	-4916
iest	-4917
just	-4918
▁Mad	-4919
▁Mis	-4920
▁PCs	-4921
▁Wan	-4922
▁mix	-4923
▁suc	-4924
▁vol	-4925
alian	-4926
arter	-4927
aumat	-4928
blown	-4929
eties	-4930
imuli	-4931
lible	-4932
onely	-4933
orter	-4934
polit	-4935
▁1984	-4936
▁Gael	-4937
▁Home	-4938
▁Stud	-4939
▁asks	-4940
▁dude	-4941
▁mein	-4942
▁neat	-4943
▁oath	-4944
▁pros	-4945
▁rise	-4946
▁shot	-4947
▁skin	-4948
▁slip	-4949
▁soft	-4950
▁sold	-4951
▁stor	-4952
▁suic	-4953
▁sust	-4954
▁tone	-4955
▁tort	-4956
▁trig	-4957
▁trip	-4958
▁unhe	-4959
▁vary	-4960
▁vent	-4961
▁virt	-4962
▁void	-4963
▁vote	-4964
▁wars	-4965
▁weap	-4966
▁webs	-4967
▁wild	-4968
▁wins	-4969
!_____	-4970
Americ	-4971
Donald	-4972
People	-4973
Thanks	-4974
ademic	-4975
agging	-4976
aiting	-4977
amages	-4978
apoint	-4979
arrass	-4980
astard	-4981
astics	-4982
ateful	-4983
course	-4984
depend	-4985
ecause	-4986
ellect	-4987
erally	-4988
estyle	-4989
father	-4990
formed	-4991
ground	-4992
hedule	-4993
ifying	-4994
igated	-4995
illary	-4996
imated	-4997
ingent	-4998
lessly	-4999
LL	-5000
bri	-5001
bus	-5002
oct	-5003
sed	-5004
una	-5005
uns	-5006
▁25	-5007
▁By	-5008
▁Fe	-5009
▁MI	-5010
▁MM	-5011
▁NY	-5012
▁Po	-5013
▁Wh	-5014
▁vs	-5015
aded	-5016
anct	-5017
ergy	-5018
iven	-5019
lied	-5020
orts	-5021
umes	-5022
▁Cal	-5023
▁Con	-5024
▁Cop	-5025
▁Cri	-5026
▁Hor	-5027
▁Int	-5028
▁Nap	-5029
▁cig	-5030
▁gam	-5031
▁sem	-5032
gally	-5033
ining	-5034
itate	-5035
itive	-5036
mined	-5037
orous	-5038
overy	-5039
using	-5040
▁City	-5041
▁Know	-5042
▁Went	-5043
▁fell	-5044
▁girl	-5045
▁reck	-5046
▁semi	-5047
▁vice	-5048
ection	-5049
liment	-5050
monies	-5051
obiles	-5052
omatic	-5053
ooking	-5054
oolish	-5055
orrect	-5056
ournal	-5057
ourney	-5058
ousand	-5059
owered	-5060
perate	-5061
pholes	-5062
rafice	-5063
rating	-5064
reased	-5065
redits	-5066
ribute	-5067
riment	-5068
secure	-5069
skinny	-5070
udding	-5071
uesday	-5072
untary	-5073
urally	-5074
utting	-5075
weight	-5076
▁30.00	-5077
▁Bever	-5078
▁Bible	-5079
▁Black	-5080
▁Books	-5081
▁Civil	-5082
▁Court	-5083
▁Croat	-5084
▁Cuban	-5085
▁Curvy	-5086
▁Drive	-5087
▁Event	-5088
▁House	-5089
▁Loved	-5090
▁Major	-5091
▁Micro	-5092
▁Plame	-5093
▁Power	-5094
▁Rolls	-5095
▁Satur	-5096
▁South	-5097
▁Thats	-5098
▁Union	-5099
AR	-5100
OP	-5101
UD	-5102
mod	-5103
aith	-5104
amel	-5105
asty	-5106
enix	-5107
iled	-5108
leum	-5109
race	-5110
rete	-5111
▁Her	-5112
▁unp	-5113
ifies	-5114
itors	-5115
osing	-5116
▁Fame	-5117
▁Nare	-5118
▁snif	-5119
acular	-5120
iously	-5121
omever	-5122
roleum	-5123
▁Blues	-5124
▁Runes	-5125
▁State	-5126
▁Vegas	-5127
▁Whats	-5128
▁World	-5129
▁_____	-5130
▁activ	-5131
▁adage	-5132
▁adapt	-5133
▁agony	-5134
▁ahead	-5135
▁anger	-5136
▁anime	-5137
▁appet	-5138
▁awful	-5139
▁backs	-5140
▁basil	-5141
▁below	-5142
▁bible	-5143
▁blank	-5144
▁blind	-5145
▁board	-5146
▁bound	-5147
▁brace	-5148
▁brand	-5149
▁breat	-5150
▁brief	-5151
▁broad	-5152
▁cache	-5153
▁calor	-5154
▁categ	-5155
▁chill	-5156
▁chron	-5157
▁cloud	-5158
▁costs	-5159
▁curry	-5160
▁daily	-5161
▁dates	-5162
▁daugh	-5163
▁dedic	-5164
▁deeds	-5165
▁depos	-5166
▁didnt	-5167
▁drown	-5168
▁eaten	-5169
▁faced	-5170
▁false	-5171
▁fixed	-5172
▁flash	-5173
▁forms	-5174
▁fried	-5175
▁funds	-5176
▁gangs	-5177
▁genre	-5178
▁green	-5179
▁hards	-5180
▁heavy	-5181
▁holds	-5182
▁hyper	-5183
▁ideal	-5184
▁ideas	-5185
▁infin	-5186
▁initi	-5187
▁input	-5188
▁irrit	-5189
▁kills	-5190
▁kinda	-5191
▁kinds	-5192
▁lemon	-5193
▁libel	-5194
▁limbs	-5195
▁limit	-5196
▁lines	-5197
▁loads	-5198
▁loves	-5199
▁males	-5200
▁manga	-5201
▁mopey	-5202
▁motor	-5203
▁notch	-5204
▁obese	-5205
▁obnox	-5206
▁occup	-5207
▁olive	-5208
▁overl	-5209
▁overs	-5210
▁paran	-5211
▁parts	-5212
▁phone	-5213
▁plain	-5214
▁posts	-5215
▁prest	-5216
▁prior	-5217
▁proud	-5218
▁raped	-5219
▁reduc	-5220
▁refus	-5221
▁resol	-5222
▁reuse	-5223
▁round	-5224
▁ruled	-5225
▁sales	-5226
▁shade	-5227
▁shame	-5228
▁sneak	-5229
▁soggy	-5230
▁solid	-5231
▁sorry	-5232
▁speed	-5233
▁spice	-5234
▁split	-5235
▁stain	-5236
▁stood	-5237
▁store	-5238
▁sugar	-5239
▁sushi	-5240
▁taxed	-5241
▁tells	-5242
▁theat	-5243
▁thier	-5244
▁throw	-5245
▁thumb	-5246
▁track	-5247
▁trick	-5248
▁tries	-5249
▁trump	-5250
▁twice	-5251
▁types	-5252
▁uncom	-5253
▁uneth	-5254
▁upper	-5255
▁usual	-5256
▁valid	-5257
▁versa	-5258
▁vital	-5259
▁voted	-5260
▁waste	-5261
▁whats	-5262
▁white	-5263
▁wings	-5264
▁wrote	-5265
▁yield	-5266
▁youth	-5267
Arizona	-5268
Without	-5269
alistic	-5270
althier	-5271
amantha	-5272
anation	-5273
anctity	-5274
asoning	-5275
because	-5276
chitect	-5277
choicer	-5278
ditions	-5279
emocrat	-5280
eration	-5281
essinis	-5282
faction	-5283
history	-5284
hopping	-5285
icapped	-5286
iciency	-5287
icipate	-5288
ifornia	-5289
ilgrims	-5290
intendo	-5291
isoning	-5292
isposed	-5293
issions	-5294
iveness	-5295
knowled	-5296
ography	-5297
ongress	-5298
ossible	-5299
ouncing	-5300
reaming	-5301
related	-5302
riculum	-5303
riotism	-5304
spapers	-5305
versity	-5306
violent	-5307
▁Almost	-5308
▁Anakin	-5309
▁Caesar	-5310
▁Coming	-5311
▁Engine	-5312
▁Except	-5313
▁Father	-5314
▁Gaelic	-5315
▁Google	-5316
▁Health	-5317
▁Isreal	-5318
▁Pretty	-5319
▁Regard	-5320
▁Rights	-5321
▁Rowing	-5322
▁Taking	-5323
▁Though	-5324
▁United	-5325
▁abused	-5326
▁accomp	-5327
▁acting	-5328
▁active	-5329
▁addict	-5330
▁admire	-5331
▁advice	-5332
▁affirm	-5333
▁altern	-5334
▁anonym	-5335
▁assess	-5336
▁assets	-5337
▁assign	-5338
▁babies	-5339
▁backed	-5340
▁basket	-5341
▁became	-5342
▁bottom	-5343
▁breaks	-5344
▁bubble	-5345
▁bucket	-5346
▁butter	-5347
▁caesar	-5348
▁campus	-5349
▁caused	-5350
▁childs	-5351
▁church	-5352
▁closed	-5353
▁commen	-5354
▁copies	-5355
▁corner	-5356
▁cracks	-5357
▁crises	-5358
▁daught	-5359
▁deform	-5360
▁denied	-5361
▁devast	-5362
▁diesel	-5363
▁disall	-5364
▁double	-5365
▁elimin	-5366
▁energy	-5367
▁ensure	-5368
▁evolve	-5369
▁except	-5370
▁explic	-5371
▁extend	-5372
▁factor	-5373
▁failed	-5374
▁fairly	-5375
▁foetus	-5376
▁forces	-5377
▁garden	-5378
▁garlic	-5379
▁google	-5380
▁grease	-5381
▁growth	-5382
▁histor	-5383
▁humble	-5384
▁hungry	-5385
▁iPhone	-5386
▁impair	-5387
▁incent	-5388
▁judges	-5389
▁latter	-5390
▁leaves	-5391
▁legisl	-5392
▁linear	-5393
▁lonely	-5394
▁lously	-5395
▁mainly	-5396
▁massac	-5397
▁master	-5398
▁merely	-5399
▁muscle	-5400
▁nearly	-5401
▁negoti	-5402
▁neighb	-5403
▁nicely	-5404
▁notary	-5405
▁notify	-5406
▁online	-5407
▁opened	-5408
▁owning	-5409
▁packed	-5410
▁palist	-5411
▁patent	-5412
▁pearls	-5413
▁ponder	-5414
▁posted	-5415
▁proced	-5416
▁proved	-5417
▁pulled	-5418
▁pupils	-5419
▁pursue	-5420
▁racing	-5421
▁rarely	-5422
▁recall	-5423
▁recycl	-5424
▁reddit	-5425
▁redone	-5426
▁rental	-5427
▁repair	-5428
▁resemb	-5429
▁reserv	-5430
▁ribeye	-5431
▁rooted	-5432
▁ruined	-5433
▁scared	-5434
▁scream	-5435
▁secure	-5436
▁select	-5437
▁selves	-5438
▁serves	-5439
▁showed	-5440
▁smokes	-5441
▁sounds	-5442
▁speaks	-5443
▁specif	-5444
▁specul	-5445
▁spoken	-5446
▁sprout	-5447
▁stable	-5448
▁stance	-5449
▁stings	-5450
▁sudden	-5451
▁summer	-5452
▁surely	-5453
▁target	-5454
▁taxing	-5455
▁territ	-5456
▁thanks	-5457
▁tracks	-5458
▁travel	-5459
▁unique	-5460
▁valley	-5461
▁visits	-5462
▁wealth	-5463
▁weight	-5464
▁welcom	-5465
▁wholly	-5466
▁worked	-5467
Although	-5468
American	-5469
idelines	-5470
modating	-5471
oretical	-5472
ributing	-5473
ributive	-5474
rounding	-5475
▁100,000	-5476
▁Aladdin	-5477
▁Austral	-5478
▁Believe	-5479
▁Chinese	-5480
▁Depends	-5481
▁Germans	-5482
▁Gravity	-5483
▁Gujarat	-5484
▁Israeli	-5485
▁Judaism	-5486
▁Killing	-5487
▁Mexican	-5488
▁Mozilla	-5489
▁Neither	-5490
▁Ocarina	-5491
▁PROCESS	-5492
▁Plastic	-5493
▁Pokemon	-5494
▁Service	-5495
▁Sheldon	-5496
▁Society	-5497
▁Someone	-5498
▁Straits	-5499
▁Student	-5500
▁Support	-5501
▁Supreme	-5502
▁Tuesday	-5503
▁Whether	-5504
▁YouTube	-5505
▁advised	-5506
▁advisor	-5507
▁affects	-5508
▁amounts	-5509
▁anarchy	-5510
▁anguish	-5511
▁anybody	-5512
▁anyways	-5513
▁appeals	-5514
▁assault	-5515
▁assumes	-5516
▁attempt	-5517
▁bargain	-5518
▁beleive	-5519
▁besides	-5520
▁bigotry	-5521
▁billing	-5522
▁binding	-5523
▁buttons	-5524
▁capable	-5525
▁caramel	-5526
▁citizen	-5527
▁closely	-5528
▁colours	-5529
▁comfort	-5530
▁commits	-5531
▁compete	-5532
▁concern	-5533
▁confuse	-5534
▁consume	-5535
▁covered	-5536
▁crowded	-5537
▁damages	-5538
▁dealers	-5539
▁defined	-5540
▁deprive	-5541
▁despite	-5542
▁dessert	-5543
▁dismiss	-5544
▁dispute	-5545
▁elevate	-5546
▁emerged	-5547
▁enacted	-5548
▁enhance	-5549
▁entrees	-5550
▁evening	-5551
▁evolved	-5552
▁excited	-5553
▁experts	-5554
▁explore	-5555
▁express	-5556
▁falsify	-5557
▁feature	-5558
▁females	-5559
▁finding	-5560
▁flavors	-5561
▁flavour	-5562
▁focused	-5563
▁forward	-5564
▁founded	-5565
▁frankly	-5566
▁fulfill	-5567
▁funeral	-5568
▁gallons	-5569
▁governs	-5570
▁greeted	-5571
▁grilled	-5572
▁grounds	-5573
▁harmful	-5574
▁highest	-5575
▁holding	-5576
▁hostile	-5577
▁hundred	-5578
▁immoral	-5579
▁inalien	-5580
▁lacking	-5581
▁largest	-5582
▁leaders	-5583
▁leading	-5584
▁lettuce	-5585
▁lobster	-5586
▁located	-5587
▁machine	-5588
▁monitor	-5589
▁morally	-5590
▁nations	-5591
▁neither	-5592
▁neutral	-5593
▁notions	-5594
▁opening	-5595
▁optimum	-5596
▁organis	-5597
▁outcome	-5598
▁overall	-5599
▁parfait	-5600
▁passion	-5601
▁pastime	-5602
▁payment	-5603
▁perjury	-5604
▁persuit	-5605
▁picture	-5606
▁platter	-5607
▁pleased	-5608
▁plugins	-5609
▁pointed	-5610
▁princip	-5611
▁promote	-5612
▁pudding	-5613
▁raffles	-5614
▁rampant	-5615
▁ratings	-5616
▁reached	-5617
▁reaches	-5618
▁realise	-5619
▁recover	-5620
▁rehabil	-5621
▁replies	-5622
▁reverse	-5623
▁routine	-5624
▁scratch	-5625
▁seconds	-5626
▁secular	-5627
▁secured	-5628
▁sending	-5629
▁shipped	-5630
▁shorter	-5631
▁simpler	-5632
▁sleeker	-5633
▁sourced	-5634
▁squeeze	-5635
▁station	-5636
▁stellar	-5637
▁stimuli	-5638
▁sustain	-5639
▁tapioca	-5640
▁tenders	-5641
▁traumat	-5642
▁trusted	-5643
▁typical	-5644
▁unknown	-5645
▁updates	-5646
▁veggies	-5647
▁visited	-5648
▁warming	-5649
▁watches	-5650
▁website	-5651
▁western	-5652
▁wrapped	-5653
▁writers	-5654
▁wronged	-5655
▁younger	-5656
Evolution	-5657
Therefore	-5658
arrassing	-5659
depending	-5660
ellectual	-5661
itionally	-5662
political	-5663
▁Actually	-5664
▁Anything	-5665
▁Beverage	-5666
▁Computer	-5667
▁Criminal	-5668
▁Explorer	-5669
▁Generals	-5670
▁Internet	-5671
▁Liberals	-5672
▁Marriage	-5673
▁McDonald	-5674
▁Minister	-5675
▁Moreover	-5676
▁Narendra	-5677
▁National	-5678
▁Physical	-5679
▁Politics	-5680
▁Remember	-5681
▁Samantha	-5682
▁Saturday	-5683
▁Security	-5684
▁Spanking	-5685
▁Uniforms	-5686
▁Watching	-5687
▁absolute	-5688
▁academic	-5689
▁admitted	-5690
▁adultery	-5691
▁affected	-5692
▁analysis	-5693
▁anywhere	-5694
▁bankrupt	-5695
▁becoming	-5696
▁believes	-5697
▁boneless	-5698
▁bookmark	-5699
▁boosting	-5700
▁boutique	-5701
▁breeding	-5702
▁browsers	-5703
▁browsing	-5704
▁calories	-5705
▁category	-5706
▁changing	-5707
▁cheering	-5708
▁chemical	-5709
▁civilian	-5710
▁concrete	-5711
▁conflict	-5712
▁consumer	-5713
▁contacts	-5714
▁counties	-5715
▁coverage	-5716
▁creative	-5717
▁criteria	-5718
▁daughter	-5719
▁defining	-5720
▁deprives	-5721
▁deserves	-5722
▁designer	-5723
▁detailed	-5724
▁diabetic	-5725
▁domestic	-5726
▁download	-5727
▁downside	-5728
▁elements	-5729
▁employee	-5730
▁entirely	-5731
▁examples	-5732
▁expenses	-5733
▁feelings	-5734
▁filtered	-5735
▁fountain	-5736
▁genocide	-5737
▁homemade	-5738
▁ideology	-5739
▁ignorant	-5740
▁incident	-5741
▁includes	-5742
▁independ	-5743
▁inferior	-5744
▁insecure	-5745
▁interact	-5746
▁intruder	-5747
▁invested	-5748
▁jackpots	-5749
▁lawsuits	-5750
▁licenses	-5751
▁location	-5752
▁managing	-5753
▁material	-5754
▁millions	-5755
▁minister	-5756
▁monetary	-5757
▁motivate	-5758
▁nowadays	-5759
▁occasion	-5760
▁planning	-5761
▁plastics	-5762
▁pleasing	-5763
▁policies	-5764
▁policing	-5765
▁presence	-5766
▁presents	-5767
▁pressure	-5768
▁purposes	-5769
▁reaching	-5770
▁reaction	-5771
▁referral	-5772
▁released	-5773
▁relevant	-5774
▁remained	-5775
▁reminded	-5776
▁resource	-5777
▁rightful	-5778
▁salaried	-5779
▁schedule	-5780
▁separate	-5781
▁shouldnt	-5782
▁somewhat	-5783
▁speakers	-5784
▁starting	-5785
▁starving	-5786
▁stepping	-5787
▁steroids	-5788
▁straight	-5789
▁strength	-5790
▁strictly	-5791
▁subjects	-5792
▁suicidal	-5793
▁superior	-5794
▁themself	-5795
▁thirteen	-5796
▁thousand	-5797
▁transfer	-5798
▁turnover	-5799
▁unlikely	-5800
▁unwanted	-5801
▁valuable	-5802
▁violated	-5803
▁violence	-5804
▁waitress	-5805
▁weekends	-5806
targetting	-5807
▁Americans	-5808
▁Basically	-5809
▁Economist	-5810
▁Everybody	-5811
▁Microsoft	-5812
▁President	-5813
▁abolished	-5814
▁acknowled	-5815
▁advertise	-5816
▁answering	-5817
▁apartment	-5818
▁architect	-5819
▁boyfriend	-5820
▁breakfast	-5821
▁carefully	-5822
▁celebrate	-5823
▁classroom	-5824
▁comparing	-5825
▁completed	-5826
▁condemned	-5827
▁confusing	-5828
▁connected	-5829
▁construct	-5830
▁continued	-5831
▁criterium	-5832
▁daughters	-5833
▁degrading	-5834
▁delivered	-5835
▁depressed	-5836
▁depresses	-5837
▁detriment	-5838
▁diversity	-5839
▁downsides	-5840
▁efficient	-5841
▁elections	-5842
▁elsewhere	-5843
▁encourage	-5844
▁entertain	-5845
▁essential	-5846
▁estimated	-5847
▁exonerate	-5848
▁fortunate	-5849
▁gathering	-5850
▁governing	-5851
▁highlight	-5852
▁identical	-5853
▁immigrant	-5854
▁improving	-5855
▁increased	-5856
▁investing	-5857
▁involving	-5858
▁liability	-5859
▁lifestyle	-5860
▁literally	-5861
▁loopholes	-5862
▁naturally	-5863
▁outsiders	-5864
▁overrated	-5865
▁ownership	-5866
▁perfectly	-5867
▁permanent	-5868
▁personnel	-5869
▁petroleum	-5870
▁poisoning	-5871
▁pollution	-5872
▁prejudice	-5873
▁producers	-5874
▁prosecute	-5875
▁providing	-5876
▁publicity	-5877
▁qualities	-5878
▁regarding	-5879
▁regularly	-5880
▁regulated	-5881
▁sacrafice	-5882
▁sacrifice	-5883
▁satisfied	-5884
▁screening	-5885
▁seasoning	-5886
▁seemingly	-5887
▁societies	-5888
▁streaming	-5889
▁suggested	-5890
▁superiors	-5891
▁supported	-5892
▁terrorist	-5893
▁unethical	-5894
▁virtually	-5895
▁witnesses	-5896
volutionary	-5897
▁Absolutely	-5898
▁California	-5899
▁Eventually	-5900
▁Healthcare	-5901
▁Management	-5902
▁Republican	-5903
▁accomodate	-5904
▁activities	-5905
▁aggression	-5906
▁algorithms	-5907
▁appreciate	-5908
▁assumption	-5909
▁attempting	-5910
▁beneficial	-5911
▁censorship	-5912
▁ceremonies	-5913
▁committing	-5914
▁conclusion	-5915
▁conditions	-5916
▁confidence	-5917
▁constantly	-5918
▁continuing	-5919
▁continuous	-5920
▁curriculum	-5921
▁decriminal	-5922
▁discredits	-5923
▁discussing	-5924
▁disturbing	-5925
▁efficiency	-5926
▁electrical	-5927
▁engagement	-5928
▁healthcare	-5929
▁heartaches	-5930
▁impossible	-5931
▁increasing	-5932
▁incredibly	-5933
▁inherently	-5934
▁litigation	-5935
▁newspapers	-5936
▁obligatory	-5937
▁observable	-5938
▁occupation	-5939
▁originally	-5940
▁overcooked	-5941
▁overpriced	-5942
▁overweight	-5943
▁patriotism	-5944
▁performing	-5945
▁popularity	-5946
▁positively	-5947
▁programmed	-5948
▁prohibited	-5949
▁prosecuted	-5950
▁questioned	-5951
▁references	-5952
▁regardless	-5953
▁respectful	-5954
▁smartphone	-5955
▁soundtrack	-5956
▁structures	-5957
▁sufficient	-5958
▁supervisor	-5959
▁sympathize	-5960
▁technology	-5961
▁television	-5962
▁traditions	-5963
▁victimless	-5964
▁Furthermore	-5965
▁affirmation	-5966
▁alternative	-5967
▁application	-5968
▁association	-5969
▁automobiles	-5970
▁communities	-5971
▁competitors	-5972
▁compression	-5973
▁concentrate	-5974
▁considering	-5975
▁controllers	-5976
▁definitions	-5977
▁directional	-5978
▁expectation	-5979
▁experiences	-5980
▁explanation	-5981
▁fundamental	-5982
▁governments	-5983
▁handicapped	-5984
▁importantly	-5985
▁inalienable	-5986
▁integration	-5987
▁interaction	-5988
▁involvement	-5989
▁manufacture	-5990
▁outstanding	-5991
▁participate	-5992
▁performance	-5993
▁predisposed	-5994
▁proceedings	-5995
▁progressive	-5996
▁protectable	-5997
▁recognition	-5998
▁requirement	-5999
▁reservation	-6000
▁retribution	-6001
▁spectacular	-6002
▁substantial	-6003
▁surrounding	-6004
▁technically	-6005
▁theoretical	-6006
▁traumatized	-6007
▁Additionally	-6008
▁Libertarians	-6009
▁accidentally	-6010
▁construction	-6011
▁embarrassing	-6012
▁expectations	-6013
▁intellectual	-6014
▁investigated	-6015
▁particularly	-6016
▁perpetrators	-6017
▁professional	-6018
▁requirements	-6019
▁satisfaction	-6020
▁specifically	-6021
▁successfully	-6022
▁unemployment	-6023
▁universities	-6024
▁vaccinations	-6025
▁accommodating	-6026
▁automatically	-6027
▁beneficiaries	-6028
▁communication	-6029
▁conservatives	-6030
▁establishment	-6031
▁homosexuality	-6032
▁individuality	-6033
▁justification	-6034
▁opportunities	-6035
▁philosophical	-6036
▁revolutionary	-6037
▁uncomfortable	-6038
▁Scientologists	-6039
▁disappointment	-6040
▁interpretation	-6041
▁responsibility	-6042
▁representatives	-6043
erve	-6044
▁ate	-6045
acters	-6046
payers	-6047
▁added	-6048
▁crash	-6049
▁souls	-6050
▁expand	-6051
▁greasy	-6052
▁larger	-6053
▁stayed	-6054
▁hitting	-6055
▁manager	-6056
▁described	-6057
▁producing	-6058
▁taxpayers	-6059
▁approached	-6060
▁characters	-6061
▁frequently	-6062
▁combination	-6063
▁increasingly	-6064
(7.	-6065
**.	-6066
.4)	-6067
/50	-6068
103	-6069
13,	-6070
15)	-6071
18,	-6072
347	-6073
93.	-6074
?',	-6075
ACT	-6076
ARY	-6077
ASE	-6078
CHI	-6079
DCT	-6080
FLA	-6081
HAN	-6082
IAL	-6083
LEG	-6084
LLI	-6085
PLE	-6086
SID	-6087
SIS	-6088
TML	-6089
UNT	-6090
YPE	-6091
axy	-6092
dgy	-6093
ews	-6094
mok	-6095
nik	-6096
shr	-6097
two	-6098
(7.6	-6099
4.2	-6100
ELY	-6101
IFA	-6102
IFO	-6103
ITH	-6104
oza	-6105
-47'	-6106
34.2	-6107
AITH	-6108
CCHI	-6109
Coca	-6110
EDIA	-6111
IFOR	-6112
LEAR	-6113
LEGA	-6114
LUNT	-6115
OAST	-6116
Read	-6117
SION	-6118
Supp	-6119
TELY	-6120
Toby	-6121
addy	-6122
aisy	-6123
baly	-6124
belt	-6125
brid	-6126
caus	-6127
clos	-6128
dale	-6129
disc	-6130
door	-6131
elax	-6132
flow	-6133
huff	-6134
iece	-6135
iene	-6136
infl	-6137
izio	-6138
kley	-6139
mbol	-6140
neck	-6141
ockf	-6142
offs	-6143
okay	-6144
pret	-6145
scar	-6146
subt	-6147
ttom	-6148
warr	-6149
▁,,,	-6150
▁160	-6151
▁3-7	-6152
▁40,	-6153
▁50.	-6154
▁7.0	-6155
▁Arm	-6156
▁CAN	-6157
▁CPS	-6158
▁Caj	-6159
▁GNO	-6160
▁HUD	-6161
▁IMO	-6162
▁Khr	-6163
▁LOB	-6164
▁MMO	-6165
▁NFL	-6166
▁SCH	-6167
▁Two	-6168
▁WWW	-6169
▁Yea	-6170
▁apo	-6171
▁btw	-6172
▁eye	-6173
▁umb	-6174
▁yrs	-6175
▁zer	-6176
(7.63	-6177
34.24	-6178
34718	-6179
5.15)	-6180
?"...	-6181
Books	-6182
Court	-6183
Desec	-6184
Donne	-6185
IFORM	-6186
LEGAL	-6187
NTENT	-6188
OLUNT	-6189
OTENT	-6190
Pepsi	-6191
Speed	-6192
UTHAN	-6193
VERYB	-6194
afood	-6195
agnos	-6196
agued	-6197
alaxy	-6198
amole	-6199
8.50	-6200
Play	-6201
▁18,	-6202
▁glo	-6203
▁juv	-6204
apien	-6205
brids	-6206
brium	-6207
cabin	-6208
chies	-6209
daddy	-6210
engen	-6211
euros	-6212
faith	-6213
ficed	-6214
giene	-6215
handr	-6216
harma	-6217
hetic	-6218
idala	-6219
ietly	-6220
lacks	-6221
nikaw	-6222
oaded	-6223
ockey	-6224
octor	-6225
oetus	-6226
oleon	-6227
ollyw	-6228
olyam	-6229
omena	-6230
onald	-6231
orgia	-6232
ossil	-6233
otomy	-6234
piece	-6235
shell	-6236
taste	-6237
topia	-6238
undan	-6239
unsav	-6240
urkey	-6241
uscan	-6242
women	-6243
ypocr	-6244
▁...)	-6245
▁1976	-6246
▁7:30	-6247
▁Arab	-6248
▁Argu	-6249
▁Cash	-6250
▁Dogs	-6251
▁Flay	-6252
▁LOBS	-6253
▁Lenn	-6254
▁Lets	-6255
▁Lobb	-6256
▁Mask	-6257
▁Moon	-6258
▁PFLA	-6259
▁Punk	-6260
▁Rams	-6261
▁Ruth	-6262
▁STOP	-6263
▁THER	-6264
▁Toby	-6265
▁Tuna	-6266
▁Twel	-6267
▁UNIT	-6268
▁Yeah	-6269
▁amok	-6270
▁anxi	-6271
▁apes	-6272
▁bowl	-6273
▁boys	-6274
▁bugs	-6275
▁cafe	-6276
▁fasc	-6277
▁garb	-6278
▁grie	-6279
▁iinc	-6280
▁irks	-6281
▁juvy	-6282
▁narr	-6283
▁neck	-6284
▁nude	-6285
▁nuer	-6286
▁nutr	-6287
▁omit	-6288
▁palm	-6289
▁pugs	-6290
▁rape	-6291
▁tuna	-6292
▁uplo	-6293
▁whlo	-6294
▁yeah	-6295
▁zone	-6296
!!!!!)	-6297
(5.15)	-6298
/20/20	-6299
.5.	-6300
.52	-6301
gov	-6302
▁60	-6303
▁7,	-6304
▁7:	-6305
.52,	-6306
ango	-6307
▁1/3	-6308
▁pip	-6309
arran	-6310
droom	-6311
horic	-6312
nyder	-6313
ranst	-6314
unned	-6315
white	-6316
▁60-7	-6317
▁6000	-6318
▁7:00	-6319
▁Mush	-6320
▁Pran	-6321
▁cali	-6322
▁crab	-6323
▁pubs	-6324
▁rush	-6325
▁shie	-6326
34.24"	-6327
Anyway	-6328
Doctor	-6329
LEARLY	-6330
LLEGAL	-6331
MMEDIA	-6332
OOOOOD	-6333
Playst	-6334
Pretty	-6335
abbing	-6336
aguire	-6337
angled	-6338
attley	-6339
belief	-6340
biance	-6341
causal	-6342
chaser	-6343
chigan	-6344
church	-6345
claims	-6346
clical	-6347
direct	-6348
ecrate	-6349
elling	-6350
elping	-6351
eograp	-6352
erfect	-6353
esired	-6354
etwork	-6355
felons	-6356
gotist	-6357
hangas	-6358
heimer	-6359
histic	-6360
histor	-6361
hoenix	-6362
huffle	-6363
iantly	-6364
ietnam	-6365
imizer	-6366
includ	-6367
irthed	-6368
iscons	-6369
kewise	-6370
lawyer	-6371
morrow	-6372
ndsome	-6373
onsmok	-6374
ottery	-6375
paying	-6376
points	-6377
pushed	-6378
puting	-6379
quests	-6380
rincip	-6381
rolled	-6382
social	-6383
subtly	-6384
tching	-6385
tsdale	-6386
ttoman	-6387
ublime	-6388
ugment	-6389
ushche	-6390
ussien	-6391
veiled	-6392
viable	-6393
winner	-6394
xample	-6395
zoning	-6396
▁10.00	-6397
▁12-20	-6398
▁15-20	-6399
GER	-6400
umbo	-6401
▁---	-6402
UNGER	-6403
dging	-6404
elato	-6405
uency	-6406
▁Clan	-6407
▁Copy	-6408
▁Geor	-6409
▁veto	-6410
drogen	-6411
ipment	-6412
ouched	-6413
vances	-6414
wright	-6415
▁1973,	-6416
▁1977.	-6417
▁50/50	-6418
▁Again	-6419
▁Apart	-6420
▁Brian	-6421
▁Briet	-6422
▁Brill	-6423
▁Cajun	-6424
▁Charl	-6425
▁Cheen	-6426
▁Compl	-6427
▁Const	-6428
▁Contr	-6429
▁Crisp	-6430
▁FAITH	-6431
▁FIGHT	-6432
▁Faith	-6433
▁Flame	-6434
▁Gamec	-6435
▁Going	-6436
▁Guant	-6437
▁HomeN	-6438
▁Islam	-6439
▁Jango	-6440
▁Korea	-6441
▁Looks	-6442
▁Madag	-6443
▁Manip	-6444
▁Neigh	-6445
▁Order	-6446
▁Paris	-6447
▁Recca	-6448
▁Relax	-6449
▁Roast	-6450
▁SCHOO	-6451
▁Speed	-6452
▁Starb	-6453
▁THERE	-6454
▁Teens	-6455
▁Women	-6456
▁Worth	-6457
▁Write	-6458
▁alarm	-6459
▁alcoh	-6460
▁analy	-6461
▁assem	-6462
▁balls	-6463
▁banks	-6464
▁barre	-6465
▁boobs	-6466
▁brigh	-6467
▁bulld	-6468
▁bully	-6469
▁caffe	-6470
▁chaos	-6471
▁civic	-6472
▁clock	-6473
▁clubs	-6474
▁clung	-6475
▁cockf	-6476
▁cooks	-6477
▁counc	-6478
▁craze	-6479
▁cynic	-6480
▁demol	-6481
▁diarr	-6482
▁divis	-6483
▁divor	-6484
▁dodgy	-6485
▁doggy	-6486
▁dogma	-6487
▁dooms	-6488
▁drama	-6489
▁encod	-6490
▁fancy	-6491
▁fired	-6492
▁fruit	-6493
▁fuels	-6494
▁glass	-6495
▁globe	-6496
▁gloom	-6497
▁grabb	-6498
▁habit	-6499
PEG	-6500
VER	-6501
emy	-6502
Coke	-6503
JPEG	-6504
dows	-6505
laim	-6506
lony	-6507
rape	-6508
roth	-6509
ueso	-6510
avana	-6511
ficul	-6512
imony	-6513
matic	-6514
mells	-6515
ompat	-6516
otony	-6517
▁Adob	-6518
▁Cris	-6519
▁EVER	-6520
▁High	-6521
▁Play	-6522
▁Sony	-6523
▁Tony	-6524
▁bris	-6525
▁espe	-6526
▁gods	-6527
Assume	-6528
Health	-6529
astrop	-6530
hadows	-6531
hiroth	-6532
inemat	-6533
laimed	-6534
matics	-6535
oubted	-6536
outube	-6537
▁Adobe	-6538
▁cells	-6539
▁drawn	-6540
▁enemy	-6541
▁hates	-6542
▁honor	-6543
▁hopes	-6544
▁hosts	-6545
▁hotel	-6546
▁ignor	-6547
▁jaded	-6548
▁juice	-6549
▁jumbo	-6550
▁lifet	-6551
▁lobby	-6552
▁mango	-6553
▁meats	-6554
▁messy	-6555
▁miles	-6556
▁minds	-6557
▁misbe	-6558
▁mouth	-6559
▁nerve	-6560
▁nomin	-6561
▁nukes	-6562
▁paral	-6563
▁pepsi	-6564
▁phosp	-6565
▁plaus	-6566
▁plead	-6567
▁probl	-6568
▁ranks	-6569
▁riots	-6570
▁rules	-6571
▁scarc	-6572
▁seams	-6573
▁sewer	-6574
▁ships	-6575
▁shops	-6576
▁silly	-6577
▁sizes	-6578
▁skept	-6579
▁skews	-6580
▁sniff	-6581
▁spino	-6582
▁stagn	-6583
▁stomp	-6584
▁straw	-6585
▁thief	-6586
▁tipha	-6587
▁tools	-6588
▁toolt	-6589
▁trend	-6590
▁troub	-6591
▁unnat	-6592
▁urges	-6593
▁vague	-6594
▁windy	-6595
▁wiped	-6596
Another	-6597
Because	-6598
Hillary	-6599
▁90	-6600
20!!	-6601
cogn	-6602
comm	-6603
hels	-6604
iple	-6605
said	-6606
uild	-6607
attoo	-6608
build	-6609
cript	-6610
deeds	-6611
eddit	-6612
eeing	-6613
faces	-6614
gling	-6615
imacy	-6616
osses	-6617
zling	-6618
▁2000	-6619
▁GOOD	-6620
▁Issu	-6621
▁Vacc	-6622
Bleach	-6623
attoos	-6624
commer	-6625
icians	-6626
imilar	-6627
osling	-6628
othels	-6629
recogn	-6630
witter	-6631
zzling	-6632
▁Crime	-6633
▁buyer	-6634
▁diner	-6635
▁latte	-6636
▁loses	-6637
▁oncom	-6638
▁ready	-6639
▁teeth	-6640
LLISION	-6641
SISTENT	-6642
Similar	-6643
UTHANAS	-6644
abbings	-6645
acamole	-6646
achover	-6647
agnosis	-6648
allible	-6649
antaged	-6650
arassal	-6651
aringly	-6652
athroom	-6653
awesome	-6654
balance	-6655
bearing	-6656
believe	-6657
borhood	-6658
cabinet	-6659
commits	-6660
connect	-6661
criptor	-6662
custody	-6663
damages	-6664
dollars	-6665
econdly	-6666
enagers	-6667
esimony	-6668
estones	-6669
failing	-6670
failure	-6671
fectant	-6672
ference	-6673
ficulty	-6674
forming	-6675
friends	-6676
handray	-6677
harmony	-6678
healthy	-6679
hiestic	-6680
hington	-6681
ianship	-6682
iloring	-6683
inishes	-6684
irectly	-6685
isional	-6686
itching	-6687
itimacy	-6688
itivity	-6689
leasing	-6690
levated	-6691
manager	-6692
ointing	-6693
olistic	-6694
orrower	-6695
parents	-6696
putable	-6697
quiring	-6698
ranston	-6699
.4.	-6700
EED	-6701
iscu	-6702
reck	-6703
▁oun	-6704
bring	-6705
sized	-6706
sorry	-6707
touch	-6708
▁Code	-6709
▁Desp	-6710
▁NEED	-6711
▁grip	-6712
▁irre	-6713
▁mile	-6714
▁mumb	-6715
▁ribs	-6716
harged	-6717
issile	-6718
lammat	-6719
likely	-6720
▁artic	-6721
▁biscu	-6722
▁cloth	-6723
▁combo	-6724
▁ounce	-6725
▁skill	-6726
▁wreck	-6727
ardized	-6728
estream	-6729
orderly	-6730
request	-6731
ricians	-6732
rinking	-6733
roduced	-6734
secured	-6735
shrined	-6736
spected	-6737
sublime	-6738
suicide	-6739
ttorney	-6740
unlight	-6741
welling	-6742
ypocrit	-6743
zheimer	-6744
▁50/50.	-6745
▁Anyway	-6746
▁Armory	-6747
▁Blairs	-6748
▁Bleach	-6749
▁Bollyw	-6750
▁Border	-6751
▁Bureau	-6752
▁Canada	-6753
▁Canadi	-6754
▁Cannot	-6755
▁Carter	-6756
▁Cheeny	-6757
▁Church	-6758
▁Clause	-6759
▁Commer	-6760
▁Crispy	-6761
▁Dollar	-6762
▁EVERYB	-6763
▁Enable	-6764
▁Expose	-6765
▁Galaxy	-6766
▁HUNGER	-6767
▁Hiring	-6768
▁Hypocr	-6769
▁INTENT	-6770
▁Indeed	-6771
▁Inizio	-6772
▁Johnny	-6773
▁League	-6774
▁Listed	-6775
▁Living	-6776
▁Loaded	-6777
▁Misjud	-6778
▁Misuse	-6779
▁Palest	-6780
▁Player	-6781
▁Polyam	-6782
▁Pranab	-6783
▁Proble	-6784
▁Racial	-6785
▁Remove	-6786
▁Serbia	-6787
▁Snyder	-6788
▁Soccer	-6789
▁Sounds	-6790
▁Utopia	-6791
▁VOLUNT	-6792
▁Winter	-6793
▁abuser	-6794
▁adulth	-6795
▁agency	-6796
▁aiding	-6797
▁analyz	-6798
▁animal	-6799
".*	-6800
Bush	-6801
asco	-6802
engg	-6803
iliz	-6804
lips	-6805
ooth	-6806
rina	-6807
▁10,	-6808
▁eco	-6809
▁gee	-6810
▁pix	-6811
Based	-6812
Cuban	-6813
clips	-6814
fernt	-6815
heavy	-6816
hilad	-6817
hilst	-6818
iasco	-6819
ibili	-6820
lifer	-6821
▁Ange	-6822
▁Fein	-6823
▁Vers	-6824
▁View	-6825
▁bars	-6826
▁cuts	-6827
▁hips	-6828
▁horr	-6829
▁humm	-6830
abiliz	-6831
atrina	-6832
candid	-6833
emengg	-6834
herita	-6835
oothly	-6836
▁Anand	-6837
▁Angel	-6838
▁Based	-6839
▁Flash	-6840
▁Peach	-6841
▁Versa	-6842
▁bites	-6843
▁chips	-6844
▁juicy	-6845
▁lands	-6846
▁prais	-6847
▁slide	-6848
▁trigg	-6849
▁trips	-6850
gherita	-6851
hiladas	-6852
ibilily	-6853
▁Twelve	-6854
▁animos	-6855
▁apolig	-6856
▁artist	-6857
▁awared	-6858
▁ballot	-6859
▁beauty	-6860
▁behalf	-6861
▁behave	-6862
▁berate	-6863
▁biomet	-6864
▁blocks	-6865
▁bosses	-6866
▁breath	-6867
▁bullet	-6868
▁bumper	-6869
▁bureau	-6870
▁buried	-6871
▁chains	-6872
▁checks	-6873
▁cheesy	-6874
▁cheque	-6875
▁cigars	-6876
▁clones	-6877
▁closes	-6878
▁cloths	-6879
▁cognit	-6880
▁conque	-6881
▁cringe	-6882
▁darker	-6883
▁dealer	-6884
▁decoys	-6885
▁deliri	-6886
▁doomed	-6887
▁dreams	-6888
▁equili	-6889
▁esteem	-6890
▁exceed	-6891
▁excers	-6892
▁excess	-6893
▁exclud	-6894
▁famili	-6895
▁fascin	-6896
▁faults	-6897
▁felony	-6898
▁fiasco	-6899
azi	-6900
ugg	-6901
▁47	-6902
Huge	-6903
ansi	-6904
hole	-6905
thew	-6906
▁Kid	-6907
▁ava	-6908
rille	-6909
▁160'	-6910
▁Kart	-6911
▁Kids	-6912
▁Leag	-6913
▁Nazi	-6914
▁avoc	-6915
▁fans	-6916
20,000	-6917
ackson	-6918
almost	-6919
ansiap	-6920
atthew	-6921
inians	-6922
racial	-6923
ugging	-6924
▁9.52,	-6925
▁Dying	-6926
▁boxes	-6927
▁delay	-6928
▁dorms	-6929
▁loans	-6930
▁munch	-6931
▁pricy	-6932
▁shift	-6933
▁solar	-6934
▁staus	-6935
▁taboo	-6936
20,000,	-6937
atively	-6938
ensives	-6939
ussions	-6940
▁Firsts	-6941
▁Grille	-6942
▁Leagle	-6943
▁absent	-6944
▁avocad	-6945
▁begins	-6946
▁filler	-6947
▁firmly	-6948
▁flawed	-6949
▁flight	-6950
▁fondly	-6951
▁fossil	-6952
▁freshm	-6953
▁funded	-6954
▁futile	-6955
▁gPepsi	-6956
▁gallop	-6957
▁gaming	-6958
▁gelato	-6959
▁grandm	-6960
▁hiding	-6961
▁hockey	-6962
▁honors	-6963
▁horror	-6964
▁illust	-6965
▁imagin	-6966
▁improv	-6967
▁incumb	-6968
▁inflex	-6969
▁injury	-6970
▁insane	-6971
▁isjust	-6972
▁issueI	-6973
▁jacket	-6974
▁landsl	-6975
▁layman	-6976
▁likley	-6977
▁limits	-6978
▁loaded	-6979
▁loathe	-6980
▁machin	-6981
▁manner	-6982
▁masses	-6983
▁missed	-6984
▁narrow	-6985
▁noodle	-6986
▁output	-6987
▁papers	-6988
▁pedest	-6989
▁picker	-6990
▁piping	-6991
▁planet	-6992
▁popped	-6993
▁premat	-6994
▁presti	-6995
▁preval	-6996
▁procre	-6997
▁purely	-6998
▁purple	-6999
Plu	-7000
Here	-7001
Plug	-7002
Semp	-7003
ervo	-7004
nees	-7005
▁LIT	-7006
chise	-7007
eself	-7008
ghbor	-7009
hamed	-7010
ifier	-7011
isana	-7012
lared	-7013
orize	-7014
▁Asus	-7015
▁LITT	-7016
▁Stal	-7017
▁Stan	-7018
Semper	-7019
difier	-7020
ervoir	-7021
invent	-7022
itutes	-7023
monize	-7024
vented	-7025
▁10-20	-7026
▁Stand	-7027
▁bodys	-7028
▁handg	-7029
▁knees	-7030
▁loose	-7031
▁maker	-7032
▁misin	-7033
▁numer	-7034
▁tends	-7035
Firefox	-7036
anchise	-7037
assault	-7038
bortion	-7039
ieghbor	-7040
leading	-7041
looking	-7042
success	-7043
ushchev	-7044
▁Crisis	-7045
▁Donald	-7046
▁Invent	-7047
▁LITTLE	-7048
▁Stalin	-7049
▁awards	-7050
▁busier	-7051
▁custod	-7052
▁equate	-7053
▁explos	-7054
▁fewest	-7055
▁filing	-7056
▁insert	-7057
▁raised	-7058
▁reborn	-7059
▁reckon	-7060
▁refuge	-7061
▁remark	-7062
▁rounds	-7063
▁rubber	-7064
▁runner	-7065
▁rushed	-7066
▁safest	-7067
▁scarce	-7068
▁scrape	-7069
▁sealed	-7070
▁sheets	-7071
▁slaves	-7072
▁slower	-7073
▁smells	-7074
▁smoker	-7075
▁sneaks	-7076
▁sniffs	-7077
▁solely	-7078
▁solved	-7079
▁solves	-7080
▁souven	-7081
▁spectr	-7082
▁spends	-7083
▁square	-7084
▁sticks	-7085
▁submit	-7086
▁summon	-7087
▁superp	-7088
▁surpri	-7089
▁surviv	-7090
▁symbol	-7091
▁tarter	-7092
▁temper	-7093
▁tenden	-7094
▁therip	-7095
▁toilet	-7096
▁tolerl	-7097
▁tranqu	-7098
▁tricky	-7099
Ing	-7100
ups	-7101
chup	-7102
hope	-7103
upac	-7104
▁Cup	-7105
▁Left	-7106
▁Nope	-7107
▁Topp	-7108
▁brew	-7109
▁gIng	-7110
▁punn	-7111
▁shap	-7112
▁shaw	-7113
anning	-7114
etchup	-7115
evelop	-7116
island	-7117
istake	-7118
lander	-7119
ointed	-7120
ungies	-7121
▁Fries	-7122
▁Point	-7123
▁Toppa	-7124
▁Tupac	-7125
▁affin	-7126
▁debit	-7127
▁divid	-7128
▁drive	-7129
▁flake	-7130
▁malay	-7131
▁roast	-7132
▁runes	-7133
▁shall	-7134
▁soldi	-7135
▁stake	-7136
▁steer	-7137
▁unlaw	-7138
▁worng	-7139
landers	-7140
ourning	-7141
ruction	-7142
vencing	-7143
▁Spider	-7144
▁Yester	-7145
▁afflic	-7146
▁breach	-7147
▁brewed	-7148
▁flakey	-7149
▁intake	-7150
▁phenom	-7151
▁shapes	-7152
▁shares	-7153
▁trigge	-7154
▁turkey	-7155
▁tuscan	-7156
▁unbear	-7157
▁united	-7158
▁unsure	-7159
▁variab	-7160
▁vastly	-7161
▁veggie	-7162
▁versus	-7163
▁voided	-7164
▁volley	-7165
▁waived	-7166
▁weapon	-7167
▁whilst	-7168
▁wishes	-7169
▁writer	-7170
Donnells	-7171
Incident	-7172
Internet	-7173
Religion	-7174
Remember	-7175
Secondly	-7176
andering	-7177
antantly	-7178
apointed	-7179
arnished	-7180
avourite	-7181
bersSupp	-7182
business	-7183
chemical	-7184
chipping	-7185
closures	-7186
cussions	-7187
democrat	-7188
drinking	-7189
eachment	-7190
elevated	-7191
emocrats	-7192
erground	-7193
ervative	-7194
existent	-7195
friendsj	-7196
grateful	-7197
handraya	-7198
handsome	-7199
▁.4	-7200
▁5.	-7201
weed	-7202
▁.40	-7203
▁Haw	-7204
▁Ign	-7205
▁LOV	-7206
▁owe	-7207
airly	-7208
forms	-7209
oldly	-7210
pairs	-7211
spare	-7212
▁Beat	-7213
▁Hair	-7214
▁Hope	-7215
▁LOVE	-7216
▁Neur	-7217
▁SSID	-7218
▁clip	-7219
▁died	-7220
▁diet	-7221
▁dife	-7222
▁dime	-7223
▁misl	-7224
▁muse	-7225
▁susp	-7226
actics	-7227
arison	-7228
esteem	-7229
forced	-7230
geball	-7231
ifiers	-7232
istics	-7233
ostrom	-7234
ristle	-7235
▁Benef	-7236
▁LOVES	-7237
▁Water	-7238
▁algor	-7239
▁cater	-7240
▁crisp	-7241
▁gradu	-7242
▁lices	-7243
▁solut	-7244
▁succe	-7245
alities	-7246
icially	-7247
repairs	-7248
restles	-7249
rossing	-7250
▁Fairly	-7251
▁Neuros	-7252
▁accuse	-7253
▁boldly	-7254
▁celebr	-7255
▁licesn	-7256
▁museum	-7257
▁native	-7258
▁openly	-7259
▁stands	-7260
▁suspic	-7261
▁takeaw	-7262
▁treaty	-7263
▁tribal	-7264
everages	-7265
hilating	-7266
indirect	-7267
inforced	-7268
intellig	-7269
isconsin	-7270
ividuals	-7271
marriage	-7272
messinis	-7273
missable	-7274
national	-7275
odgeball	-7276
ographic	-7277
ominican	-7278
ontology	-7279
ooperate	-7280
ordinary	-7281
ottsdale	-7282
oubtedly	-7283
ousisana	-7284
particip	-7285
ravating	-7286
religion	-7287
rination	-7288
ringment	-7289
risingly	-7290
roducing	-7291
sanctity	-7292
stration	-7293
unlikely	-7294
vantaged	-7295
whomever	-7296
wrighted	-7297
▁(!!!!!)	-7298
▁Actions	-7299
7.50	-7300
Anim	-7301
anna	-7302
hens	-7303
then	-7304
yday	-7305
yond	-7306
▁Ste	-7307
demon	-7308
drass	-7309
eyond	-7310
isman	-7311
power	-7312
unism	-7313
▁Duck	-7314
▁Orwe	-7315
▁Palp	-7316
▁Soup	-7317
▁educ	-7318
▁flas	-7319
▁netw	-7320
gdrass	-7321
losing	-7322
munism	-7323
rehens	-7324
▁PCsIf	-7325
▁Steak	-7326
▁Wrong	-7327
▁refle	-7328
▁remor	-7329
▁scott	-7330
▁texts	-7331
▁wanna	-7332
▁wider	-7333
/20/201	-7334
Animals	-7335
arnings	-7336
onsider	-7337
thening	-7338
whether	-7339
▁Beyond	-7340
▁Forced	-7341
▁Palpat	-7342
▁beyond	-7343
▁cities	-7344
▁discre	-7345
▁entail	-7346
▁flames	-7347
▁hardly	-7348
▁hayday	-7349
▁kinder	-7350
▁letter	-7351
▁misman	-7352
▁networ	-7353
▁propag	-7354
▁region	-7355
▁strate	-7356
▁struck	-7357
/20/2013	-7358
OTENTIAL	-7359
consider	-7360
gdrassil	-7361
▁Arsenal	-7362
▁Baiting	-7363
▁Because	-7364
▁Bostrom	-7365
▁Bungies	-7366
▁Burgers	-7367
▁Charlot	-7368
▁Charter	-7369
▁Classic	-7370
▁Damages	-7371
▁Example	-7372
▁Federal	-7373
▁Firstly	-7374
▁Forcing	-7375
▁Frankly	-7376
▁GNOCCHI	-7377
▁Germany	-7378
▁Gosling	-7379
▁Granted	-7380
▁Growing	-7381
▁Guantan	-7382
▁Hussien	-7383
▁Instead	-7384
▁Iranian	-7385
▁Jackson	-7386
▁Katrina	-7387
▁Kingdom	-7388
▁Lottery	-7389
▁Madagas	-7390
▁Minimum	-7391
▁Misjudg	-7392
▁Missile	-7393
▁Network	-7394
▁Orwells	-7395
▁Ottoman	-7396
▁Phoenix	-7397
▁Princip	-7398
▁Putting	-7399
box	-7400
ibl	-7401
ibs	-7402
ixt	-7403
vib	-7404
ype	-7405
▁3,	-7406
▁3.	-7407
▁xt	-7408
ibel	-7409
ibil	-7410
ixte	-7411
lete	-7412
nwer	-7413
ooey	-7414
ssum	-7415
▁3,8	-7416
▁3.0	-7417
▁AID	-7418
▁Ate	-7419
▁USD	-7420
▁axi	-7421
▁bib	-7422
▁twe	-7423
anced	-7424
iseas	-7425
plays	-7426
raise	-7427
reads	-7428
▁1000	-7429
▁AIDS	-7430
▁Iced	-7431
▁Ribs	-7432
▁Type	-7433
▁buck	-7434
▁edge	-7435
▁iced	-7436
▁kiss	-7437
▁tril	-7438
▁vise	-7439
▁xtra	-7440
iblity	-7441
ixteen	-7442
▁3,800	-7443
▁Assum	-7444
▁Libel	-7445
▁answe	-7446
▁curly	-7447
▁gooey	-7448
▁image	-7449
▁karma	-7450
▁noise	-7451
▁relax	-7452
▁toolb	-7453
▁twele	-7454
Youtube	-7455
iseases	-7456
italism	-7457
vibrate	-7458
▁Others	-7459
▁Reddit	-7460
▁SCHOOL	-7461
▁Tengen	-7462
▁asnwer	-7463
▁assort	-7464
▁delete	-7465
▁giants	-7466
▁kissed	-7467
▁merger	-7468
▁noisey	-7469
▁preced	-7470
▁ruiner	-7471
▁screen	-7472
▁serval	-7473
▁trilog	-7474
▁workpl	-7475
balanced	-7476
▁Realist	-7477
▁Setting	-7478
▁Sixteen	-7479
▁Slander	-7480
▁Stanley	-7481
▁Takings	-7482
▁Teavana	-7483
▁Temengg	-7484
▁Thanksg	-7485
▁Twitter	-7486
▁UNIFORM	-7487
▁Vietnam	-7488
▁abusive	-7489
▁accused	-7490
▁adopter	-7491
▁adverse	-7492
▁afterno	-7493
▁algorit	-7494
▁alright	-7495
▁andused	-7496
▁appease	-7497
▁applies	-7498
▁article	-7499
ford	-7500
gets	-7501
ords	-7502
sked	-7503
▁evo	-7504
▁six	-7505
Gener	-7506
athom	-7507
bandw	-7508
eches	-7509
herer	-7510
issol	-7511
party	-7512
ucked	-7513
viets	-7514
words	-7515
▁Fits	-7516
▁Gord	-7517
▁Note	-7518
▁cute	-7519
▁eats	-7520
▁empt	-7521
▁evry	-7522
▁fits	-7523
▁path	-7524
adgets	-7525
amford	-7526
ecific	-7527
herers	-7528
▁Andre	-7529
▁brute	-7530
▁calls	-7531
▁coach	-7532
▁colon	-7533
▁illus	-7534
▁indic	-7535
▁match	-7536
▁revel	-7537
▁semes	-7538
▁vener	-7539
bandwag	-7540
ublican	-7541
▁Andrew	-7542
▁Dissol	-7543
▁Gordon	-7544
▁adhere	-7545
▁argued	-7546
▁crimeb	-7547
▁edible	-7548
▁evokes	-7549
▁marath	-7550
▁minute	-7551
▁points	-7552
▁repost	-7553
▁salmon	-7554
▁sauces	-7555
▁talent	-7556
▁wished	-7557
atherers	-7558
eservoir	-7559
ordinate	-7560
specific	-7561
▁Chicken	-7562
▁Soviets	-7563
▁ashamed	-7564
▁augment	-7565
▁avaible	-7566
▁avocado	-7567
▁barrist	-7568
▁birthed	-7569
▁blaring	-7570
▁breadth	-7571
▁bullets	-7572
▁bussing	-7573
▁cartoon	-7574
▁channel	-7575
▁charity	-7576
▁checked	-7577
▁chronic	-7578
▁cinemat	-7579
▁cleaner	-7580
▁clothed	-7581
▁combine	-7582
▁combust	-7583
▁complex	-7584
▁concert	-7585
▁context	-7586
▁council	-7587
▁couples	-7588
▁craving	-7589
▁creates	-7590
▁customs	-7591
▁cutting	-7592
▁darkest	-7593
▁debateI	-7594
▁decency	-7595
▁deposit	-7596
▁designs	-7597
▁desired	-7598
▁desires	-7599
-20'	-7600
aval	-7601
chae	-7602
lors	-7603
robe	-7604
save	-7605
▁Jun	-7606
▁MIR	-7607
▁jaw	-7608
conon	-7609
iches	-7610
petty	-7611
▁Jade	-7612
▁Jews	-7613
▁June	-7614
▁MIRI	-7615
▁addu	-7616
▁cave	-7617
▁extr	-7618
▁rais	-7619
▁rave	-7620
▁sche	-7621
▁scoo	-7622
▁scri	-7623
▁scru	-7624
▁slaw	-7625
▁wave	-7626
Lastly	-7627
bility	-7628
eached	-7629
heaval	-7630
thouse	-7631
▁amend	-7632
▁blast	-7633
▁comeb	-7634
▁funct	-7635
▁mouse	-7636
▁scary	-7637
▁schem	-7638
▁scoop	-7639
▁scrub	-7640
▁swoon	-7641
Gravity	-7642
arconon	-7643
ardrobe	-7644
arently	-7645
gements	-7646
hically	-7647
igating	-7648
versary	-7649
▁addull	-7650
▁amends	-7651
▁archae	-7652
▁caveat	-7653
▁deeply	-7654
▁dishes	-7655
▁disper	-7656
▁extras	-7657
▁gained	-7658
▁raises	-7659
▁refute	-7660
▁script	-7661
▁scrubb	-7662
▁specim	-7663
▁thrown	-7664
▁unfail	-7665
achelors	-7666
although	-7667
ishments	-7668
orically	-7669
▁Certain	-7670
▁Despite	-7671
▁chances	-7672
▁devoted	-7673
▁diarrhe	-7674
▁dipping	-7675
▁disastr	-7676
▁dislike	-7677
▁disrupt	-7678
▁dissent	-7679
▁distort	-7680
▁doctors	-7681
▁dreamed	-7682
▁dresses	-7683
▁earthly	-7684
▁educate	-7685
▁elegant	-7686
▁emotion	-7687
▁empathe	-7688
▁empires	-7689
▁employs	-7690
▁endings	-7691
▁endless	-7692
▁engaged	-7693
▁episode	-7694
▁equates	-7695
▁evryone	-7696
▁existed	-7697
▁expired	-7698
▁explode	-7699
pla	-7700
rgu	-7701
Argu	-7702
arne	-7703
butt	-7704
ledg	-7705
ocks	-7706
oliz	-7707
▁12-	-7708
▁gem	-7709
ashed	-7710
feats	-7711
guard	-7712
ighed	-7713
oopla	-7714
swers	-7715
▁Alas	-7716
▁Alum	-7717
▁Love	-7718
▁MMOR	-7719
▁WWII	-7720
▁guar	-7721
▁infl	-7722
▁kidd	-7723
▁mins	-7724
▁obed	-7725
▁whip	-7726
buttal	-7727
ivorce	-7728
months	-7729
ricing	-7730
▁Carne	-7731
▁badge	-7732
▁deser	-7733
▁desir	-7734
▁finds	-7735
▁lofty	-7736
▁marks	-7737
▁painf	-7738
▁saves	-7739
▁scold	-7740
▁seeks	-7741
▁socks	-7742
Arguing	-7743
answers	-7744
perfect	-7745
risdict	-7746
▁Alumni	-7747
▁brings	-7748
▁clocks	-7749
▁depart	-7750
▁desire	-7751
▁hoopla	-7752
▁ideals	-7753
▁idoliz	-7754
▁kiddos	-7755
▁lovely	-7756
▁mashed	-7757
▁reflex	-7758
▁saving	-7759
guardian	-7760
ledgable	-7761
manently	-7762
olerance	-7763
▁Divorce	-7764
▁MMORPGs	-7765
▁Pricing	-7766
▁Rolling	-7767
▁defeats	-7768
▁enlight	-7769
▁exposed	-7770
▁fastest	-7771
▁fiddles	-7772
▁figured	-7773
▁firearm	-7774
▁flashes	-7775
▁fluency	-7776
▁fortune	-7777
▁fratern	-7778
▁frisked	-7779
▁fulfils	-7780
▁gadgets	-7781
▁gasping	-7782
▁generic	-7783
▁geograp	-7784
▁grabbed	-7785
▁grandma	-7786
▁guarant	-7787
▁guilted	-7788
▁handled	-7789
▁happier	-7790
▁harrass	-7791
▁holdind	-7792
▁homeown	-7793
▁hybrids	-7794
▁ideally	-7795
▁implies	-7796
▁infidel	-7797
▁inflate	-7798
▁inhuman	-7799
hob	-7800
lux	-7801
tog	-7802
ianc	-7803
iane	-7804
lift	-7805
luxe	-7806
ocol	-7807
▁21.	-7808
▁Agn	-7809
▁awe	-7810
After	-7811
These	-7812
fying	-7813
garit	-7814
hobia	-7815
medit	-7816
toget	-7817
▁chee	-7818
▁chef	-7819
▁elig	-7820
▁gown	-7821
▁save	-7822
▁tips	-7823
foetus	-7824
lifted	-7825
mining	-7826
minist	-7827
▁Diane	-7828
▁accid	-7829
▁accus	-7830
▁alert	-7831
▁bouts	-7832
▁cheek	-7833
▁cheif	-7834
▁clown	-7835
▁drain	-7836
▁fianc	-7837
▁liked	-7838
▁picks	-7839
▁saved	-7840
▁sorts	-7841
▁theft	-7842
▁waits	-7843
Already	-7844
Ordered	-7845
garitas	-7846
iltered	-7847
ocolate	-7848
ophobia	-7849
ributed	-7850
rifying	-7851
▁Agnost	-7852
▁Butter	-7853
▁Minion	-7854
▁alerts	-7855
▁append	-7856
▁awhile	-7857
▁basing	-7858
▁deluxe	-7859
▁incite	-7860
▁incons	-7861
▁slowly	-7862
together	-7863
▁Butterb	-7864
▁donates	-7865
▁equally	-7866
▁intimid	-7867
▁intrins	-7868
▁islands	-7869
▁italian	-7870
▁jackpot	-7871
▁ketchup	-7872
▁laptops	-7873
▁largely	-7874
▁letters	-7875
▁lightly	-7876
▁limited	-7877
▁livable	-7878
▁lowered	-7879
▁mainten	-7880
▁managed	-7881
▁mandort	-7882
▁maximum	-7883
▁measure	-7884
▁mergers	-7885
▁message	-7886
▁monster	-7887
▁mumbles	-7888
▁needier	-7889
▁network	-7890
▁nobodys	-7891
▁notmove	-7892
▁nuerons	-7893
▁offends	-7894
▁offense	-7895
▁oneself	-7896
▁outsour	-7897
▁package	-7898
▁painful	-7899
gia	-7900
oia	-7901
▁2)	-7902
▁2,	-7903
▁2-	-7904
▁2/	-7905
▁21	-7906
TTER	-7907
cail	-7908
corn	-7909
porn	-7910
urns	-7911
vola	-7912
▁180	-7913
▁2,5	-7914
▁2/3	-7915
▁Fij	-7916
▁GOP	-7917
▁dia	-7918
▁via	-7919
ETTER	-7920
algia	-7921
asual	-7922
bents	-7923
berry	-7924
ilber	-7925
namic	-7926
orial	-7927
rikes	-7928
uents	-7929
ungle	-7930
utual	-7931
▁Fiji	-7932
▁chug	-7933
▁rail	-7934
ailing	-7935
berrys	-7936
cailly	-7937
casual	-7938
corned	-7939
ilbert	-7940
ophile	-7941
ynamic	-7942
▁2,500	-7943
▁badly	-7944
▁burns	-7945
▁defam	-7946
▁harms	-7947
▁revol	-7948
abiding	-7949
becouse	-7950
ifiable	-7951
ressing	-7952
stalgia	-7953
vailing	-7954
▁BETTER	-7955
▁RIGHTS	-7956
▁backgr	-7957
▁doctor	-7958
▁handle	-7959
▁jungle	-7960
▁mundan	-7961
▁mutual	-7962
▁pediat	-7963
▁railro	-7964
▁spaces	-7965
cumbents	-7966
izations	-7967
vernment	-7968
▁Gilbert	-7969
▁calorie	-7970
▁diavola	-7971
▁dynamic	-7972
▁meeting	-7973
▁mundane	-7974
▁objects	-7975
▁paralle	-7976
▁percept	-7977
▁phoenix	-7978
▁physics	-7979
▁politic	-7980
▁popping	-7981
▁posting	-7982
▁praises	-7983
▁prestig	-7984
▁probaly	-7985
▁promise	-7986
▁promiss	-7987
▁propert	-7988
▁prostit	-7989
▁quietly	-7990
▁rapists	-7991
▁readily	-7992
▁rearran	-7993
▁recentl	-7994
▁reduces	-7995
▁reenter	-7996
▁refusal	-7997
▁refused	-7998
▁refuses	-7999
"...	-8000
..."	-8001
oyed	-8002
▁Boy	-8003
▁Doy	-8004
..."*	-8005
ancel	-8006
asary	-8007
ittat	-8008
lands	-8009
while	-8010
yling	-8011
▁Boyz	-8012
▁atte	-8013
▁soak	-8014
assary	-8015
aulter	-8016
dition	-8017
idance	-8018
itance	-8019
ittata	-8020
liance	-8021
stance	-8022
uition	-8023
wesome	-8024
▁*"...	-8025
▁Doyle	-8026
▁imply	-8027
▁impul	-8028
▁itson	-8029
▁payer	-8030
▁recon	-8031
▁shitt	-8032
foolish	-8033
mentary	-8034
▁Cancel	-8035
▁Youtub	-8036
▁atteme	-8037
▁corpor	-8038
▁credit	-8039
▁espeac	-8040
▁implic	-8041
▁recess	-8042
▁reconf	-8043
▁shifts	-8044
▁worlds	-8045
atastrop	-8046
ecassary	-8047
essasary	-8048
existing	-8049
▁Awesome	-8050
▁annoyed	-8051
▁intoler	-8052
▁itsonly	-8053
▁perfrom	-8054
▁recreat	-8055
▁reinfor	-8056
▁remarks	-8057
▁remorse	-8058
▁replace	-8059
▁resolve	-8060
▁resorts	-8061
▁robbery	-8062
▁savings	-8063
▁scenari	-8064
▁seafood	-8065
▁sensory	-8066
▁settled	-8067
▁shunned	-8068
▁signing	-8069
▁skeptic	-8070
▁skipped	-8071
▁smarter	-8072
▁smoking	-8073
▁sniffer	-8074
▁sorting	-8075
▁speaker	-8076
▁spinoff	-8077
▁sprouts	-8078
▁spurred	-8079
▁stipped	-8080
▁storage	-8081
▁strateg	-8082
▁strikes	-8083
▁styling	-8084
▁sublime	-8085
▁succeed	-8086
▁surpass	-8087
▁swapped	-8088
▁symbols	-8089
▁tablets	-8090
▁tangled	-8091
▁tasting	-8092
▁tattoos	-8093
▁teached	-8094
▁teaches	-8095
▁tending	-8096
▁terrace	-8097
▁testing	-8098
▁themIts	-8099
uba	-8100
▁DD	-8101
▁LB	-8102
lume	-8103
mals	-8104
ruel	-8105
rule	-8106
vals	-8107
▁50'	-8108
▁CON	-8109
▁DDR	-8110
▁Due	-8111
▁LBG	-8112
▁dub	-8113
alsas	-8114
ensus	-8115
mmals	-8116
rence	-8117
rench	-8118
stick	-8119
umber	-8120
▁Cuba	-8121
▁Hamm	-8122
▁LBGT	-8123
▁Land	-8124
▁Less	-8125
▁Lies	-8126
▁deck	-8127
▁gang	-8128
▁legs	-8129
▁stub	-8130
actals	-8131
ension	-8132
inical	-8133
number	-8134
ruelty	-8135
sticks	-8136
uspect	-8137
▁Eater	-8138
▁decre	-8139
▁genes	-8140
▁hurts	-8141
▁opens	-8142
▁print	-8143
▁rates	-8144
▁recei	-8145
ostable	-8146
suspect	-8147
▁French	-8148
▁consol	-8149
▁drives	-8150
▁monies	-8151
▁polite	-8152
▁pricey	-8153
▁relief	-8154
▁rivals	-8155
▁salsas	-8156
Nintendo	-8157
▁Arabian	-8158
▁Hammond	-8159
▁classic	-8160
▁cruelty	-8161
▁despise	-8162
▁distric	-8163
▁dubious	-8164
▁gristle	-8165
▁humbleb	-8166
▁mammals	-8167
▁members	-8168
▁receipt	-8169
▁remains	-8170
▁schoolg	-8171
▁shelter	-8172
▁tension	-8173
▁thereby	-8174
▁threads	-8175
▁tooltip	-8176
▁topping	-8177
▁touched	-8178
▁touchst	-8179
▁traders	-8180
▁transpl	-8181
▁trigger	-8182
▁trilogy	-8183
▁tweleve	-8184
▁twisted	-8185
▁unaware	-8186
▁uncared	-8187
▁unclear	-8188
▁unheard	-8189
▁unpetty	-8190
▁updated	-8191
▁venture	-8192
▁verdict	-8193
▁viewers	-8194
▁visions	-8195
▁wealthy	-8196
▁weapons	-8197
▁weighed	-8198
▁whining	-8199
Cue	-8200
ucy	-8201
lsea	-8202
oyot	-8203
sory	-8204
wire	-8205
▁Gon	-8206
▁Gur	-8207
▁Und	-8208
▁Upt	-8209
▁nuc	-8210
almon	-8211
dated	-8212
early	-8213
eated	-8214
irely	-8215
never	-8216
nless	-8217
oyota	-8218
venue	-8219
▁Cath	-8220
▁Game	-8221
▁Lucy	-8222
▁Park	-8223
▁bits	-8224
▁infr	-8225
▁piec	-8226
▁surf	-8227
▁undo	-8228
▁wire	-8229
School	-8230
Unless	-8231
actory	-8232
alousy	-8233
earing	-8234
itting	-8235
mewire	-8236
onated	-8237
soever	-8238
ulsory	-8239
victim	-8240
▁Under	-8241
▁bedro	-8242
▁blame	-8243
▁monop	-8244
▁nutri	-8245
▁overt	-8246
▁resul	-8247
▁turns	-8248
▁voice	-8249
bonated	-8250
discuss	-8251
ealousy	-8252
eatedly	-8253
lefield	-8254
witched	-8255
▁Avenue	-8256
▁Cathol	-8257
▁Gurren	-8258
▁Salmon	-8259
▁Toyota	-8260
▁Uptown	-8261
▁overha	-8262
▁pieces	-8263
▁resent	-8264
▁resist	-8265
▁resort	-8266
▁stated	-8267
▁unborn	-8268
▁underm	-8269
entirely	-8270
llengers	-8271
▁Chelsea	-8272
▁Factory	-8273
▁Hearing	-8274
▁Hitting	-8275
▁Journal	-8276
▁Matthew	-8277
▁airflow	-8278
▁bedrock	-8279
▁infrast	-8280
▁licence	-8281
▁mileage	-8282
▁nowhere	-8283
▁nuclear	-8284
▁reduced	-8285
▁winners	-8286
▁worried	-8287
Beverages	-8288
Democrats	-8289
Generally	-8290
actresses	-8291
advancing	-8292
amination	-8293
ansiapted	-8294
apitalism	-8295
arguments	-8296
ashington	-8297
askhistor	-8298
astration	-8299
rym	-8300
ryo	-8301
agan	-8302
bryo	-8303
cont	-8304
etry	-8305
mass	-8306
▁1/4	-8307
▁Dec	-8308
▁Sub	-8309
▁dry	-8310
▁fag	-8311
Lagan	-8312
ancip	-8313
bians	-8314
errym	-8315
handy	-8316
imple	-8317
lasty	-8318
▁1/4)	-8319
▁Lawy	-8320
▁Were	-8321
▁bite	-8322
▁damn	-8323
▁gass	-8324
▁hers	-8325
▁lids	-8326
▁pole	-8327
▁poly	-8328
▁quit	-8329
▁saus	-8330
▁sibl	-8331
Lagann	-8332
embryo	-8333
▁Decad	-8334
▁herit	-8335
▁stage	-8336
content	-8337
esbians	-8338
istance	-8339
oplasty	-8340
vention	-8341
▁Issues	-8342
▁Plameg	-8343
▁Subway	-8344
▁gassed	-8345
▁gerrym	-8346
▁manage	-8347
▁poetry	-8348
▁polyam	-8349
▁sociop	-8350
distance	-8351
▁Decades	-8352
▁Lawyers	-8353
▁Serbian	-8354
▁altered	-8355
▁blowing	-8356
▁emancip	-8357
▁herself	-8358
▁mussels	-8359
▁sausage	-8360
▁section	-8361
automatic	-8362
awareness	-8363
bandwagon	-8364
cientific	-8365
cientists	-8366
elligence	-8367
emocratic	-8368
estinians	-8369
hopefully	-8370
iminishes	-8371
implement	-8372
including	-8373
infectant	-8374
inflation	-8375
inoplasty	-8376
intensive	-8377
interpret	-8378
itigating	-8379
lammatory	-8380
michangas	-8381
nikawater	-8382
omachover	-8383
onsiblity	-8384
onsmokers	-8385
operation	-8386
permanent	-8387
prisingly	-8388
ributable	-8389
ributions	-8390
sociation	-8391
something	-8392
sometimes	-8393
suspected	-8394
tolerance	-8395
voluntary	-8396
warranted	-8397
▁Abortion	-8398
▁Algorith	-8399
eep	-8400
▁..	-8401
▁13	-8402
9.50	-8403
Keep	-8404
Next	-8405
View	-8406
eple	-8407
gles	-8408
keep	-8409
uine	-8410
▁PoA	-8411
▁rox	-8412
(9.50	-8413
amine	-8414
asure	-8415
ighth	-8416
igure	-8417
inile	-8418
izers	-8419
those	-8420
▁Cool	-8421
▁cite	-8422
▁cure	-8423
▁disd	-8424
▁disk	-8425
▁jure	-8426
▁mank	-8427
▁mann	-8428
▁pose	-8429
▁redo	-8430
▁shoc	-8431
▁wine	-8432
ilient	-8433
▁Expun	-8434
▁broth	-8435
▁clapp	-8436
▁eight	-8437
▁fewer	-8438
▁roxas	-8439
▁spark	-8440
▁wring	-8441
Keeping	-8442
Viewers	-8443
herself	-8444
ighting	-8445
inguine	-8446
▁Eighth	-8447
▁Poeple	-8448
▁angles	-8449
▁expose	-8450
▁steams	-8451
▁upkeep	-8452
▁waters	-8453
ationale	-8454
▁CLEARLY	-8455
▁Expunge	-8456
▁contend	-8457
▁contest	-8458
▁disdain	-8459
▁examine	-8460
▁mankind	-8461
▁manners	-8462
▁ourself	-8463
▁removes	-8464
▁replied	-8465
▁shocked	-8466
▁subsequ	-8467
▁weakens	-8468
rationale	-8469
▁Assuming	-8470
▁Attorney	-8471
▁Catholic	-8472
▁Commerce	-8473
▁Complain	-8474
▁Contrary	-8475
▁Cranston	-8476
▁Croatian	-8477
▁EUTHANAS	-8478
▁EVERYBOD	-8479
▁Engineer	-8480
▁European	-8481
▁Filtered	-8482
▁Gamecube	-8483
▁Homeland	-8484
▁Horrible	-8485
▁Ignorant	-8486
▁Lobbying	-8487
▁MIchigan	-8488
▁Mountain	-8489
▁Mushroom	-8490
▁Nintendo	-8491
▁Ofcourse	-8492
▁Pilgrims	-8493
▁Powermat	-8494
▁Recently	-8495
▁Religion	-8496
▁Sarassal	-8497
▁Stamford	-8498
▁Swelling	-8499
abe	-8500
kew	-8501
lab	-8502
msy	-8503
rab	-8504
▁51	-8505
▁Sc	-8506
Comp	-8507
ardy	-8508
crab	-8509
idea	-8510
irty	-8511
ukew	-8512
vide	-8513
▁arc	-8514
▁tid	-8515
Somet	-8516
abhat	-8517
ardly	-8518
becca	-8519
glect	-8520
idely	-8521
ivest	-8522
limsy	-8523
preme	-8524
sured	-8525
▁Babe	-8526
▁STUD	-8527
▁arms	-8528
▁chip	-8529
▁doom	-8530
▁elab	-8531
▁grab	-8532
▁grap	-8533
▁hell	-8534
▁mild	-8535
▁pard	-8536
▁stab	-8537
▁tidy	-8538
abhatt	-8539
inally	-8540
ivestr	-8541
othold	-8542
sually	-8543
▁STUDY	-8544
▁blown	-8545
▁bothe	-8546
▁chime	-8547
▁dirty	-8548
▁graph	-8549
▁impec	-8550
▁lukew	-8551
▁spicy	-8552
▁sting	-8553
Finally	-8554
abhatta	-8555
eopardy	-8556
glected	-8557
orities	-8558
ructure	-8559
supreme	-8560
▁Hardly	-8561
▁Korean	-8562
▁Ramsay	-8563
▁Reason	-8564
▁chipot	-8565
▁cigare	-8566
▁commod	-8567
▁consul	-8568
▁convey	-8569
▁flimsy	-8570
▁impecc	-8571
▁mildly	-8572
▁pardon	-8573
▁stingy	-8574
▁widely	-8575
building	-8576
encement	-8577
yabhatta	-8578
▁Enforce	-8579
▁Livestr	-8580
▁Provide	-8581
▁Rebecca	-8582
▁Usually	-8583
▁battles	-8584
▁cigaret	-8585
▁counsel	-8586
▁insured	-8587
▁opposes	-8588
▁partial	-8589
Something	-8590
cological	-8591
ororities	-8592
▁Vaccines	-8593
▁Versaill	-8594
▁Whatsapp	-8595
▁abetting	-8596
▁accompal	-8597
▁achieved	-8598
▁administ	-8599
-15	-8600
des	-8601
hoo	-8602
row	-8603
▁8-	-8604
▁RA	-8605
▁ug	-8606
-15'	-8607
acle	-8608
ahoo	-8609
onse	-8610
▁Chi	-8611
▁Pan	-8612
▁RAM	-8613
▁Say	-8614
▁pac	-8615
▁poo	-8616
▁wow	-8617
asted	-8618
mates	-8619
▁Crow	-8620
▁arro	-8621
▁bagg	-8622
▁clos	-8623
▁deme	-8624
▁lets	-8625
▁ugly	-8626
ansion	-8627
around	-8628
ghtful	-8629
iracle	-8630
vering	-8631
▁Burit	-8632
▁Darth	-8633
▁Mathe	-8634
▁Yahoo	-8635
▁denot	-8636
▁forth	-8637
▁pooch	-8638
▁relie	-8639
▁seven	-8640
▁thesc	-8641
instead	-8642
tential	-8643
▁Burito	-8644
▁Saying	-8645
▁bailed	-8646
▁demean	-8647
▁indoct	-8648
▁locals	-8649
▁notion	-8650
▁pacify	-8651
▁shades	-8652
ouvering	-8653
▁Croatia	-8654
▁amongst	-8655
▁approve	-8656
▁baggage	-8657
▁closest	-8658
▁denotes	-8659
▁miracle	-8660
▁thescre	-8661
▁toasted	-8662
▁adopters	-8663
▁advertis	-8664
▁affinity	-8665
▁agreeing	-8666
▁alcohlic	-8667
▁ambiance	-8668
▁analyzed	-8669
▁applying	-8670
▁arrogant	-8671
▁artistic	-8672
▁assemble	-8673
▁assigned	-8674
▁attempts	-8675
▁attended	-8676
▁attitude	-8677
▁avoiding	-8678
▁awaiting	-8679
▁bathroom	-8680
▁behaving	-8681
▁belonged	-8682
▁beverage	-8683
▁biblical	-8684
▁birthday	-8685
▁blocking	-8686
▁borrower	-8687
▁bothered	-8688
▁bouncing	-8689
▁bracelet	-8690
▁brighter	-8691
▁catering	-8692
▁ceremony	-8693
▁checking	-8694
▁cheerful	-8695
▁childish	-8696
▁clapping	-8697
▁clearing	-8698
▁climates	-8699
:'	-8700
uk	-8701
ahn	-8702
ems	-8703
eta	-8704
hom	-8705
jas	-8706
oes	-8707
ora	-8708
pic	-8709
uts	-8710
via	-8711
wls	-8712
yss	-8713
▁75	-8714
▁80	-8715
▁Up	-8716
...)	-8717
Both	-8718
ejas	-8719
hion	-8720
omas	-8721
utal	-8722
▁Bad	-8723
▁Jed	-8724
▁Muk	-8725
▁Tea	-8726
Tejas	-8727
anuts	-8728
arsha	-8729
contr	-8730
homos	-8731
obahn	-8732
▁Jedi	-8733
▁Odin	-8734
▁bash	-8735
▁bere	-8736
▁epic	-8737
▁okay	-8738
▁owls	-8739
▁reve	-8740
▁skip	-8741
▁sung	-8742
▁whan	-8743
Speech	-8744
andora	-8745
arshal	-8746
ffered	-8747
oulder	-8748
▁Citiz	-8749
▁Legal	-8750
▁abyss	-8751
▁hourg	-8752
▁items	-8753
▁shoes	-8754
▁steam	-8755
utobahn	-8756
▁Mukher	-8757
▁Thomas	-8758
▁affili	-8759
▁brutal	-8760
▁colore	-8761
▁hourgl	-8762
▁refres	-8763
▁shaped	-8764
▁temple	-8765
▁totals	-8766
▁whants	-8767
Shopping	-8768
contrary	-8769
hionable	-8770
▁Boulder	-8771
▁Citizen	-8772
▁Marshal	-8773
▁Mukherj	-8774
▁Pandora	-8775
▁barrels	-8776
▁caloric	-8777
▁colored	-8778
▁garbage	-8779
▁hygiene	-8780
▁peanuts	-8781
▁scoring	-8782
▁Autobahn	-8783
▁bearable	-8784
▁clinical	-8785
▁clothing	-8786
▁colleges	-8787
▁colonies	-8788
▁combined	-8789
▁commuter	-8790
▁competed	-8791
▁concepts	-8792
▁consents	-8793
▁consoles	-8794
▁consumes	-8795
▁contrace	-8796
▁courtesy	-8797
▁cracking	-8798
▁creating	-8799
''	-8800
??	-8801
Mo	-8802
TS	-8803
.'-	-8804
00.	-8805
Get	-8806
sex	-8807
▁??	-8808
▁DH	-8809
100.	-8810
ayed	-8811
cous	-8812
enly	-8813
hear	-8814
imed	-8815
inch	-8816
itly	-8817
llen	-8818
otic	-8819
runt	-8820
▁DHS	-8821
▁RTS	-8822
▁Sin	-8823
Moder	-8824
achio	-8825
grunt	-8826
▁Sinn	-8827
▁THEM	-8828
▁cort	-8829
▁daft	-8830
▁lear	-8831
▁shri	-8832
▁thri	-8833
▁wood	-8834
haring	-8835
llenge	-8836
played	-8837
rained	-8838
▁GOOOO	-8839
▁aimed	-8840
▁dress	-8841
▁lying	-8842
▁seats	-8843
comfort	-8844
iscated	-8845
obvious	-8846
ouscous	-8847
▁HomeNo	-8848
▁biased	-8849
▁broker	-8850
▁builds	-8851
▁cortex	-8852
▁exotic	-8853
▁extort	-8854
▁learnt	-8855
▁measly	-8856
▁messed	-8857
▁refers	-8858
▁shrimp	-8859
▁shrink	-8860
▁thrill	-8861
▁wooden	-8862
istachio	-8863
standard	-8864
▁Beatles	-8865
▁Finance	-8866
▁belongs	-8867
▁caliber	-8868
▁riskier	-8869
▁sharing	-8870
Moderates	-8871
▁couscous	-8872
▁credible	-8873
▁crimebod	-8874
▁critical	-8875
▁crossing	-8876
▁cyclical	-8877
▁deafness	-8878
▁declines	-8879
▁decrease	-8880
▁dedicate	-8881
▁deifying	-8882
▁delirium	-8883
▁delusion	-8884
▁demeanor	-8885
▁demonize	-8886
▁deserved	-8887
▁dialysis	-8888
▁diarrhea	-8889
▁diferent	-8890
▁differnt	-8891
▁discover	-8892
▁diseases	-8893
▁disperse	-8894
▁disputes	-8895
▁divisive	-8896
▁dogmatic	-8897
▁dragging	-8898
▁eighties	-8899
UK	-8900
nk	-8901
.--	-8902
200	-8903
Mac	-8904
alu	-8905
mie	-8906
mom	-8907
▁Ph	-8908
▁gp	-8909
alot	-8910
chat	-8911
joke	-8912
ldom	-8913
lyss	-8914
onic	-8915
onna	-8916
uper	-8917
urge	-8918
▁16.	-8919
▁Ang	-8920
▁Dis	-8921
▁PhD	-8922
▁Tal	-8923
▁ast	-8924
▁ban	-8925
▁gal	-8926
▁hun	-8927
2005)	-8928
aning	-8929
chata	-8930
emant	-8931
lyssa	-8932
miere	-8933
▁Talk	-8934
▁husk	-8935
▁isnt	-8936
▁obsc	-8937
▁spot	-8938
▁sunk	-8939
▁tree	-8940
▁zero	-8941
aluate	-8942
eaning	-8943
▁2018,	-8944
▁Angus	-8945
▁Disag	-8946
▁Nomin	-8947
▁Spend	-8948
▁Super	-8949
▁gonna	-8950
▁reput	-8951
▁snack	-8952
▁yours	-8953
Meaning	-8954
emantic	-8955
estures	-8956
oodline	-8957
▁(2005)	-8958
▁Alyssa	-8959
▁Sports	-8960
▁astron	-8961
▁cleanl	-8962
▁divide	-8963
▁height	-8964
▁ironic	-8965
▁malice	-8966
▁salary	-8967
▁seldom	-8968
▁smoked	-8969
▁themes	-8970
Gestures	-8971
learning	-8972
▁Schools	-8973
▁assumpt	-8974
▁notices	-8975
▁obscure	-8976
▁splurge	-8977
▁walking	-8978
isputable	-8979
▁Disagree	-8980
▁Horchata	-8981
▁Semantic	-8982
▁caffeine	-8983
▁deprived	-8984
▁drowning	-8985
▁election	-8986
▁embarass	-8987
▁emotions	-8988
▁encoding	-8989
▁enforced	-8990
▁enjoying	-8991
▁enrolled	-8992
▁entering	-8993
▁enviable	-8994
▁episodic	-8995
▁espeacil	-8996
▁evaluate	-8997
▁exchange	-8998
▁excluded	-8999
300	-9000
ban	-9001
dig	-9002
nou	-9003
yed	-9004
yst	-9005
▁ak	-9006
▁na	-9007
▁vi	-9008
▁yo	-9009
CKEN	-9010
apen	-9011
reed	-9012
▁121	-9013
▁COM	-9014
▁Isn	-9015
▁Met	-9016
▁aka	-9017
▁led	-9018
ICKEN	-9019
digit	-9020
ouses	-9021
▁COMP	-9022
▁Ment	-9023
▁TYPE	-9024
▁arts	-9025
▁curb	-9026
▁gate	-9027
▁hood	-9028
▁imit	-9029
▁join	-9030
▁oyst	-9031
▁tech	-9032
HICKEN	-9033
alapen	-9034
hanist	-9035
nouris	-9036
oustic	-9037
▁60-70	-9038
▁arran	-9039
▁famed	-9040
▁naive	-9041
▁potty	-9042
▁stall	-9043
▁tires	-9044
▁urban	-9045
▁wound	-9046
esecake	-9047
ghanist	-9048
▁Houses	-9049
▁Mental	-9050
▁agreed	-9051
▁hoodie	-9052
▁nerves	-9053
▁pagers	-9054
▁preyed	-9055
▁selfes	-9056
▁stalls	-9057
▁unfair	-9058
▁viable	-9059
Congress	-9060
alapenos	-9061
aternity	-9062
fghanist	-9063
▁CHICKEN	-9064
▁childre	-9065
▁oysters	-9066
▁singing	-9067
▁theatre	-9068
nourished	-9069
▁Narconon	-9070
▁acoustic	-9071
▁bulldogs	-9072
▁childrem	-9073
▁disaster	-9074
▁executes	-9075
▁existing	-9076
▁explorer	-9077
▁fallible	-9078
▁families	-9079
▁fiddling	-9080
▁findings	-9081
▁footings	-9082
▁fraction	-9083
▁frequent	-9084
▁frittata	-9085
▁grandeur	-9086
▁graphics	-9087
▁grateful	-9088
▁grinding	-9089
▁happiest	-9090
▁hardship	-9091
▁heritage	-9092
▁hesitate	-9093
▁holdinds	-9094
▁homeless	-9095
▁humblebr	-9096
▁hypocrit	-9097
▁imperson	-9098
▁implying	-9099
AT	-9100
BI	-9101
ACK	-9102
eng	-9103
hit	-9104
irl	-9105
itc	-9106
lla	-9107
lld	-9108
vit	-9109
▁35	-9110
Most	-9111
Take	-9112
That	-9113
chie	-9114
fein	-9115
ites	-9116
leng	-9117
main	-9118
mall	-9119
olle	-9120
when	-9121
▁EAT	-9122
▁FBI	-9123
▁ben	-9124
▁wen	-9125
afein	-9126
colle	-9127
domen	-9128
lousy	-9129
manga	-9130
oulld	-9131
rella	-9132
saves	-9133
▁BACK	-9134
▁Okay	-9135
▁blue	-9136
▁chin	-9137
▁kitc	-9138
▁oral	-9139
▁pris	-9140
▁prob	-9141
▁seal	-9142
▁sits	-9143
having	-9144
length	-9145
llshit	-9146
▁Achie	-9147
▁Small	-9148
▁ashes	-9149
▁benif	-9150
▁facto	-9151
▁hping	-9152
▁inequ	-9153
▁inher	-9154
▁nicer	-9155
▁score	-9156
▁teams	-9157
▁unple	-9158
alestin	-9159
college	-9160
correct	-9161
ridging	-9162
vitable	-9163
▁Claims	-9164
▁Kafein	-9165
▁felons	-9166
▁itwhen	-9167
▁morsel	-9168
▁woulld	-9169
Palestin	-9170
▁Hawking	-9171
▁Weather	-9172
▁abdomen	-9173
▁benifit	-9174
▁diploma	-9175
▁incites	-9176
▁inequal	-9177
▁kitchen	-9178
▁prisons	-9179
▁unpleas	-9180
▁bullshit	-9181
▁impulses	-9182
▁incentiv	-9183
▁inclined	-9184
▁incompat	-9185
▁incurred	-9186
▁infringe	-9187
▁inhumane	-9188
▁injuries	-9189
▁inserted	-9190
▁inspires	-9191
▁instills	-9192
▁integral	-9193
▁intestin	-9194
▁intimate	-9195
▁invading	-9196
▁invented	-9197
▁involves	-9198
▁lesbians	-9199
):	-9200
35	-9201
LF	-9202
sh	-9203
ELF	-9204
ido	-9205
oro	-9206
owl	-9207
▁JF	-9208
SELF	-9209
▁JFK	-9210
▁alf	-9211
▁bom	-9212
▁eth	-9213
RSELF	-9214
avily	-9215
odoro	-9216
▁Bowl	-9217
▁LAST	-9218
▁THEN	-9219
▁Unit	-9220
▁aver	-9221
▁chos	-9222
▁dens	-9223
▁http	-9224
▁mort	-9225
▁obes	-9226
▁sele	-9227
▁thee	-9228
▁till	-9229
▁toes	-9230
URSELF	-9231
should	-9232
▁affir	-9233
▁cabin	-9234
▁cheat	-9235
▁empha	-9236
▁incom	-9237
▁uncle	-9238
▁youre	-9239
OURSELF	-9240
defined	-9241
omodoro	-9242
▁alfred	-9243
▁assure	-9244
▁chosen	-9245
▁emphas	-9246
▁ethnic	-9247
▁firsts	-9248
▁insens	-9249
▁rifles	-9250
▁ventil	-9251
eriously	-9252
▁Finally	-9253
▁alfredo	-9254
▁arsenal	-9255
▁averted	-9256
▁blocked	-9257
▁fundido	-9258
▁heavily	-9259
▁mortals	-9260
▁obesity	-9261
Seriously	-9262
mpressing	-9263
▁Agnostic	-9264
▁Pomodoro	-9265
▁Relaxing	-9266
▁YOURSELF	-9267
▁affirmat	-9268
▁approval	-9269
▁attemept	-9270
▁brothers	-9271
▁chugging	-9272
▁emphasis	-9273
▁evolveto	-9274
▁finishes	-9275
▁incoming	-9276
▁leverage	-9277
▁liberals	-9278
▁lifetime	-9279
▁limewire	-9280
▁limiting	-9281
▁linguine	-9282
▁lobotomy	-9283
▁lukewarm	-9284
▁magicaly	-9285
▁majoring	-9286
▁managers	-9287
▁manpower	-9288
▁marathon	-9289
▁marrying	-9290
▁massacre	-9291
▁maturity	-9292
▁measures	-9293
▁minoring	-9294
▁minority	-9295
▁misdeeds	-9296
▁mislaced	-9297
▁modeling	-9298
▁modifier	-9299
9)	-9300
NE	-9301
Oh	-9302
19)	-9303
Are	-9304
IMO	-9305
NEW	-9306
Vot	-9307
aze	-9308
dot	-9309
ett	-9310
set	-9311
▁HR	-9312
cies	-9313
some	-9314
unno	-9315
wers	-9316
.....	-9317
dotal	-9318
loved	-9319
urder	-9320
▁(19)	-9321
▁Down	-9322
▁Fett	-9323
▁Haha	-9324
▁Part	-9325
▁begs	-9326
▁fake	-9327
▁gaze	-9328
▁loss	-9329
▁opin	-9330
▁subs	-9331
Voting	-9332
leging	-9333
odeled	-9334
stract	-9335
▁beile	-9336
▁cares	-9337
▁cease	-9338
▁discl	-9339
▁dunno	-9340
▁onset	-9341
ecdotal	-9342
igorous	-9343
▁Brietb	-9344
▁Murder	-9345
▁bright	-9346
▁sewers	-9347
Sunlight	-9348
argument	-9349
▁beileve	-9350
▁cheated	-9351
▁dumbest	-9352
▁foolish	-9353
▁lottery	-9354
▁sounded	-9355
▁undergo	-9356
▁unloved	-9357
▁abstract	-9358
▁alleging	-9359
▁disclose	-9360
▁intimacy	-9361
▁irritate	-9362
▁monotony	-9363
▁moraless	-9364
▁mourning	-9365
▁multiple	-9366
▁narrowly	-9367
▁nieghbor	-9368
▁nobility	-9369
▁normally	-9370
▁nutshell	-9371
▁obedient	-9372
▁obscured	-9373
▁offering	-9374
▁oncoming	-9375
▁openings	-9376
▁operates	-9377
▁opinions	-9378
▁ordering	-9379
▁outlined	-9380
▁overhaul	-9381
▁overhead	-9382
▁overlook	-9383
▁overtime	-9384
▁painfree	-9385
▁painless	-9386
▁parallel	-9387
▁paranoia	-9388
▁paranoid	-9389
▁parental	-9390
▁passable	-9391
▁patience	-9392
▁pedestal	-9393
▁perished	-9394
▁persuade	-9395
▁platform	-9396
▁pleasure	-9397
▁politely	-9398
▁pollutes	-9399
)*	-9400
Li	-9401
aj	-9402
lk	-9403
oh	-9404
ph	-9405
Man	-9406
php	-9407
pol	-9408
sle	-9409
zas	-9410
▁Br	-9411
▁Tj	-9412
aler	-9413
ifth	-9414
star	-9415
▁McC	-9416
▁PEI	-9417
▁Raj	-9418
▁fly	-9419
▁itt	-9420
andom	-9421
bying	-9422
inach	-9423
itric	-9424
▁Brus	-9425
▁Each	-9426
▁Epis	-9427
▁HTML	-9428
▁Hind	-9429
▁yoga	-9430
alable	-9431
alerie	-9432
arched	-9433
liders	-9434
police	-9435
uicide	-9436
▁1993.	-9437
▁Hindu	-9438
▁chalk	-9439
▁confr	-9440
▁fifth	-9441
▁grams	-9442
▁meted	-9443
▁reper	-9444
▁spell	-9445
▁unfit	-9446
▁whloe	-9447
Raffles	-9448
Suicide	-9449
legally	-9450
▁McCain	-9451
▁Rajast	-9452
▁burned	-9453
▁citric	-9454
▁define	-9455
▁favors	-9456
▁forgot	-9457
▁gallon	-9458
▁hassle	-9459
▁pizzas	-9460
▁random	-9461
▁severe	-9462
▁shoots	-9463
▁sogood	-9464
▁termed	-9465
▁vision	-9466
Likewise	-9467
bringing	-9468
cealable	-9469
notation	-9470
▁Episode	-9471
▁Sliders	-9472
▁Valerie	-9473
▁flyable	-9474
▁invited	-9475
▁spinach	-9476
▁tactics	-9477
▁unified	-9478
▁Brussels	-9479
▁Thanksgi	-9480
▁breaking	-9481
▁confront	-9482
▁corrupts	-9483
▁distance	-9484
▁historic	-9485
▁lobbying	-9486
▁motorway	-9487
▁numerous	-9488
▁possibil	-9489
▁potatoes	-9490
▁practice	-9491
▁predomin	-9492
▁premedit	-9493
▁premiere	-9494
▁prestige	-9495
▁produced	-9496
▁producer	-9497
▁progress	-9498
▁projects	-9499
.9	-9500
di	-9501
oa	-9502
.99	-9503
Did	-9504
▁5)	-9505
Much	-9506
audi	-9507
list	-9508
▁Boa	-9509
▁End	-9510
▁Hun	-9511
▁Jes	-9512
▁Sci	-9513
▁Sur	-9514
▁arm	-9515
▁tin	-9516
sling	-9517
▁1920	-9518
▁coma	-9519
▁crap	-9520
▁gyro	-9521
▁hack	-9522
▁myri	-9523
▁tack	-9524
▁tiny	-9525
Humans	-9526
Surely	-9527
center	-9528
istent	-9529
omeday	-9530
▁1920'	-9531
▁Daisy	-9532
▁Jesus	-9533
▁Saudi	-9534
▁Sorry	-9535
▁horse	-9536
▁illic	-9537
▁micro	-9538
▁shape	-9539
Example	-9540
riendly	-9541
rounder	-9542
udsling	-9543
▁30.00,	-9544
▁Anyone	-9545
▁Hunter	-9546
▁donors	-9547
▁enlist	-9548
▁hiking	-9549
▁layout	-9550
▁myriad	-9551
▁refill	-9552
▁unable	-9553
ongering	-9554
▁Hillary	-9555
▁Problem	-9556
▁Science	-9557
▁illicit	-9558
▁loading	-9559
▁results	-9560
▁someday	-9561
▁studied	-9562
▁treason	-9563
mongering	-9564
▁Compared	-9565
▁Congress	-9566
▁answered	-9567
▁billions	-9568
▁guidance	-9569
▁momentum	-9570
▁mudsling	-9571
▁outright	-9572
▁patented	-9573
▁provider	-9574
▁ptential	-9575
▁pursuits	-9576
▁puzzling	-9577
▁railroad	-9578
▁realizes	-9579
▁rebuttal	-9580
▁received	-9581
▁recourse	-9582
▁recovery	-9583
▁reformed	-9584
▁relieved	-9585
▁removing	-9586
▁replaced	-9587
▁reported	-9588
▁reposted	-9589
▁requests	-9590
▁responds	-9591
▁retainer	-9592
▁revenues	-9593
▁revolved	-9594
▁salaries	-9595
▁salvaged	-9596
▁sanctity	-9597
▁scarcity	-9598
▁scenario	-9599
:-	-9600
my	-9601
ui	-9602
Che	-9603
FMA	-9604
OTE	-9605
see	-9606
sme	-9607
uty	-9608
who	-9609
▁1:	-9610
▁EE	-9611
Will	-9612
azon	-9613
bird	-9614
duty	-9615
hies	-9616
oday	-9617
ummy	-9618
▁1:4	-9619
▁ALL	-9620
▁Amd	-9621
▁EEE	-9622
▁Hip	-9623
▁Mic	-9624
▁Off	-9625
▁cil	-9626
▁inm	-9627
▁pus	-9628
▁reb	-9629
▁ris	-9630
Check	-9631
ators	-9632
mazon	-9633
smell	-9634
uters	-9635
▁1:45	-9636
▁Cops	-9637
▁Next	-9638
▁VOTE	-9639
▁cann	-9640
▁fame	-9641
▁sine	-9642
▁untr	-9643
Amazon	-9644
PLEASE	-9645
unicip	-9646
▁Micha	-9647
▁Takei	-9648
▁Today	-9649
▁abort	-9650
▁lifel	-9651
▁risks	-9652
▁yummy	-9653
Sublime	-9654
▁Cheese	-9655
▁arrive	-9656
▁cannon	-9657
▁cilant	-9658
▁curses	-9659
▁handed	-9660
▁inmate	-9661
▁intend	-9662
▁lessen	-9663
▁lieing	-9664
▁repent	-9665
▁talked	-9666
▁untrue	-9667
▁waking	-9668
shopping	-9669
unicipal	-9670
▁CMVEdit	-9671
▁Develop	-9672
▁Getting	-9673
▁LOBSTER	-9674
▁Michael	-9675
▁Neurons	-9676
▁Officer	-9677
▁Ordered	-9678
▁anarcho	-9679
▁basicly	-9680
▁brisket	-9681
▁lessons	-9682
▁manages	-9683
▁pushing	-9684
▁rebirth	-9685
abilizing	-9686
▁cilantro	-9687
▁jeopardy	-9688
▁keyboard	-9689
▁lifelong	-9690
▁payraise	-9691
▁response	-9692
▁scheming	-9693
▁scrubbed	-9694
▁seatbelt	-9695
▁secondly	-9696
▁semester	-9697
▁sensible	-9698
▁sexually	-9699
,,	-9700
/)	-9701
1)	-9702
1,	-9703
SA	-9704
fi	-9705
,,,	-9706
:1)	-9707
▁VW	-9708
edit	-9709
itum	-9710
rage	-9711
▁42)	-9712
▁Blv	-9713
▁NSA	-9714
▁NYC	-9715
▁dro	-9716
▁toe	-9717
▁whi	-9718
Light	-9719
Tried	-9720
arten	-9721
idate	-9722
legal	-9723
timer	-9724
▁Blvd	-9725
▁FOOD	-9726
▁acqu	-9727
▁adds	-9728
▁bias	-9729
▁bing	-9730
▁bulk	-9731
▁cope	-9732
▁whim	-9733
acious	-9734
called	-9735
dinary	-9736
garten	-9737
▁binge	-9738
▁drove	-9739
▁evict	-9740
▁press	-9741
▁Having	-9742
▁Humans	-9743
▁acquis	-9744
▁adapts	-9745
▁canfin	-9746
▁engage	-9747
▁hailed	-9748
▁harder	-9749
▁proves	-9750
▁robots	-9751
▁sugest	-9752
▁wrongs	-9753
unsavory	-9754
▁appears	-9755
▁bedroom	-9756
▁liberal	-9757
▁outrage	-9758
▁answerer	-9759
▁brothels	-9760
▁canidate	-9761
▁choosing	-9762
▁donating	-9763
▁inspired	-9764
▁ordinary	-9765
▁shameful	-9766
▁shawarma	-9767
▁shutting	-9768
▁sickness	-9769
▁similiar	-9770
▁singling	-9771
▁sizeable	-9772
▁slanders	-9773
▁sleeping	-9774
▁smoothly	-9775
▁socailly	-9776
▁soldiers	-9777
▁solitary	-9778
▁souvenir	-9779
▁spacious	-9780
▁specials	-9781
▁specimen	-9782
▁spectrum	-9783
▁speedier	-9784
▁speeding	-9785
▁spinoffs	-9786
▁staffing	-9787
▁stations	-9788
▁statuses	-9789
▁stealing	-9790
▁stomping	-9791
▁storages	-9792
▁strapped	-9793
▁strategy	-9794
▁stubborn	-9795
▁succeful	-9796
▁suddenly	-9797
▁suffered	-9798
▁summoned	-9799
-(	-9800
7'	-9801
:*	-9802
HO	-9803
PU	-9804
Th	-9805
cd	-9806
MHO	-9807
cdc	-9808
hel	-9809
ini	-9810
▁Pc	-9811
▁TJ	-9812
▁Wi	-9813
Thus	-9814
helm	-9815
help	-9816
mild	-9817
olen	-9818
▁2:1	-9819
▁5).	-9820
▁CPU	-9821
▁ITT	-9822
▁Nos	-9823
▁Pcs	-9824
▁Wii	-9825
▁hey	-9826
▁pic	-9827
acing	-9828
ander	-9829
armed	-9830
helps	-9831
isian	-9832
▁IMHO	-9833
▁isol	-9834
▁noth	-9835
▁riot	-9836
▁task	-9837
OASTED	-9838
artini	-9839
author	-9840
ilhelm	-9841
isiana	-9842
▁Lunch	-9843
▁Still	-9844
▁apple	-9845
▁disad	-9846
▁petty	-9847
▁stole	-9848
▁whore	-9849
itation	-9850
ligence	-9851
usiness	-9852
▁Phelps	-9853
▁Rather	-9854
▁boring	-9855
▁detest	-9856
▁pander	-9857
▁prompt	-9858
▁squeez	-9859
▁stolen	-9860
ouisiana	-9861
▁Manipur	-9862
▁ROASTED	-9863
▁Wilhelm	-9864
▁buckets	-9865
▁crossed	-9866
▁entails	-9867
▁horrors	-9868
▁martini	-9869
▁needing	-9870
▁nothong	-9871
▁picking	-9872
▁starter	-9873
▁tracing	-9874
▁tuition	-9875
▁unarmed	-9876
rehensive	-9877
▁Business	-9878
▁Napoleon	-9879
▁darkness	-9880
▁isolated	-9881
▁outdated	-9882
▁pilgrims	-9883
▁religous	-9884
▁severity	-9885
▁superpow	-9886
▁surprise	-9887
▁suspects	-9888
▁sweating	-9889
▁switched	-9890
▁takeaway	-9891
▁teamwork	-9892
▁tendency	-9893
▁terminal	-9894
▁tesimony	-9895
▁textures	-9896
▁theaters	-9897
▁theorize	-9898
▁throught	-9899
!,	-9900
.,	-9901
4.	-9902
CJ	-9903
DP	-9904
EO	-9905
Is	-9906
30'	-9907
CJA	-9908
Not	-9909
Ret	-9910
lon	-9911
uiz	-9912
uly	-9913
zen	-9914
6000	-9915
anta	-9916
uror	-9917
ushi	-9918
▁2:2	-9919
▁GDP	-9920
▁Gay	-9921
▁SEO	-9922
▁ect	-9923
▁vac	-9924
▁vow	-9925
arted	-9926
rozen	-9927
uizno	-9928
▁Asad	-9929
▁Cold	-9930
▁Elon	-9931
▁YCJA	-9932
▁bags	-9933
▁duly	-9934
▁hill	-9935
▁lied	-9936
▁pays	-9937
▁thin	-9938
ecialy	-9939
▁1930'	-9940
▁Asada	-9941
▁Santa	-9942
▁Sushi	-9943
▁doest	-9944
▁furor	-9945
▁intro	-9946
▁meets	-9947
6000.00	-9948
address	-9949
hearted	-9950
oughout	-9951
▁frozen	-9952
▁outlet	-9953
▁tender	-9954
▁worthy	-9955
friendly	-9956
▁Mistake	-9957
▁thereof	-9958
▁throngs	-9959
hroughout	-9960
▁blinding	-9961
▁chipotle	-9962
▁comeback	-9963
▁divorced	-9964
▁doomsday	-9965
▁engaging	-9966
▁hundreds	-9967
▁offenses	-9968
▁regarded	-9969
▁tolerant	-9970
▁tomorrow	-9971
▁tortured	-9972
▁touching	-9973
▁training	-9974
▁treating	-9975
▁triggers	-9976
▁troubles	-9977
▁ultimate	-9978
▁umbrella	-9979
▁uncaring	-9980
▁underper	-9981
▁unfortun	-9982
▁unlawful	-9983
▁unsubtly	-9984
▁upheaval	-9985
▁uplifted	-9986
▁vacation	-9987
▁vigorous	-9988
▁violates	-9989
▁visually	-9990
▁volation	-9991
▁wardrobe	-9992
▁warnings	-9993
▁welcomes	-9994
▁whenever	-9995
▁whomever	-9996
▁winnable	-9997
▁winnings	-9998
▁wireless	-9999
!'	-10000
!?	-10001
,"	-10002
26	-10003
BA	-10004
!?!	-10005
NFL	-10006
▁PI	-10007
▁tv	-10008
Hate	-10009
have	-10010
hold	-10011
mato	-10012
ndia	-10013
past	-10014
▁NBA	-10015
▁bun	-10016
▁fad	-10017
India	-10018
Their	-10019
pastr	-10020
▁Drug	-10021
▁Gats	-10022
▁avid	-10023
▁hier	-10024
▁mock	-10025
▁priz	-10026
▁quid	-10027
▁sets	-10028
▁suck	-10029
▁toil	-10030
▁Cheap	-10031
▁Thing	-10032
▁ahold	-10033
▁dealt	-10034
▁lease	-10035
▁tally	-10036
▁teens	-10037
pastram	-10038
▁Gatsby	-10039
▁Sharma	-10040
▁Things	-10041
▁bought	-10042
▁decade	-10043
▁drowns	-10044
▁hierar	-10045
▁holder	-10046
▁prizes	-10047
▁tomato	-10048
▁washed	-10049
▁zoning	-10050
pastrami	-10051
▁IMMEDIA	-10052
▁Maguire	-10053
▁claimed	-10054
▁condemn	-10055
▁outdoor	-10056
▁restric	-10057
▁seating	-10058
▁tipping	-10059
▁totally	-10060
athomable	-10061
▁Alliance	-10062
▁declared	-10063
▁fillings	-10064
▁fractals	-10065
▁hospital	-10066
▁infinite	-10067
▁noticing	-10068
▁revealed	-10069
▁wrestles	-10070
Throughout	-10071
__________	-10072
apointment	-10073
ardianship	-10074
candidates	-10075
capitalism	-10076
commercial	-10077
corrective	-10078
democratic	-10079
echnically	-10080
entionally	-10081
erfections	-10082
especially	-10083
fatherless	-10084
fghanistan	-10085
hallengers	-10086
hinoplasty	-10087
histicated	-10088
homosapien	-10089
impressing	-10090
inventions	-10091
reinforced	-10092
restaurant	-10093
scientific	-10094
utstanding	-10095
victimless	-10096
▁Achieving	-10097
▁Algorithm	-10098
▁Alzheimer	-10099
hop	-10100
itl	-10101
won	-10102
▁''	-10103
▁mm	-10104
▁oh	-10105
Plus	-10106
imal	-10107
▁Mom	-10108
▁War	-10109
▁Yet	-10110
▁bum	-10111
▁ear	-10112
▁jau	-10113
▁ran	-10114
▁rot	-10115
▁web	-10116
ourly	-10117
truck	-10118
▁,,!!	-10119
▁Bill	-10120
▁Wars	-10121
▁bean	-10122
▁gove	-10123
▁lies	-10124
▁ours	-10125
VERYON	-10126
▁Spicy	-10127
▁Their	-10128
▁beans	-10129
▁gyoza	-10130
▁jaunt	-10131
▁loser	-10132
▁moves	-10133
▁pants	-10134
▁spoon	-10135
▁third	-10136
▁unitl	-10137
EVERYON	-10138
▁cereal	-10139
▁cleare	-10140
▁hiring	-10141
▁messes	-10142
▁placed	-10143
▁rowing	-10144
▁ruling	-10145
▁sevent	-10146
▁trusty	-10147
▁wallet	-10148
EVERYONE	-10149
▁clearer	-10150
▁garlicy	-10151
▁indefin	-10152
▁journey	-10153
▁minimal	-10154
▁operate	-10155
orization	-10156
▁democrat	-10157
▁destroys	-10158
▁foothold	-10159
▁mmorning	-10160
▁movement	-10161
▁offsides	-10162
▁speeches	-10163
▁unveiled	-10164
handrayaan	-10165
▁Arguments	-10166
▁Australia	-10167
▁Bollywood	-10168
▁Brietbart	-10169
▁Canadiens	-10170
▁Character	-10171
▁Charlotte	-10172
▁Classical	-10173
▁Communism	-10174
▁Companies	-10175
▁Computers	-10176
▁Conquests	-10177
▁Countries	-10178
▁Dominican	-10179
▁EVERYBODY	-10180
▁Economics	-10181
▁Generally	-10182
▁Healthier	-10183
▁Hypocricy	-10184
▁Knowledge	-10185
▁Louisiana	-10186
▁Lousisana	-10187
▁Mukherjee	-10188
▁POTENTIAL	-10189
▁Palestine	-10190
▁Palpatine	-10191
▁Parliment	-10192
▁Plamegate	-10193
▁Political	-10194
▁Polyamory	-10195
▁Rajasthan	-10196
▁Regarding	-10197
▁Requiring	-10198
▁Reservoir	-10199
Bs	-10200
Ha	-10201
TV	-10202
vn	-10203
-11	-10204
GBs	-10205
Ick	-10206
Our	-10207
dis	-10208
rox	-10209
▁AN	-10210
▁HS	-10211
Hist	-10212
gged	-10213
iser	-10214
roll	-10215
▁30,	-10216
▁ANY	-10217
▁Fre	-10218
▁Get	-10219
▁Sir	-10220
▁doc	-10221
▁egg	-10222
adult	-10223
quent	-10224
▁8:30	-10225
▁9-11	-10226
▁Musk	-10227
▁Sall	-10228
▁Time	-10229
▁VERY	-10230
▁boot	-10231
▁dole	-10232
▁door	-10233
▁havn	-10234
▁swap	-10235
Having	-10236
crimes	-10237
crimin	-10238
either	-10239
enters	-10240
hisers	-10241
ounder	-10242
scroll	-10243
xtreme	-10244
▁Sallu	-10245
▁Using	-10246
▁aprox	-10247
▁beers	-10248
▁draws	-10249
▁frees	-10250
▁inapp	-10251
▁menus	-10252
▁spree	-10253
▁strip	-10254
▁theme	-10255
▁wiser	-10256
founder	-10257
witness	-10258
▁Filled	-10259
▁George	-10260
▁Ronald	-10261
▁broken	-10262
▁compel	-10263
▁comply	-10264
▁greets	-10265
▁plants	-10266
▁plight	-10267
▁rigged	-10268
▁sorrow	-10269
▁undert	-10270
▁visual	-10271
▁Banning	-10272
▁Extreme	-10273
▁Helping	-10274
▁centers	-10275
▁cleanse	-10276
▁compels	-10277
▁creator	-10278
discrimin	-10279
scrollers	-10280
▁Frequent	-10281
▁Messinis	-10282
▁consumed	-10283
▁siblings	-10284
▁Therefore	-10285
▁Unionists	-10286
▁VOLUNTARY	-10287
▁Wisconsin	-10288
▁Yesterday	-10289
▁Ygdrassil	-10290
▁Youtubers	-10291
▁abortions	-10292
▁abridging	-10293
▁accidents	-10294
▁accompany	-10295
▁addiction	-10296
▁addullted	-10297
▁admitting	-10298
▁advisable	-10299
Big	-10300
▁11	-10301
▁58	-10302
▁IV	-10303
▁oz	-10304
Nope	-10305
from	-10306
lien	-10307
sole	-10308
term	-10309
▁Jim	-10310
▁Oil	-10311
▁tad	-10312
▁tho	-10313
1000)	-10314
Cause	-10315
going	-10316
lemon	-10317
▁Call	-10318
▁None	-10319
▁forg	-10320
▁junk	-10321
▁sees	-10322
▁unde	-10323
▁Caffe	-10324
▁Filet	-10325
▁Lucky	-10326
▁Oscar	-10327
▁Theft	-10328
▁alien	-10329
▁atoms	-10330
▁chief	-10331
▁dough	-10332
▁hefty	-10333
▁heter	-10334
▁noses	-10335
▁swing	-10336
▁Burger	-10337
▁Gaming	-10338
▁Seeing	-10339
▁Stones	-10340
▁dollar	-10341
▁entree	-10342
▁hummus	-10343
▁relate	-10344
▁shines	-10345
▁theres	-10346
▁undead	-10347
▁Georgia	-10348
▁Knowing	-10349
▁Starbuc	-10350
▁anxiety	-10351
▁console	-10352
▁couldnt	-10353
▁failure	-10354
▁forgive	-10355
▁gunning	-10356
▁layered	-10357
▁pockets	-10358
▁staging	-10359
▁adoption	-10360
▁contains	-10361
▁director	-10362
▁factions	-10363
▁playable	-10364
▁swingers	-10365
▁Realistic	-10366
▁Starbucks	-10367
▁affection	-10368
▁afflicted	-10369
▁afternoon	-10370
▁alcoholic	-10371
▁algorithi	-10372
▁anecdotal	-10373
▁animosity	-10374
▁anonymity	-10375
▁apologies	-10376
▁appendage	-10377
▁appetizer	-10378
▁appointed	-10379
▁arresting	-10380
▁assessing	-10381
▁assurance	-10382
▁astronomy	-10383
▁athiestic	-10384
▁attending	-10385
▁attourney	-10386
▁awareness	-10387
▁axiomatic	-10388
▁bachelors	-10389
▁behaviour	-10390
▁believing	-10391
▁biometric	-10392
▁bloodline	-10393
▁bracelets	-10394
▁breakdown	-10395
▁breakneck	-10396
▁breathing	-10397
▁broadband	-10398
▁calculate	-10399
!).	-10400
.**	-10401
Col	-10402
Yet	-10403
dub	-10404
▁17	-10405
▁6.	-10406
▁AR	-10407
▁SW	-10408
▁jo	-10409
Cola	-10410
ainf	-10411
aint	-10412
best	-10413
food	-10414
hour	-10415
inko	-10416
irit	-10417
mper	-10418
olid	-10419
▁Are	-10420
▁lol	-10421
Opera	-10422
ained	-10423
bling	-10424
paint	-10425
▁Ster	-10426
▁Sult	-10427
▁becu	-10428
▁coll	-10429
▁deed	-10430
▁exit	-10431
▁gold	-10432
▁grim	-10433
▁lake	-10434
▁nerv	-10435
▁shit	-10436
▁tall	-10437
▁wake	-10438
▁Earth	-10439
▁faces	-10440
▁falls	-10441
▁helpI	-10442
▁holid	-10443
▁hover	-10444
▁merit	-10445
▁pasta	-10446
▁pinko	-10447
▁rainf	-10448
▁suing	-10449
▁tight	-10450
▁trace	-10451
duboard	-10452
trained	-10453
▁Lennon	-10454
▁Majora	-10455
▁Making	-10456
▁Sultan	-10457
▁collap	-10458
▁joking	-10459
▁loving	-10460
▁misled	-10461
▁salads	-10462
▁spirit	-10463
▁tamper	-10464
▁yearly	-10465
grabbing	-10466
▁ILLEGAL	-10467
▁arguing	-10468
▁bastard	-10469
▁beaches	-10470
▁becuase	-10471
▁illness	-10472
▁nervous	-10473
▁plagued	-10474
▁shooter	-10475
▁tickets	-10476
dodgeball	-10477
▁Sterling	-10478
▁collapse	-10479
▁electric	-10480
▁gambling	-10481
▁holidays	-10482
▁jokingly	-10483
▁juvinile	-10484
▁preceded	-10485
▁rainfall	-10486
risdiction	-10487
▁catastrop	-10488
▁celebrity	-10489
▁challenge	-10490
▁cigarette	-10491
▁citizenry	-10492
▁civilians	-10493
▁cognitely	-10494
▁cognitive	-10495
▁collected	-10496
▁combining	-10497
▁commodity	-10498
▁complains	-10499
▁!	-10500
▁Hi	-10501
▁MJ	-10502
▁MP	-10503
▁Me	-10504
Vine	-10505
ange	-10506
▁HOT	-10507
▁Has	-10508
▁Mau	-10509
▁Oly	-10510
▁Won	-10511
▁row	-10512
▁sop	-10513
▁van	-10514
▁wil	-10515
state	-10516
usion	-10517
veled	-10518
▁FIFA	-10519
▁Maul	-10520
▁Penn	-10521
▁damp	-10522
▁gale	-10523
▁grey	-10524
▁hole	-10525
▁laid	-10526
▁mere	-10527
▁ring	-10528
▁sequ	-10529
▁ship	-10530
347180	-10531
Person	-10532
choice	-10533
▁2013,	-10534
▁Olymp	-10535
▁White	-10536
▁enter	-10537
▁goodI	-10538
▁swear	-10539
▁Before	-10540
▁Naples	-10541
▁bitter	-10542
▁finite	-10543
▁forego	-10544
▁partly	-10545
▁puking	-10546
▁raving	-10547
▁survey	-10548
▁themed	-10549
▁thinks	-10550
▁Italian	-10551
▁bigoted	-10552
▁biology	-10553
▁calling	-10554
▁egotist	-10555
▁leveled	-10556
▁rolling	-10557
▁seeking	-10558
▁shucked	-10559
▁sources	-10560
▁strange	-10561
▁threats	-10562
▁vanilla	-10563
▁Olympics	-10564
▁allusion	-10565
▁biscuits	-10566
▁bragging	-10567
▁handguns	-10568
▁jealousy	-10569
▁produces	-10570
▁sequence	-10571
▁someones	-10572
Personally	-10573
▁Evolution	-10574
▁Inventive	-10575
▁assaulted	-10576
▁candidate	-10577
▁chocolate	-10578
▁concerned	-10579
▁condition	-10580
▁confident	-10581
▁conflicts	-10582
▁conquered	-10583
▁consensus	-10584
▁consulate	-10585
▁contained	-10586
▁cooperate	-10587
▁corporate	-10588
▁coworkers	-10589
▁creatures	-10590
▁custodial	-10591
▁decreased	-10592
▁defending	-10593
▁dependant	-10594
▁desecrate	-10595
▁designers	-10596
▁designing	-10597
▁desirable	-10598
▁desperate	-10599
Web	-10600
amo	-10601
fam	-10602
run	-10603
▁(:	-10604
▁22	-10605
even	-10606
rius	-10607
▁24-	-10608
▁Far	-10609
▁Pay	-10610
▁nes	-10611
▁tag	-10612
ntire	-10613
udity	-10614
unint	-10615
vened	-10616
▁2002	-10617
▁Main	-10618
▁Rome	-10619
▁____	-10620
▁atle	-10621
▁core	-10622
▁fare	-10623
▁fiat	-10624
▁leap	-10625
▁nose	-10626
▁reel	-10627
▁wise	-10628
famous	-10629
▁Malay	-10630
▁Prius	-10631
▁Tasty	-10632
▁bowls	-10633
▁broke	-10634
▁guest	-10635
▁lover	-10636
▁neice	-10637
▁plate	-10638
▁relic	-10639
▁rough	-10640
▁thick	-10641
▁unity	-10642
▁unpop	-10643
Further	-10644
lawyers	-10645
▁Entire	-10646
▁Palace	-10647
▁Report	-10648
▁Social	-10649
▁clothe	-10650
▁influx	-10651
▁nudity	-10652
▁theirs	-10653
▁Amidala	-10654
▁Bastard	-10655
▁Britain	-10656
▁Madison	-10657
▁anytime	-10658
▁atleast	-10659
▁frontal	-10660
▁reeling	-10661
▁rubbery	-10662
▁stopped	-10663
▁toolbar	-10664
▁damaging	-10665
▁dividend	-10666
▁fatherly	-10667
▁hydrogen	-10668
▁improved	-10669
▁probable	-10670
▁reflects	-10671
▁regulars	-10672
▁spilling	-10673
▁adulthood	-10674
▁advencing	-10675
▁canfinish	-10676
▁deterrent	-10677
▁diagnosis	-10678
▁disallows	-10679
▁disappear	-10680
▁disbelief	-10681
▁discovery	-10682
▁dishonest	-10683
▁dismissed	-10684
▁displayed	-10685
▁disputing	-10686
▁downloads	-10687
▁downplays	-10688
▁eachother	-10689
▁economyHe	-10690
▁elaborate	-10691
▁eliminate	-10692
▁emissions	-10693
▁empowered	-10694
▁emptiness	-10695
▁endeavors	-10696
▁engineers	-10697
▁enshrined	-10698
▁equipment	-10699
25.	-10700
Now	-10701
net	-10702
nud	-10703
When	-10704
udge	-10705
▁10.	-10706
▁Cap	-10707
▁Sue	-10708
▁ads	-10709
▁gap	-10710
▁met	-10711
ption	-10712
▁1985	-10713
▁Aide	-10714
▁Dist	-10715
▁Nice	-10716
▁Such	-10717
▁hide	-10718
▁lamp	-10719
▁leak	-10720
▁loot	-10721
▁mall	-10722
▁vast	-10723
▁wong	-10724
isters	-10725
nudist	-10726
rather	-10727
▁Apply	-10728
▁Chang	-10729
▁Cross	-10730
▁PFLAG	-10731
▁Which	-10732
▁babys	-10733
▁belly	-10734
▁budge	-10735
▁comic	-10736
▁lawis	-10737
▁needy	-10738
▁react	-10739
▁tired	-10740
▁tract	-10741
▁wheel	-10742
customs	-10743
▁Wouldn	-10744
▁brunch	-10745
▁commie	-10746
▁doesnt	-10747
▁intact	-10748
▁repeat	-10749
▁seeped	-10750
valuable	-10751
▁applied	-10752
▁babysit	-10753
▁curries	-10754
▁deliver	-10755
▁install	-10756
▁redress	-10757
▁relieve	-10758
▁sisters	-10759
▁species	-10760
!!!!!!!!!	-10761
Increased	-10762
▁convicts	-10763
▁defended	-10764
▁evolving	-10765
▁freshmen	-10766
▁initiate	-10767
▁occurred	-10768
▁reliance	-10769
▁speaches	-10770
▁suitable	-10771
▁thingies	-10772
censorship	-10773
▁COLLISION	-10774
▁Isrealian	-10775
▁affecting	-10776
▁especialy	-10777
▁ethnicity	-10778
▁everybody	-10779
▁everytime	-10780
▁exception	-10781
▁excersise	-10782
▁excessive	-10783
▁executing	-10784
▁expansion	-10785
▁expertise	-10786
▁explosion	-10787
▁expressly	-10788
▁factories	-10789
▁favourite	-10790
▁financing	-10791
▁flavorful	-10792
▁flavoring	-10793
▁followers	-10794
▁forwarded	-10795
▁franchise	-10796
▁frustrate	-10797
▁functions	-10798
▁galloping	-10799
▁Eg	-10800
anda	-10801
uhar	-10802
goers	-10803
▁Last	-10804
▁Read	-10805
▁hook	-10806
▁North	-10807
▁rifle	-10808
▁comped	-10809
▁shield	-10810
▁involed	-10811
▁offence	-10812
▁vaulter	-10813
▁develops	-10814
▁steering	-10815
▁garnished	-10816
▁gatherers	-10817
▁graduates	-10818
▁gravitate	-10819
▁greatness	-10820
▁grounding	-10821
▁guacamole	-10822
▁guarantee	-10823
▁happiness	-10824
▁hardships	-10825
▁healthier	-10826
▁heartache	-10827
▁heartless	-10828
▁honorably	-10829
▁hourglass	-10830
▁ignorance	-10831
▁iincurred	-10832
▁illegally	-10833
▁illusions	-10834
▁imitating	-10835
▁impeached	-10836
▁improvise	-10837
▁inability	-10838
▁inception	-10839
▁incorrect	-10840
▁increases	-10841
▁incumbent	-10842
▁indicates	-10843
▁infection	-10844
▁infinitum	-10845
▁informing	-10846
▁ingrained	-10847
▁innocence	-10848
▁innocents	-10849
▁inspected	-10850
▁inspiring	-10851
▁intensive	-10852
▁intention	-10853
▁intruders	-10854
▁invention	-10855
▁inventive	-10856
▁iteration	-10857
▁jalapenos	-10858
▁justifies	-10859
▁knowingly	-10860
▁landslide	-10861
▁legalized	-10862
▁lessening	-10863
▁licensees	-10864
▁licesnsed	-10865
▁listening	-10866
▁lobbyists	-10867
▁locations	-10868
▁logically	-10869
▁machinery	-10870
▁magically	-10871
▁marketers	-10872
▁marketing	-10873
▁massacred	-10874
▁massively	-10875
▁measuring	-10876
▁motivated	-10877
▁multitude	-10878
▁municipal	-10879
▁murderers	-10880
▁necassary	-10881
▁neglected	-10882
▁neighbors	-10883
▁nessasary	-10884
▁networked	-10885
▁nominated	-10886
▁nostalgia	-10887
▁nutrients	-10888
▁nutrition	-10889
▁obligated	-10890
▁obnoxious	-10891
▁obtaining	-10892
▁occurance	-10893
▁offenders	-10894
▁officials	-10895
▁operating	-10896
▁optimizer	-10897
▁outnumber	-10898
▁outsource	-10899
▁overblown	-10900
▁overboard	-10901
▁oversight	-10902
▁packaging	-10903
▁palistina	-10904
▁paternity	-10905
▁peaceably	-10906
▁pedophile	-10907
▁phenomena	-10908
▁pistachio	-10909
▁placement	-10910
▁plausible	-10911
▁pointless	-10912
▁polluting	-10913
▁pondering	-10914
▁positives	-10915
▁possessed	-10916
▁practical	-10917
▁preferred	-10918
▁pregnancy	-10919
▁prescribe	-10920
▁prevalent	-10921
▁principal	-10922
▁prisoners	-10923
▁privately	-10924
▁problably	-10925
▁procedure	-10926
▁proceeded	-10927
▁procreate	-10928
▁programme	-10929
▁prohibits	-10930
▁prompting	-10931
▁prophetic	-10932
▁proposing	-10933
▁prosocial	-10934
▁publicize	-10935
▁punishing	-10936
▁purchased	-10937
▁realistic	-10938
▁reasoning	-10939
▁recentlly	-10940
▁recession	-10941
▁recreated	-10942
▁recyclers	-10943
▁reference	-10944
▁reforming	-10945
▁regulates	-10946
▁remodeled	-10947
▁reporting	-10948
▁requested	-10949
▁resembles	-10950
▁reshuffle	-10951
▁resilient	-10952
▁responder	-10953
▁responses	-10954
▁resulting	-10955
▁retaining	-10956
▁returning	-10957
▁rewarding	-10958
▁salvation	-10959
▁scenarios	-10960
▁schoolers	-10961
▁schooling	-10962
▁scripture	-10963
▁selection	-10964
▁sentences	-10965
▁sephiroth	-10966
▁seventies	-10967
▁shittiest	-10968
▁shootings	-10969
▁signature	-10970
▁signifies	-10971
▁snitching	-10972
▁socialize	-10973
▁sociopath	-10974
▁solutions	-10975
▁spaceship	-10976
▁sparingly	-10977
▁specified	-10978
▁stabbings	-10979
▁stability	-10980
▁standings	-10981
▁standoffs	-10982
▁storyline	-10983
▁strengths	-10984
▁stringent	-10985
▁strongest	-10986
▁structure	-10987
▁struggled	-10988
▁surgeries	-10989
▁suspicion	-10990
▁systemThe	-10991
▁tailoring	-10992
▁technical	-10993
▁teenagers	-10994
▁territory	-10995
▁themselfs	-10996
▁theripist	-10997
▁thescreen	-10998
▁thousands	-10999
▁tolerates	-11000
▁tradition	-11001
▁triggered	-11002
▁uncertain	-11003
▁uncovered	-11004
▁undermine	-11005
▁undertone	-11006
▁undesired	-11007
▁unhealthy	-11008
▁unnatural	-11009
▁unpopular	-11010
▁unrelated	-11011
▁unsecured	-11012
▁uploading	-11013
▁vaccinate	-11014
▁variables	-11015
▁welcoming	-11016
▁witnessed	-11017
▁workplace	-11018
Compression	-11019
Desecration	-11020
Palestinian	-11021
Playstation	-11022
Retributive	-11023
Technically	-11024
connections	-11025
considering	-11026
intelligent	-11027
recognition	-11028
ressionable	-11029
underground	-11030
▁10/20/2013	-11031
▁Algorithms	-11032
▁Apparently	-11033
▁Australian	-11034
▁Benefiting	-11035
▁CONSISTENT	-11036
▁Censorship	-11037
▁Cheesecake	-11038
▁Christians	-11039
▁Democratic	-11040
▁Department	-11041
▁Dissolving	-11042
▁EUTHANASIA	-11043
▁Englishman	-11044
▁Exceptions	-11045
▁Fatherless	-11046
▁Generation	-11047
▁Government	-11048
▁Guantanamo	-11049
▁Guidelines	-11050
▁Incumbents	-11051
▁Khrushchev	-11052
▁Livestrong	-11053
▁Madagascar	-11054
▁Personally	-11055
▁Powerpoint	-11056
▁Principals	-11057
▁Regardless	-11058
▁Scottsdale	-11059
▁Television	-11060
▁Temenggong	-11061
▁Thankfully	-11062
▁Versailles	-11063
▁Washington	-11064
▁abolishing	-11065
▁acceptance	-11066
▁accessible	-11067
▁accomplice	-11068
▁accurately	-11069
▁addictions	-11070
▁admissions	-11071
▁alcoholism	-11072
▁alienation	-11073
▁altogether	-11074
▁announcing	-11075
▁appearance	-11076
▁appetizers	-11077
▁aryabhatta	-11078
▁assessable	-11079
▁assignment	-11080
▁assistance	-11081
▁associated	-11082
▁assortment	-11083
▁attemepted	-11084
▁attendance	-11085
▁attentions	-11086
▁background	-11087
▁bankruptcy	-11088
▁barristers	-11089
▁basketball	-11090
▁behavioral	-11091
▁belongings	-11092
▁betterment	-11093
▁blantantly	-11094
▁calculated	-11095
▁carbonated	-11096
▁castration	-11097
▁cheerfully	-11098
▁chronicles	-11099
▁classified	-11100
▁classrooms	-11101
▁collective	-11102
▁combustive	-11103
▁comparison	-11104
▁compelling	-11105
▁completing	-11106
▁complicate	-11107
▁complicity	-11108
▁compliment	-11109
▁compulsory	-11110
▁conception	-11111
▁concerning	-11112
▁condemning	-11113
▁connecting	-11114
▁consenting	-11115
▁constitute	-11116
▁contacting	-11117
▁containers	-11118
▁contingent	-11119
▁contractor	-11120
▁contribute	-11121
▁corrupting	-11122
▁councilman	-11123
▁coursework	-11124
▁courthouse	-11125
▁creativity	-11126
▁dedication	-11127
▁defamation	-11128
▁defendants	-11129
▁delightful	-11130
▁demolished	-11131
▁deontology	-11132
▁depositing	-11133
▁descriptor	-11134
▁determined	-11135
▁deterrence	-11136
▁difficulty	-11137
▁diminishes	-11138
▁disastrous	-11139
▁discharged	-11140
▁discretion	-11141
▁dissenting	-11142
▁distribute	-11143
▁documented	-11144
▁ecological	-11145
▁economists	-11146
▁elementary	-11147
▁eliminated	-11148
▁empathetic	-11149
▁enchiladas	-11150
▁encouraged	-11151
▁encourages	-11152
▁engrossing	-11153
▁espeacilly	-11154
▁expectancy	-11155
▁explicable	-11156
▁explicitly	-11157
▁expression	-11158
▁fascinated	-11159
▁flavourful	-11160
▁foundation	-11161
▁fulfilling	-11162
▁granddaddy	-11163
▁grievances	-11164
▁guidelines	-11165
▁historical	-11166
▁homeowners	-11167
▁homophobia	-11168
▁humblebrag	-11169
▁idealistic	-11170
▁ideologies	-11171
▁illustrate	-11172
▁imaginable	-11173
▁impairment	-11174
▁impeccable	-11175
▁imprisoned	-11176
▁incentives	-11177
▁indirectly	-11178
▁individial	-11179
▁industries	-11180
▁inevitable	-11181
▁infallible	-11182
▁infidelity	-11183
▁inflexible	-11184
▁initiative	-11185
▁innovating	-11186
▁innovation	-11187
▁integrated	-11188
▁intentions	-11189
▁interested	-11190
▁interfaces	-11191
▁intervened	-11192
▁intestinal	-11193
▁intolerant	-11194
▁introduced	-11195
▁investment	-11196
▁irrelevant	-11197
▁irritating	-11198
▁legalizing	-11199
▁legitimacy	-11200
▁livestream	-11201
▁maintained	-11202
▁malcontent	-11203
▁management	-11204
▁mandortory	-11205
▁margaritas	-11206
▁margherita	-11207
▁mentorship	-11208
▁milestones	-11209
▁minorities	-11210
▁misleading	-11211
▁mistakenly	-11212
▁mitigating	-11213
▁mostpolice	-11214
▁motivation	-11215
▁negligence	-11216
▁negotiated	-11217
▁neutralize	-11218
▁nonsmokers	-11219
▁obligation	-11220
▁occasional	-11221
▁offensives	-11222
▁operations	-11223
▁oppressive	-11224
▁originated	-11225
▁otherwords	-11226
▁overturned	-11227
▁paperclips	-11228
▁passionate	-11229
▁peacefully	-11230
▁perception	-11231
▁perfection	-11232
▁personable	-11233
▁phenomenal	-11234
▁phosphoric	-11235
▁physically	-11236
▁physicians	-11237
▁politician	-11238
▁preference	-11239
▁prescribed	-11240
▁presenting	-11241
▁prevailing	-11242
▁principles	-11243
▁procedures	-11244
▁proceeding	-11245
▁proclaimed	-11246
▁production	-11247
▁productive	-11248
▁professors	-11249
▁projecting	-11250
▁promissory	-11251
▁propaganda	-11252
▁properties	-11253
▁prostitute	-11254
▁protective	-11255
▁reasonably	-11256
▁recklessly	-11257
▁recognised	-11258
▁recognizes	-11259
▁recommends	-11260
▁recyclable	-11261
▁refreshing	-11262
▁regulating	-11263
▁reinforces	-11264
▁relativity	-11265
▁remorseful	-11266
▁repeatedly	-11267
▁republican	-11268
▁reputation	-11269
▁researched	-11270
▁resembling	-11271
▁resentment	-11272
▁resolution	-11273
▁responding	-11274
▁revelation	-11275
▁rightfully	-11276
▁sacrificed	-11277
▁sandwiches	-11278
▁satisfying	-11279
▁schoolgirl	-11280
▁schoolwork	-11281
▁scientists	-11282
▁scratching	-11283
▁sentencing	-11284
▁signatures	-11285
▁signifying	-11286
▁sororities	-11287
▁speciality	-11288
▁squeezable	-11289
▁stagnation	-11290
▁standpoint	-11291
▁statements	-11292
▁storylines	-11293
▁straighten	-11294
▁stretching	-11295
▁struggling	-11296
▁subjective	-11297
▁submission	-11298
▁subsequent	-11299
▁substances	-11300
▁successful	-11301
▁suggesting	-11302
▁supporters	-11303
▁supporting	-11304
▁surprising	-11305
▁survivable	-11306
▁systematic	-11307
▁targetting	-11308
▁temptation	-11309
▁tendencies	-11310
▁terminated	-11311
▁terrifying	-11312
▁thankfully	-11313
▁thoughtYou	-11314
▁thoughtful	-11315
▁toleration	-11316
▁tolerlance	-11317
▁touchstone	-11318
▁travelling	-11319
▁truthfully	-11320
▁unbalanced	-11321
▁unbearable	-11322
▁undermined	-11323
▁unemployed	-11324
▁unfriendly	-11325
▁unpleasant	-11326
▁upbringing	-11327
▁veneration	-11328
▁verifiable	-11329
▁viewpoints	-11330
▁violations	-11331
▁volleyball	-11332
▁whatsoever	-11333
▁worthwhile	-11334
Historically	-11335
Incidentally	-11336
healthywater	-11337
implementing	-11338
omachoverall	-11339
▁Afghanistan	-11340
▁Association	-11341
▁Borderlands	-11342
▁Brilliantly	-11343
▁Butterblume	-11344
▁Catholicism	-11345
▁Challengers	-11346
▁Chandrayaan	-11347
▁Definattley	-11348
▁Development	-11349
▁Enforcement	-11350
▁Engineering	-11351
▁Expungement	-11352
▁GOOOOOOOOOD	-11353
▁IMMEDIATELY	-11354
▁Individuals	-11355
▁Introducing	-11356
▁Journalists	-11357
▁Mathematics	-11358
▁Misjudgment	-11359
▁Nationalist	-11360
▁Nominations	-11361
▁Outstanding	-11362
▁Sarassaland	-11363
▁Springfield	-11364
▁accompalice	-11365
▁accusations	-11366
▁acquisition	-11367
▁advancement	-11368
▁advertising	-11369
▁affiliating	-11370
▁affirmative	-11371
▁aggravating	-11372
▁algorithims	-11373
▁amansiapted	-11374
▁anniversary	-11375
▁anonymously	-11376
▁apoligizing	-11377
▁appeasement	-11378
▁appreciated	-11379
▁assumptions	-11380
▁authorities	-11381
▁backgrounds	-11382
▁battlefield	-11383
▁beautifully	-11384
▁beneficiary	-11385
▁bereleasing	-11386
▁blackberrys	-11387
▁bombersSupp	-11388
▁businessman	-11389
▁capitalists	-11390
▁celebrating	-11391
▁celebration	-11392
▁citizenship	-11393
▁classifiers	-11394
▁cleanliness	-11395
▁cognitively	-11396
▁complaining	-11397
▁compostable	-11398
▁concealable	-11399
▁confiscated	-11400
▁connections	-11401
▁connotation	-11402
▁constituted	-11403
▁contentious	-11404
▁continuance	-11405
▁contradicts	-11406
▁correctness	-11407
▁creationism	-11408
▁credibility	-11409
▁crimebodies	-11410
▁deformation	-11411
▁deformities	-11412
▁demographic	-11413
▁departments	-11414
▁destruction	-11415
▁detrimental	-11416
▁devastating	-11417
▁devastation	-11418
▁disallowing	-11419
▁disasterous	-11420
▁disciplines	-11421
▁discoveries	-11422
▁distributed	-11423
▁educational	-11424
▁egotistical	-11425
▁eligibility	-11426
▁emancipated	-11427
▁equilibrium	-11428
▁extensively	-11429
▁fashionable	-11430
▁foundations	-11431
▁frustrating	-11432
▁frustration	-11433
▁fulfillment	-11434
▁functioning	-11435
▁generalized	-11436
▁generations	-11437
▁grandmother	-11438
▁harrassment	-11439
▁hierarchies	-11440
▁idolization	-11441
▁immigration	-11442
▁impeachment	-11443
▁impersonate	-11444
▁implemented	-11445
▁implication	-11446
▁indefinably	-11447
▁independent	-11448
▁informative	-11449
▁infringment	-11450
▁inheritance	-11451
▁innovations	-11452
▁insensitive	-11453
▁instability	-11454
▁institution	-11455
▁intelligent	-11456
▁intentional	-11457
▁intercourse	-11458
▁interpreted	-11459
▁interracial	-11460
▁involuntary	-11461
▁issuesFirst	-11462
▁legislation	-11463
▁legislature	-11464
▁maintenance	-11465
▁maliciously	-11466
▁manouvering	-11467
▁masterpiece	-11468
▁measurement	-11469
▁misbehaving	-11470
▁misinformed	-11471
▁mudslinging	-11472
▁nationalism	-11473
▁nationality	-11474
▁necessities	-11475
▁negotiation	-11476
▁neighbourly	-11477
▁notAmerican	-11478
▁numerically	-11479
▁objectively	-11480
▁obnoxiously	-11481
▁observation	-11482
▁overlooking	-11483
▁overpowered	-11484
▁overshadows	-11485
▁perceptible	-11486
▁permanently	-11487
▁permissable	-11488
▁perpetrator	-11489
▁personality	-11490
▁polyamorous	-11491
▁pornography	-11492
▁possessions	-11493
▁prejudicial	-11494
▁prematurely	-11495
▁prestigious	-11496
▁problematic	-11497
▁progression	-11498
▁prohibiting	-11499
▁prosecuting	-11500
▁prosecution	-11501
▁protections	-11502
▁provisional	-11503
▁publication	-11504
▁punishments	-11505
▁questioning	-11506
▁rearranging	-11507
▁reconfigure	-11508
▁respectable	-11509
▁restricting	-11510
▁restriction	-11511
▁retributive	-11512
▁rhinoplasty	-11513
▁sensitivity	-11514
▁specialized	-11515
▁speculation	-11516
▁speculative	-11517
▁subordinate	-11518
▁substitutes	-11519
▁superpowers	-11520
▁supervising	-11521
▁temperature	-11522
▁terminating	-11523
▁territorial	-11524
▁threatening	-11525
▁thumbsticks	-11526
▁tranquility	-11527
▁transplants	-11528
▁undermining	-11529
▁underpaying	-11530
▁undoubtedly	-11531
▁unfailingly	-11532
▁unfortunate	-11533
▁ventilators	-11534
▁wrecklessly	-11535
askhistorians	-11536
demonstration	-11537
nationalities	-11538
participating	-11539
skinnylicious	-11540
▁Chimichangas	-11541
▁Constitution	-11542
▁Copywrighted	-11543
▁Distributing	-11544
▁Economically	-11545
▁FoodEveryone	-11546
▁Intelligence	-11547
▁Neighborhood	-11548
▁Presidential	-11549
▁Standardized	-11550
▁Surprisingly	-11551
▁Thanksgiving	-11552
▁achievements	-11553
▁acknowledged	-11554
▁annihilating	-11555
▁appreciating	-11556
▁architecture	-11557
▁arrangements	-11558
▁associations	-11559
▁attributable	-11560
▁augmentation	-11561
▁availability	-11562
▁beneficially	-11563
▁calculations	-11564
▁catastrophic	-11565
▁circumstance	-11566
▁circumvented	-11567
▁cockfighting	-11568
▁commencement	-11569
▁communicated	-11570
▁concentrated	-11571
▁consequently	-11572
▁conservative	-11573
▁considerably	-11574
▁constituents	-11575
▁contribution	-11576
▁corporations	-11577
▁developments	-11578
▁disinfectant	-11579
▁dissapointed	-11580
▁distributing	-11581
▁dramatically	-11582
▁encountering	-11583
▁enhancements	-11584
▁enlightening	-11585
▁environments	-11586
▁foreclosures	-11587
▁fraternities	-11588
▁functionally	-11589
▁gIngredients	-11590
▁geographical	-11591
▁grandparents	-11592
▁guardianship	-11593
▁heterosexual	-11594
▁hypocritical	-11595
▁implications	-11596
▁inconsistent	-11597
▁indisputable	-11598
▁individually	-11599
▁inflammatory	-11600
▁interpreting	-11601
▁intervention	-11602
▁intimidation	-11603
▁jurisdiction	-11604
▁kindergarten	-11605
▁knowledgable	-11606
▁libertarians	-11607
▁malnourished	-11608
▁manufactured	-11609
▁memorization	-11610
▁monopolistic	-11611
▁organisation	-11612
▁organization	-11613
▁palestinians	-11614
▁palistinians	-11615
▁passionately	-11616
▁philosophies	-11617
▁premeditated	-11618
▁presidential	-11619
▁protectorate	-11620
▁punnishments	-11621
▁rehabiliting	-11622
▁reponsiblity	-11623
▁representing	-11624
▁standardized	-11625
▁strategizing	-11626
▁stubbornness	-11627
▁sympathisers	-11628
▁technologies	-11629
▁transmission	-11630
▁unfathomable	-11631
discriminatory	-11632
friendsjournal	-11633
identification	-11634
▁Realistically	-11635
▁Scientologist	-11636
▁acknowledging	-11637
▁architectural	-11638
▁attentiveness	-11639
▁complications	-11640
▁comprehensive	-11641
▁consideration	-11642
▁contamination	-11643
▁contraception	-11644
▁contradictory	-11645
▁contributions	-11646
▁destabilizing	-11647
▁disadvantaged	-11648
▁disapointment	-11649
▁disappointing	-11650
▁documentaries	-11651
▁documentation	-11652
▁embarassingly	-11653
▁entertainment	-11654
▁extendibility	-11655
▁extraordinary	-11656
▁imperfections	-11657
▁inappropriate	-11658
▁incentivizing	-11659
▁independently	-11660
▁intelligently	-11661
▁intentionally	-11662
▁intrinsically	-11663
▁investigation	-11664
▁manufactoring	-11665
▁manufacturing	-11666
▁microchipping	-11667
▁mismanagement	-11668
▁nationalistic	-11669
▁organisations	-11670
▁organizations	-11671
▁pediatricians	-11672
▁possibilities	-11673
▁predominantly	-11674
▁repercussions	-11675
▁significantly	-11676
▁socialization	-11677
▁sophisticated	-11678
▁speculatively	-11679
▁strengthening	-11680
▁substantially	-11681
▁technological	-11682
▁unfortunately	-11683
▁victimization	-11684
interpretations	-11685
unintentionally	-11686
▁administration	-11687
▁archaeological	-11688
▁attractiveness	-11689
▁cinematography	-11690
▁considerations	-11691
▁constitutional	-11692
▁contradictions	-11693
▁decriminalized	-11694
▁fundamentalism	-11695
▁gerrymandering	-11696
▁hyperinflation	-11697
▁identification	-11698
▁illegalization	-11699
▁implementation	-11700
▁impressionable	-11701
▁indoctrination	-11702
▁infrastructure	-11703
▁professionally	-11704
▁rehabilitation	-11705
▁representation	-11706
▁responsibilily	-11707
▁stomachoverall	-11708
▁transportation	-11709
▁understandable	-11710
▁Neuroscientists	-11711
▁anotherguardian	-11712
▁characteristics	-11713
▁functionalities	-11714
▁incompatibility	-11715
▁philosophically	-11716
▁underperforming	-11717
▁page	-11718
▁preserve	-11719
▁communicate	-11720
20,	-11721
20/	-11722
471	-11723
5.1	-11724
7.5	-11725
77.	-11726
9.5	-11727
AIT	-11728
Dem	-11729
EAS	-11730
EDI	-11731
ERE	-11732
HER	-11733
HOO	-11734
ICE	-11735
IGH	-11736
KEN	-11737
NIT	-11738
OCE	-11739
RLY	-11740
TAR	-11741
TEN	-11742
UTH	-11743
YON	-11744
coh	-11745
dds	-11746
gaz	-11747
nny	-11748
scu	-11749
sho	-11750
tsd	-11751
▁42	-11752
▁7.	-11753
▁8:	-11754
▁9-	-11755
▁VE	-11756
▁Ve	-11757
▁Vi	-11758
/201	-11759
000.	-11760
4718	-11761
ANAS	-11762
Assu	-11763
ERYB	-11764
LEAS	-11765
LLEG	-11766
ONSI	-11767
OTEN	-11768
abys	-11769
alax	-11770
alys	-11771
angs	-11772
barr	-11773
becc	-11774
chas	-11775
coun	-11776
demn	-11777
ecca	-11778
elev	-11779
eorg	-11780
espe	-11781
exic	-11782
fied	-11783
ggie	-11784
grav	-11785
hopp	-11786
hrop	-11787
ietn	-11788
ilds	-11789
joys	-11790
lash	-11791
lebr	-11792
lerl	-11793
male	-11794
mark	-11795
noun	-11796
oids	-11797
olls	-11798
onne	-11799
loe	-11800
lts	-11801
ngl	-11802
ansp	-11803
ccup	-11804
jora	-11805
olds	-11806
osph	-11807
ouls	-11808
ounc	-11809
pair	-11810
picy	-11811
piec	-11812
pric	-11813
rges	-11814
risp	-11815
rock	-11816
serv	-11817
sets	-11818
sics	-11819
spir	-11820
uicy	-11821
urts	-11822
ushc	-11823
ussi	-11824
veto	-11825
viet	-11826
vior	-11827
xiom	-11828
yway	-11829
▁10-	-11830
▁10/	-11831
▁15-	-11832
▁193	-11833
▁201	-11834
▁30.	-11835
▁50/	-11836
▁Adv	-11837
▁Blu	-11838
▁COL	-11839
▁Exa	-11840
▁FOO	-11841
▁GOO	-11842
▁IMM	-11843
▁LAS	-11844
▁Naz	-11845
▁Ofc	-11846
▁Rem	-11847
▁SPI	-11848
▁SSI	-11849
▁STO	-11850
▁STU	-11851
▁Spe	-11852
▁Tup	-11853
▁UNI	-11854
▁Unf	-11855
▁Vac	-11856
▁Veg	-11857
▁Ver	-11858
▁avo	-11859
▁gyo	-11860
▁hyb	-11861
▁hyd	-11862
▁kne	-11863
▁pho	-11864
▁sla	-11865
▁swo	-11866
▁ult	-11867
▁wip	-11868
▁yea	-11869
!____	-11870
Donal	-11871
Incre	-11872
LLEGA	-11873
LLISI	-11874
aimed	-11875
ajast	-11876
ajora	-11877
alize	-11878
ammat	-11879
andma	-11880
annot	-11881
anoid	-11882
apole	-11883
arina	-11884
atric	-11885
aults	-11886
ausal	-11887
ayman	-11888
bersS	-11889
bited	-11890
bodys	-11891
brate	-11892
cared	-11893
cines	-11894
claim	-11895
clers	-11896
cohol	-11897
ctric	-11898
democ	-11899
aws	-11900
kaw	-11901
wee	-11902
awat	-11903
away	-11904
ccas	-11905
ccur	-11906
cove	-11907
ginn	-11908
ilib	-11909
nfor	-11910
owls	-11911
sday	-11912
▁fla	-11913
▁ski	-11914
ENTIA	-11915
awful	-11916
bings	-11917
dling	-11918
eavor	-11919
ecake	-11920
econd	-11921
ecube	-11922
emper	-11923
enari	-11924
enied	-11925
epson	-11926
esday	-11927
estee	-11928
etrat	-11929
factu	-11930
fined	-11931
ganis	-11932
ganiz	-11933
ggong	-11934
ginal	-11935
gnant	-11936
grabb	-11937
grams	-11938
habil	-11939
hands	-11940
heese	-11941
hieve	-11942
hilos	-11943
holes	-11944
hones	-11945
hrush	-11946
hysic	-11947
icien	-11948
ilily	-11949
imili	-11950
inatt	-11951
inery	-11952
inner	-11953
iolog	-11954
ircum	-11955
isjud	-11956
isuse	-11957
itics	-11958
ividu	-11959
jarat	-11960
journ	-11961
joyed	-11962
juana	-11963
judic	-11964
kemon	-11965
krain	-11966
layst	-11967
ldogs	-11968
lians	-11969
lings	-11970
llino	-11971
loads	-11972
lower	-11973
ludes	-11974
manag	-11975
marri	-11976
matog	-11977
mbles	-11978
moniz	-11979
monst	-11980
month	-11981
ngine	-11982
ngred	-11983
nings	-11984
ognis	-11985
ognit	-11986
ogniz	-11987
ogurt	-11988
ohnny	-11989
oicer	-11990
oices	-11991
oided	-11992
oints	-11993
okers	-11994
ompal	-11995
ompan	-11996
omput	-11997
ontal	-11998
orway	-11999
,!!	-12000
ibi	-12001
rte	-12002
sIf	-12003
spl	-12004
xte	-12005
▁3-	-12006
aphy	-12007
cedu	-12008
ilte	-12009
lsew	-12010
nsel	-12011
ophy	-12012
plin	-12013
roys	-12014
tely	-12015
vise	-12016
xtra	-12017
ypes	-12018
▁Lib	-12019
▁Phy	-12020
▁Typ	-12021
▁phy	-12022
aited	-12023
axing	-12024
careE	-12025
endib	-12026
iblic	-12027
mploy	-12028
ntern	-12029
olism	-12030
omise	-12031
ontre	-12032
orced	-12033
ospit	-12034
owerm	-12035
owork	-12036
pared	-12037
peech	-12038
plant	-12039
pline	-12040
plish	-12041
ploma	-12042
racti	-12043
ralia	-12044
raphy	-12045
ratch	-12046
ratic	-12047
rator	-12048
rehen	-12049
relev	-12050
rengt	-12051
reshm	-12052
resta	-12053
ribed	-12054
rific	-12055
rigin	-12056
ringf	-12057
rised	-12058
riter	-12059
rochi	-12060
rogen	-12061
ropri	-12062
ships	-12063
ssing	-12064
sterp	-12065
tedly	-12066
terns	-12067
ultip	-12068
ungry	-12069
unici	-12070
uries	-12071
ushro	-12072
uthor	-12073
vaged	-12074
vices	-12075
vider	-12076
vides	-12077
vited	-12078
wards	-12079
ximum	-12080
yball	-12081
yists	-12082
▁100,	-12083
▁2006	-12084
▁2018	-12085
▁9.52	-12086
▁Alli	-12087
▁Anak	-12088
▁Bait	-12089
▁CMVE	-12090
▁Chri	-12091
▁Chur	-12092
▁Dais	-12093
▁Fair	-12094
▁File	-12095
▁Guid	-12096
▁Heal	-12097
▁Isra	-12098
▁Isre	-12099
006	-12100
5).	-12101
600	-12102
800	-12103
:00	-12104
swe	-12105
!!!)	-12106
aits	-12107
atib	-12108
bits	-12109
bute	-12110
cked	-12111
cute	-12112
eech	-12113
ergr	-12114
evel	-12115
fath	-12116
fute	-12117
grad	-12118
gral	-12119
grou	-12120
issi	-12121
ketb	-12122
many	-12123
mits	-12124
oked	-12125
pany	-12126
quee	-12127
rugs	-12128
uits	-12129
valu	-12130
word	-12131
▁CLE	-12132
▁Ott	-12133
alked	-12134
athro	-12135
atute	-12136
fford	-12137
gular	-12138
issed	-12139
ooter	-12140
orked	-12141
ulars	-12142
ussel	-12143
utely	-12144
▁1973	-12145
▁Diss	-12146
▁Kill	-12147
▁Miss	-12148
▁Pilg	-12149
▁Poly	-12150
▁Real	-12151
▁Reme	-12152
▁Requ	-12153
▁Sixt	-12154
▁Spec	-12155
▁Ston	-12156
▁airf	-12157
▁alte	-12158
▁auth	-12159
▁barg	-12160
▁bath	-12161
▁brea	-12162
▁busi	-12163
▁caes	-12164
▁cove	-12165
▁crac	-12166
▁cras	-12167
▁curr	-12168
▁curs	-12169
▁curv	-12170
▁diab	-12171
▁diar	-12172
▁dipp	-12173
▁dogg	-12174
▁egot	-12175
▁eleg	-12176
▁elev	-12177
▁empi	-12178
▁entr	-12179
▁envi	-12180
▁este	-12181
▁excl	-12182
▁foet	-12183
▁foll	-12184
▁fond	-12185
▁foss	-12186
▁gasp	-12187
▁indo	-12188
▁ingr	-12189
▁inno	-12190
▁judg	-12191
▁larg	-12192
▁lett	-12193
▁lowe	-12194
▁matt	-12195
▁midd	-12196
▁mism	-12197
▁mund	-12198
▁musc	-12199
MVE	-12200
eav	-12201
▁Ja	-12202
Amer	-12203
avan	-12204
avel	-12205
conn	-12206
emen	-12207
isbe	-12208
mmer	-12209
ohes	-12210
perc	-12211
perm	-12212
perv	-12213
piso	-12214
pute	-12215
ribe	-12216
rors	-12217
vors	-12218
yper	-12219
▁Isl	-12220
▁fav	-12221
▁iPh	-12222
adget	-12223
alcon	-12224
auces	-12225
avell	-12226
avity	-12227
avory	-12228
belie	-12229
ctors	-12230
ervat	-12231
fense	-12232
ilies	-12233
merce	-12234
ncing	-12235
nihil	-12236
ommer	-12237
onors	-12238
ooper	-12239
orces	-12240
ouple	-12241
perin	-12242
rimes	-12243
rooms	-12244
views	-12245
▁Amer	-12246
▁Oper	-12247
▁econ	-12248
▁pedi	-12249
▁peps	-12250
▁pilg	-12251
▁pull	-12252
▁redd	-12253
▁repa	-12254
▁root	-12255
▁runn	-12256
▁salm	-12257
▁seaf	-12258
▁secu	-12259
▁slee	-12260
▁spea	-12261
▁subj	-12262
▁sudd	-12263
▁sugg	-12264
▁symb	-12265
▁tapi	-12266
▁tatt	-12267
▁trib	-12268
▁unaw	-12269
▁vacc	-12270
▁waiv	-12271
ENTIAL	-12272
abinet	-12273
adicts	-12274
adison	-12275
ainten	-12276
alists	-12277
allows	-12278
alsify	-12279
althyw	-12280
amatic	-12281
andwic	-12282
apenos	-12283
ariety	-12284
arkest	-12285
arthly	-12286
artici	-12287
artoon	-12288
astime	-12289
asures	-12290
atform	-12291
atized	-12292
attles	-12293
aulted	-12294
awater	-12295
ayered	-12296
bertar	-12297
cipals	-12298
ciples	-12299
TED	-12300
rks	-12301
Doct	-12302
GHTS	-12303
affe	-12304
efic	-12305
fuse	-12306
gery	-12307
hief	-12308
otts	-12309
perp	-12310
rief	-12311
tled	-12312
▁bug	-12313
▁bui	-12314
▁obj	-12315
▁obn	-12316
▁obt	-12317
▁obv	-12318
▁scr	-12319
HANAS	-12320
Human	-12321
adily	-12322
althc	-12323
arger	-12324
cepti	-12325
cepts	-12326
erien	-12327
eship	-12328
hanks	-12329
ndled	-12330
rizon	-12331
suits	-12332
umane	-12333
versa	-12334
vince	-12335
▁Amid	-12336
▁bigg	-12337
▁blan	-12338
▁blar	-12339
▁buil	-12340
▁bull	-12341
▁desc	-12342
▁desi	-12343
▁drag	-12344
▁drun	-12345
▁easi	-12346
▁scor	-12347
▁smar	-12348
acelet	-12349
citing	-12350
ckless	-12351
ctness	-12352
ctures	-12353
cument	-12354
deling	-12355
demned	-12356
derers	-12357
eavors	-12358
ecuted	-12359
ecutes	-12360
edible	-12361
edings	-12362
eeping	-12363
empted	-12364
encing	-12365
enefit	-12366
eneral	-12367
eneric	-12368
enings	-12369
enship	-12370
ensors	-12371
erably	-12372
ercise	-12373
erhaps	-12374
ermany	-12375
erring	-12376
ersise	-12377
ertise	-12378
ervice	-12379
eservo	-12380
espite	-12381
essors	-12382
estern	-12383
ethods	-12384
etizer	-12385
exican	-12386
factor	-12387
fident	-12388
forces	-12389
gative	-12390
geries	-12391
gramme	-12392
grated	-12393
hening	-12394
hfully	-12395
hibits	-12396
holism	-12397
hority	-12398
hrined	-12399
002	-12400
___	-12401
raf	-12402
rai	-12403
sra	-12404
tra	-12405
▁__	-12406
Raff	-12407
acra	-12408
aily	-12409
ansf	-12410
bian	-12411
blig	-12412
hedu	-12413
icts	-12414
igns	-12415
ligi	-12416
lown	-12417
mThe	-12418
noon	-12419
odys	-12420
olig	-12421
ownl	-12422
ownp	-12423
peed	-12424
rait	-12425
raor	-12426
rawn	-12427
shed	-12428
thed	-12429
▁Alm	-12430
▁Gra	-12431
▁aug	-12432
▁htt	-12433
arned	-12434
asily	-12435
balan	-12436
dates	-12437
ermin	-12438
ftern	-12439
guing	-12440
higan	-12441
icted	-12442
ignat	-12443
igner	-12444
ignif	-12445
inian	-12446
ligat	-12447
ligiz	-12448
minat	-12449
neaks	-12450
othed	-12451
relig	-12452
ronic	-12453
ructs	-12454
uates	-12455
visor	-12456
▁Mari	-12457
▁Raff	-12458
▁accu	-12459
▁angu	-12460
▁bask	-12461
▁boun	-12462
▁cele	-12463
▁symp	-12464
▁warr	-12465
adband	-12466
affing	-12467
ardian	-12468
arning	-12469
carina	-12470
gument	-12471
iately	-12472
iative	-12473
iavola	-12474
iciary	-12475
icidal	-12476
iculty	-12477
ifully	-12478
igrant	-12479
ilding	-12480
ileage	-12481
ilibri	-12482
iminis	-12483
inessm	-12484
inform	-12485
inimum	-12486
iolent	-12487
isfact	-12488
issing	-12489
istina	-12490
istrib	-12491
itcoin	-12492
itiate	-12493
itives	-12494
itness	-12495
ituted	-12496
joring	-12497
joying	-12498
judice	-12499
OOL	-12500
Tob	-12501
cog	-12502
loc	-12503
moc	-12504
mog	-12505
noc	-12506
obe	-12507
obs	-12508
obv	-12509
ocr	-12510
oga	-12511
poc	-12512
atog	-12513
enoc	-12514
mbre	-12515
ocke	-12516
oget	-12517
onsm	-12518
sert	-12519
tons	-12520
xual	-12521
▁(!!	-12522
▁Dog	-12523
▁Lob	-12524
▁Tob	-12525
▁awa	-12526
▁hob	-12527
▁hoc	-12528
abian	-12529
anian	-12530
apons	-12531
arian	-12532
cents	-12533
ctual	-12534
idial	-12535
idual	-12536
ients	-12537
isual	-12538
ogist	-12539
onses	-12540
onsin	-12541
ornog	-12542
plice	-12543
stian	-12544
▁Cert	-12545
▁Dian	-12546
▁appo	-12547
▁awes	-12548
▁cert	-12549
▁cloc	-12550
▁enem	-12551
▁harr	-12552
▁incl	-12553
▁medi	-12554
▁nons	-12555
cedure	-12556
culate	-12557
essons	-12558
ferred	-12559
hysics	-12560
iality	-12561
idents	-12562
juries	-12563
keters	-12564
lastic	-12565
lcomes	-12566
ledged	-12567
lerant	-12568
ligous	-12569
listic	-12570
llness	-12571
llowed	-12572
lready	-12573
luding	-12574
luence	-12575
lution	-12576
matory	-12577
mature	-12578
mended	-12579
merged	-12580
merica	-12581
missed	-12582
miting	-12583
necess	-12584
nesses	-12585
nitely	-12586
nivers	-12587
nology	-12588
oading	-12589
obbies	-12590
ocents	-12591
ocking	-12592
ocrats	-12593
ogical	-12594
oiding	-12595
okemon	-12596
oldind	-12597
ollege	-12598
omeown	-12599
LUN	-12600
nia	-12601
atia	-12602
awed	-12603
cary	-12604
chil	-12605
edia	-12606
iewp	-12607
okes	-12608
opia	-12609
ornn	-12610
pons	-12611
rary	-12612
razy	-12613
ukes	-12614
ulti	-12615
urno	-12616
volu	-12617
adian	-12618
alary	-12619
anley	-12620
beral	-12621
dress	-12622
etail	-12623
ffici	-12624
galiz	-12625
iavol	-12626
inary	-12627
lance	-12628
onser	-12629
orner	-12630
overn	-12631
press	-12632
redib	-12633
ultit	-12634
ultur	-12635
verns	-12636
volut	-12637
volve	-12638
xible	-12639
▁Evol	-12640
▁Russ	-12641
▁burn	-12642
▁mari	-12643
▁mark	-12644
▁morn	-12645
▁payr	-12646
▁perj	-12647
▁perm	-12648
▁surr	-12649
entail	-12650
erance	-12651
errent	-12652
essary	-12653
gizing	-12654
iology	-12655
ollars	-12656
ominic	-12657
onding	-12658
onserv	-12659
onsibl	-12660
onsist	-12661
opeful	-12662
option	-12663
orably	-12664
orages	-12665
orians	-12666
orists	-12667
orkers	-12668
osphor	-12669
ostile	-12670
otball	-12671
ouchst	-12672
oughtY	-12673
oughts	-12674
ounsel	-12675
ouples	-12676
ourced	-12677
owhere	-12678
owsing	-12679
oxious	-12680
perman	-12681
plorer	-12682
porate	-12683
ppress	-12684
quates	-12685
ractor	-12686
ranted	-12687
raphic	-12688
rators	-12689
readth	-12690
reamed	-12691
reland	-12692
remony	-12693
ressly	-12694
rested	-12695
rician	-12696
rifice	-12697
rilled	-12698
rising	-12699
akd	-12700
aks	-12701
nak	-12702
noy	-12703
oye	-12704
oyf	-12705
oys	-12706
akes	-12707
avit	-12708
hick	-12709
ickn	-12710
iens	-12711
kets	-12712
oyer	-12713
renc	-12714
sens	-12715
tens	-12716
uish	-12717
▁Att	-12718
▁Dow	-12719
▁Duc	-12720
▁Inc	-12721
▁Inv	-12722
▁Kat	-12723
▁nak	-12724
antee	-12725
enshi	-12726
ensit	-12727
ensiv	-12728
ensor	-12729
erren	-12730
inish	-12731
itish	-12732
izens	-12733
moned	-12734
orian	-12735
ormal	-12736
ormit	-12737
oying	-12738
perse	-12739
ullet	-12740
voted	-12741
▁attr	-12742
▁cens	-12743
▁impa	-12744
▁impe	-12745
▁litt	-12746
▁reco	-12747
▁socc	-12748
▁tick	-12749
apists	-12750
bition	-12751
ensory	-12752
gerous	-12753
intens	-12754
orance	-12755
orming	-12756
osophy	-12757
ptance	-12758
risket	-12759
rition	-12760
rivers	-12761
rorist	-12762
rowing	-12763
rtured	-12764
ruggle	-12765
secute	-12766
sequen	-12767
siders	-12768
solute	-12769
soners	-12770
spects	-12771
spired	-12772
storic	-12773
tained	-12774
target	-12775
ternat	-12776
tiness	-12777
uality	-12778
udaism	-12779
ultery	-12780
ulture	-12781
umbest	-12782
umvent	-12783
unlike	-12784
unning	-12785
upport	-12786
upreme	-12787
urgers	-12788
urning	-12789
urrent	-12790
usband	-12791
ustody	-12792
ustoms	-12793
vately	-12794
velops	-12795
venues	-12796
verely	-12797
verifi	-12798
versit	-12799
Dru	-12800
Sub	-12801
Tub	-12802
bey	-12803
cru	-12804
ubb	-12805
ubo	-12806
▁De	-12807
▁Di	-12808
▁LA	-12809
▁Lo	-12810
anip	-12811
bert	-12812
cals	-12813
eals	-12814
ecub	-12815
ensi	-12816
free	-12817
gien	-12818
inte	-12819
ints	-12820
merg	-12821
nost	-12822
onds	-12823
orru	-12824
post	-12825
stem	-12826
stru	-12827
▁Dam	-12828
▁Dar	-12829
▁Div	-12830
▁Dom	-12831
▁Dri	-12832
▁Ira	-12833
▁Lot	-12834
▁Lun	-12835
▁Sov	-12836
▁cru	-12837
▁pub	-12838
alacc	-12839
anger	-12840
atian	-12841
deals	-12842
erals	-12843
imals	-12844
inste	-12845
inten	-12846
nical	-12847
orals	-12848
pical	-12849
sical	-12850
stems	-12851
ubers	-12852
▁List	-12853
▁Lous	-12854
▁Nint	-12855
▁brag	-12856
▁brot	-12857
▁brou	-12858
▁brow	-12859
▁brun	-12860
▁club	-12861
▁decl	-12862
▁deco	-12863
▁sals	-12864
conomy	-12865
edical	-12866
intend	-12867
itical	-12868
mother	-12869
ooting	-12870
ostess	-12871
others	-12872
ources	-12873
owners	-12874
rassil	-12875
reeing	-12876
versus	-12877
vertis	-12878
volves	-12879
wapped	-12880
warded	-12881
xtures	-12882
xually	-12883
yclers	-12884
yright	-12885
▁10/20	-12886
▁Algor	-12887
▁Alyss	-12888
▁CLEAR	-12889
▁Cance	-12890
▁Chick	-12891
▁Claim	-12892
▁Donal	-12893
▁FoodE	-12894
▁Frank	-12895
▁Georg	-12896
▁Healt	-12897
▁Human	-12898
▁Hypoc	-12899
500	-12900
aft	-12901
akn	-12902
egr	-12903
lue	-12904
xtu	-12905
▁GN	-12906
▁GO	-12907
alty	-12908
cens	-12909
ears	-12910
eful	-12911
erty	-12912
ilty	-12913
kful	-12914
lint	-12915
mful	-12916
mory	-12917
mpty	-12918
nish	-12919
omob	-12920
oryl	-12921
otty	-12922
wear	-12923
wned	-12924
wner	-12925
▁Gal	-12926
▁Gat	-12927
▁Gen	-12928
▁Ger	-12929
▁Gil	-12930
▁Goo	-12931
▁Gor	-12932
▁chr	-12933
ammed	-12934
amory	-12935
cated	-12936
ccord	-12937
ceful	-12938
eason	-12939
gated	-12940
henom	-12941
icaly	-12942
inted	-12943
lated	-12944
meful	-12945
orful	-12946
pated	-12947
ppear	-12948
rance	-12949
seful	-12950
tless	-12951
wners	-12952
▁Comm	-12953
▁crim	-12954
▁empl	-12955
▁pear	-12956
▁resh	-12957
▁watc	-12958
aceful	-12959
ainful	-12960
areful	-12961
chools	-12962
choolw	-12963
eating	-12964
ership	-12965
erties	-12966
imless	-12967
inated	-12968
ndless	-12969
nities	-12970
ortory	-12971
ourful	-12972
reason	-12973
roatia	-12974
seless	-12975
tually	-12976
ulated	-12977
undane	-12978
ything	-12979
▁COLLI	-12980
▁Inter	-12981
▁Israe	-12982
▁Journ	-12983
▁MIchi	-12984
▁Musli	-12985
▁Ottom	-12986
▁Phelp	-12987
▁Phoen	-12988
▁Relig	-12989
▁Sland	-12990
▁Sport	-12991
▁UNIFO	-12992
▁Willi	-12993
▁acade	-12994
▁accor	-12995
▁admin	-12996
▁advan	-12997
▁altog	-12998
▁amans	-12999
Duc	-13000
Due	-13001
Luc	-13002
NAS	-13003
giz	-13004
izn	-13005
izz	-13006
ruc	-13007
siz	-13008
aliz	-13009
alue	-13010
aniz	-13011
atiz	-13012
blic	-13013
bted	-13014
clic	-13015
harg	-13016
harl	-13017
harm	-13018
hful	-13019
imiz	-13020
inue	-13021
irel	-13022
iviz	-13023
lici	-13024
lict	-13025
licy	-13026
mire	-13027
oriz	-13028
pass	-13029
tory	-13030
ylic	-13031
▁CMM	-13032
▁luc	-13033
arlic	-13034
assar	-13035
assif	-13036
assro	-13037
ecass	-13038
esire	-13039
fflic	-13040
harac	-13041
irear	-13042
lican	-13043
licit	-13044
liciz	-13045
mplic	-13046
quhar	-13047
soned	-13048
ucate	-13049
ucers	-13050
vated	-13051
▁Fire	-13052
▁Shar	-13053
▁YouT	-13054
▁choc	-13055
▁diag	-13056
▁shuc	-13057
▁stuc	-13058
▁tens	-13059
assion	-13060
edient	-13061
everag	-13062
harity	-13063
icated	-13064
indire	-13065
leting	-13066
licate	-13067
licity	-13068
mpting	-13069
otherg	-13070
oyable	-13071
reting	-13072
ritish	-13073
ruptcy	-13074
▁Belie	-13075
▁anony	-13076
▁appli	-13077
▁appre	-13078
▁assur	-13079
▁attri	-13080
▁await	-13081
▁betwe	-13082
▁bigot	-13083
▁blant	-13084
▁bouti	-13085
▁breed	-13086
▁bulle	-13087
▁chanc	-13088
▁chang	-13089
▁chees	-13090
▁chick	-13091
▁choos	-13092
▁chugg	-13093
▁cohes	-13094
▁concl	-13095
▁corre	-13096
▁corru	-13097
▁decen	-13098
▁defen	-13099
Pep	-13100
agg	-13101
ags	-13102
eag	-13103
gry	-13104
ksg	-13105
mag	-13106
oep	-13107
rys	-13108
vag	-13109
acho	-13110
agon	-13111
amag	-13112
anag	-13113
arry	-13114
enry	-13115
eply	-13116
erry	-13117
itti	-13118
lved	-13119
mage	-13120
nite	-13121
pite	-13122
rite	-13123
urry	-13124
vegg	-13125
▁Alz	-13126
▁Mag	-13127
▁Spr	-13128
▁pag	-13129
▁pep	-13130
▁poc	-13131
▁qui	-13132
▁wag	-13133
achot	-13134
agine	-13135
amage	-13136
antag	-13137
arcon	-13138
assal	-13139
assau	-13140
assen	-13141
asses	-13142
assic	-13143
assil	-13144
inite	-13145
irsts	-13146
leage	-13147
olite	-13148
omach	-13149
ordon	-13150
polog	-13151
riage	-13152
roach	-13153
rying	-13154
ryone	-13155
ustry	-13156
verag	-13157
▁equi	-13158
▁nach	-13159
▁plag	-13160
▁poet	-13161
▁poin	-13162
▁pois	-13163
▁pref	-13164
▁preg	-13165
▁pret	-13166
▁quic	-13167
▁recy	-13168
▁syru	-13169
ackage	-13170
antage	-13171
assing	-13172
assive	-13173
endage	-13174
icroso	-13175
lawful	-13176
ourage	-13177
ourite	-13178
rossed	-13179
▁Aladd	-13180
▁annoy	-13181
▁chann	-13182
▁delic	-13183
▁depri	-13184
▁desec	-13185
▁diagn	-13186
▁disbe	-13187
▁downl	-13188
▁downp	-13189
▁effic	-13190
▁emerg	-13191
▁emiss	-13192
▁empat	-13193
▁empow	-13194
▁enfor	-13195
▁entit	-13196
▁entre	-13197
▁episo	-13198
▁equip	-13199
"..	-13200
cool	-13201
dles	-13202
eens	-13203
fool	-13204
hine	-13205
hlic	-13206
hose	-13207
inem	-13208
nste	-13209
oolg	-13210
ools	-13211
oolw	-13212
pose	-13213
succ	-13214
tune	-13215
yste	-13216
zine	-13217
▁cla	-13218
▁clo	-13219
aples	-13220
atine	-13221
auses	-13222
bious	-13223
creat	-13224
ecure	-13225
eight	-13226
gious	-13227
ights	-13228
ilure	-13229
inear	-13230
ineer	-13231
isled	-13232
kness	-13233
omiss	-13234
oolis	-13235
orned	-13236
osely	-13237
ounts	-13238
ppose	-13239
reatu	-13240
selfs	-13241
sight	-13242
ucing	-13243
warma	-13244
xious	-13245
▁Bure	-13246
▁afra	-13247
▁cine	-13248
▁cler	-13249
▁clou	-13250
▁disb	-13251
▁disg	-13252
▁disr	-13253
▁fool	-13254
▁manu	-13255
▁meth	-13256
▁pure	-13257
▁wrot	-13258
acture	-13259
encool	-13260
enture	-13261
erious	-13262
estine	-13263
fended	-13264
ferent	-13265
ighten	-13266
igious	-13267
igners	-13268
ineers	-13269
ompany	-13270
oodles	-13271
ooling	-13272
orical	-13273
ountri	-13274
outine	-13275
reaten	-13276
reates	-13277
▁Eight	-13278
▁conte	-13279
▁disci	-13280
▁disli	-13281
▁elsew	-13282
▁estee	-13283
▁estim	-13284
▁evalu	-13285
▁examp	-13286
▁explo	-13287
▁extre	-13288
▁falli	-13289
▁femal	-13290
▁finan	-13291
▁forec	-13292
▁foreg	-13293
▁fount	-13294
▁frank	-13295
▁freed	-13296
▁fritt	-13297
▁funda	-13298
▁giant	-13299
0-7	-13300
Liv	-13301
abi	-13302
aby	-13303
bab	-13304
buc	-13305
cab	-13306
cot	-13307
div	-13308
iab	-13309
ivi	-13310
rms	-13311
siv	-13312
ssu	-13313
suc	-13314
sue	-13315
viv	-13316
▁Dy	-13317
abid	-13318
abor	-13319
ardi	-13320
ardl	-13321
atab	-13322
atte	-13323
ceiv	-13324
erab	-13325
eyon	-13326
iary	-13327
ideo	-13328
ilab	-13329
ivic	-13330
ivis	-13331
ivit	-13332
ivor	-13333
lide	-13334
loys	-13335
mine	-13336
ndiv	-13337
orab	-13338
orno	-13339
otiv	-13340
raws	-13341
stab	-13342
sues	-13343
suic	-13344
uard	-13345
ursu	-13346
▁Luc	-13347
▁Rib	-13348
▁cab	-13349
▁giv	-13350
▁gra	-13351
abies	-13352
ardro	-13353
bates	-13354
ecide	-13355
entiv	-13356
estab	-13357
heard	-13358
ideos	-13359
iomet	-13360
ivate	-13361
ivide	-13362
outub	-13363
suing	-13364
urrit	-13365
▁Alth	-13366
▁chie	-13367
▁ensu	-13368
▁gard	-13369
▁gram	-13370
▁grou	-13371
▁stag	-13372
▁ward	-13373
▁wide	-13374
andard	-13375
antial	-13376
ciated	-13377
eopard	-13378
health	-13379
iction	-13380
ivable	-13381
ometim	-13382
plines	-13383
raving	-13384
riteri	-13385
ustard	-13386
▁Parli	-13387
▁assau	-13388
▁consu	-13389
▁grate	-13390
▁greas	-13391
▁grist	-13392
▁hardw	-13393
▁hesit	-13394
▁homem	-13395
▁hybri	-13396
▁hydro	-13397
▁ideol	-13398
▁illeg	-13399
Lu	-13400
Ou	-13401
Aid	-13402
Eit	-13403
ONS	-13404
Off	-13405
ayo	-13406
eke	-13407
equ	-13408
ghb	-13409
idi	-13410
idn	-13411
idu	-13412
ike	-13413
iml	-13414
kep	-13415
khi	-13416
lop	-13417
lso	-13418
mid	-13419
nac	-13420
pke	-13421
rud	-13422
sid	-13423
thc	-13424
uid	-13425
vid	-13426
xpl	-13427
▁DM	-13428
▁NE	-13429
▁Ti	-13430
▁es	-13431
acat	-13432
acul	-13433
anen	-13434
arin	-13435
ctit	-13436
date	-13437
ecid	-13438
fair	-13439
ghly	-13440
high	-13441
icky	-13442
iver	-13443
kely	-13444
ontr	-13445
oobs	-13446
ppet	-13447
rian	-13448
stac	-13449
thou	-13450
ture	-13451
udes	-13452
▁Hin	-13453
▁ang	-13454
▁hea	-13455
▁hef	-13456
▁hel	-13457
▁nac	-13458
▁sta	-13459
▁sty	-13460
▁sug	-13461
aises	-13462
gions	-13463
ithou	-13464
itute	-13465
ometr	-13466
orith	-13467
riday	-13468
uding	-13469
ukher	-13470
veryt	-13471
▁notA	-13472
▁stom	-13473
▁taxp	-13474
▁thre	-13475
Rather	-13476
erning	-13477
isited	-13478
kfully	-13479
opping	-13480
▁McDon	-13481
▁Telev	-13482
▁deont	-13483
▁enhan	-13484
▁immor	-13485
▁imple	-13486
▁impli	-13487
▁impos	-13488
▁impri	-13489
▁incor	-13490
▁incum	-13491
▁incur	-13492
▁indef	-13493
▁indiv	-13494
▁infal	-13495
▁insec	-13496
▁inste	-13497
▁journ	-13498
▁legac	-13499
HA	-13500
lb	-13501
rp	-13502
uT	-13503
Ari	-13504
Div	-13505
Fat	-13506
Fri	-13507
Goo	-13508
Gri	-13509
Loo	-13510
May	-13511
Nar	-13512
Pay	-13513
SIA	-13514
acs	-13515
aym	-13516
ayr	-13517
coo	-13518
eac	-13519
eef	-13520
fac	-13521
ihi	-13522
jac	-13523
lac	-13524
men	-13525
num	-13526
oac	-13527
olb	-13528
oll	-13529
oos	-13530
pap	-13531
pri	-13532
rac	-13533
rik	-13534
riz	-13535
seb	-13536
tly	-13537
tom	-13538
tri	-13539
uis	-13540
umn	-13541
yab	-13542
yri	-13543
▁um	-13544
acre	-13545
alac	-13546
ayst	-13547
educ	-13548
enac	-13549
erms	-13550
erst	-13551
esim	-13552
gine	-13553
ldog	-13554
mpri	-13555
orec	-13556
perf	-13557
rior	-13558
stoo	-13559
stri	-13560
ubli	-13561
ulou	-13562
usse	-13563
▁coo	-13564
▁eac	-13565
▁foo	-13566
▁goo	-13567
▁gow	-13568
▁hei	-13569
▁ont	-13570
▁sid	-13571
▁veg	-13572
acher	-13573
ailed	-13574
aying	-13575
chase	-13576
estig	-13577
ffles	-13578
jects	-13579
reatn	-13580
▁Hard	-13581
▁Mess	-13582
▁achi	-13583
▁beac	-13584
▁forc	-13585
ergers	-13586
ndivid	-13587
olding	-13588
terist	-13589
▁legit	-13590
▁liter	-13591
▁litig	-13592
▁lobot	-13593
▁maint	-13594
▁malic	-13595
▁manag	-13596
▁matur	-13597
▁milit	-13598
▁minut	-13599
ML	-13600
eq	-13601
rd	-13602
Bet	-13603
Boo	-13604
Car	-13605
Eut	-13606
ODY	-13607
Out	-13608
Ple	-13609
Pow	-13610
alg	-13611
bet	-13612
cat	-13613
cut	-13614
dad	-13615
dle	-13616
etr	-13617
eut	-13618
lut	-13619
orf	-13620
owt	-13621
pid	-13622
pow	-13623
rev	-13624
rut	-13625
sem	-13626
uic	-13627
uti	-13628
uto	-13629
utu	-13630
▁Ag	-13631
▁Ta	-13632
▁hp	-13633
Grav	-13634
athi	-13635
deol	-13636
dver	-13637
egal	-13638
erri	-13639
etes	-13640
etic	-13641
herg	-13642
herm	-13643
itiv	-13644
onet	-13645
owor	-13646
ppli	-13647
righ	-13648
ruck	-13649
stat	-13650
uces	-13651
udic	-13652
veri	-13653
verl	-13654
▁cul	-13655
▁dow	-13656
▁onl	-13657
▁tat	-13658
bbery	-13659
cture	-13660
ecies	-13661
ether	-13662
herit	-13663
iased	-13664
idend	-13665
ormat	-13666
pplic	-13667
rever	-13668
verhe	-13669
verit	-13670
xcept	-13671
▁Fren	-13672
▁jour	-13673
▁manp	-13674
▁memb	-13675
▁unsu	-13676
athers	-13677
eather	-13678
irstly	-13679
leased	-13680
nected	-13681
▁adver	-13682
▁detri	-13683
▁embar	-13684
▁misde	-13685
▁misle	-13686
▁monit	-13687
▁monot	-13688
▁monst	-13689
▁murde	-13690
▁newsp	-13691
▁nowad	-13692
▁oppos	-13693
▁outdo	-13694
▁overc	-13695
▁overr	-13696
▁parti	-13697
▁partn	-13698
▁patri	-13699
CL	-13700
Pc	-13701
RT	-13702
180	-13703
Bas	-13704
Cri	-13705
Mat	-13706
Met	-13707
Pan	-13708
Was	-13709
akf	-13710
bas	-13711
hir	-13712
kea	-13713
mas	-13714
phi	-13715
sat	-13716
tas	-13717
tle	-13718
utr	-13719
xas	-13720
▁FP	-13721
▁bo	-13722
▁ey	-13723
anat	-13724
appo	-13725
areE	-13726
dent	-13727
ecta	-13728
eder	-13729
enta	-13730
enti	-13731
entm	-13732
ento	-13733
eshi	-13734
etim	-13735
gion	-13736
hise	-13737
ioni	-13738
itut	-13739
nion	-13740
stle	-13741
sued	-13742
ucle	-13743
ugin	-13744
utom	-13745
▁199	-13746
▁HTM	-13747
▁Hel	-13748
▁coc	-13749
▁dre	-13750
▁lou	-13751
▁noo	-13752
▁rea	-13753
▁sym	-13754
Bould	-13755
acele	-13756
anent	-13757
asons	-13758
ented	-13759
enten	-13760
entre	-13761
eping	-13762
eport	-13763
essin	-13764
ionar	-13765
iters	-13766
levis	-13767
ourit	-13768
quare	-13769
stent	-13770
▁Caes	-13771
▁UNIF	-13772
▁cast	-13773
▁neur	-13774
▁outp	-13775
▁reas	-13776
▁spur	-13777
▁thum	-13778
ROCESS	-13779
awking	-13780
ention	-13781
ioning	-13782
mented	-13783
preted	-13784
rences	-13785
usions	-13786
▁archa	-13787
▁compe	-13788
▁fruct	-13789
▁payra	-13790
▁penal	-13791
▁perce	-13792
▁perfr	-13793
▁peris	-13794
▁potat	-13795
▁prefe	-13796
▁presc	-13797
▁proce	-13798
▁procl	-13799
Hy	-13800
po	-13801
Dar	-13802
Har	-13803
Kar	-13804
Par	-13805
Sar	-13806
War	-13807
Whi	-13808
arb	-13809
arl	-13810
atc	-13811
aya	-13812
bid	-13813
hav	-13814
iso	-13815
llt	-13816
llu	-13817
mig	-13818
nar	-13819
opl	-13820
osa	-13821
ppi	-13822
sad	-13823
sen	-13824
uar	-13825
uri	-13826
var	-13827
▁Co	-13828
▁Ev	-13829
▁ai	-13830
aine	-13831
aner	-13832
arou	-13833
arre	-13834
asar	-13835
bber	-13836
chev	-13837
eric	-13838
fety	-13839
fles	-13840
gent	-13841
gous	-13842
hell	-13843
hist	-13844
idat	-13845
ingl	-13846
inic	-13847
lack	-13848
ller	-13849
otar	-13850
oyle	-13851
sear	-13852
ship	-13853
uent	-13854
ulle	-13855
vell	-13856
▁Jan	-13857
▁Nop	-13858
▁Pre	-13859
▁atm	-13860
▁ite	-13861
▁jun	-13862
▁veh	-13863
aiter	-13864
alent	-13865
earan	-13866
erant	-13867
iller	-13868
ingap	-13869
ithin	-13870
ocked	-13871
onger	-13872
thood	-13873
umers	-13874
vings	-13875
▁carb	-13876
▁chem	-13877
▁chic	-13878
▁iter	-13879
▁murd	-13880
▁nost	-13881
▁unse	-13882
▁wing	-13883
elines	-13884
lation	-13885
omeone	-13886
pected	-13887
ralize	-13888
ypical	-13889
▁Domin	-13890
▁backg	-13891
▁progr	-13892
▁punis	-13893
▁quiet	-13894
▁reali	-13895
▁rebut	-13896
▁recom	-13897
▁remar	-13898
▁reser	-13899
70	-13900
8.	-13901
Kh	-13902
Lo	-13903
ai	-13904
dp	-13905
00,	-13906
Fre	-13907
Kid	-13908
Nic	-13909
OAS	-13910
Put	-13911
arc	-13912
dow	-13913
eic	-13914
ele	-13915
etu	-13916
gac	-13917
icr	-13918
log	-13919
mse	-13920
oic	-13921
opp	-13922
opy	-13923
ppe	-13924
ppo	-13925
rie	-13926
sef	-13927
sey	-13928
sic	-13929
sse	-13930
tip	-13931
too	-13932
usp	-13933
vic	-13934
▁FO	-13935
▁Mi	-13936
▁ec	-13937
▁ef	-13938
OCES	-13939
alse	-13940
erse	-13941
eter	-13942
ffir	-13943
hase	-13944
icle	-13945
ingf	-13946
inly	-13947
itic	-13948
kher	-13949
lair	-13950
onab	-13951
opri	-13952
orge	-13953
orse	-13954
ppen	-13955
rese	-13956
vely	-13957
wich	-13958
▁Cit	-13959
▁Oft	-13960
▁San	-13961
▁clu	-13962
▁nic	-13963
▁tic	-13964
▁vet	-13965
drock	-13966
edure	-13967
harge	-13968
icate	-13969
onver	-13970
opean	-13971
otent	-13972
ritor	-13973
urate	-13974
▁Teav	-13975
▁burd	-13976
▁fron	-13977
▁inse	-13978
▁insu	-13979
▁whil	-13980
achine	-13981
ithout	-13982
llutes	-13983
oolers	-13984
retion	-13985
ritory	-13986
vading	-13987
veries	-13988
▁mater	-13989
▁rever	-13990
▁salar	-13991
▁sched	-13992
▁seatb	-13993
▁secur	-13994
▁separ	-13995
▁sephi	-13996
▁simpl	-13997
▁singl	-13998
▁sland	-13999
mw	-14000
-70	-14001
Hum	-14002
Lot	-14003
Rac	-14004
aty	-14005
cly	-14006
enj	-14007
fle	-14008
gly	-14009
gur	-14010
hik	-14011
hly	-14012
idy	-14013
itr	-14014
kly	-14015
ldi	-14016
lly	-14017
lym	-14018
lyw	-14019
mot	-14020
nce	-14021
ota	-14022
otb	-14023
otr	-14024
ple	-14025
ras	-14026
ros	-14027
rot	-14028
sly	-14029
uil	-14030
xon	-14031
▁ea	-14032
Tech	-14033
alle	-14034
anle	-14035
ashi	-14036
cumb	-14037
heim	-14038
iate	-14039
iese	-14040
ldly	-14041
lely	-14042
leve	-14043
ndar	-14044
ndly	-14045
omme	-14046
only	-14047
oodE	-14048
otes	-14049
otom	-14050
uced	-14051
uous	-14052
upil	-14053
weet	-14054
▁Ass	-14055
▁Sha	-14056
▁ada	-14057
▁gif	-14058
▁hai	-14059
▁han	-14060
asion	-14061
entat	-14062
erons	-14063
esign	-14064
ggies	-14065
holic	-14066
icesn	-14067
icult	-14068
ilhel	-14069
indow	-14070
inger	-14071
istak	-14072
orite	-14073
therm	-14074
trary	-14075
umble	-14076
▁fami	-14077
▁purc	-14078
▁trut	-14079
asonab	-14080
cation	-14081
enefic	-14082
essage	-14083
hering	-14084
terose	-14085
▁Chees	-14086
▁curri	-14087
▁damag	-14088
▁smoot	-14089
▁someb	-14090
▁speac	-14091
▁speec	-14092
▁stell	-14093
▁stopp	-14094
▁stren	-14095
▁stret	-14096
▁struc	-14097
▁subse	-14098
▁surve	-14099
At	-14100
Di	-14101
vr	-14102
Com	-14103
End	-14104
Gra	-14105
HEN	-14106
Hom	-14107
Pom	-14108
Rom	-14109
Ton	-14110
abl	-14111
awn	-14112
dan	-14113
err	-14114
eve	-14115
lec	-14116
lom	-14117
omb	-14118
omf	-14119
omm	-14120
omo	-14121
owe	-14122
req	-14123
rve	-14124
sea	-14125
som	-14126
veg	-14127
veh	-14128
wag	-14129
wom	-14130
▁Mo	-14131
▁eg	-14132
▁eq	-14133
▁ga	-14134
▁oa	-14135
.00,	-14136
Land	-14137
alad	-14138
arto	-14139
auce	-14140
cher	-14141
chst	-14142
ecif	-14143
edes	-14144
etty	-14145
hata	-14146
ldre	-14147
lean	-14148
leon	-14149
morr	-14150
ndou	-14151
oman	-14152
omat	-14153
omer	-14154
otat	-14155
reas	-14156
reve	-14157
veal	-14158
veat	-14159
vere	-14160
▁Ame	-14161
▁Ram	-14162
▁gat	-14163
▁hyg	-14164
▁jum	-14165
▁pra	-14166
▁som	-14167
▁wel	-14168
artic	-14169
cited	-14170
iform	-14171
ingle	-14172
ptops	-14173
redis	-14174
remon	-14175
sence	-14176
▁stoo	-14177
▁yout	-14178
______	-14179
attern	-14180
ensees	-14181
essing	-14182
livery	-14183
mpress	-14184
nation	-14185
orated	-14186
osophi	-14187
ysters	-14188
▁delux	-14189
▁insul	-14190
▁takea	-14191
▁telev	-14192
▁toget	-14193
▁toile	-14194
▁traff	-14195
▁turno	-14196
▁twist	-14197
▁uncar	-14198
▁undes	-14199
0/	-14200
73	-14201
BO	-14202
Hu	-14203
WI	-14204
cr	-14205
zn	-14206
Chi	-14207
Fed	-14208
Jed	-14209
Mic	-14210
OOO	-14211
Red	-14212
Whe	-14213
aln	-14214
anc	-14215
aor	-14216
api	-14217
bed	-14218
cro	-14219
eda	-14220
etb	-14221
gst	-14222
hst	-14223
inv	-14224
lee	-14225
ntr	-14226
oom	-14227
ppl	-14228
sta	-14229
sti	-14230
stl	-14231
str	-14232
sts	-14233
stu	-14234
tte	-14235
ued	-14236
ulu	-14237
usi	-14238
wic	-14239
xed	-14240
▁Je	-14241
▁ax	-14242
▁hu	-14243
▁ni	-14244
King	-14245
MMED	-14246
ains	-14247
aker	-14248
anst	-14249
cate	-14250
cure	-14251
ened	-14252
hate	-14253
hats	-14254
heat	-14255
herl	-14256
iety	-14257
igor	-14258
init	-14259
inst	-14260
oxes	-14261
rast	-14262
rels	-14263
stan	-14264
sted	-14265
tact	-14266
ulth	-14267
▁9.5	-14268
▁dei	-14269
▁enj	-14270
▁ina	-14271
▁nar	-14272
▁nei	-14273
alers	-14274
autom	-14275
fight	-14276
grate	-14277
ouldn	-14278
sting	-14279
▁Bost	-14280
▁calc	-14281
▁cris	-14282
▁notc	-14283
apping	-14284
ocence	-14285
omping	-14286
▁devel	-14287
▁disap	-14288
▁engag	-14289
▁teamw	-14290
▁unemp	-14291
▁unifi	-14292
▁uniqu	-14293
▁unrel	-14294
▁unsub	-14295
▁vehic	-14296
▁walle	-14297
▁workp	-14298
▁worri	-14299
AC	-14300
rv	-14301
uv	-14302
yu	-14303
8.5	-14304
Fur	-14305
Jan	-14306
Net	-14307
Ohi	-14308
ane	-14309
ang	-14310
anl	-14311
anp	-14312
anq	-14313
anu	-14314
cad	-14315
env	-14316
fri	-14317
gun	-14318
hig	-14319
lav	-14320
lel	-14321
oan	-14322
ohe	-14323
ooe	-14324
pan	-14325
ppr	-14326
roa	-14327
san	-14328
sia	-14329
tan	-14330
uan	-14331
wan	-14332
yru	-14333
▁TY	-14334
alid	-14335
anou	-14336
answ	-14337
aten	-14338
cted	-14339
dres	-14340
dven	-14341
eded	-14342
enan	-14343
enat	-14344
hern	-14345
inan	-14346
itan	-14347
nded	-14348
ookm	-14349
opic	-14350
orat	-14351
orly	-14352
otle	-14353
rean	-14354
root	-14355
seas	-14356
terr	-14357
verd	-14358
verw	-14359
▁Swe	-14360
▁amb	-14361
▁bat	-14362
▁het	-14363
▁iin	-14364
▁lof	-14365
▁mam	-14366
▁pan	-14367
▁sic	-14368
efore	-14369
enced	-14370
icism	-14371
ormed	-14372
ornia	-14373
osoph	-14374
owser	-14375
putes	-14376
reate	-14377
stant	-14378
wning	-14379
▁Carn	-14380
▁Cens	-14381
▁andu	-14382
▁neit	-14383
▁sect	-14384
aining	-14385
allons	-14386
clable	-14387
entage	-14388
minals	-14389
nforce	-14390
rished	-14391
ubbery	-14392
▁fract	-14393
▁pedop	-14394
▁unbal	-14395
▁wrapp	-14396
▁writt	-14397
!!!!!!!	-14398
LUNTARY	-14399
!_	-14400
01	-14401
93	-14402
GT	-14403
IC	-14404
Bor	-14405
Can	-14406
Eat	-14407
Far	-14408
Hit	-14409
Wat	-14410
atl	-14411
das	-14412
dat	-14413
dic	-14414
eak	-14415
esu	-14416
fat	-14417
git	-14418
hum	-14419
lda	-14420
ldo	-14421
mly	-14422
nat	-14423
nge	-14424
oat	-14425
omi	-14426
pat	-14427
ply	-14428
sby	-14429
tat	-14430
uen	-14431
ull	-14432
war	-14433
wat	-14434
wed	-14435
▁AT	-14436
▁ge	-14437
akey	-14438
derf	-14439
enge	-14440
erat	-14441
erre	-14442
icis	-14443
illi	-14444
inat	-14445
kill	-14446
lead	-14447
ntri	-14448
outp	-14449
pent	-14450
pise	-14451
quit	-14452
ston	-14453
terv	-14454
unis	-14455
verp	-14456
ynic	-14457
▁Rac	-14458
▁cat	-14459
▁isj	-14460
▁mit	-14461
▁oat	-14462
▁rus	-14463
▁vit	-14464
ardiz	-14465
entar	-14466
himic	-14467
ialys	-14468
unish	-14469
whome	-14470
▁Inde	-14471
▁alar	-14472
▁appr	-14473
▁buss	-14474
▁clun	-14475
▁loop	-14476
▁peri	-14477
▁rela	-14478
athere	-14479
entert	-14480
essent	-14481
minate	-14482
pation	-14483
▁Clint	-14484
▁disin	-14485
▁hypoc	-14486
▁negle	-14487
VERYONE	-14488
abetics	-14489
aceably	-14490
acebook	-14491
achines	-14492
achment	-14493
actical	-14494
actress	-14495
adition	-14496
ainfall	-14497
ainless	-14498
airment	-14499
3)	-14500
DM	-14501
JP	-14502
Si	-14503
gl	-14504
005	-14505
Ble	-14506
Gal	-14507
Hal	-14508
Jac	-14509
Rut	-14510
Tal	-14511
Val	-14512
aan	-14513
acr	-14514
ala	-14515
apl	-14516
cod	-14517
eit	-14518
esb	-14519
goo	-14520
hiz	-14521
ilm	-14522
itn	-14523
nal	-14524
nan	-14525
nch	-14526
pac	-14527
rif	-14528
sit	-14529
tit	-14530
utt	-14531
zed	-14532
Ever	-14533
alen	-14534
alin	-14535
alor	-14536
alou	-14537
anor	-14538
bleb	-14539
cuss	-14540
dire	-14541
eace	-14542
ffle	-14543
hall	-14544
icen	-14545
itch	-14546
itig	-14547
lder	-14548
nand	-14549
onit	-14550
otel	-14551
othe	-14552
sapp	-14553
stit	-14554
tals	-14555
witc	-14556
▁Cer	-14557
▁YCJ	-14558
▁bal	-14559
▁dur	-14560
▁pit	-14561
▁stu	-14562
ackag	-14563
alice	-14564
aller	-14565
ctive	-14566
drink	-14567
edest	-14568
eries	-14569
gical	-14570
iling	-14571
mbols	-14572
place	-14573
reams	-14574
▁Forc	-14575
▁arch	-14576
▁ashe	-14577
▁fran	-14578
▁orde	-14579
▁rear	-14580
ionist	-14581
opters	-14582
rement	-14583
▁Rebec	-14584
▁Valer	-14585
▁overw	-14586
aliforn	-14587
alistin	-14588
amental	-14589
andings	-14590
andwich	-14591
anently	-14592
anguage	-14593
ankrupt	-14594
antages	-14595
anthrop	-14596
ardless	-14597
arendra	-14598
arental	-14599
:/	-14600
Bo	-14601
GA	-14602
PG	-14603
PR	-14604
Yo	-14605
ko	-14606
pi	-14607
Cen	-14608
Len	-14609
Men	-14610
Pen	-14611
UNG	-14612
Wis	-14613
Wor	-14614
ben	-14615
bon	-14616
bst	-14617
cal	-14618
ean	-14619
een	-14620
ena	-14621
enl	-14622
eno	-14623
enr	-14624
esd	-14625
iag	-14626
irf	-14627
isg	-14628
isk	-14629
len	-14630
lre	-14631
oen	-14632
pen	-14633
sci	-14634
uat	-14635
urd	-14636
▁RI	-14637
▁lu	-14638
Over	-14639
aris	-14640
asan	-14641
cred	-14642
enha	-14643
idan	-14644
orou	-14645
ouri	-14646
sees	-14647
vily	-14648
▁Hou	-14649
▁Red	-14650
▁beg	-14651
▁bev	-14652
▁env	-14653
▁fed	-14654
▁hik	-14655
▁riv	-14656
▁sen	-14657
▁soa	-14658
▁sti	-14659
ceded	-14660
cuits	-14661
etent	-14662
licat	-14663
liver	-14664
olore	-14665
ortal	-14666
▁Cong	-14667
▁abor	-14668
▁dele	-14669
▁seep	-14670
▁thef	-14671
▁valu	-14672
derful	-14673
endent	-14674
heated	-14675
iatric	-14676
public	-14677
ralian	-14678
vating	-14679
versal	-14680
▁intol	-14681
▁knowl	-14682
▁monet	-14683
▁onese	-14684
▁splur	-14685
▁tempt	-14686
andable	-14687
ansmiss	-14688
arkness	-14689
aseball	-14690
asional	-14691
assable	-14692
assical	-14693
asuring	-14694
ategory	-14695
athemat	-14696
atherer	-14697
athetic	-14698
aturday	-14699
OA	-14700
ja	-14701
Fet	-14702
Hor	-14703
Lag	-14704
Mad	-14705
Nop	-14706
Nor	-14707
Usu	-14708
Vac	-14709
Wow	-14710
aly	-14711
asn	-14712
bha	-14713
ecu	-14714
edi	-14715
edu	-14716
eft	-14717
fou	-14718
iri	-14719
jal	-14720
lri	-14721
nor	-14722
nos	-14723
ohi	-14724
orw	-14725
pli	-14726
por	-14727
sso	-14728
ume	-14729
uor	-14730
vat	-14731
vor	-14732
vry	-14733
wes	-14734
▁IN	-14735
▁IR	-14736
▁Ig	-14737
▁Il	-14738
▁ye	-14739
anab	-14740
anut	-14741
arif	-14742
ashe	-14743
bate	-14744
cDon	-14745
dies	-14746
emoc	-14747
ersi	-14748
flic	-14749
hers	-14750
ilit	-14751
iter	-14752
lame	-14753
ming	-14754
ndor	-14755
nowl	-14756
orre	-14757
sent	-14758
ulld	-14759
upre	-14760
usic	-14761
▁cac	-14762
▁ded	-14763
▁fis	-14764
▁por	-14765
▁vag	-14766
▁wan	-14767
assac	-14768
eting	-14769
icens	-14770
iffer	-14771
istur	-14772
otism	-14773
▁COLL	-14774
▁aman	-14775
▁mour	-14776
▁numb	-14777
▁perp	-14778
▁sorr	-14779
alized	-14780
anging	-14781
cution	-14782
igning	-14783
lature	-14784
reativ	-14785
▁demog	-14786
▁fashi	-14787
▁footh	-14788
▁notar	-14789
▁viewp	-14790
▁wrest	-14791
aurants	-14792
ausible	-14793
avorful	-14794
avorite	-14795
bration	-14796
bsolute	-14797
cations	-14798
ceeding	-14799
92	-14800
97	-14801
Ri	-14802
US	-14803
aa	-14804
bb	-14805
bu	-14806
pf	-14807
tb	-14808
Bes	-14809
Mas	-14810
Mes	-14811
bes	-14812
eon	-14813
esh	-14814
esn	-14815
fes	-14816
lar	-14817
nes	-14818
nts	-14819
opu	-14820
pes	-14821
rau	-14822
ray	-14823
rol	-14824
rri	-14825
tes	-14826
urf	-14827
xes	-14828
▁BE	-14829
▁Da	-14830
▁Ot	-14831
Fire	-14832
Look	-14833
agre	-14834
alar	-14835
eser	-14836
hees	-14837
hild	-14838
icks	-14839
icly	-14840
ingd	-14841
ingm	-14842
ingr	-14843
ingt	-14844
kend	-14845
lest	-14846
lore	-14847
mond	-14848
ndes	-14849
omes	-14850
opes	-14851
orne	-14852
ples	-14853
reen	-14854
wing	-14855
▁Hyp	-14856
▁bes	-14857
▁hac	-14858
▁lac	-14859
▁mes	-14860
▁pas	-14861
▁spo	-14862
▁tit	-14863
▁tom	-14864
▁tou	-14865
acked	-14866
ailro	-14867
anage	-14868
arios	-14869
ategy	-14870
endly	-14871
iciar	-14872
nding	-14873
olves	-14874
ucket	-14875
viour	-14876
▁acce	-14877
▁clim	-14878
▁clow	-14879
▁feat	-14880
▁warn	-14881
OOOOOO	-14882
apital	-14883
apment	-14884
hipped	-14885
iation	-14886
icense	-14887
ivated	-14888
yabhat	-14889
▁coffe	-14890
cements	-14891
centage	-14892
cepting	-14893
ciation	-14894
cipline	-14895
conomic	-14896
ctional	-14897
ctually	-14898
cuments	-14899
-4	-14900
2-	-14901
80	-14902
Ca	-14903
De	-14904
RP	-14905
VO	-14906
ah	-14907
da	-14908
du	-14909
gm	-14910
ji	-14911
sS	-14912
sf	-14913
sq	-14914
tf	-14915
yH	-14916
yf	-14917
▁q	-14918
Bot	-14919
Bow	-14920
Hon	-14921
Say	-14922
TLE	-14923
adg	-14924
aiv	-14925
alp	-14926
asu	-14927
atb	-14928
bar	-14929
ehe	-14930
ely	-14931
gag	-14932
hem	-14933
kit	-14934
mpl	-14935
pro	-14936
rha	-14937
sar	-14938
tro	-14939
uir	-14940
vac	-14941
vin	-14942
yon	-14943
▁ep	-14944
▁ic	-14945
Kill	-14946
Peop	-14947
acef	-14948
anid	-14949
anqu	-14950
ayou	-14951
erou	-14952
etit	-14953
hics	-14954
inor	-14955
lims	-14956
mans	-14957
reig	-14958
uder	-14959
▁Civ	-14960
▁ama	-14961
▁inh	-14962
▁inp	-14963
▁phi	-14964
▁sco	-14965
▁woo	-14966
acket	-14967
anspl	-14968
cceed	-14969
ength	-14970
isapp	-14971
isive	-14972
isput	-14973
ndian	-14974
range	-14975
zilla	-14976
▁Huss	-14977
▁Stam	-14978
▁burg	-14979
▁conn	-14980
▁itse	-14981
▁mone	-14982
reated	-14983
▁funer	-14984
ciating	-14985
demning	-14986
derland	-14987
diction	-14988
drassil	-14989
earable	-14990
earance	-14991
ecessar	-14992
ectural	-14993
ecurity	-14994
edicate	-14995
efinatt	-14996
efiting	-14997
elaxing	-14998
emember	-14999
(9	-15000
-2	-15001
0,	-15002
14	-15003
1:	-15004
2:	-15005
Ab	-15006
Ec	-15007
Ga	-15008
IG	-15009
LO	-15010
Me	-15011
Mu	-15012
Oc	-15013
Ph	-15014
Se	-15015
[...]
