<unk>	0
<s>	0
</s>	0
▁t	-0
▁a	-1
▁th	-2
in	-3
er	-4
▁w	-5
▁the	-6
▁s	-7
ou	-8
on	-9
re	-10
▁b	-11
▁i	-12
at	-13
▁c	-14
▁h	-15
nd	-16
▁o	-17
▁m	-18
▁p	-19
▁to	-20
ing	-21
en	-22
▁f	-23
es	-24
▁d	-25
an	-26
or	-27
▁I	-28
ll	-29
▁be	-30
ed	-31
▁l	-32
▁and	-33
it	-34
▁n	-35
▁of	-36
▁in	-37
st	-38
▁y	-39
▁is	-40
ve	-41
▁g	-42
om	-43
ot	-44
▁you	-45
ar	-46
le	-47
al	-48
ic	-49
ld	-50
▁e	-51
se	-52
▁ha	-53
pp	-54
▁that	-55
▁it	-56
is	-57
ion	-58
▁wh	-59
▁re	-60
app	-61
ent	-62
▁[	-63
ould	-64
et	-65
as	-66
ay	-67
ly	-68
▁on	-69
ow	-70
ut	-71
ver	-72
▁for	-73
her	-74
ri	-75
▁u	-76
▁not	-77
▁are	-78
ac	-79
▁have	-80
▁an	-81
▁T	-82
oo	-83
op	-84
id	-85
gh	-86
▁st	-87
he	-88
ere	-89
ke	-90
ith	-91
▁do	-92
▁li	-93
▁as	-94
▁they	-95
▁with	-96
im	-97
all	-98
out	-99
ir	-100
ch	-101
ill	-102
ro	-103
ct	-104
ce	-105
ad	-106
▁he	-107
..	-108
ur	-109
▁we	-110
inapp	-111
ome	-112
▁or	-113
▁would	-114
▁sh	-115
▁j	-116
ers	-117
▁can	-118
▁se	-119
▁de	-120
am	-121
▁ch	-122
au	-123
ust	-124
▁mo	-125
▁but	-126
▁so	-127
ght	-128
▁k	-129
one	-130
eop	-131
ation	-132
▁con	-133
▁A	-134
eople	-135
ter	-136
▁your	-137
li	-138
▁was	-139
ant	-140
ally	-141
▁this	-142
our	-143
0]	-144
▁ab	-145
▁people	-146
▁if	-147
▁S	-148
▁ne	-149
▁su	-150
ge	-151
▁all	-152
▁me	-153
ess	-154
▁at	-155
ment	-156
ol	-157
▁W	-158
ink	-159
▁bec	-160
est	-161
il	-162
▁go	-163
ain	-164
ate	-165
ause	-166
th	-167
▁should	-168
ood	-169
▁pro	-170
▁com	-171
▁The	-172
▁al	-173
▁ex	-174
20]	-175
▁wor	-176
▁my	-177
ble	-178
▁r	-179
▁some	-180
▁think	-181
▁le	-182
▁there	-183
ci	-184
pe	-185
us	-186
▁because	-187
fe	-188
▁get	-189
▁just	-190
nt	-191
▁who	-192
very	-193
▁C	-194
▁them	-195
and	-196
▁will	-197
▁don	-198
qu	-199
▁what	-200
ul	-201
▁their	-202
▁any	-203
▁ma	-204
▁(	-205
ther	-206
ity	-207
▁v	-208
▁like	-209
▁B	-210
▁no	-211
▁has	-212
ive	-213
em	-214
▁more	-215
▁fr	-216
ous	-217
▁M	-218
▁tr	-219
ort	-220
ist	-221
▁"	-222
▁out	-223
▁by	-224
um	-225
ong	-226
▁other	-227
▁It	-228
erson	-229
▁than	-230
if	-231
▁one	-232
▁If	-233
ather	-234
▁about	-235
▁ev	-236
▁ri	-237
un	-238
▁person	-239
▁kn	-240
▁ta	-241
▁from	-242
▁good	-243
▁up	-244
os	-245
▁la	-246
▁know	-247
ice	-248
▁pl	-249
▁H	-250
are	-251
▁pr	-252
pt	-253
▁F	-254
▁un	-255
lie	-256
▁fe	-257
▁tim	-258
▁want	-259
▁ar	-260
▁our	-261
▁then	-262
▁N	-263
king	-264
▁P	-265
ig	-266
res	-267
▁Th	-268
▁ag	-269
ap	-270
▁us	-271
ough	-272
▁bet	-273
el	-274
iv	-275
▁belie	-276
ore	-277
art	-278
act	-279
▁right	-280
▁Y	-281
▁only	-282
▁say	-283
ence	-284
▁man	-285
ich	-286
ose	-287
od	-288
ud	-289
ild	-290
ard	-291
...	-292
▁when	-293
so	-294
▁time	-295
▁were	-296
ving	-297
hing	-298
▁every	-299
▁thing	-300
ies	-301
ind	-302
▁better	-303
▁en	-304
▁father	-305
▁does	-306
ie	-307
ack	-308
▁need	-309
ound	-310
ions	-311
▁am	-312
der	-313
way	-314
▁te	-315
age	-316
ame	-317
ast	-318
▁law	-319
sel	-320
ure	-321
▁ad	-322
ab	-323
pl	-324
▁way	-325
fer	-326
▁life	-327
▁believe	-328
ans	-329
▁im	-330
ue	-331
▁lo	-332
ount	-333
uch	-334
lp	-335
ide	-336
▁O	-337
reat	-338
▁pre	-339
▁child	-340
▁cl	-341
▁had	-342
▁help	-343
▁act	-344
▁make	-345
▁how	-346
▁cont	-347
▁E	-348
ish	-349
▁being	-350
▁int	-351
▁much	-352
ase	-353
▁G	-354
▁could	-355
rim	-356
able	-357
ight	-358
ry	-359
▁ac	-360
▁po	-361
▁Wh	-362
▁qu	-363
▁see	-364
▁even	-365
ool	-366
ves	-367
▁which	-368
▁comm	-369
ook	-370
ag	-371
▁been	-372
ple	-373
▁wr	-374
▁off	-375
▁may	-376
ace	-377
!!	-378
▁sp	-379
▁U	-380
▁really	-381
--	-382
ff	-383
ect	-384
▁someone	-385
▁R	-386
omet	-387
ine	-388
ire	-389
▁gr	-390
nder	-391
▁mar	-392
▁We	-393
▁res	-394
▁also	-395
▁world	-396
ical	-397
▁did	-398
▁dis	-399
▁wat	-400
here	-401
▁again	-402
▁most	-403
ach	-404
ite	-405
other	-406
▁his	-407
ep	-408
▁D	-409
▁over	-410
ass	-411
▁him	-412
▁1	-413
▁L	-414
▁spe	-415
▁chan	-416
▁feel	-417
ob	-418
ub	-419
ear	-420
▁dr	-421
▁soci	-422
les	-423
ree	-424
ious	-425
ck	-426
ip	-427
gal	-428
▁br	-429
oney	-430
▁count	-431
orn	-432
chool	-433
▁somet	-434
▁You	-435
▁its	-436
▁pol	-437
thing	-438
▁money	-439
▁why	-440
ick	-441
▁her	-442
▁very	-443
ost	-444
ty	-445
ting	-446
ual	-447
▁bot	-448
▁per	-449
ile	-450
end	-451
irst	-452
▁she	-453
wn	-454
ason	-455
ated	-456
self	-457
▁under	-458
kes	-459
▁work	-460
▁crim	-461
iz	-462
ary	-463
ways	-464
▁ser	-465
▁school	-466
own	-467
ved	-468
▁cons	-469
ia	-470
vern	-471
ens	-472
orm	-473
▁dec	-474
▁going	-475
▁In	-476
less	-477
▁pay	-478
▁reason	-479
int	-480
ory	-481
▁dif	-482
▁many	-483
▁those	-484
▁bu	-485
ress	-486
▁always	-487
2]	-488
▁gu	-489
ance	-490
▁govern	-491
lic	-492
▁rec	-493
ult	-494
per	-495
▁own	-496
▁kill	-497
▁year	-498
▁something	-499
▁sa	-500
▁happ	-501
1]	-502
3]	-503
itt	-504
▁comp	-505
lig	-506
▁wrong	-507
con	-508
▁So	-509
▁cour	-510
ution	-511
be	-512
als	-513
▁use	-514
▁wom	-515
▁This	-516
▁seem	-517
ade	-518
ety	-519
▁imp	-520
▁Ch	-521
ra	-522
▁take	-523
4]	-524
▁too	-525
▁arg	-526
de	-527
su	-528
▁em	-529
▁att	-530
▁kid	-531
fore	-532
ition	-533
▁into	-534
▁differ	-535
ily	-536
ren	-537
ail	-538
ever	-539
▁inc	-540
▁supp	-541
▁government	-542
▁def	-543
ak	-544
▁these	-545
cept	-546
▁never	-547
00	-548
oy	-549
si	-550
ates	-551
ument	-552
▁still	-553
ict	-554
▁hum	-555
▁here	-556
▁same	-557
▁They	-558
5]	-559
▁such	-560
ations	-561
__	-562
ber	-563
▁But	-564
ually	-565
▁well	-566
▁first	-567
▁quest	-568
▁things	-569
ger	-570
▁part	-571
▁af	-572
▁sm	-573
▁bad	-574
▁There	-575
arn	-576
ism	-577
fect	-578
ian	-579
blem	-580
▁back	-581
▁having	-582
urn	-583
▁where	-584
pect	-585
▁day	-586
▁fact	-587
▁J	-588
iew	-589
ces	-590
ful	-591
▁place	-592
▁water	-593
▁problem	-594
▁bl	-595
▁try	-596
oc	-597
▁thr	-598
▁app	-599
ince	-600
▁stud	-601
▁relig	-602
▁co	-603
▁ke	-604
▁ob	-605
▁bas	-606
▁job	-607
▁lot	-608
▁pur	-609
▁society	-610
▁op	-611
▁sc	-612
▁best	-613
▁look	-614
▁anything	-615
▁marri	-616
ody	-617
8]	-618
▁2	-619
▁allow	-620
▁against	-621
▁country	-622
▁-	-623
ath	-624
ousy	-625
▁And	-626
▁give	-627
▁mean	-628
ents	-629
▁acc	-630
ord	-631
▁able	-632
7]	-633
▁pos	-634
▁case	-635
▁legal	-636
ert	-637
▁sy	-638
▁inv	-639
▁sex	-640
▁sim	-641
▁doesn	-642
▁great	-643
▁personal	-644
9]	-645
lle	-646
▁human	-647
igh	-648
▁How	-649
arent	-650
▁food	-651
▁long	-652
▁lousy	-653
▁got	-654
▁won	-655
▁less	-656
du	-657
▁down	-658
▁kids	-659
6]	-660
mer	-661
▁put	-662
▁now	-663
▁others	-664
ors	-665
▁fu	-666
▁big	-667
ug	-668
ign	-669
led	-670
▁ter	-671
▁real	-672
og	-673
▁'	-674
▁tw	-675
alth	-676
▁ind	-677
ven	-678
▁des	-679
▁come	-680
▁sure	-681
▁change	-682
stem	-683
▁another	-684
▁without	-685
▁different	-686
vel	-687
▁et	-688
▁around	-689
The	-690
▁while	-691
▁system	-692
▁argument	-693
ense	-694
ower	-695
ublic	-696
ically	-697
▁after	-698
av	-699
▁che	-700
▁new	-701
▁view	-702
▁inter	-703
▁etc	-704
▁keep	-705
ys	-706
its	-707
▁fam	-708
▁fri	-709
▁min	-710
▁mur	-711
stand	-712
▁question	-713
▁inst	-714
▁made	-715
lf	-716
ating	-717
▁find	-718
▁court	-719
▁doing	-720
▁order	-721
▁let	-722
ittle	-723
ought	-724
▁both	-725
▁little	-726
▁eas	-727
▁love	-728
▁makes	-729
▁children	-730
aff	-731
ell	-732
▁ro	-733
ably	-734
▁ide	-735
▁No	-736
cess	-737
▁rem	-738
▁point	-739
▁through	-740
ef	-741
ank	-742
▁end	-743
up	-744
▁el	-745
▁ph	-746
ener	-747
▁isn	-748
meric	-749
▁turn	-750
▁anyone	-751
▁before	-752
▁parent	-753
▁sit	-754
▁state	-755
▁ass	-756
ether	-757
▁call	-758
▁live	-759
▁prot	-760
▁might	-761
▁murder	-762
▁cr	-763
inal	-764
ject	-765
▁prob	-766
▁enough	-767
ese	-768
hip	-769
....	-770
▁str	-771
ility	-772
▁self	-773
ertain	-774
▁support	-775
).	-776
ft	-777
ave	-778
ely	-779
pon	-780
▁US	-781
▁mat	-782
▁years	-783
▁common	-784
▁wouldn	-785
▁understand	-786
▁hard	-787
▁learn	-788
▁3	-789
rist	-790
ial	-791
ings	-792
▁giv	-793
▁rel	-794
▁protect	-795
ise	-796
▁ent	-797
▁pret	-798
▁public	-799
wh	-800
▁Al	-801
▁He	-802
read	-803
▁two	-804
▁Americ	-805
▁rather	-806
▁rights	-807
▁everyone	-808
sw	-809
ider	-810
ced	-811
▁ask	-812
▁ext	-813
▁else	-814
▁seems	-815
▁since	-816
▁happen	-817
ars	-818
▁answ	-819
▁rest	-820
arm	-821
oice	-822
▁deb	-823
▁ins	-824
▁mor	-825
▁bott	-826
▁care	-827
▁ever	-828
▁high	-829
▁opin	-830
▁friend	-831
▁respon	-832
air	-833
ists	-834
ouse	-835
▁away	-836
▁defin	-837
▁watch	-838
▁probably	-839
----	-840
affles	-841
▁polit	-842
▁family	-843
xt	-844
▁drug	-845
▁lead	-846
▁become	-847
If	-848
ics	-849
iss	-850
vers	-851
▁tax	-852
conom	-853
▁didn	-854
▁each	-855
▁must	-856
▁show	-857
▁used	-858
▁start	-859
▁health	-860
▁pursu	-861
▁nothing	-862
ope	-863
▁My	-864
▁Ind	-865
▁cre	-866
▁inf	-867
▁sub	-868
apore	-869
▁gener	-870
ingapore	-871
▁yourself	-872
sible	-873
selves	-874
we	-875
▁exp	-876
ither	-877
▁That	-878
▁invol	-879
▁However	-880
▁evol	-881
▁tell	-882
▁class	-883
▁creat	-884
▁accept	-885
▁pretty	-886
▁actually	-887
any	-888
iol	-889
▁done	-890
▁ille	-891
▁laws	-892
▁said	-893
cation	-894
▁found	-895
▁woman	-896
ier	-897
▁men	-898
▁char	-899
▁idea	-900
▁play	-901
ush	-902
ploy	-903
▁God	-904
▁far	-905
▁rep	-906
ample	-907
▁crime	-908
▁econom	-909
▁Singapore	-910
not	-911
▁sci	-912
▁hand	-913
▁trying	-914
peri	-915
▁For	-916
▁cor	-917
▁few	-918
▁home	-919
▁though	-920
▁illegal	-921
▁opinion	-922
day	-923
▁cur	-924
▁tal	-925
▁consider	-926
**	-927
ead	-928
old	-929
oth	-930
ular	-931
▁dont	-932
▁free	-933
▁agree	-934
▁drink	-935
▁women	-936
co	-937
gn	-938
ons	-939
use	-940
ries	-941
▁cas	-942
▁whole	-943
▁set	-944
▁sur	-945
▁What	-946
▁least	-947
▁needs	-948
▁police	-949
cing	-950
▁reg	-951
▁answer	-952
▁pursuit	-953
MV	-954
edu	-955
uth	-956
ians	-957
▁buy	-958
▁car	-959
▁dri	-960
aught	-961
▁form	-962
▁kind	-963
▁certain	-964
▁example	-965
▁thought	-966
▁religion	-967
gr	-968
▁adv	-969
▁situ	-970
▁means	-971
▁students	-972
),	-973
ten	-974
ness	-975
▁ben	-976
ities	-977
ption	-978
ey	-979
14]	-980
ison	-981
ative	-982
iting	-983
▁prop	-984
▁requ	-985
Th	-986
cc	-987
ng	-988
har	-989
the	-990
▁As	-991
▁St	-992
ices	-993
ides	-994
ited	-995
▁add	-996
▁yes	-997
▁lives	-998
▁speci	-999
▁Raffles	-1000
pend	-1001
ortion	-1002
▁power	-1003
▁ty	-1004
body	-1005
oose	-1006
▁Why	-1007
▁viol	-1008
ortant	-1009
▁benef	-1010
▁death	-1011
▁stand	-1012
ristian	-1013
▁either	-1014
▁matter	-1015
▁parents	-1016
▁important	-1017
▁5	-1018
lly	-1019
vious	-1020
▁produ	-1021
▁contro	-1022
▁saying	-1023
aw	-1024
11]	-1025
ake	-1026
but	-1027
ged	-1028
red	-1029
▁Be	-1030
▁Is	-1031
▁fo	-1032
ater	-1033
▁cle	-1034
▁equ	-1035
▁nat	-1036
▁old	-1037
anger	-1038
ffect	-1039
iform	-1040
▁pass	-1041
▁prov	-1042
▁serv	-1043
though	-1044
▁choice	-1045
reed	-1046
▁bus	-1047
ction	-1048
▁themselves	-1049
uck	-1050
▁sl	-1051
▁jud	-1052
▁pop	-1053
▁run	-1054
ident	-1055
iness	-1056
▁moral	-1057
▁times	-1058
▁choose	-1059
▁contin	-1060
▁effect	-1061
▁employ	-1062
▁allowed	-1063
▁married	-1064
▁marriage	-1065
13]	-1066
ang	-1067
ied	-1068
sue	-1069
▁fl	-1070
ages	-1071
▁sol	-1072
▁tri	-1073
ately	-1074
▁stop	-1075
▁comple	-1076
Wh	-1077
▁wa	-1078
____	-1079
ards	-1080
ivid	-1081
osed	-1082
peci	-1083
▁Yes	-1084
▁conc	-1085
▁grow	-1086
▁porn	-1087
▁sign	-1088
▁maybe	-1089
▁getting	-1090
lt	-1091
ox	-1092
velop	-1093
".	-1094
empt	-1095
▁Far	-1096
▁edu	-1097
itely	-1098
lease	-1099
quhar	-1100
▁read	-1101
▁shouldn	-1102
▁uniform	-1103
▁everything	-1104
ific	-1105
▁anim	-1106
▁gets	-1107
▁pres	-1108
▁word	-1109
idence	-1110
It	-1111
ks	-1112
▁,	-1113
ont	-1114
ote	-1115
ply	-1116
▁To	-1117
!!!!	-1118
arly	-1119
▁med	-1120
▁mil	-1121
▁mus	-1122
ready	-1123
▁last	-1124
▁true	-1125
▁based	-1126
▁cause	-1127
▁small	-1128
▁debate	-1129
▁individ	-1130
12]	-1131
15]	-1132
19]	-1133
ros	-1134
▁pot	-1135
▁val	-1136
▁develop	-1137
▁evolution	-1138
▁situation	-1139
▁.	-1140
ible	-1141
imes	-1142
ning	-1143
▁war	-1144
▁When	-1145
▁experi	-1146
▁likely	-1147
▁making	-1148
▁already	-1149
▁education	-1150
acy	-1151
sib	-1152
▁fun	-1153
ision	-1154
▁mind	-1155
▁issue	-1156
▁cannot	-1157
az	-1158
▁K	-1159
17]	-1160
erv	-1161
for	-1162
oup	-1163
rem	-1164
▁sk	-1165
most	-1166
stit	-1167
ural	-1168
▁bre	-1169
▁loo	-1170
▁mem	-1171
▁pun	-1172
▁bill	-1173
▁poor	-1174
▁India	-1175
▁worth	-1176
▁expect	-1177
▁instead	-1178
▁involved	-1179
fic	-1180
▁disc	-1181
▁next	-1182
▁fight	-1183
OT	-1184
18]	-1185
aim	-1186
ute	-1187
llow	-1188
▁CMV	-1189
▁bab	-1190
▁det	-1191
▁gay	-1192
▁smo	-1193
aring	-1194
▁conv	-1195
▁side	-1196
▁brain	-1197
▁comes	-1198
▁course	-1199
▁simply	-1200
▁problems	-1201
10]	-1202
get	-1203
▁hu	-1204
rect	-1205
▁cou	-1206
▁mon	-1207
▁ref	-1208
▁ret	-1209
▁conf	-1210
▁ment	-1211
▁exist	-1212
▁countries	-1213
ib	-1214
ru	-1215
gin	-1216
ili	-1217
ize	-1218
ants	-1219
tern	-1220
▁die	-1221
▁leg	-1222
ments	-1223
▁Most	-1224
▁aren	-1225
▁full	-1226
▁assum	-1227
▁mother	-1228
pecially	-1229
▁Farquhar	-1230
▁experience	-1231
▁fatherless	-1232
▁individual	-1233
ross	-1234
▁book	-1235
reedom	-1236
▁evidence	-1237
."	-1238
cy	-1239
ix	-1240
jor	-1241
ove	-1242
▁Un	-1243
ames	-1244
fort	-1245
rent	-1246
ware	-1247
▁Not	-1248
▁cap	-1249
▁dem	-1250
▁eat	-1251
▁non	-1252
▁lawy	-1253
▁plan	-1254
▁stup	-1255
▁bring	-1256
▁cases	-1257
▁danger	-1258
▁social	-1259
▁strong	-1260
▁economy	-1261
▁interest	-1262
16]	-1263
ror	-1264
band	-1265
▁belief	-1266
▁abortion	-1267
▁criminal	-1268
▁*	-1269
▁V	-1270
ife	-1271
▁TV	-1272
▁ra	-1273
ives	-1274
ying	-1275
▁bur	-1276
▁imm	-1277
▁mom	-1278
▁tog	-1279
▁win	-1280
▁Chin	-1281
▁Just	-1282
▁Well	-1283
▁body	-1284
▁says	-1285
▁sell	-1286
atever	-1287
▁claim	-1288
▁given	-1289
▁night	-1290
ational	-1291
▁follow	-1292
▁punish	-1293
▁stupid	-1294
▁perfect	-1295
▁business	-1296
▁relations	-1297
alk	-1298
ures	-1299
▁env	-1300
▁hon	-1301
▁hus	-1302
▁num	-1303
▁commun	-1304
▁complet	-1305
▁freedom	-1306
ER	-1307
▁4	-1308
arch	-1309
ided	-1310
oint	-1311
unch	-1312
▁fin	-1313
▁guy	-1314
▁inn	-1315
▁pri	-1316
▁top	-1317
ences	-1318
▁cost	-1319
▁hist	-1320
▁hour	-1321
▁land	-1322
▁left	-1323
▁move	-1324
▁teac	-1325
▁term	-1326
ancing	-1327
▁break	-1328
▁leave	-1329
▁sport	-1330
▁using	-1331
▁People	-1332
▁looking	-1333
▁respect	-1334
▁schools	-1335
▁serious	-1336
▁subject	-1337
▁together	-1338
▁Christian	-1339
▁definitely	-1340
▁relationship	-1341
lud	-1342
▁ele	-1343
ently	-1344
▁post	-1345
▁prove	-1346
▁sense	-1347
▁killed	-1348
▁option	-1349
▁proper	-1350
▁husband	-1351
000	-1352
lus	-1353
ned	-1354
ott	-1355
ses	-1356
▁An	-1357
fend	-1358
vent	-1359
▁age	-1360
▁art	-1361
▁beh	-1362
▁rac	-1363
astic	-1364
plain	-1365
▁cult	-1366
▁deal	-1367
▁hold	-1368
▁jail	-1369
▁open	-1370
▁seen	-1371
ession	-1372
▁milit	-1373
▁music	-1374
▁coming	-1375
▁bottles	-1376
▁whether	-1377
▁religious	-1378
▁dog	-1379
▁sal	-1380
orney	-1381
▁cond	-1382
▁spend	-1383
▁depend	-1384
▁taking	-1385
▁require	-1386
??	-1387
ew	-1388
rit	-1389
▁di	-1390
ased	-1391
avor	-1392
form	-1393
ient	-1394
▁Mar	-1395
▁god	-1396
▁loc	-1397
▁opp	-1398
▁pat	-1399
▁rid	-1400
▁ste	-1401
▁uni	-1402
icket	-1403
where	-1404
▁fund	-1405
▁goes	-1406
▁sing	-1407
▁adult	-1408
▁group	-1409
▁happy	-1410
▁major	-1411
▁often	-1412
▁crimes	-1413
▁living	-1414
▁record	-1415
▁scient	-1416
▁within	-1417
--------	-1418
▁company	-1419
▁talking	-1420
io	-1421
olog	-1422
ract	-1423
▁dam	-1424
▁dep	-1425
▁exc	-1426
▁met	-1427
ensive	-1428
▁exact	-1429
▁correct	-1430
▁attorney	-1431
ah	-1432
ec	-1433
gg	-1434
You	-1435
bor	-1436
hol	-1437
ken	-1438
lim	-1439
oof	-1440
oph	-1441
ork	-1442
ric	-1443
ues	-1444
▁On	-1445
cond	-1446
ital	-1447
utes	-1448
ween	-1449
▁All	-1450
▁abs	-1451
▁adm	-1452
▁dad	-1453
▁eff	-1454
▁fil	-1455
▁low	-1456
▁wee	-1457
irect	-1458
▁With	-1459
▁came	-1460
▁dest	-1461
▁easy	-1462
▁harm	-1463
▁phys	-1464
▁stay	-1465
▁took	-1466
▁vide	-1467
▁build	-1468
▁innoc	-1469
▁speak	-1470
▁almost	-1471
▁called	-1472
▁chance	-1473
▁prison	-1474
▁attempt	-1475
▁between	-1476
▁current	-1477
▁whatever	-1478
▁political	-1479
zy	-1480
ket	-1481
side	-1482
▁civ	-1483
▁gir	-1484
llege	-1485
▁chick	-1486
▁incre	-1487
▁treat	-1488
▁commit	-1489
▁terror	-1490
▁thinking	-1491
ij	-1492
ats	-1493
ges	-1494
ony	-1495
▁10	-1496
▁av	-1497
This	-1498
land	-1499
lish	-1500
ully	-1501
urch	-1502
▁NOT	-1503
▁lic	-1504
▁log	-1505
▁mov	-1506
▁occ	-1507
▁sho	-1508
aving	-1509
istic	-1510
rible	-1511
right	-1512
▁guil	-1513
▁hope	-1514
▁jobs	-1515
▁main	-1516
▁First	-1517
▁black	-1518
▁judge	-1519
▁level	-1520
▁polic	-1521
▁teach	-1522
▁trans	-1523
▁necess	-1524
▁partic	-1525
▁America	-1526
▁however	-1527
▁process	-1528
stitution	-1529
especially	-1530
▁pe	-1531
▁aff	-1532
▁tast	-1533
▁walk	-1534
▁envir	-1535
▁price	-1536
▁intell	-1537
▁friends	-1538
▁decision	-1539
ES	-1540
br	-1541
ee	-1542
ana	-1543
idd	-1544
ner	-1545
uly	-1546
▁sw	-1547
ntil	-1548
sequ	-1549
▁She	-1550
▁rev	-1551
ality	-1552
▁Also	-1553
▁baby	-1554
▁issu	-1555
▁line	-1556
▁list	-1557
▁rece	-1558
▁sent	-1559
▁wait	-1560
▁went	-1561
▁These	-1562
▁heart	-1563
▁refer	-1564
▁caught	-1565
▁itself	-1566
▁simple	-1567
▁spouse	-1568
▁states	-1569
▁unless	-1570
▁general	-1571
▁service	-1572
▁student	-1573
▁continue	-1574
▁innocent	-1575
▁questions	-1576
▁personally	-1577
▁responsible	-1578
bs	-1579
▁cop	-1580
aking	-1581
icide	-1582
▁huge	-1583
▁drugs	-1584
▁house	-1585
▁pregn	-1586
ression	-1587
▁includ	-1588
▁college	-1589
▁control	-1590
▁created	-1591
ON	-1592
aps	-1593
ets	-1594
gan	-1595
joy	-1596
let	-1597
omm	-1598
opp	-1599
ret	-1600
urt	-1601
ines	-1602
▁bar	-1603
▁bit	-1604
▁due	-1605
▁est	-1606
▁par	-1607
otion	-1608
ribut	-1609
uring	-1610
▁Bush	-1611
▁Some	-1612
▁days	-1613
▁dist	-1614
▁fast	-1615
▁mill	-1616
▁name	-1617
▁pain	-1618
▁type	-1619
▁China	-1620
▁Every	-1621
▁cloth	-1622
▁enjoy	-1623
▁games	-1624
▁proof	-1625
▁truly	-1626
▁myself	-1627
▁sports	-1628
▁theory	-1629
sibility	-1630
▁consequ	-1631
▁history	-1632
▁teacher	-1633
▁military	-1634
▁sometimes	-1635
▁completely	-1636
pr	-1637
▁id	-1638
▁lar	-1639
▁girl	-1640
▁stat	-1641
▁wast	-1642
▁argue	-1643
▁thats	-1644
▁easily	-1645
▁market	-1646
▁helping	-1647
ED	-1648
So	-1649
ama	-1650
iju	-1651
▁PE	-1652
▁gl	-1653
ange	-1654
arth	-1655
ball	-1656
irth	-1657
itiz	-1658
ized	-1659
ured	-1660
wise	-1661
▁enc	-1662
▁fut	-1663
▁gun	-1664
▁rap	-1665
▁tow	-1666
anies	-1667
itted	-1668
▁fair	-1669
▁fall	-1670
▁hear	-1671
▁once	-1672
▁rese	-1673
▁step	-1674
▁team	-1675
▁wish	-1676
verage	-1677
▁along	-1678
▁local	-1679
▁takes	-1680
ulation	-1681
▁actual	-1682
▁longer	-1683
▁nation	-1684
▁potent	-1685
▁wonder	-1686
▁healthy	-1687
▁killing	-1688
▁selfish	-1689
▁working	-1690
▁Although	-1691
▁drinking	-1692
▁certainly	-1693
▁dangerous	-1694
to	-1695
alf	-1696
aur	-1697
irm	-1698
onment	-1699
▁easier	-1700
▁honest	-1701
▁contact	-1702
▁science	-1703
▁benefits	-1704
sh	-1705
!!!	-1706
And	-1707
dit	-1708
ips	-1709
rop	-1710
▁Do	-1711
▁Re	-1712
▁ve	-1713
aces	-1714
haps	-1715
like	-1716
ocus	-1717
xual	-1718
▁Now	-1719
▁col	-1720
▁dev	-1721
▁doc	-1722
▁fig	-1723
▁typ	-1724
▁yet	-1725
cohol	-1726
iddle	-1727
oting	-1728
▁cant	-1729
▁cust	-1730
▁fail	-1731
▁film	-1732
▁fine	-1733
▁fire	-1734
▁fore	-1735
▁game	-1736
▁head	-1737
▁ones	-1738
▁prof	-1739
▁stre	-1740
▁surv	-1741
▁test	-1742
▁trad	-1743
▁wife	-1744
ijuana	-1745
▁citiz	-1746
▁focus	-1747
▁guess	-1748
▁sever	-1749
▁sound	-1750
▁super	-1751
▁taken	-1752
▁wants	-1753
▁amount	-1754
▁direct	-1755
▁issues	-1756
▁please	-1757
▁single	-1758
▁wanted	-1759
▁animals	-1760
▁knowing	-1761
▁American	-1762
▁companies	-1763
▁therefore	-1764
▁especially	-1765
uss	-1766
▁trust	-1767
▁design	-1768
▁entire	-1769
▁number	-1770
▁policy	-1771
▁chicken	-1772
▁learned	-1773
▁usually	-1774
▁possible	-1775
▁environment	-1776
",	-1777
▁7	-1778
▁:	-1779
amp	-1780
ele	-1781
man	-1782
osp	-1783
rom	-1784
atic	-1785
bers	-1786
ield	-1787
ilar	-1788
ised	-1789
itch	-1790
▁Can	-1791
▁hom	-1792
▁hot	-1793
▁ill	-1794
▁mis	-1795
▁neg	-1796
▁ris	-1797
ances	-1798
cause	-1799
fully	-1800
ively	-1801
▁Many	-1802
▁sick	-1803
▁span	-1804
▁vote	-1805
▁begin	-1806
▁early	-1807
▁later	-1808
▁moder	-1809
▁offic	-1810
▁quite	-1811
▁spank	-1812
▁today	-1813
▁young	-1814
▁concer	-1815
▁extrem	-1816
▁figure	-1817
▁inform	-1818
▁justif	-1819
▁lawyer	-1820
▁result	-1821
▁beliefs	-1822
▁bottled	-1823
▁concept	-1824
▁natural	-1825
▁obvious	-1826
▁product	-1827
▁reasons	-1828
▁document	-1829
▁physical	-1830
▁supposed	-1831
▁marijuana	-1832
▁difference	-1833
ts	-1834
ash	-1835
ird	-1836
ock	-1837
ault	-1838
▁hate	-1839
▁prom	-1840
▁const	-1841
▁prefer	-1842
▁outside	-1843
▁restaur	-1844
▁position	-1845
▁necessary	-1846
▁scientific	-1847
IT	-1848
ex	-1849
But	-1850
cum	-1851
▁19	-1852
▁At	-1853
▁Ob	-1854
▁Or	-1855
,000	-1856
anks	-1857
aper	-1858
ared	-1859
atch	-1860
enal	-1861
ging	-1862
hood	-1863
ling	-1864
more	-1865
olut	-1866
rest	-1867
▁Eng	-1868
▁Pro	-1869
▁bel	-1870
▁eng	-1871
▁fac	-1872
▁fit	-1873
▁gre	-1874
▁ign	-1875
▁ori	-1876
ember	-1877
▁Your	-1878
▁area	-1879
▁dead	-1880
▁gave	-1881
▁guys	-1882
▁mass	-1883
▁mist	-1884
▁nice	-1885
▁phil	-1886
▁prim	-1887
▁priv	-1888
▁rich	-1889
ources	-1890
ration	-1891
urance	-1892
urther	-1893
▁accom	-1894
▁appro	-1895
▁becom	-1896
▁enfor	-1897
▁equal	-1898
▁front	-1899
▁knows	-1900
▁media	-1901
▁month	-1902
▁story	-1903
▁three	-1904
▁truth	-1905
▁until	-1906
▁video	-1907
▁write	-1908
osexual	-1909
▁assume	-1910
▁destro	-1911
▁future	-1912
▁giving	-1913
▁intern	-1914
▁middle	-1915
▁office	-1916
▁regard	-1917
▁actions	-1918
▁alcohol	-1919
▁clothes	-1920
▁decided	-1921
▁driving	-1922
▁emotion	-1923
▁minutes	-1924
▁prevent	-1925
▁similar	-1926
▁creation	-1927
▁research	-1928
dd	-1929
aid	-1930
▁ey	-1931
▁ok	-1932
▁cau	-1933
▁cra	-1934
asing	-1935
▁gain	-1936
▁half	-1937
▁mess	-1938
▁talk	-1939
▁told	-1940
▁liber	-1941
ination	-1942
▁forget	-1943
▁object	-1944
▁suicide	-1945
▁intellig	-1946
▁pregnant	-1947
2.	-1948
▁6	-1949
▁8	-1950
ech	-1951
hib	-1952
ime	-1953
ows	-1954
por	-1955
umb	-1956
▁Af	-1957
cial	-1958
erci	-1959
imum	-1960
ined	-1961
ires	-1962
iter	-1963
omen	-1964
ouch	-1965
pose	-1966
▁cal	-1967
▁cir	-1968
▁fat	-1969
▁sat	-1970
▁suc	-1971
▁vis	-1972
atory	-1973
ouble	-1974
uslim	-1975
▁Will	-1976
▁athe	-1977
▁city	-1978
▁ende	-1979
▁grad	-1980
▁host	-1981
▁infl	-1982
▁lack	-1983
▁lose	-1984
▁miss	-1985
▁news	-1986
▁wage	-1987
▁wear	-1988
▁wont	-1989
atives	-1990
▁abuse	-1991
▁areas	-1992
▁birth	-1993
▁check	-1994
▁close	-1995
▁stopp	-1996
▁white	-1997
▁works	-1998
▁worse	-1999
olutely	-2000
▁church	-2001
▁consum	-2002
▁defend	-2003
▁during	-2004
▁nature	-2005
▁places	-2006
▁sexual	-2007
▁average	-2008
▁convict	-2009
▁justice	-2010
▁meaning	-2011
▁plastic	-2012
▁friendly	-2013
▁violence	-2014
▁watching	-2015
▁advancing	-2016
▁extremely	-2017
▁considered	-2018
▁population	-2019
▁punishment	-2020
▁Christianity	-2021
ams	-2022
erg	-2023
▁ir	-2024
cent	-2025
ledge	-2026
▁scen	-2027
▁books	-2028
▁pract	-2029
▁affect	-2030
▁specific	-2031
1.	-2032
20	-2033
AT	-2034
NT	-2035
OO	-2036
OU	-2037
ze	-2038
ees	-2039
erm	-2040
fox	-2041
rap	-2042
▁**	-2043
▁20	-2044
▁IE	-2045
▁ur	-2046
aged	-2047
akes	-2048
aybe	-2049
gest	-2050
ills	-2051
plic	-2052
used	-2053
what	-2054
▁div	-2055
▁opt	-2056
▁rul	-2057
▁var	-2058
agine	-2059
cumst	-2060
ially	-2061
ology	-2062
vered	-2063
▁auth	-2064
▁comb	-2065
▁deli	-2066
▁earn	-2067
▁evil	-2068
▁fill	-2069
▁load	-2070
▁lost	-2071
▁risk	-2072
▁road	-2073
▁scre	-2074
▁thus	-2075
▁vict	-2076
ention	-2077
fortun	-2078
ording	-2079
▁Somet	-2080
▁clear	-2081
▁lunch	-2082
▁organ	-2083
▁raped	-2084
▁touch	-2085
▁asking	-2086
▁charge	-2087
▁compet	-2088
▁consci	-2089
▁courts	-2090
▁create	-2091
▁effort	-2092
▁guilty	-2093
▁indust	-2094
▁review	-2095
▁happens	-2096
▁license	-2097
▁present	-2098
▁reality	-2099
▁realize	-2100
▁survive	-2101
▁wearing	-2102
▁complain	-2103
▁happened	-2104
▁services	-2105
▁somebody	-2106
▁spanking	-2107
▁terrible	-2108
▁community	-2109
▁homosexual	-2110
▁responsibility	-2111
ny	-2112
cri	-2113
eds	-2114
hod	-2115
oub	-2116
par	-2117
▁aw	-2118
▁cu	-2119
▁lim	-2120
▁tot	-2121
▁unf	-2122
▁hands	-2123
▁progr	-2124
▁tried	-2125
▁value	-2126
▁action	-2127
▁return	-2128
In	-2129
my	-2130
ne	-2131
▁9	-2132
acc	-2133
edi	-2134
ery	-2135
ior	-2136
oid	-2137
oud	-2138
raq	-2139
ube	-2140
▁--	-2141
▁30	-2142
▁Bl	-2143
▁ep	-2144
▁jo	-2145
What	-2146
acks	-2147
cipl	-2148
enty	-2149
etus	-2150
ffer	-2151
icul	-2152
leep	-2153
lies	-2154
rant	-2155
ring	-2156
▁Cub	-2157
▁Let	-2158
▁Our	-2159
▁aut	-2160
▁cut	-2161
▁hor	-2162
▁ple	-2163
▁sus	-2164
antly	-2165
ature	-2166
ening	-2167
ering	-2168
imate	-2169
itive	-2170
riage	-2171
▁Even	-2172
▁Then	-2173
▁born	-2174
▁bull	-2175
▁card	-2176
▁deep	-2177
▁past	-2178
▁piss	-2179
▁redu	-2180
▁sand	-2181
▁send	-2182
▁slow	-2183
▁stri	-2184
▁tend	-2185
▁warm	-2186
▁ways	-2187
enalty	-2188
ercise	-2189
inated	-2190
ommend	-2191
orning	-2192
resent	-2193
▁Willi	-2194
▁activ	-2195
▁alone	-2196
▁asked	-2197
▁basis	-2198
▁chose	-2199
▁clean	-2200
▁final	-2201
▁grant	-2202
▁influ	-2203
▁large	-2204
▁light	-2205
▁lower	-2206
▁minor	-2207
▁movie	-2208
▁neigh	-2209
▁offer	-2210
▁share	-2211
▁trade	-2212
▁worst	-2213
olution	-2214
▁Muslim	-2215
▁cheese	-2216
▁claims	-2217
▁couple	-2218
▁encour	-2219
▁invest	-2220
▁member	-2221
▁mental	-2222
▁moment	-2223
▁months	-2224
▁philos	-2225
▁prohib	-2226
▁speech	-2227
▁street	-2228
________	-2229
▁ability	-2230
▁account	-2231
▁capital	-2232
▁culture	-2233
▁exactly	-2234
▁fathers	-2235
▁penalty	-2236
▁perform	-2237
▁politic	-2238
▁popular	-2239
▁purpose	-2240
▁quality	-2241
▁ridicul	-2242
▁univers	-2243
▁willing	-2244
▁writing	-2245
▁circumst	-2246
▁citizens	-2247
▁controll	-2248
▁exercise	-2249
▁teachers	-2250
▁Americans	-2251
▁committed	-2252
▁employees	-2253
▁insurance	-2254
▁recommend	-2255
▁represent	-2256
▁resources	-2257
▁particular	-2258
▁differently	-2259
att	-2260
ency	-2261
▁hit	-2262
▁tor	-2263
ister	-2264
▁paid	-2265
▁tech	-2266
▁civil	-2267
▁crazy	-2268
▁deser	-2269
▁table	-2270
▁waste	-2271
licious	-2272
▁across	-2273
▁animal	-2274
▁method	-2275
▁depends	-2276
▁knowledge	-2277
▁restaurant	-2278
.3	-2279
AN	-2280
As	-2281
He	-2282
OR	-2283
af	-2284
na	-2285
How	-2286
ane	-2287
com	-2288
eah	-2289
ins	-2290
ker	-2291
ole	-2292
oun	-2293
pro	-2294
row	-2295
sec	-2296
ton	-2297
uff	-2298
ury	-2299
▁Ex	-2300
▁Li	-2301
▁Ne	-2302
▁Of	-2303
ands	-2304
angu	-2305
chie	-2306
eral	-2307
esus	-2308
live	-2309
part	-2310
rael	-2311
ried	-2312
room	-2313
work	-2314
▁Don	-2315
▁Its	-2316
▁Who	-2317
▁ann	-2318
▁eth	-2319
▁fix	-2320
▁los	-2321
▁red	-2322
oring	-2323
ounds	-2324
verse	-2325
which	-2326
▁cell	-2327
▁crap	-2328
▁doll	-2329
▁eyes	-2330
▁fant	-2331
▁mand	-2332
▁seek	-2333
▁sett	-2334
▁soft	-2335
▁sour	-2336
▁town	-2337
▁wasn	-2338
action	-2339
esides	-2340
▁Jesus	-2341
▁Since	-2342
▁among	-2343
▁aware	-2344
▁cross	-2345
▁dress	-2346
▁earth	-2347
▁extra	-2348
▁ident	-2349
▁labor	-2350
▁langu	-2351
▁looks	-2352
▁shows	-2353
▁smart	-2354
▁worry	-2355
agement	-2356
cipline	-2357
itional	-2358
▁States	-2359
▁custom	-2360
▁detail	-2361
▁disapp	-2362
▁eating	-2363
▁income	-2364
▁modern	-2365
▁paying	-2366
▁second	-2367
▁series	-2368
▁suffer	-2369
▁superi	-2370
▁Because	-2371
▁William	-2372
▁changed	-2373
▁content	-2374
▁defense	-2375
▁enforce	-2376
▁leaving	-2377
▁million	-2378
▁morning	-2379
▁ordered	-2380
▁provide	-2381
▁trouble	-2382
▁although	-2383
▁endeavor	-2384
▁honestly	-2385
▁recently	-2386
▁basically	-2387
▁developed	-2388
▁entertain	-2389
▁philosoph	-2390
▁potential	-2391
▁acceptable	-2392
▁discipline	-2393
ogn	-2394
born	-2395
oubt	-2396
▁pet	-2397
▁facts	-2398
▁field	-2399
▁heard	-2400
▁separ	-2401
▁techn	-2402
▁decent	-2403
▁previous	-2404
▁delicious	-2405
?"	-2406
by	-2407
tt	-2408
▁?	-2409
Why	-2410
ale	-2411
azz	-2412
gth	-2413
hab	-2414
how	-2415
iod	-2416
ocr	-2417
omp	-2418
ral	-2419
ude	-2420
ump	-2421
ung	-2422
▁:)	-2423
▁Cr	-2424
▁Go	-2425
▁ID	-2426
▁Im	-2427
▁TH	-2428
▁Tw	-2429
▁ru	-2430
amed	-2431
ases	-2432
isod	-2433
ived	-2434
lect	-2435
life	-2436
nger	-2437
ones	-2438
oved	-2439
reme	-2440
uted	-2441
▁...	-2442
▁Eur	-2443
▁USA	-2444
▁ago	-2445
▁air	-2446
▁den	-2447
▁din	-2448
▁gen	-2449
▁hab	-2450
▁hop	-2451
acter	-2452
econd	-2453
elebr	-2454
iding	-2455
ories	-2456
▁Iraq	-2457
▁cent	-2458
▁cool	-2459
▁dict	-2460
▁expl	-2461
▁held	-2462
▁hurt	-2463
▁inde	-2464
▁knew	-2465
▁male	-2466
▁meal	-2467
▁none	-2468
▁prep	-2469
▁rent	-2470
▁roll	-2471
▁safe	-2472
▁song	-2473
ablish	-2474
itions	-2475
itness	-2476
seless	-2477
▁Canad	-2478
▁Other	-2479
▁above	-2480
▁avail	-2481
▁behav	-2482
▁elect	-2483
▁finan	-2484
▁force	-2485
▁fries	-2486
▁gives	-2487
▁haven	-2488
▁helps	-2489
▁known	-2490
▁occur	-2491
▁paper	-2492
▁quick	-2493
▁sides	-2494
▁topic	-2495
▁views	-2496
▁Europe	-2497
▁adults	-2498
▁afford	-2499
▁arrest	-2500
▁bother	-2501
▁burger	-2502
▁celebr	-2503
▁couldn	-2504
▁crimin	-2505
▁gotten	-2506
▁helped	-2507
▁humans	-2508
▁period	-2509
▁racist	-2510
▁remain	-2511
▁taught	-2512
▁ticket	-2513
▁values	-2514
▁English	-2515
▁accompl	-2516
▁contain	-2517
▁discrim	-2518
▁feeling	-2519
▁himself	-2520
▁imagine	-2521
▁lawyers	-2522
▁legally	-2523
▁minimum	-2524
▁perhaps	-2525
▁playing	-2526
▁running	-2527
▁several	-2528
▁started	-2529
▁towards	-2530
▁younger	-2531
▁accident	-2532
▁greatest	-2533
▁humanity	-2534
▁instance	-2535
▁murdered	-2536
▁remember	-2537
▁superior	-2538
▁uniforms	-2539
▁available	-2540
▁contribut	-2541
▁establish	-2542
▁expensive	-2543
▁generally	-2544
▁influence	-2545
▁ourselves	-2546
▁recession	-2547
▁religions	-2548
▁absolutely	-2549
▁ridiculous	-2550
▁terrorists	-2551
▁information	-2552
▁circumstances	-2553
----------------	-2554
▁tv	-2555
miss	-2556
▁box	-2557
▁mag	-2558
▁tac	-2559
▁pict	-2560
▁decide	-2561
▁proven	-2562
▁recogn	-2563
▁status	-2564
▁classes	-2565
▁percent	-2566
▁reading	-2567
▁required	-2568
'.	-2569
.5	-2570
AS	-2571
Al	-2572
IC	-2573
LL	-2574
My	-2575
OM	-2576
ls	-2577
ti	-2578
ww	-2579
▁/	-2580
???	-2581
add	-2582
ark	-2583
arr	-2584
asy	-2585
aws	-2586
ean	-2587
ify	-2588
ler	-2589
ots	-2590
unk	-2591
▁18	-2592
▁50	-2593
▁Cl	-2594
▁Oh	-2595
▁Sh	-2596
▁Sp	-2597
▁UN	-2598
▁ge	-2599
▁hy	-2600
apan	-2601
ceed	-2602
cket	-2603
etic	-2604
ican	-2605
line	-2606
nect	-2607
obal	-2608
ourt	-2609
rate	-2610
resh	-2611
they	-2612
wich	-2613
▁Man	-2614
▁agg	-2615
▁ath	-2616
▁bom	-2617
▁fed	-2618
▁lif	-2619
▁nor	-2620
▁obs	-2621
▁oil	-2622
▁sec	-2623
▁sue	-2624
▁tea	-2625
.....	-2626
There	-2627
ached	-2628
ators	-2629
light	-2630
ooked	-2631
riend	-2632
▁Fire	-2633
▁appe	-2634
▁cand	-2635
▁coun	-2636
▁dish	-2637
▁face	-2638
▁gall	-2639
▁lots	-2640
▁luck	-2641
▁mach	-2642
▁norm	-2643
▁race	-2644
▁rout	-2645
▁sort	-2646
▁week	-2647
choice	-2648
isions	-2649
lement	-2650
lusion	-2651
ottled	-2652
rength	-2653
▁Would	-2654
▁achie	-2655
▁admit	-2656
▁carry	-2657
▁cover	-2658
▁divor	-2659
▁doubt	-2660
▁favor	-2661
▁fetus	-2662
▁fresh	-2663
▁impro	-2664
▁keeps	-2665
▁rehab	-2666
▁smoke	-2667
▁stuck	-2668
▁stuff	-2669
▁throw	-2670
▁train	-2671
aseball	-2672
endment	-2673
ication	-2674
ization	-2675
▁Change	-2676
▁Please	-2677
▁Thanks	-2678
▁United	-2679
▁author	-2680
▁causes	-2681
▁demand	-2682
▁diffic	-2683
▁episod	-2684
▁except	-2685
▁exists	-2686
▁immedi	-2687
▁reduce	-2688
▁remove	-2689
▁report	-2690
▁threat	-2691
▁address	-2692
▁answers	-2693
▁benefic	-2694
▁comfort	-2695
▁continu	-2696
▁dollars	-2697
▁explain	-2698
▁founder	-2699
▁growing	-2700
▁leaders	-2701
▁letting	-2702
▁logical	-2703
▁receive	-2704
▁related	-2705
▁smoking	-2706
▁spanked	-2707
▁special	-2708
▁success	-2709
▁systems	-2710
▁watched	-2711
▁building	-2712
▁contract	-2713
▁expected	-2714
▁fighting	-2715
▁learning	-2716
▁sandwich	-2717
▁strength	-2718
▁arguments	-2719
▁criminals	-2720
▁currently	-2721
▁effective	-2722
▁seriously	-2723
▁accomplish	-2724
▁disappoint	-2725
▁individuals	-2726
▁consequences	-2727
▁intelligence	-2728
▁understanding	-2729
oted	-2730
▁rape	-2731
▁fault	-2732
▁peace	-2733
ortions	-2734
▁casual	-2735
▁descri	-2736
▁benefit	-2737
▁constru	-2738
▁solution	-2739
.*	-2740
10	-2741
EL	-2742
ID	-2743
IN	-2744
We	-2745
cl	-2746
go	-2747
no	-2748
ph	-2749
ps	-2750
ye	-2751
ENT	-2752
For	-2753
VER	-2754
Yes	-2755
aut	-2756
cks	-2757
cul	-2758
erk	-2759
ilt	-2760
ipp	-2761
ked	-2762
lam	-2763
mon	-2764
put	-2765
que	-2766
▁Pr	-2767
▁Su	-2768
▁bi	-2769
▁sn	-2770
alif	-2771
alse	-2772
gers	-2773
head	-2774
iced	-2775
ired	-2776
ises	-2777
itle	-2778
kind	-2779
oard	-2780
outh	-2781
over	-2782
raph	-2783
rial	-2784
rupt	-2785
soci	-2786
that	-2787
ties	-2788
uter	-2789
well	-2790
▁100	-2791
▁Any	-2792
▁arm	-2793
▁bed	-2794
▁boo	-2795
▁boy	-2796
▁dat	-2797
▁dut	-2798
▁emb	-2799
▁mot	-2800
▁sad	-2801
▁sen	-2802
althy	-2803
ament	-2804
arter	-2805
ggest	-2806
ginal	-2807
urity	-2808
▁Both	-2809
▁Brit	-2810
▁Good	-2811
▁Look	-2812
▁Plus	-2813
▁bail	-2814
▁cops	-2815
▁damn	-2816
▁diab	-2817
▁exec	-2818
▁feed	-2819
▁firm	-2820
▁init	-2821
▁kept	-2822
▁lazy	-2823
▁mine	-2824
▁pers	-2825
▁plus	-2826
▁pred	-2827
▁rate	-2828
▁rele	-2829
▁seat	-2830
▁sold	-2831
▁soon	-2832
▁upon	-2833
▁weak	-2834
acking	-2835
arents	-2836
▁After	-2837
▁Court	-2838
▁Gener	-2839
▁While	-2840
▁bills	-2841
▁brows	-2842
▁built	-2843
▁cheap	-2844
▁cream	-2845
▁disco	-2846
▁feels	-2847
▁hours	-2848
▁proud	-2849
▁reven	-2850
▁salad	-2851
▁short	-2852
▁solve	-2853
▁steal	-2854
▁store	-2855
▁taste	-2856
▁taxes	-2857
▁title	-2858
▁weeks	-2859
ability	-2860
▁Christ	-2861
▁School	-2862
▁anyway	-2863
▁behind	-2864
▁corpor	-2865
▁daught	-2866
▁drinks	-2867
▁forced	-2868
▁global	-2869
▁ignore	-2870
▁listen	-2871
▁movies	-2872
▁offend	-2873
▁plenty	-2874
▁prices	-2875
▁seeing	-2876
▁societ	-2877
▁spread	-2878
▁victim	-2879
▁Without	-2880
▁capable	-2881
▁chances	-2882
▁connect	-2883
▁conserv	-2884
▁details	-2885
▁drivers	-2886
▁effects	-2887
▁further	-2888
▁keeping	-2889
▁members	-2890
▁project	-2891
▁putting	-2892
▁regular	-2893
▁suggest	-2894
▁treated	-2895
▁warming	-2896
▁witness	-2897
▁Marriage	-2898
▁behavior	-2899
▁directly	-2900
▁economic	-2901
▁feelings	-2902
▁founding	-2903
▁function	-2904
▁identity	-2905
▁increase	-2906
▁language	-2907
▁negative	-2908
▁neighbor	-2909
▁particip	-2910
▁positive	-2911
▁property	-2912
▁standard	-2913
▁Sometimes	-2914
▁character	-2915
▁christian	-2916
▁conscious	-2917
▁decisions	-2918
▁difficult	-2919
▁emotional	-2920
▁financial	-2921
▁happening	-2922
▁including	-2923
▁justified	-2924
▁mandatory	-2925
▁somewhere	-2926
▁standards	-2927
▁generation	-2928
▁reasonable	-2929
▁regardless	-2930
▁development	-2931
▁constitution	-2932
▁relationships	-2933
opt	-2934
onic	-2935
▁und	-2936
▁flag	-2937
▁hide	-2938
▁save	-2939
▁tort	-2940
▁adopt	-2941
▁blood	-2942
▁goals	-2943
▁raise	-2944
▁advant	-2945
▁possib	-2946
▁server	-2947
▁brother	-2948
▁discuss	-2949
▁mention	-2950
▁speaking	-2951
▁condition	-2952
▁definition	-2953
▁increasing	-2954
.)	-2955
.4	-2956
11	-2957
2)	-2958
AR	-2959
MA	-2960
To	-2961
eg	-2962
kn	-2963
ma	-2964
mb	-2965
oh	-2966
vy	-2967
za	-2968
.2.	-2969
CMV	-2970
Its	-2971
ape	-2972
avy	-2973
bel	-2974
cle	-2975
den	-2976
don	-2977
egr	-2978
gle	-2979
isf	-2980
ops	-2981
pet	-2982
rib	-2983
she	-2984
uit	-2985
vis	-2986
yle	-2987
you	-2988
▁12	-2989
▁AN	-2990
▁Am	-2991
▁Ar	-2992
▁De	-2993
▁Ir	-2994
▁LO	-2995
▁Ph	-2996
▁Pl	-2997
▁ST	-2998
▁Sc	-2999
▁UK	-3000
▁nu	-3001
Edit	-3002
ades	-3003
airs	-3004
ator	-3005
augh	-3006
aves	-3007
ayer	-3008
mosp	-3009
orry	-3010
path	-3011
ping	-3012
pite	-3013
play	-3014
pret	-3015
reds	-3016
rodu	-3017
ship	-3018
tain	-3019
vert	-3020
ward	-3021
▁Act	-3022
▁Che	-3023
▁Mac	-3024
▁Nob	-3025
▁bag	-3026
▁bal	-3027
▁ban	-3028
▁cow	-3029
▁ess	-3030
▁fem	-3031
▁gas	-3032
▁hur	-3033
▁rob	-3034
▁ten	-3035
▁tip	-3036
▁tre	-3037
▁ult	-3038
alism	-3039
alled	-3040
azing	-3041
enses	-3042
esity	-3043
itten	-3044
izing	-3045
oices	-3046
rated	-3047
riate	-3048
stood	-3049
▁alot	-3050
▁burn	-3051
▁date	-3052
▁doct	-3053
▁dumb	-3054
▁exce	-3055
▁gone	-3056
▁hund	-3057
▁impe	-3058
▁lets	-3059
▁mere	-3060
▁mult	-3061
▁pack	-3062
▁push	-3063
▁vacc	-3064
▁vers	-3065
ograph	-3066
▁Islam	-3067
▁Maybe	-3068
▁below	-3069
▁effic	-3070
▁event	-3071
▁gradu	-3072
▁grand	-3073
▁immig	-3074
▁laugh	-3075
▁liter	-3076
▁lived	-3077
▁logic	-3078
▁obese	-3079
▁purch	-3080
▁serve	-3081
▁ships	-3082
▁shoot	-3083
▁teens	-3084
▁union	-3085
▁wages	-3086
▁whats	-3087
▁words	-3088
ictions	-3089
ressive	-3090
venient	-3091
▁Father	-3092
▁Indian	-3093
▁Israel	-3094
▁active	-3095
▁allows	-3096
▁athlet	-3097
▁atmosp	-3098
▁civili	-3099
▁condem	-3100
▁determ	-3101
▁driver	-3102
▁faster	-3103
▁gender	-3104
▁impact	-3105
▁looked	-3106
▁memory	-3107
▁needed	-3108
▁passed	-3109
▁planet	-3110
▁prosec	-3111
▁satisf	-3112
▁skills	-3113
ropriate	-3114
▁Cricket	-3115
▁Firefox	-3116
▁amazing	-3117
▁anybody	-3118
▁anymore	-3119
▁becomes	-3120
▁biggest	-3121
▁brought	-3122
▁charged	-3123
▁clearly	-3124
▁complex	-3125
▁debates	-3126
▁divorce	-3127
▁express	-3128
▁fantasy	-3129
▁federal	-3130
▁foreign	-3131
▁missing	-3132
▁nations	-3133
▁persons	-3134
▁primary	-3135
▁raffles	-3136
▁records	-3137
▁removed	-3138
▁selling	-3139
▁showing	-3140
▁suspect	-3141
▁useless	-3142
▁violent	-3143
▁written	-3144
▁activity	-3145
▁allowing	-3146
▁becoming	-3147
▁believes	-3148
▁episodes	-3149
▁internet	-3150
▁majority	-3151
▁millions	-3152
▁mistakes	-3153
▁morality	-3154
▁national	-3155
▁original	-3156
▁politics	-3157
▁products	-3158
▁provides	-3159
▁rational	-3160
▁requires	-3161
▁software	-3162
▁starting	-3163
▁stopping	-3164
▁thoughts	-3165
▁according	-3166
▁attention	-3167
▁concerned	-3168
▁employers	-3169
▁fundament	-3170
▁interests	-3171
▁otherwise	-3172
▁president	-3173
▁protected	-3174
fortunately	-3175
▁atmosphere	-3176
▁industrial	-3177
▁profession	-3178
▁settlement	-3179
▁situations	-3180
▁consequence	-3181
▁established	-3182
▁immediately	-3183
▁interesting	-3184
▁politicians	-3185
▁traditional	-3186
▁entertainment	-3187
ager	-3188
esome	-3189
ience	-3190
rison	-3191
▁busy	-3192
▁dogs	-3193
▁fear	-3194
▁goal	-3195
▁menu	-3196
▁oper	-3197
▁scar	-3198
▁teen	-3199
▁apply	-3200
▁weird	-3201
mission	-3202
▁instit	-3203
▁species	-3204
▁adoption	-3205
▁designed	-3206
▁imprison	-3207
▁possibly	-3208
▁programs	-3209
▁properly	-3210
▁existence	-3211
▁objective	-3212
▁developing	-3213
,"	-3214
AL	-3215
Ch	-3216
LE	-3217
On	-3218
ev	-3219
of	-3220
tr	-3221
.00	-3222
.3.	-3223
Don	-3224
ING	-3225
ady	-3226
apt	-3227
ask	-3228
cer	-3229
ils	-3230
isp	-3231
kin	-3232
ley	-3233
men	-3234
omy	-3235
oss	-3236
zer	-3237
▁..	-3238
▁16	-3239
▁21	-3240
▁By	-3241
▁DA	-3242
▁Es	-3243
▁FF	-3244
▁IS	-3245
▁PR	-3246
▁Ro	-3247
▁WW	-3248
▁pu	-3249
▁vs	-3250
EDIT	-3251
They	-3252
anas	-3253
back	-3254
come	-3255
ders	-3256
grad	-3257
gree	-3258
icks	-3259
icle	-3260
iety	-3261
izes	-3262
just	-3263
long	-3264
olit	-3265
oman	-3266
port	-3267
real	-3268
reci	-3269
rito	-3270
ster	-3271
uman	-3272
vant	-3273
▁Edu	-3274
▁Law	-3275
▁One	-3276
▁Rep	-3277
▁Wor	-3278
▁YOU	-3279
▁gar	-3280
▁mal	-3281
▁mod	-3282
▁pal	-3283
▁piz	-3284
▁rub	-3285
▁saf	-3286
▁saw	-3287
▁son	-3288
▁sum	-3289
▁tap	-3290
▁tem	-3291
_____	-3292
agers	-3293
aging	-3294
andom	-3295
ankly	-3296
apped	-3297
belie	-3298
cture	-3299
erous	-3300
iable	-3301
igher	-3302
inate	-3303
ingly	-3304
inist	-3305
iring	-3306
ished	-3307
isted	-3308
itled	-3309
llent	-3310
ortun	-3311
owing	-3312
pping	-3313
urons	-3314
▁From	-3315
▁Like	-3316
▁Pres	-3317
▁Yout	-3318
▁acts	-3319
▁ages	-3320
▁amer	-3321
▁anti	-3322
▁band	-3323
▁cere	-3324
▁cold	-3325
▁disg	-3326
▁dram	-3327
▁empt	-3328
▁forg	-3329
▁hair	-3330
▁hell	-3331
▁hosp	-3332
▁jack	-3333
▁late	-3334
▁link	-3335
▁near	-3336
▁nood	-3337
▁note	-3338
▁peop	-3339
▁poll	-3340
▁poss	-3341
▁rare	-3342
▁recy	-3343
▁rely	-3344
▁role	-3345
▁sale	-3346
▁site	-3347
▁suit	-3348
▁uses	-3349
▁warn	-3350
▁yeah	-3351
erhaps	-3352
ligion	-3353
otball	-3354
▁Calif	-3355
▁Japan	-3356
▁Right	-3357
▁Those	-3358
▁annoy	-3359
▁apart	-3360
▁basic	-3361
▁beaut	-3362
▁bible	-3363
▁boost	-3364
▁bound	-3365
▁bunch	-3366
▁cards	-3367
▁color	-3368
▁conce	-3369
▁contr	-3370
▁fully	-3371
▁girls	-3372
▁grade	-3373
▁grown	-3374
▁guilt	-3375
▁honor	-3376
▁ideas	-3377
▁ignor	-3378
▁inher	-3379
▁initi	-3380
▁lawsu	-3381
▁meant	-3382
▁motiv	-3383
▁multi	-3384
▁names	-3385
▁oblig	-3386
▁oppos	-3387
▁owner	-3388
▁phone	-3389
▁prime	-3390
▁rules	-3391
▁scene	-3392
▁sleep	-3393
▁space	-3394
▁steak	-3395
▁study	-3396
▁surpr	-3397
▁thous	-3398
▁toler	-3399
▁types	-3400
However	-3401
itation	-3402
ountain	-3403
plement	-3404
viously	-3405
▁applic	-3406
▁aspect	-3407
▁associ	-3408
▁babies	-3409
▁belong	-3410
▁bigger	-3411
▁boring	-3412
▁breaks	-3413
▁bullsh	-3414
▁convin	-3415
▁degree	-3416
▁device	-3417
▁diabet	-3418
▁dinner	-3419
▁essent	-3420
▁extent	-3421
▁facing	-3422
▁famili	-3423
▁habits	-3424
▁integr	-3425
▁intent	-3426
▁judges	-3427
▁minors	-3428
▁nearly	-3429
▁nobody	-3430
▁normal	-3431
▁notice	-3432
▁origin	-3433
▁played	-3434
▁pocket	-3435
▁racism	-3436
▁random	-3437
▁remind	-3438
▁served	-3439
▁starts	-3440
▁switch	-3441
▁unlike	-3442
▁useful	-3443
▁videos	-3444
▁voting	-3445
▁worked	-3446
........	-3447
volution	-3448
▁achieve	-3449
▁advance	-3450
▁appreci	-3451
▁browser	-3452
▁burrito	-3453
▁changes	-3454
▁climate	-3455
▁counter	-3456
▁destroy	-3457
▁factors	-3458
▁forever	-3459
▁helpful	-3460
▁hurting	-3461
▁include	-3462
▁mankind	-3463
▁massive	-3464
▁medical	-3465
▁methods	-3466
▁mistake	-3467
▁morally	-3468
▁mothers	-3469
▁obesity	-3470
▁options	-3471
▁passing	-3472
▁picture	-3473
▁private	-3474
▁produce	-3475
▁quickly	-3476
▁setting	-3477
▁stopped	-3478
▁wanting	-3479
▁Californ	-3480
▁Canadian	-3481
▁Everyone	-3482
▁arrested	-3483
▁changing	-3484
▁computer	-3485
▁convince	-3486
▁creating	-3487
▁daughter	-3488
▁describe	-3489
▁entitled	-3490
▁evolving	-3491
▁hundreds	-3492
▁murderer	-3493
▁opportun	-3494
▁powerful	-3495
▁universe	-3496
▁Education	-3497
▁Obviously	-3498
▁President	-3499
▁amendment	-3500
▁authority	-3501
▁childhood	-3502
▁correctly	-3503
▁excellent	-3504
▁literally	-3505
▁obviously	-3506
▁referring	-3507
▁respected	-3508
▁statement	-3509
▁suffering	-3510
▁wonderful	-3511
▁Especially	-3512
▁assumption	-3513
▁convenient	-3514
▁philosophy	-3515
▁protecting	-3516
▁protection	-3517
▁throughout	-3518
▁enforcement	-3519
▁disappointed	-3520
sed	-3521
ters	-3522
▁aud	-3523
▁fre	-3524
▁inj	-3525
▁lat	-3526
arily	-3527
▁gang	-3528
▁meat	-3529
▁loved	-3530
▁damage	-3531
▁depart	-3532
▁refuse	-3533
▁salary	-3534
▁scenar	-3535
▁unborn	-3536
▁totally	-3537
▁officers	-3538
▁petition	-3539
▁separate	-3540
!)	-3541
"?	-3542
.(	-3543
//	-3544
7.	-3545
CT	-3546
IS	-3547
NA	-3548
PS	-3549
RA	-3550
UT	-3551
ax	-3552
lo	-3553
://	-3554
:1.	-3555
Any	-3556
Not	-3557
Now	-3558
agn	-3559
ait	-3560
aly	-3561
amm	-3562
cho	-3563
eor	-3564
eth	-3565
ext	-3566
gor	-3567
hes	-3568
ids	-3569
ift	-3570
isc	-3571
ium	-3572
nic	-3573
ond	-3574
reg	-3575
ttp	-3576
udd	-3577
ulf	-3578
unt	-3579
val	-3580
wed	-3581
zed	-3582
▁15	-3583
▁Ad	-3584
▁El	-3585
▁Fr	-3586
▁Gu	-3587
▁HA	-3588
▁Mc	-3589
▁NO	-3590
▁Po	-3591
▁ju	-3592
Just	-3593
With	-3594
ancy	-3595
book	-3596
care	-3597
cies	-3598
edge	-3599
efin	-3600
ered	-3601
ergy	-3602
ests	-3603
fact	-3604
gain	-3605
iles	-3606
inci	-3607
inct	-3608
ival	-3609
iven	-3610
ivil	-3611
lied	-3612
olic	-3613
otto	-3614
pute	-3615
roat	-3616
some	-3617
sure	-3618
tery	-3619
time	-3620
zero	-3621
▁200	-3622
▁App	-3623
▁Con	-3624
▁DNA	-3625
▁Fri	-3626
▁Ire	-3627
▁THE	-3628
▁bod	-3629
▁cli	-3630
▁cup	-3631
▁cuz	-3632
▁lob	-3633
▁mix	-3634
▁nob	-3635
▁pup	-3636
▁sau	-3637
▁sem	-3638
▁sou	-3639
▁spo	-3640
▁squ	-3641
▁swe	-3642
▁unw	-3643
▁veh	-3644
▁vir	-3645
0,000	-3646
aches	-3647
achos	-3648
asion	-3649
board	-3650
cking	-3651
enced	-3652
ended	-3653
estin	-3654
illed	-3655
imacy	-3656
ining	-3657
ising	-3658
mical	-3659
ocide	-3660
onest	-3661
place	-3662
power	-3663
round	-3664
stant	-3665
tered	-3666
there	-3667
under	-3668
verty	-3669
while	-3670
▁Cont	-3671
▁Crim	-3672
▁Cuba	-3673
▁Geor	-3674
▁Here	-3675
▁Life	-3676
▁Luck	-3677
▁Mich	-3678
▁Sure	-3679
▁adul	-3680
▁argu	-3681
▁clot	-3682
▁duty	-3683
▁feet	-3684
▁felt	-3685
▁fort	-3686
▁four	-3687
▁fuel	-3688
▁fulf	-3689
▁hire	-3690
▁kick	-3691
▁mama	-3692
▁meas	-3693
▁outs	-3694
▁pick	-3695
▁pier	-3696
▁plat	-3697
▁prog	-3698
▁rise	-3699
▁rule	-3700
▁sals	-3701
▁skin	-3702
▁star	-3703
▁taxp	-3704
▁wars	-3705
▁whom	-3706
Americ	-3707
anasia	-3708
arrass	-3709
ateful	-3710
cience	-3711
entive	-3712
friend	-3713
ground	-3714
iction	-3715
idates	-3716
idents	-3717
illing	-3718
ogical	-3719
omever	-3720
ressed	-3721
▁Being	-3722
▁Bible	-3723
▁Defin	-3724
▁Earth	-3725
▁Obama	-3726
▁Their	-3727
▁Water	-3728
▁adapt	-3729
▁alive	-3730
▁aside	-3731
▁autom	-3732
▁avoid	-3733
▁bread	-3734
▁cares	-3735
▁catch	-3736
▁clerk	-3737
▁costs	-3738
▁drive	-3739
▁empty	-3740
▁false	-3741
▁impos	-3742
▁marry	-3743
▁meals	-3744
▁model	-3745
▁motto	-3746
▁older	-3747
▁parts	-3748
▁party	-3749
▁patio	-3750
▁pizza	-3751
▁press	-3752
▁regul	-3753
▁restr	-3754
▁shape	-3755
▁songs	-3756
▁strug	-3757
▁tempt	-3758
▁terms	-3759
▁thier	-3760
▁third	-3761
▁total	-3762
▁unfit	-3763
ilities	-3764
imately	-3765
▁Friday	-3766
▁Having	-3767
▁Second	-3768
▁access	-3769
▁altern	-3770
▁appeal	-3771
▁career	-3772
▁cooked	-3773
▁define	-3774
▁grades	-3775
▁groups	-3776
▁higher	-3777
▁highly	-3778
▁histor	-3779
▁perpet	-3780
▁pissed	-3781
▁plates	-3782
▁recent	-3783
▁retain	-3784
▁reward	-3785
▁safety	-3786
▁search	-3787
▁seemed	-3788
▁signed	-3789
▁solved	-3790
▁source	-3791
▁surely	-3792
▁tenant	-3793
▁thinks	-3794
▁walked	-3795
▁weight	-3796
!!!!!!!!	-3797
atically	-3798
ervation	-3799
inations	-3800
▁Besides	-3801
▁Bottled	-3802
▁Chinese	-3803
▁Ireland	-3804
▁Youtube	-3805
▁balance	-3806
▁charges	-3807
▁choices	-3808
▁complic	-3809
▁concern	-3810
▁consent	-3811
▁convers	-3812
▁creator	-3813
▁disgust	-3814
▁granted	-3815
▁greater	-3816
▁justify	-3817
▁neurons	-3818
▁noodles	-3819
▁noticed	-3820
▁officer	-3821
▁partner	-3822
▁peoples	-3823
▁poverty	-3824
▁promote	-3825
▁request	-3826
▁respond	-3827
▁smaller	-3828
▁telling	-3829
▁turning	-3830
▁variety	-3831
▁various	-3832
▁warrant	-3833
▁workers	-3834
ification	-3835
itionally	-3836
uthanasia	-3837
▁Republic	-3838
▁accepted	-3839
▁american	-3840
▁anywhere	-3841
▁approach	-3842
▁baseball	-3843
▁bringing	-3844
▁commited	-3845
▁cultural	-3846
▁customer	-3847
▁delivery	-3848
▁employer	-3849
▁entirely	-3850
▁genocide	-3851
▁horrible	-3852
▁movement	-3853
▁multiple	-3854
▁opinions	-3855
▁provided	-3856
▁punished	-3857
▁reaction	-3858
▁relation	-3859
▁relative	-3860
▁released	-3861
▁shooting	-3862
▁signific	-3863
▁socially	-3864
▁societal	-3865
▁stronger	-3866
▁teaching	-3867
▁advantage	-3868
▁agreement	-3869
▁beginning	-3870
▁container	-3871
▁convinced	-3872
▁depending	-3873
▁encourage	-3874
▁implement	-3875
▁intellect	-3876
▁perfectly	-3877
▁surprised	-3878
▁terrorist	-3879
▁transport	-3880
▁typically	-3881
▁violation	-3882
▁beneficial	-3883
▁casualties	-3884
▁destroying	-3885
▁impossible	-3886
▁management	-3887
▁supporting	-3888
▁technology	-3889
▁understood	-3890
▁appropriate	-3891
▁comfortable	-3892
▁performance	-3893
▁possibility	-3894
▁potentially	-3895
▁prohibition	-3896
▁conversation	-3897
▁Unfortunately	-3898
▁consciousness	-3899
▁conservatives	-3900
▁discrimination	-3901
________________	-3902
▁da	-3903
icip	-3904
ples	-3905
▁mer	-3906
▁abst	-3907
▁bank	-3908
▁copy	-3909
▁curi	-3910
▁died	-3911
▁meet	-3912
▁onto	-3913
▁taco	-3914
▁accus	-3915
▁emerg	-3916
▁bought	-3917
▁caused	-3918
irmative	-3919
ological	-3920
▁awesome	-3921
▁deserve	-3922
▁matters	-3923
▁addition	-3924
▁exciting	-3925
▁practice	-3926
▁spending	-3927
▁following	-3928
▁institution	-3929
▁necessarily	-3930
!"	-3931
',	-3932
.-	-3933
?!	-3934
?-	-3935
AY	-3936
Do	-3937
IG	-3938
LD	-3939
LY	-3940
No	-3941
TS	-3942
UR	-3943
VE	-3944
da	-3945
do	-3946
ek	-3947
gt	-3948
gy	-3949
mm	-3950
mo	-3951
rs	-3952
sc	-3953
sy	-3954
yo	-3955
▁)	-3956
▁;	-3957
HER	-3958
ICE	-3959
Let	-3960
ald	-3961
ann	-3962
ato	-3963
aud	-3964
ctr	-3965
def	-3966
dem	-3967
eel	-3968
eem	-3969
een	-3970
enn	-3971
fin	-3972
gar	-3973
ina	-3974
inc	-3975
iny	-3976
iot	-3977
ipt	-3978
ita	-3979
jud	-3980
kay	-3981
law	-3982
lex	-3983
mar	-3984
mor	-3985
obb	-3986
ode	-3987
off	-3988
oin	-3989
str	-3990
tar	-3991
ted	-3992
uel	-3993
und	-3994
urb	-3995
why	-3996
www	-3997
▁1)	-3998
▁1/	-3999
▁2.	-4000
▁80	-4001
▁Fl	-4002
▁IN	-4003
▁Ma	-4004
▁NE	-4005
▁OK	-4006
▁PC	-4007
▁SH	-4008
▁je	-4009
"...	-4010
Good	-4011
Your	-4012
aced	-4013
adem	-4014
ague	-4015
aith	-4016
aked	-4017
anda	-4018
anna	-4019
anth	-4020
appy	-4021
ccer	-4022
cers	-4023
char	-4024
cons	-4025
elev	-4026
gant	-4027
icer	-4028
idel	-4029
iers	-4030
lier	-4031
lled	-4032
ooks	-4033
oooo	-4034
osen	-4035
plom	-4036
rain	-4037
riot	-4038
wear	-4039
▁Abs	-4040
▁Acc	-4041
▁Add	-4042
▁Com	-4043
▁Did	-4044
▁Get	-4045
▁Ham	-4046
▁IRA	-4047
▁Mex	-4048
▁New	-4049
▁Nor	-4050
▁Pil	-4051
▁Rem	-4052
▁Sup	-4053
▁ang	-4054
▁bow	-4055
▁bro	-4056
▁cam	-4057
▁cig	-4058
▁ded	-4059
▁dom	-4060
▁enh	-4061
▁fav	-4062
▁fol	-4063
▁gaz	-4064
▁ice	-4065
▁ing	-4066
▁mut	-4067
▁ner	-4068
▁net	-4069
▁ped	-4070
▁sac	-4071
▁scr	-4072
▁tar	-4073
▁upd	-4074
▁ver	-4075
▁wal	-4076
▁web	-4077
▁yog	-4078
alian	-4079
apers	-4080
arden	-4081
ashed	-4082
cient	-4083
iance	-4084
ified	-4085
inter	-4086
itals	-4087
iving	-4088
lines	-4089
llect	-4090
maybe	-4091
olute	-4092
onder	-4093
onent	-4094
ously	-4095
point	-4096
pport	-4097
stead	-4098
thood	-4099
ufact	-4100
ussia	-4101
woman	-4102
women	-4103
▁Aust	-4104
▁Beef	-4105
▁Cons	-4106
▁Face	-4107
▁Food	-4108
▁Iran	-4109
▁Love	-4110
▁Make	-4111
▁More	-4112
▁Over	-4113
▁Reds	-4114
▁Very	-4115
▁Yeah	-4116
▁adam	-4117
▁arch	-4118
▁bars	-4119
▁bele	-4120
▁bush	-4121
▁calm	-4122
▁camp	-4123
▁dark	-4124
▁data	-4125
▁debt	-4126
▁dire	-4127
▁drop	-4128
▁fees	-4129
▁gays	-4130
▁guns	-4131
▁hang	-4132
▁hars	-4133
▁hung	-4134
▁intr	-4135
▁jazz	-4136
▁jury	-4137
▁lady	-4138
▁lies	-4139
▁pool	-4140
▁quit	-4141
▁room	-4142
▁slap	-4143
▁soda	-4144
▁sole	-4145
▁spot	-4146
▁stem	-4147
▁ster	-4148
▁stim	-4149
▁suff	-4150
▁tons	-4151
▁tool	-4152
▁user	-4153
▁vary	-4154
▁wind	-4155
▁womb	-4156
Please	-4157
Second	-4158
aganda	-4159
atures	-4160
employ	-4161
ension	-4162
estern	-4163
estyle	-4164
gender	-4165
gorith	-4166
hesive	-4167
iolent	-4168
ishing	-4169
itable	-4170
manent	-4171
orrect	-4172
porary	-4173
ternal	-4174
ternet	-4175
ulting	-4176
urally	-4177
▁Afric	-4178
▁Count	-4179
▁Elvis	-4180
▁Human	-4181
▁Liber	-4182
▁Mario	-4183
▁State	-4184
▁Thank	-4185
▁Women	-4186
▁World	-4187
▁attit	-4188
▁bland	-4189
▁blind	-4190
▁breat	-4191
▁candy	-4192
▁cells	-4193
▁chain	-4194
▁chips	-4195
▁curvy	-4196
▁demon	-4197
▁ended	-4198
▁exper	-4199
▁forms	-4200
▁heavy	-4201
▁idiot	-4202
▁india	-4203
▁kills	-4204
▁kinda	-4205
▁kinds	-4206
▁liked	-4207
▁lines	-4208
▁loads	-4209
▁miles	-4210
▁minds	-4211
▁mouth	-4212
▁moves	-4213
▁naked	-4214
▁named	-4215
▁overp	-4216
▁relie	-4217
▁round	-4218
▁ruled	-4219
▁safer	-4220
▁salsa	-4221
▁shown	-4222
▁signs	-4223
▁sorry	-4224
▁stars	-4225
▁steps	-4226
▁tacos	-4227
▁trial	-4228
▁wheel	-4229
▁whose	-4230
▁yours	-4231
▁youth	-4232
atching	-4233
atholic	-4234
hington	-4235
ibility	-4236
ography	-4237
ootball	-4238
veryone	-4239
▁Church	-4240
▁George	-4241
▁Honest	-4242
▁Nobody	-4243
▁Really	-4244
▁Russia	-4245
▁Should	-4246
▁Unless	-4247
▁abused	-4248
▁academ	-4249
▁advert	-4250
▁appear	-4251
▁bottle	-4252
▁brains	-4253
▁buying	-4254
▁caring	-4255
▁chosen	-4256
▁client	-4257
▁closed	-4258
▁colour	-4259
▁cowork	-4260
▁credit	-4261
▁criter	-4262
▁degrad	-4263
▁democr	-4264
▁diplom	-4265
▁encoun	-4266
▁energy	-4267
▁engine	-4268
▁estate	-4269
▁events	-4270
▁explan	-4271
▁factor	-4272
▁failed	-4273
▁finish	-4274
▁fortun	-4275
▁gather	-4276
▁hardly	-4277
▁implic	-4278
▁incred	-4279
▁lesson	-4280
▁letter	-4281
▁mainly	-4282
▁manner	-4283
▁mostly	-4284
▁nachos	-4285
▁online	-4286
▁pupils	-4287
▁reform	-4288
▁season	-4289
▁sounds	-4290
▁specif	-4291
▁stance	-4292
▁stress	-4293
▁strict	-4294
▁supply	-4295
▁surger	-4296
▁tasted	-4297
▁turned	-4298
▁underm	-4299
▁waiter	-4300
gendered	-4301
ribution	-4302
vernment	-4303
▁Austral	-4304
▁Further	-4305
▁Muslims	-4306
▁Parents	-4307
▁Supreme	-4308
▁Whether	-4309
▁absence	-4310
▁atheism	-4311
▁attract	-4312
▁beating	-4313
▁beautif	-4314
▁citizen	-4315
▁concent	-4316
▁corrupt	-4317
▁custody	-4318
▁decades	-4319
▁despite	-4320
▁display	-4321
▁dispute	-4322
▁failure	-4323
▁firefox	-4324
▁funding	-4325
▁greatly	-4326
▁hearing	-4327
▁highest	-4328
▁involve	-4329
▁largest	-4330
▁lawsuit	-4331
▁leading	-4332
▁murders	-4333
▁objects	-4334
▁offense	-4335
▁outcome	-4336
▁overall	-4337
▁patriot	-4338
▁pattern	-4339
▁percept	-4340
▁portion	-4341
▁prepare	-4342
▁receipt	-4343
▁reviews	-4344
▁somehow	-4345
▁trading	-4346
▁vehicle	-4347
▁version	-4348
▁waiting	-4349
▁wasting	-4350
▁wealthy	-4351
▁worried	-4352
▁wouldnt	-4353
▁Actually	-4354
▁absolute	-4355
▁administ	-4356
▁atheists	-4357
▁athletes	-4358
▁believed	-4359
▁chemical	-4360
▁clothing	-4361
▁cohesive	-4362
▁comments	-4363
▁deserves	-4364
▁dramatic	-4365
▁executed	-4366
▁favorite	-4367
▁ignorant	-4368
▁independ	-4369
▁informed	-4370
▁machines	-4371
▁manufact	-4372
▁minister	-4373
▁numerous	-4374
▁opposite	-4375
▁prepared	-4376
▁purchase	-4377
▁received	-4378
▁response	-4379
▁somewhat	-4380
▁stranger	-4381
▁unfortun	-4382
▁whomever	-4383
▁According	-4384
▁Something	-4385
▁accidents	-4386
▁attempted	-4387
▁celebrity	-4388
▁complaint	-4389
▁condemned	-4390
▁construct	-4391
▁convicted	-4392
▁corporate	-4393
▁determine	-4394
▁dictators	-4395
▁direction	-4396
▁embarrass	-4397
▁involving	-4398
▁judgement	-4399
▁legalized	-4400
▁lifestyle	-4401
▁naturally	-4402
▁presented	-4403
▁realistic	-4404
▁sentenced	-4405
▁socialism	-4406
▁suggested	-4407
▁thousands	-4408
▁treatment	-4409
▁wondering	-4410
▁California	-4411
▁Christians	-4412
▁activities	-4413
▁appreciate	-4414
▁attempting	-4415
▁background	-4416
▁conclusion	-4417
▁conditions	-4418
▁confidence	-4419
▁conscience	-4420
▁depression	-4421
▁discovered	-4422
▁disgusting	-4423
▁everywhere	-4424
▁graduation	-4425
▁interested	-4426
▁revolution	-4427
▁temptation	-4428
▁ultimately	-4429
▁university	-4430
▁alternative	-4431
▁application	-4432
▁competition	-4433
▁differences	-4434
▁effectively	-4435
▁essentially	-4436
▁fundamental	-4437
▁opportunity	-4438
▁neighborhood	-4439
▁professional	-4440
▁prostitution	-4441
▁transgendered	-4442
▁administration	-4443
bac	-4444
bed	-4445
ials	-4446
▁odd	-4447
bacco	-4448
rency	-4449
▁fans	-4450
▁blame	-4451
▁spell	-4452
▁staff	-4453
▁county	-4454
▁latest	-4455
▁proves	-4456
▁unfair	-4457
▁arguing	-4458
▁conflic	-4459
▁parties	-4460
▁tobacco	-4461
▁answered	-4462
▁audience	-4463
▁currency	-4464
▁everyday	-4465
▁abortions	-4466
▁accepting	-4467
▁marriages	-4468
▁offensive	-4469
▁discussion	-4470
▁permission	-4471
▁construction	-4472
,,	-4473
1)	-4474
3.	-4475
4.	-4476
47	-4477
6,	-4478
?)	-4479
CH	-4480
EA	-4481
ET	-4482
Em	-4483
HA	-4484
IF	-4485
Is	-4486
MM	-4487
OP	-4488
Or	-4489
PE	-4490
Re	-4491
ST	-4492
UN	-4493
ai	-4494
aj	-4495
bl	-4496
cr	-4497
dr	-4498
kg	-4499
me	-4500
oT	-4501
ov	-4502
pm	-4503
rd	-4504
-20	-4505
.4.	-4506
AST	-4507
All	-4508
ESS	-4509
God	-4510
IAL	-4511
IDS	-4512
IGH	-4513
ION	-4514
ael	-4515
aes	-4516
asc	-4517
ays	-4518
bal	-4519
bar	-4520
bon	-4521
bur	-4522
cre	-4523
des	-4524
dog	-4525
eed	-4526
eep	-4527
enc	-4528
fee	-4529
gen	-4530
hal	-4531
hed	-4532
hel	-4533
ias	-4534
icy	-4535
ien	-4536
lip	-4537
nat	-4538
nds	-4539
nel	-4540
oen	-4541
ohn	-4542
oms	-4543
oos	-4544
owd	-4545
poc	-4546
rav	-4547
rel	-4548
rif	-4549
sum	-4550
top	-4551
who	-4552
▁!!	-4553
▁1.	-4554
▁11	-4555
▁3.	-4556
▁60	-4557
▁AI	-4558
▁AR	-4559
▁DO	-4560
▁DU	-4561
▁En	-4562
▁Le	-4563
▁SO	-4564
▁Tr	-4565
▁WH	-4566
▁gi	-4567
▁ho	-4568
****	-4569
Also	-4570
Cain	-4571
Most	-4572
Some	-4573
Sure	-4574
Then	-4575
aded	-4576
alls	-4577
arma	-4578
bell	-4579
bery	-4580
cked	-4581
cont	-4582
eren	-4583
ffee	-4584
good	-4585
hole	-4586
http	-4587
icro	-4588
idal	-4589
iest	-4590
ilet	-4591
illa	-4592
illy	-4593
imal	-4594
iors	-4595
irit	-4596
irty	-4597
isis	-4598
isms	-4599
kers	-4600
know	-4601
laws	-4602
load	-4603
lord	-4604
lter	-4605
ming	-4606
mony	-4607
oday	-4608
omed	-4609
onna	-4610
oops	-4611
oral	-4612
ored	-4613
orer	-4614
ores	-4615
ourn	-4616
rape	-4617
rete	-4618
rise	-4619
rive	-4620
rong	-4621
then	-4622
this	-4623
when	-4624
with	-4625
▁199	-4626
▁ALL	-4627
▁Adv	-4628
▁BUT	-4629
▁Bet	-4630
▁Bri	-4631
▁CON	-4632
▁Gay	-4633
▁Gov	-4634
▁Had	-4635
▁Her	-4636
▁Ill	-4637
▁Jew	-4638
▁Jud	-4639
▁LOL	-4640
▁Mal	-4641
▁Men	-4642
▁Min	-4643
▁OoT	-4644
▁PRO	-4645
▁Pal	-4646
▁Put	-4647
▁Ser	-4648
▁Sub	-4649
▁Wal	-4650
▁Was	-4651
▁Yet	-4652
▁ali	-4653
▁beg	-4654
▁bud	-4655
▁ear	-4656
▁egg	-4657
▁fee	-4658
▁fel	-4659
▁gam	-4660
▁gri	-4661
▁jer	-4662
▁jur	-4663
▁key	-4664
▁lay	-4665
▁lie	-4666
▁lik	-4667
▁nut	-4668
▁oce	-4669
▁pie	-4670
▁rib	-4671
▁sch	-4672
▁six	-4673
▁sle	-4674
▁spl	-4675
▁sup	-4676
▁sym	-4677
▁tab	-4678
▁unc	-4679
▁unh	-4680
▁uns	-4681
!!!!!	-4682
Point	-4683
While	-4684
abase	-4685
acity	-4686
adies	-4687
aesar	-4688
after	-4689
agree	-4690
allen	-4691
anced	-4692
arant	-4693
arett	-4694
aries	-4695
arify	-4696
aters	-4697
avors	-4698
based	-4699
burse	-4700
cings	-4701
gment	-4702
icing	-4703
icles	-4704
ients	-4705
iffer	-4706
ifics	-4707
iment	-4708
inton	-4709
ipped	-4710
lying	-4711
olice	-4712
onely	-4713
onomy	-4714
oogle	-4715
osity	-4716
ossil	-4717
pring	-4718
rench	-4719
rived	-4720
thats	-4721
think	-4722
uable	-4723
urder	-4724
water	-4725
▁AIDS	-4726
▁Bill	-4727
▁Comm	-4728
▁Comp	-4729
▁EVER	-4730
▁Expl	-4731
▁Germ	-4732
▁Have	-4733
▁Jazz	-4734
▁John	-4735
▁Mont	-4736
▁Ohio	-4737
▁Okay	-4738
▁Once	-4739
▁Only	-4740
▁Sadd	-4741
▁Serv	-4742
▁Take	-4743
▁Thai	-4744
▁abol	-4745
▁abus	-4746
▁anal	-4747
▁army	-4748
▁bast	-4749
▁bath	-4750
▁bear	-4751
▁beat	-4752
▁blow	-4753
▁bomb	-4754
▁bout	-4755
▁brut	-4756
▁butt	-4757
▁cart	-4758
▁cash	-4759
▁cate	-4760
▁corn	-4761
▁cred	-4762
▁crit	-4763
▁cuts	-4764
▁dies	-4765
▁dise	-4766
▁elim	-4767
▁enem	-4768
▁exam	-4769
▁fash	-4770
▁fell	-4771
▁file	-4772
▁fing	-4773
▁five	-4774
▁flaw	-4775
▁fool	-4776
▁garn	-4777
▁gaza	-4778
▁gift	-4779
▁grav	-4780
▁hasn	-4781
▁insp	-4782
▁join	-4783
▁jump	-4784
▁junk	-4785
▁loan	-4786
▁moth	-4787
▁okay	-4788
▁ours	-4789
▁path	-4790
▁pays	-4791
▁port	-4792
▁pray	-4793
▁prem	-4794
▁prey	-4795
▁pros	-4796
▁pure	-4797
▁ramp	-4798
▁reck	-4799
▁reim	-4800
▁rude	-4801
▁shop	-4802
▁shot	-4803
▁shut	-4804
▁sist	-4805
▁size	-4806
▁slim	-4807
▁stra	-4808
▁stru	-4809
▁surp	-4810
▁tatt	-4811
▁text	-4812
▁tips	-4813
▁trau	-4814
▁unhe	-4815
▁vegg	-4816
▁vent	-4817
▁wild	-4818
▁winn	-4819
▁wood	-4820
▁zero	-4821
Employ	-4822
People	-4823
aching	-4824
ctions	-4825
eaning	-4826
encies	-4827
ending	-4828
esting	-4829
ildren	-4830
ington	-4831
istics	-4832
orship	-4833
pecial	-4834
people	-4835
preted	-4836
ptions	-4837
riment	-4838
rorism	-4839
school	-4840
washed	-4841
▁Again	-4842
▁Apple	-4843
▁Black	-4844
▁Civil	-4845
▁Hamas	-4846
▁House	-4847
▁Order	-4848
▁Polit	-4849
▁Scott	-4850
▁South	-4851
▁Think	-4852
▁Today	-4853
▁Which	-4854
▁White	-4855
▁accur	-4856
▁actor	-4857
▁ahead	-4858
▁anger	-4859
▁armed	-4860
▁brand	-4861
▁bucks	-4862
▁clock	-4863
▁couch	-4864
▁crowd	-4865
▁cruel	-4866
▁decor	-4867
▁deter	-4868
▁didnt	-4869
▁films	-4870
▁folks	-4871
▁gonna	-4872
▁goods	-4873
▁greed	-4874
▁green	-4875
▁habit	-4876
▁indic	-4877
▁insan	-4878
▁jeans	-4879
▁lands	-4880
▁leads	-4881
▁legit	-4882
▁metal	-4883
▁moved	-4884
▁newsp	-4885
▁occup	-4886
▁overs	-4887
▁plain	-4888
▁pleas	-4889
▁reach	-4890
▁react	-4891
▁ready	-4892
▁sauce	-4893
▁scare	-4894
▁shoes	-4895
▁stere	-4896
▁stick	-4897
▁sucks	-4898
▁tests	-4899
▁theft	-4900
▁towns	-4901
▁track	-4902
▁trick	-4903
▁trump	-4904
▁twice	-4905
▁uneth	-4906
▁users	-4907
▁valid	-4908
▁vital	-4909
▁wanna	-4910
▁weeke	-4911
▁weren	-4912
▁wings	-4913
because	-4914
bottled	-4915
comfort	-4916
gorithm	-4917
iveness	-4918
jection	-4919
natural	-4920
ocratic	-4921
pective	-4922
respect	-4923
roduced	-4924
stitute	-4925
▁Almost	-4926
▁Before	-4927
▁County	-4928
▁Cubans	-4929
▁Econom	-4930
▁Person	-4931
▁Pilate	-4932
▁Soccer	-4933
▁Twitch	-4934
▁actors	-4935
▁assert	-4936
▁became	-4937
▁begins	-4938
▁biased	-4939
▁bottom	-4940
▁breath	-4941
▁brings	-4942
▁burden	-4943
▁burned	-4944
▁checks	-4945
▁coffee	-4946
▁compar	-4947
▁desire	-4948
▁disast	-4949
▁doctor	-4950
▁doesnt	-4951
▁effici	-4952
▁ending	-4953
▁ensure	-4954
▁ethnic	-4955
▁excuse	-4956
▁famous	-4957
▁fights	-4958
▁filled	-4959
▁forces	-4960
▁fossil	-4961
▁ground	-4962
▁hearts	-4963
▁incomp	-4964
▁insane	-4965
▁inside	-4966
▁interf	-4967
▁island	-4968
▁leaves	-4969
▁legacy	-4970
▁liable	-4971
▁lonely	-4972
▁losing	-4973
▁manage	-4974
▁mature	-4975
▁merely	-4976
▁morals	-4977
▁moving	-4978
▁muslim	-4979
▁neighb	-4980
▁obtain	-4981
▁offers	-4982
▁owners	-4983
▁phones	-4984
▁points	-4985
▁ponder	-4986
▁poorly	-4987
▁posted	-4988
▁potato	-4989
▁prejud	-4990
▁princi	-4991
▁proced	-4992
▁profit	-4993
▁pursue	-4994
▁recall	-4995
▁resort	-4996
▁select	-4997
▁slowly	-4998
▁smoker	-4999
▁summer	-5000
▁toward	-5001
▁troops	-5002
▁unions	-5003
▁unique	-5004
▁weaker	-5005
▁wealth	-5006
▁wholly	-5007
▁window	-5008
▁yogurt	-5009
Everyone	-5010
Football	-5011
standing	-5012
▁African	-5013
▁Another	-5014
▁General	-5015
▁Indians	-5016
▁Italian	-5017
▁Michael	-5018
▁Perhaps	-5019
▁Science	-5020
▁Special	-5021
▁accomod	-5022
▁applied	-5023
▁aspects	-5024
▁atheist	-5025
▁attacks	-5026
▁bombers	-5027
▁calling	-5028
▁careful	-5029
▁cheaper	-5030
▁clarify	-5031
▁collect	-5032
▁confuse	-5033
▁context	-5034
▁contrad	-5035
▁covered	-5036
▁dealers	-5037
▁defined	-5038
▁engaged	-5039
▁enjoyed	-5040
▁ethical	-5041
▁evening	-5042
▁evolved	-5043
▁expense	-5044
▁fashion	-5045
▁finding	-5046
▁grounds	-5047
▁guarant	-5048
▁holding	-5049
▁implies	-5050
▁improve	-5051
▁install	-5052
▁insured	-5053
▁lacking	-5054
▁limited	-5055
▁machine	-5056
▁mustard	-5057
▁possess	-5058
▁privacy	-5059
▁privile	-5060
▁proceed	-5061
▁program	-5062
▁rampant	-5063
▁remains	-5064
▁repairs	-5065
▁replace	-5066
▁revenue	-5067
▁sisters	-5068
▁skilled	-5069
▁staying	-5070
▁steroid	-5071
▁stories	-5072
▁succeed	-5073
▁suppose	-5074
▁surgery	-5075
▁sympath	-5076
▁teaches	-5077
▁theater	-5078
▁typical	-5079
▁unhappy	-5080
▁walking	-5081
▁western	-5082
▁worship	-5083
elevision	-5084
estinians	-5085
▁Baseball	-5086
▁Catholic	-5087
▁Explorer	-5088
▁Facebook	-5089
▁Honestly	-5090
▁Internet	-5091
▁Montreal	-5092
▁National	-5093
▁Religion	-5094
▁Remember	-5095
▁academic	-5096
▁annoying	-5097
▁billions	-5098
▁bullshit	-5099
▁ceremony	-5100
▁cigarett	-5101
▁concrete	-5102
▁consumer	-5103
▁contempt	-5104
▁creative	-5105
▁database	-5106
▁distinct	-5107
▁election	-5108
▁electric	-5109
▁expenses	-5110
▁external	-5111
▁familiar	-5112
▁farquhar	-5113
▁followed	-5114
▁grateful	-5115
▁hardware	-5116
▁industry	-5117
▁internal	-5118
▁intimacy	-5119
▁landlord	-5120
▁location	-5121
▁maintain	-5122
▁mentally	-5123
▁nobility	-5124
▁occasion	-5125
▁occurred	-5126
▁patterns	-5127
▁portions	-5128
▁pursuing	-5129
▁receipts	-5130
▁shouldnt	-5131
▁soldiers	-5132
▁stealing	-5133
▁strongly	-5134
▁struggle	-5135
▁studying	-5136
▁surround	-5137
▁unemploy	-5138
▁waitress	-5139
▁Australia	-5140
▁Everybody	-5141
▁Evolution	-5142
▁Therefore	-5143
▁apartment	-5144
▁believing	-5145
▁boyfriend	-5146
▁celebrate	-5147
▁civilians	-5148
▁competent	-5149
▁connected	-5150
▁continued	-5151
▁continues	-5152
▁copyright	-5153
▁courtroom	-5154
▁degrading	-5155
▁detriment	-5156
▁diabetics	-5157
▁diplomacy	-5158
▁distribut	-5159
▁documents	-5160
▁efficient	-5161
▁encounter	-5162
▁enhancing	-5163
▁everybody	-5164
▁fantastic	-5165
▁governing	-5166
▁happiness	-5167
▁hospitals	-5168
▁immigrant	-5169
▁installed	-5170
▁intention	-5171
▁motivated	-5172
▁offenders	-5173
▁permanent	-5174
▁piercings	-5175
▁pregnancy	-5176
▁producers	-5177
▁providing	-5178
▁provision	-5179
▁reimburse	-5180
▁seemingly	-5181
▁teenagers	-5182
▁temporary	-5183
▁unethical	-5184
▁universal	-5185
▁witnesses	-5186
stitutional	-5187
▁Absolutely	-5188
▁Definitely	-5189
▁Government	-5190
▁Washington	-5191
▁Wellington	-5192
▁acceptance	-5193
▁additional	-5194
▁aggression	-5195
▁candidates	-5196
▁capitalism	-5197
▁conception	-5198
▁connection	-5199
▁contribute	-5200
▁definately	-5201
▁disrespect	-5202
▁documented	-5203
▁encouraged	-5204
▁historical	-5205
▁honorifics	-5206
▁incredible	-5207
▁introduced	-5208
▁meaningful	-5209
▁occupation	-5210
▁politician	-5211
▁production	-5212
▁propaganda	-5213
▁recognized	-5214
▁relatively	-5215
▁successful	-5216
▁vaccinated	-5217
▁visitation	-5218
▁Furthermore	-5219
▁brainwashed	-5220
▁communities	-5221
▁controlling	-5222
▁creationism	-5223
▁emotionally	-5224
▁explanation	-5225
▁governments	-5226
▁integration	-5227
▁participate	-5228
▁perspective	-5229
▁pornography	-5230
▁practically	-5231
▁restaurants	-5232
▁conditioning	-5233
▁dictatorship	-5234
▁intellectual	-5235
▁particularly	-5236
▁communication	-5237
▁contributions	-5238
▁homosexuality	-5239
▁transportation	-5240
▁characteristics	-5241
dom	-5242
pir	-5243
otes	-5244
prot	-5245
▁aid	-5246
▁gov	-5247
▁hes	-5248
bsite	-5249
etary	-5250
▁batt	-5251
▁cars	-5252
▁door	-5253
▁repe	-5254
▁rock	-5255
▁weap	-5256
inding	-5257
ingdom	-5258
▁bever	-5259
▁block	-5260
▁daily	-5261
▁gangs	-5262
▁plays	-5263
▁stops	-5264
▁tasty	-5265
▁tough	-5266
▁voted	-5267
protect	-5268
▁leader	-5269
▁minded	-5270
▁region	-5271
▁unable	-5272
▁follows	-5273
▁injured	-5274
▁liberal	-5275
▁website	-5276
▁abstract	-5277
▁complete	-5278
▁monetary	-5279
▁optional	-5280
▁pictures	-5281
▁scenario	-5282
▁tortured	-5283
▁beverages	-5284
▁emergency	-5285
▁processes	-5286
▁committing	-5287
▁conviction	-5288
▁department	-5289
▁percentage	-5290
▁scientists	-5291
▁statements	-5292
▁accusations	-5293
▁imprisonment	-5294
-1	-5295
1/	-5296
2,	-5297
3,	-5298
30	-5299
-7	-5300
40	-5301
5.	-5302
BA	-5303
BT	-5304
By	-5305
DH	-5306
DP	-5307
EE	-5308
Gs	-5309
HS	-5310
IA	-5311
LU	-5312
NO	-5313
OD	-5314
TV	-5315
UK	-5316
fl	-5317
gl	-5318
hr	-5319
sm	-5320
tv	-5321
tw	-5322
yn	-5323
zz	-5324
▁!	-5325
.2)	-5326
.3)	-5327
.5.	-5328
.50	-5329
Are	-5330
Bay	-5331
Bec	-5332
DHD	-5333
ELY	-5334
ONE	-5335
OOD	-5336
OOL	-5337
ORM	-5338
PGs	-5339
Pro	-5340
Yet	-5341
ado	-5342
alu	-5343
arc	-5344
ban	-5345
can	-5346
che	-5347
dis	-5348
dot	-5349
dra	-5350
edy	-5351
etc	-5352
eve	-5353
fix	-5354
gay	-5355
gly	-5356
ibl	-5357
ino	-5358
ioc	-5359
ios	-5360
irt	-5361
jim	-5362
mas	-5363
mat	-5364
mit	-5365
ogy	-5366
oir	-5367
oon	-5368
oty	-5369
pan	-5370
pes	-5371
pic	-5372
pre	-5373
ray	-5374
roc	-5375
sen	-5376
sex	-5377
ull	-5378
vey	-5379
wor	-5380
▁14	-5381
▁17	-5382
▁25	-5383
▁28	-5384
▁35	-5385
▁75	-5386
▁9/	-5387
▁90	-5388
▁;)	-5389
▁IT	-5390
▁Jr	-5391
▁Up	-5392
▁es	-5393
▁iP	-5394
▁ut	-5395
▁ya	-5396
▁yo	-5397
)...	-5398
..."	-5399
PLE	-5400
Spe	-5401
chi	-5402
fam	-5403
isd	-5404
vol	-5405
▁AG	-5406
▁Bo	-5407
▁Co	-5408
▁IF	-5409
▁OJ	-5410
▁SP	-5411
▁Sm	-5412
▁oh	-5413
1000	-5414
ENTS	-5415
From	-5416
OOOO	-5417
Once	-5418
That	-5419
Tube	-5420
abre	-5421
ache	-5422
aled	-5423
alot	-5424
ares	-5425
atur	-5426
bear	-5427
coin	-5428
crim	-5429
ctob	-5430
ctor	-5431
dden	-5432
ding	-5433
duct	-5434
each	-5435
emed	-5436
esis	-5437
evil	-5438
fair	-5439
fted	-5440
gend	-5441
gory	-5442
hers	-5443
hold	-5444
ideo	-5445
iped	-5446
ique	-5447
ites	-5448
itor	-5449
keys	-5450
leum	-5451
lime	-5452
lude	-5453
made	-5454
oded	-5455
olen	-5456
onym	-5457
phol	-5458
porn	-5459
pped	-5460
prof	-5461
ptic	-5462
quar	-5463
raid	-5464
ream	-5465
rees	-5466
ront	-5467
sing	-5468
stic	-5469
uits	-5470
ulin	-5471
ulum	-5472
unks	-5473
uros	-5474
ussi	-5475
week	-5476
word	-5477
yers	-5478
ysis	-5479
zing	-5480
▁1/2	-5481
▁198	-5482
▁201	-5483
▁AND	-5484
▁ANY	-5485
▁Aff	-5486
▁Are	-5487
▁CAN	-5488
▁COM	-5489
▁Cob	-5490
▁Cos	-5491
▁DMV	-5492
▁DUI	-5493
▁FAT	-5494
▁Fox	-5495
▁GDP	-5496
▁Has	-5497
▁NAS	-5498
▁Naz	-5499
AM	-5500
---	-5501
hum	-5502
iet	-5503
isl	-5504
nda	-5505
odi	-5506
see	-5507
▁Gl	-5508
▁MM	-5509
▁NY	-5510
IGHT	-5511
Mart	-5512
akin	-5513
aren	-5514
erie	-5515
even	-5516
ften	-5517
hist	-5518
itig	-5519
nday	-5520
odel	-5521
oses	-5522
pera	-5523
quor	-5524
▁Ban	-5525
▁Bas	-5526
▁Bur	-5527
▁Fat	-5528
▁Hit	-5529
▁Int	-5530
▁Mon	-5531
▁Nap	-5532
▁OUR	-5533
▁PMA	-5534
▁SCH	-5535
▁Tex	-5536
▁Try	-5537
▁Two	-5538
▁Usu	-5539
▁WOR	-5540
▁WWI	-5541
▁Wow	-5542
▁ant	-5543
▁bum	-5544
▁chr	-5545
▁dro	-5546
▁ect	-5547
▁gap	-5548
▁led	-5549
▁liv	-5550
▁mad	-5551
▁mas	-5552
▁mid	-5553
▁mtv	-5554
▁nom	-5555
▁oun	-5556
▁owe	-5557
▁pad	-5558
▁pir	-5559
▁quo	-5560
▁rad	-5561
▁rif	-5562
▁rot	-5563
▁row	-5564
▁sel	-5565
▁sil	-5566
▁ske	-5567
▁sne	-5568
▁sor	-5569
▁spr	-5570
▁sun	-5571
▁umb	-5572
▁vac	-5573
▁via	-5574
▁wel	-5575
▁wis	-5576
▁wow	-5577
Aside	-5578
Where	-5579
Women	-5580
acial	-5581
affic	-5582
allel	-5583
alley	-5584
aming	-5585
anted	-5586
arely	-5587
ayers	-5588
bably	-5589
blown	-5590
bring	-5591
ching	-5592
ciety	-5593
cracy	-5594
dotal	-5595
eanor	-5596
eddit	-5597
eeing	-5598
ensed	-5599
TM	-5600
.1.	-5601
mos	-5602
tly	-5603
▁OF	-5604
▁ON	-5605
▁ow	-5606
aism	-5607
arry	-5608
bage	-5609
bish	-5610
dist	-5611
igan	-5612
obia	-5613
oler	-5614
race	-5615
udes	-5616
uish	-5617
unge	-5618
▁Bit	-5619
▁Run	-5620
▁ads	-5621
astly	-5622
birth	-5623
ellig	-5624
ented	-5625
entic	-5626
erate	-5627
erial	-5628
erved	-5629
gally	-5630
group	-5631
heads	-5632
icial	-5633
icted	-5634
iders	-5635
iling	-5636
imony	-5637
inary	-5638
inent	-5639
inois	-5640
ippie	-5641
ishes	-5642
isons	-5643
itate	-5644
ittee	-5645
ivers	-5646
ivity	-5647
jimmy	-5648
level	-5649
liers	-5650
lling	-5651
oolen	-5652
orate	-5653
order	-5654
otomy	-5655
ource	-5656
ouses	-5657
oving	-5658
pends	-5659
prove	-5660
quest	-5661
rants	-5662
retty	-5663
riced	-5664
rific	-5665
riple	-5666
rives	-5667
ropic	-5668
rough	-5669
sides	-5670
somet	-5671
thank	-5672
thern	-5673
ulate	-5674
ureau	-5675
uries	-5676
uting	-5677
utral	-5678
versy	-5679
vince	-5680
wards	-5681
white	-5682
▁....	-5683
▁9/11	-5684
▁ADHD	-5685
▁Benc	-5686
▁City	-5687
▁Cold	-5688
▁Didn	-5689
▁Give	-5690
▁Hall	-5691
▁High	-5692
▁Keep	-5693
▁Kids	-5694
▁Kore	-5695
▁Kurt	-5696
▁Lord	-5697
▁Mill	-5698
▁Modi	-5699
▁Next	-5700
▁None	-5701
▁Nope	-5702
▁Porn	-5703
▁Pray	-5704
▁Read	-5705
▁Soft	-5706
▁Span	-5707
▁Stop	-5708
▁Stud	-5709
▁Tues	-5710
▁Went	-5711
▁York	-5712
▁asse	-5713
▁astr	-5714
▁bart	-5715
▁biol	-5716
▁blah	-5717
▁bone	-5718
▁bord	-5719
▁bowl	-5720
▁boys	-5721
▁bust	-5722
▁cast	-5723
▁chow	-5724
▁code	-5725
▁coer	-5726
▁cogn	-5727
▁cong	-5728
▁cook	-5729
▁core	-5730
▁curb	-5731
▁dads	-5732
▁deaf	-5733
▁dear	-5734
▁decl	-5735
▁defi	-5736
▁dick	-5737
▁diet	-5738
▁eBay	-5739
▁elev	-5740
▁emer	-5741
▁emot	-5742
▁ends	-5743
▁envy	-5744
▁fake	-5745
▁favs	-5746
▁gold	-5747
▁grew	-5748
▁hobb	-5749
▁holy	-5750
▁irre	-5751
▁isnt	-5752
▁item	-5753
▁jerk	-5754
▁joke	-5755
▁lapt	-5756
▁legs	-5757
▁loss	-5758
▁lust	-5759
▁olds	-5760
▁owed	-5761
▁pita	-5762
▁pose	-5763
▁puts	-5764
▁rats	-5765
▁reli	-5766
▁rice	-5767
▁root	-5768
▁rush	-5769
▁scum	-5770
▁sens	-5771
▁shif	-5772
▁shit	-5773
▁skip	-5774
▁slip	-5775
▁soup	-5776
▁suck	-5777
▁suic	-5778
▁sush	-5779
▁sust	-5780
▁symb	-5781
▁ther	-5782
▁thru	-5783
▁tiny	-5784
▁tree	-5785
▁ugly	-5786
▁unne	-5787
▁urge	-5788
▁wand	-5789
▁weed	-5790
▁wing	-5791
▁writ	-5792
!_____	-5793
......	-5794
70,000	-5795
ENTIAL	-5796
Person	-5797
aiting	-5798
alyzed	-5799
assion	-5800
belief	-5801
called	-5802
ccable	-5803
cooked	-5804
ctober	-5805
efully	-5806
engers	-5807
father	-5808
formed	-5809
gument	-5810
herent	-5811
humane	-5812
icated	-5813
icient	-5814
icking	-5815
iforms	-5816
ifying	-5817
inally	-5818
iously	-5819
itives	-5820
mitted	-5821
morrow	-5822
ooking	-5823
opping	-5824
pholes	-5825
pocrit	-5826
ravity	-5827
respon	-5828
resses	-5829
roleum	-5830
social	-5831
suming	-5832
terday	-5833
theism	-5834
untary	-5835
ushing	-5836
utions	-5837
▁2006,	-5838
▁Books	-5839
▁Check	-5840
▁Crime	-5841
▁Croat	-5842
▁Cuban	-5843
▁Event	-5844
▁Great	-5845
▁Major	-5846
▁NEVER	-5847
▁Often	-5848
▁Opera	-5849
▁Power	-5850
▁SPICE	-5851
▁Satur	-5852
▁Three	-5853
▁Truth	-5854
▁Until	-5855
▁_____	-5856
▁agent	-5857
▁alien	-5858
▁atroc	-5859
▁award	-5860
▁awful	-5861
▁basil	-5862
▁blank	-5863
▁blown	-5864
▁breed	-5865
▁calls	-5866
▁cheer	-5867
▁crack	-5868
▁decoy	-5869
▁decre	-5870
▁drain	-5871
▁faced	-5872
▁faith	-5873
▁femin	-5874
▁fence	-5875
▁fewer	-5876
▁fired	-5877
▁firms	-5878
▁flash	-5879
▁flaws	-5880
▁fruit	-5881
▁frust	-5882
▁funds	-5883
▁girlf	-5884
▁guard	-5885
▁holds	-5886
▁hopes	-5887
▁hyper	-5888
▁infin	-5889
▁innov	-5890
▁input	-5891
▁irrit	-5892
▁jackp	-5893
▁japan	-5894
▁joint	-5895
▁knock	-5896
▁limit	-5897
▁loses	-5898
▁loves	-5899
▁magic	-5900
▁mixed	-5901
▁newly	-5902
▁nowad	-5903
▁ocean	-5904
▁olive	-5905
▁ounce	-5906
▁outdo	-5907
▁owned	-5908
▁pants	-5909
▁peers	-5910
▁perce	-5911
▁pests	-5912
▁plate	-5913
▁posts	-5914
▁print	-5915
▁prior	-5916
▁prize	-5917
▁races	-5918
▁realm	-5919
▁rebel	-5920
▁rebut	-5921
▁recyc	-5922
▁route	-5923
▁screw	-5924
▁sends	-5925
▁shame	-5926
▁shell	-5927
▁shout	-5928
▁sites	-5929
▁sizes	-5930
▁skate	-5931
▁slide	-5932
▁sneak	-5933
▁solid	-5934
▁souls	-5935
▁spent	-5936
▁split	-5937
▁squee	-5938
▁stagn	-5939
▁stock	-5940
▁stood	-5941
▁style	-5942
▁sweet	-5943
▁swing	-5944
▁thank	-5945
▁thong	-5946
▁toast	-5947
▁trail	-5948
▁trees	-5949
▁tries	-5950
▁truck	-5951
▁turns	-5952
▁uncle	-5953
▁usage	-5954
▁vegan	-5955
▁whore	-5956
▁wives	-5957
Because	-5958
Besides	-5959
Perhaps	-5960
Without	-5961
allenge	-5962
cessary	-5963
charged	-5964
covered	-5965
defense	-5966
ecdotal	-5967
getting	-5968
irectly	-5969
itively	-5970
ivalent	-5971
knowled	-5972
leeping	-5973
ologies	-5974
ongress	-5975
ophobia	-5976
parents	-5977
pending	-5978
perfect	-5979
rapment	-5980
reation	-5981
related	-5982
tarians	-5983
vinceme	-5984
violent	-5985
▁AGENTS	-5986
▁Action	-5987
▁Better	-5988
▁Canada	-5989
▁Cobain	-5990
▁Engine	-5991
▁France	-5992
▁French	-5993
▁Health	-5994
▁Making	-5995
▁McCain	-5996
▁Murder	-5997
▁Reddit	-5998
▁Rights	-5999
▁SCHOOL	-6000
▁Saddam	-6001
▁Sounds	-6002
▁Spring	-6003
▁Taking	-6004
▁Though	-6005
▁advice	-6006
▁affili	-6007
▁afraid	-6008
▁agenda	-6009
▁anarch	-6010
▁assess	-6011
▁assist	-6012
▁attack	-6013
▁backed	-6014
▁banned	-6015
▁barely	-6016
▁behalf	-6017
▁beings	-6018
▁bitter	-6019
▁bodies	-6020
▁bodily	-6021
▁calcul	-6022
▁campus	-6023
▁cancer	-6024
▁carbon	-6025
▁cities	-6026
▁combat	-6027
▁corner	-6028
▁crisis	-6029
▁deaths	-6030
▁deemed	-6031
▁denied	-6032
▁devote	-6033
▁dining	-6034
▁disput	-6035
▁double	-6036
▁drunks	-6037
▁duties	-6038
▁enjoys	-6039
▁equals	-6040
▁evolve	-6041
▁fairly	-6042
▁fellow	-6043
▁felons	-6044
▁female	-6045
▁flawed	-6046
▁forgot	-6047
▁freeze	-6048
▁gallon	-6049
▁garden	-6050
▁growth	-6051
▁harder	-6052
▁incent	-6053
▁incest	-6054
▁indeed	-6055
▁ingred	-6056
▁insens	-6057
▁insult	-6058
▁intend	-6059
▁intrud	-6060
▁israel	-6061
▁issued	-6062
▁jurisd	-6063
▁legend	-6064
▁legisl	-6065
▁liquor	-6066
▁loaded	-6067
▁marrow	-6068
▁masses	-6069
▁medium	-6070
▁messes	-6071
▁minute	-6072
▁notary	-6073
▁opened	-6074
▁pedoph	-6075
▁pledge	-6076
▁poison	-6077
▁purely	-6078
▁raised	-6079
▁raises	-6080
▁rating	-6081
▁rebell	-6082
▁recycl	-6083
▁router	-6084
▁rubber	-6085
▁ruined	-6086
▁scared	-6087
▁scores	-6088
▁screen	-6089
▁seated	-6090
▁selves	-6091
▁serves	-6092
▁severe	-6093
▁silent	-6094
▁solves	-6095
▁specul	-6096
▁spirit	-6097
▁spoken	-6098
▁stated	-6099
▁steaks	-6100
▁stolen	-6101
▁strike	-6102
▁strive	-6103
▁sudden	-6104
▁tables	-6105
▁tastes	-6106
▁taxing	-6107
▁thanks	-6108
▁theyre	-6109
▁throat	-6110
▁toilet	-6111
▁virgin	-6112
▁waited	-6113
▁wishes	-6114
▁worthy	-6115
Although	-6116
American	-6117
Secondly	-6118
abortion	-6119
bringing	-6120
gorithms	-6121
idelines	-6122
ifferent	-6123
ifically	-6124
ophistic	-6125
stitutes	-6126
whatever	-6127
▁Banning	-6128
▁Bitcoin	-6129
▁Britain	-6130
▁Britian	-6131
▁British	-6132
▁Clinton	-6133
▁Conserv	-6134
▁Contact	-6135
▁Depends	-6136
▁Example	-6137
▁Farquar	-6138
▁Firstly	-6139
▁Instead	-6140
▁Islamic	-6141
▁Judaism	-6142
▁Manager	-6143
▁Mexican	-6144
▁October	-6145
▁Plastic	-6146
▁Redskin	-6147
▁Service	-6148
▁Shouldn	-6149
▁Society	-6150
▁Support	-6151
▁Tuesday	-6152
▁Usually	-6153
▁YouTube	-6154
▁accepts	-6155
▁alright	-6156
▁applies	-6157
▁arrived	-6158
▁assault	-6159
▁asshole	-6160
▁bastard	-6161
▁beleive	-6162
▁besides	-6163
▁billion	-6164
▁borders	-6165
▁burgers	-6166
▁chronic	-6167
▁classic	-6168
▁closely	-6169
▁colored	-6170
▁commits	-6171
▁compete	-6172
▁conduct	-6173
▁consens	-6174
▁consist	-6175
▁consult	-6176
▁consume	-6177
▁crowded	-6178
▁cruelty	-6179
▁damages	-6180
▁dealing	-6181
▁decline	-6182
▁default	-6183
▁defence	-6184
▁demonst	-6185
▁desires	-6186
▁dictate	-6187
▁discred	-6188
▁disturb	-6189
▁doctors	-6190
▁earlier	-6191
▁elegant	-6192
▁envirom	-6193
▁existed	-6194
▁expired	-6195
▁finally	-6196
▁foolish	-6197
▁forcing	-6198
▁frankly	-6199
▁gallery	-6200
▁garbage	-6201
▁gravity	-6202
▁handled	-6203
▁harmony	-6204
▁harsher	-6205
▁hearted	-6206
▁herself	-6207
▁hobbies	-6208
▁hostess	-6209
▁hostile	-6210
▁ignored	-6211
▁illness	-6212
▁immoral	-6213
▁infring	-6214
▁insulin	-6215
▁killers	-6216
▁lecture	-6217
▁lessons	-6218
▁liberty	-6219
▁licence	-6220
▁magical	-6221
▁minimal	-6222
▁monitor	-6223
▁neither	-6224
▁network	-6225
▁neutral	-6226
▁numbers	-6227
▁opening	-6228
▁opposed	-6229
▁package	-6230
▁passion	-6231
▁patient	-6232
▁payment	-6233
▁perpetr	-6234
▁planned	-6235
▁players	-6236
▁prescri	-6237
▁promise	-6238
▁propose	-6239
▁rapists	-6240
▁reflect	-6241
▁remodel	-6242
▁reprodu	-6243
▁revenge	-6244
▁reverse	-6245
▁robbery	-6246
▁scratch	-6247
▁secular	-6248
▁seniors	-6249
▁servers	-6250
▁settled	-6251
▁shelter	-6252
▁sitting	-6253
▁smarter	-6254
▁stating	-6255
▁station	-6256
▁statute	-6257
▁stepson	-6258
▁strange	-6259
▁strikes	-6260
▁supreme	-6261
▁sustain	-6262
▁tattoos	-6263
▁thereby	-6264
▁torture	-6265
▁traffic	-6266
▁transpl	-6267
▁victory	-6268
▁visited	-6269
▁whereas	-6270
▁winning	-6271
▁wrapped	-6272
Americans	-6273
Christian	-6274
Therefore	-6275
abrejimmy	-6276
anthropic	-6277
ensorship	-6278
istically	-6279
terrorism	-6280
▁Assuming	-6281
▁Children	-6282
▁European	-6283
▁Illinois	-6284
▁Millions	-6285
▁Northern	-6286
▁Personal	-6287
▁Probably	-6288
▁Saturday	-6289
▁Software	-6290
▁Uniforms	-6291
▁Watching	-6292
▁achieved	-6293
▁admitted	-6294
▁affected	-6295
▁artistic	-6296
▁attempts	-6297
▁autonomy	-6298
▁bankrupt	-6299
▁bathroom	-6300
▁benefici	-6301
▁bothered	-6302
▁breaking	-6303
▁calories	-6304
▁capacity	-6305
▁category	-6306
▁checking	-6307
▁civilian	-6308
▁concepts	-6309
▁confront	-6310
▁coworker	-6311
▁criteria	-6312
▁cultures	-6313
▁defining	-6314
▁destroys	-6315
▁diabetes	-6316
▁disagree	-6317
▁diseases	-6318
▁download	-6319
▁emotions	-6320
▁employee	-6321
▁entering	-6322
▁equality	-6323
▁equation	-6324
▁examples	-6325
▁existing	-6326
▁families	-6327
▁features	-6328
▁frontmen	-6329
▁hospital	-6330
▁hypocrit	-6331
▁immature	-6332
▁includes	-6333
▁inherent	-6334
▁inhumane	-6335
▁insanity	-6336
▁interact	-6337
▁investig	-6338
▁involves	-6339
▁japanese	-6340
▁liberals	-6341
▁licensed	-6342
▁marrying	-6343
▁maturity	-6344
▁misunder	-6345
▁official	-6346
▁outright	-6347
▁parallel	-6348
▁platform	-6349
▁pleasure	-6350
▁presents	-6351
▁pressure	-6352
▁progress	-6353
▁projects	-6354
▁reaching	-6355
▁relevant	-6356
▁republic	-6357
▁rewarded	-6358
▁rightful	-6359
▁security	-6360
▁severely	-6361
▁standing	-6362
▁starving	-6363
▁stereoty	-6364
▁steroids	-6365
▁straight	-6366
▁strictly	-6367
▁subjects	-6368
▁substant	-6369
▁suicidal	-6370
▁supports	-6371
▁surprise	-6372
▁survival	-6373
▁suspects	-6374
▁taxation	-6375
▁taxpayer	-6376
▁throught	-6377
▁tomorrow	-6378
▁ultimate	-6379
▁unwanted	-6380
▁vacation	-6381
▁valuable	-6382
▁violated	-6383
▁violates	-6384
▁warnings	-6385
Personally	-6386
▁Advancing	-6387
▁Amendment	-6388
▁Bencoolen	-6389
▁Otherwise	-6390
▁abolished	-6391
▁acknowled	-6392
▁addiction	-6393
▁adulthood	-6394
▁affecting	-6395
▁attentive	-6396
▁attitudes	-6397
▁authentic	-6398
▁beautiful	-6399
▁carefully	-6400
▁challenge	-6401
▁classroom	-6402
▁commiting	-6403
▁completed	-6404
▁component	-6405
▁conceived	-6406
▁confident	-6407
▁consumers	-6408
▁contracts	-6409
▁creatures	-6410
▁crossings	-6411
▁customers	-6412
▁decorated	-6413
▁deterrent	-6414
▁disbelief	-6415
▁economics	-6416
▁elsewhere	-6417
▁endeavors	-6418
▁enjoyable	-6419
▁expecting	-6420
▁extension	-6421
▁finishing	-6422
▁illogical	-6423
▁impeached	-6424
▁impressed	-6425
▁improving	-6426
▁incorrect	-6427
▁increases	-6428
▁listening	-6429
▁loopholes	-6430
▁militants	-6431
▁parenting	-6432
▁patriotic	-6433
▁petroleum	-6434
▁pointless	-6435
▁pollution	-6436
▁prejudice	-6437
▁principle	-6438
▁prisoners	-6439
▁privilege	-6440
▁profiling	-6441
▁reporting	-6442
▁resulting	-6443
▁scenarios	-6444
▁screening	-6445
▁senseless	-6446
▁sexuality	-6447
▁singapore	-6448
▁societies	-6449
▁stability	-6450
▁suppliers	-6451
▁supported	-6452
▁taxpayers	-6453
▁uncomfort	-6454
▁underwear	-6455
▁unhealthy	-6456
▁Euthanasia	-6457
▁Eventually	-6458
▁Everything	-6459
▁Republican	-6460
▁accomodate	-6461
▁addressing	-6462
▁approached	-6463
▁attractive	-6464
▁betterment	-6465
▁charitable	-6466
▁cigarettes	-6467
▁commitment	-6468
▁comparison	-6469
▁compassion	-6470
▁concerning	-6471
▁constantly	-6472
▁constructs	-6473
▁contradict	-6474
▁controlled	-6475
▁controller	-6476
▁dedication	-6477
▁determined	-6478
▁efficiency	-6479
▁employment	-6480
▁encourages	-6481
▁engagement	-6482
▁entrapment	-6483
▁equivalent	-6484
▁euthanasia	-6485
▁eventually	-6486
▁exceptions	-6487
▁girlfriend	-6488
▁homophobia	-6489
▁impeccable	-6490
▁imprisoned	-6491
▁indirectly	-6492
▁intentions	-6493
▁liberalism	-6494
▁moderation	-6495
▁newspapers	-6496
▁obligation	-6497
▁overpriced	-6498
▁passengers	-6499
▁performing	-6500
▁possession	-6501
▁prosecuted	-6502
▁protesting	-6503
▁questioned	-6504
▁references	-6505
▁respecting	-6506
▁skateboard	-6507
▁standpoint	-6508
▁sufficient	-6509
▁supposedly	-6510
ophisticated	-6511
▁Affirmative	-6512
▁accountable	-6513
▁assumptions	-6514
▁authorities	-6515
▁citizenship	-6516
▁complicated	-6517
▁concentrate	-6518
▁considering	-6519
▁contributed	-6520
▁controllers	-6521
▁controversy	-6522
▁definitions	-6523
▁detrimental	-6524
▁expectation	-6525
▁experiences	-6526
▁homosexuals	-6527
▁ingredients	-6528
▁insensitive	-6529
▁involvement	-6530
▁meaningless	-6531
▁observation	-6532
▁perceptions	-6533
▁politically	-6534
▁recommended	-6535
▁reservation	-6536
▁retribution	-6537
▁significant	-6538
▁speculative	-6539
▁technically	-6540
▁theological	-6541
▁unnecessary	-6542
▁Additionally	-6543
▁christianity	-6544
▁conservative	-6545
▁creationists	-6546
▁embarrassing	-6547
▁implications	-6548
▁independence	-6549
▁organization	-6550
▁palestinians	-6551
▁requirements	-6552
▁restrictions	-6553
▁specifically	-6554
▁universities	-6555
constitutional	-6556
▁Conservatives	-6557
▁automatically	-6558
▁discriminated	-6559
▁disrespectful	-6560
▁documentation	-6561
▁environmental	-6562
▁intelligently	-6563
▁international	-6564
▁philanthropic	-6565
▁philosophical	-6566
▁reimbursement	-6567
▁revolutionary	-6568
▁significantly	-6569
▁uncomfortable	-6570
▁representation	-6571
▁scientifically	-6572
................	-6573
▁ed	-6574
▁hi	-6575
▁yr	-6576
erve	-6577
▁eye	-6578
▁mun	-6579
icate	-6580
▁beef	-6581
▁gods	-6582
▁odds	-6583
▁till	-6584
icipal	-6585
oughly	-6586
▁bully	-6587
▁corru	-6588
▁crash	-6589
▁deeds	-6590
▁frequ	-6591
▁funny	-6592
▁merit	-6593
▁expand	-6594
▁ironic	-6595
▁repeat	-6596
ensation	-6597
▁amounts	-6598
▁binding	-6599
▁couples	-6600
▁curious	-6601
▁hitting	-6602
▁kingdom	-6603
▁manager	-6604
▁message	-6605
▁operate	-6606
▁posting	-6607
▁studies	-6608
▁elements	-6609
▁promotes	-6610
▁conflicts	-6611
▁magically	-6612
▁municipal	-6613
▁advantages	-6614
▁corruption	-6615
▁expression	-6616
▁intelligent	-6617
▁recognition	-6618
▁compensation	-6619
**.	-6620
.**	-6621
.4)	-6622
/20	-6623
1/1	-6624
22,	-6625
:30	-6626
ATE	-6627
ATO	-6628
AYS	-6629
BOD	-6630
ELF	-6631
ERE	-6632
Fox	-6633
Hey	-6634
IAT	-6635
ICK	-6636
OUN	-6637
TER	-6638
axy	-6639
cca	-6640
ggy	-6641
yrs	-6642
▁ze	-6643
.(2)	-6644
?!?!	-6645
ARLY	-6646
BODY	-6647
CESS	-6648
ESID	-6649
Even	-6650
HAHA	-6651
Jazz	-6652
Note	-6653
OULD	-6654
OUND	-6655
Plus	-6656
Tell	-6657
WAYS	-6658
Wake	-6659
When	-6660
affe	-6661
aims	-6662
ajun	-6663
aska	-6664
atng	-6665
beye	-6666
cott	-6667
draw	-6668
eker	-6669
erog	-6670
from	-6671
hosp	-6672
igma	-6673
ioca	-6674
kins	-6675
lets	-6676
mark	-6677
neck	-6678
octr	-6679
offs	-6680
opey	-6681
rule	-6682
skin	-6683
task	-6684
ubby	-6685
unts	-6686
wife	-6687
ynth	-6688
▁(1)	-6689
▁1.5	-6690
▁197	-6691
▁ARE	-6692
▁CIA	-6693
▁CLE	-6694
▁DES	-6695
▁Dav	-6696
▁Dog	-6697
▁FPS	-6698
▁GUN	-6699
gov	-6700
ugs	-6701
▁2)	-6702
▁23	-6703
▁2:	-6704
HING	-6705
Thou	-6706
aign	-6707
dict	-6708
fits	-6709
gger	-6710
▁Ext	-6711
▁Guj	-6712
▁HES	-6713
▁Hah	-6714
▁IMM	-6715
▁NBA	-6716
▁NHS	-6717
▁Nye	-6718
▁Obi	-6719
▁Osc	-6720
▁PCs	-6721
▁PET	-6722
▁Pho	-6723
▁SHO	-6724
▁Sec	-6725
▁Smo	-6726
▁Veg	-6727
▁WHY	-6728
▁dys	-6729
▁eup	-6730
▁flo	-6731
▁glo	-6732
▁obn	-6733
▁psy	-6734
00.00	-6735
Civil	-6736
YBODY	-6737
abili	-6738
addin	-6739
ailro	-6740
alaxy	-6741
arcer	-6742
aried	-6743
armed	-6744
arrhe	-6745
astru	-6746
atred	-6747
aware	-6748
ceded	-6749
chism	-6750
ctrum	-6751
ellar	-6752
emocr	-6753
erman	-6754
false	-6755
fixed	-6756
hamed	-6757
ictim	-6758
infor	-6759
ispan	-6760
kemon	-6761
learn	-6762
lfare	-6763
lined	-6764
matic	-6765
misms	-6766
ocado	-6767
occhi	-6768
oenix	-6769
oided	-6770
ondon	-6771
pathy	-6772
phone	-6773
raine	-6774
roper	-6775
senal	-6776
track	-6777
urism	-6778
urred	-6779
useum	-6780
words	-6781
worth	-6782
▁2000	-6783
▁Arab	-6784
▁Bang	-6785
▁Cops	-6786
▁Does	-6787
▁Fair	-6788
▁Flor	-6789
▁GOOD	-6790
▁GUNS	-6791
▁HAVE	-6792
▁IDEA	-6793
▁Isra	-6794
▁King	-6795
▁Lady	-6796
▁Marg	-6797
▁Mark	-6798
▁NASA	-6799
-11	-6800
LLY	-6801
MMI	-6802
bec	-6803
gia	-6804
raz	-6805
▁xt	-6806
Only	-6807
ails	-6808
beit	-6809
ndra	-6810
raff	-6811
vals	-6812
▁Cra	-6813
▁ILL	-6814
etime	-6815
ooses	-6816
opath	-6817
poses	-6818
press	-6819
razil	-6820
▁CMMI	-6821
▁Nebr	-6822
▁RPGs	-6823
▁Real	-6824
▁Roll	-6825
▁STOP	-6826
▁Saud	-6827
▁Scot	-6828
▁Serb	-6829
▁Star	-6830
▁Time	-6831
▁Tony	-6832
▁Town	-6833
▁UNIF	-6834
▁WWII	-6835
▁anni	-6836
▁apes	-6837
▁asks	-6838
▁bags	-6839
▁blue	-6840
▁cath	-6841
▁chug	-6842
▁cope	-6843
▁cute	-6844
▁dedu	-6845
▁deny	-6846
▁eggs	-6847
▁elab	-6848
▁enth	-6849
▁epic	-6850
▁fidd	-6851
▁flav	-6852
▁foot	-6853
▁gamb	-6854
▁glad	-6855
▁govt	-6856
▁grey	-6857
▁guac	-6858
▁guid	-6859
▁ills	-6860
▁infr	-6861
▁iraq	-6862
▁irks	-6863
▁jock	-6864
▁loud	-6865
▁maso	-6866
▁medd	-6867
▁mins	-6868
▁mode	-6869
▁mudd	-6870
▁mund	-6871
▁nerd	-6872
▁nerv	-6873
▁oath	-6874
▁obed	-6875
▁pair	-6876
▁parf	-6877
▁peer	-6878
▁penn	-6879
▁phen	-6880
▁phot	-6881
▁plea	-6882
▁pork	-6883
▁pudd	-6884
▁punn	-6885
▁puzz	-6886
▁ride	-6887
▁rose	-6888
▁runs	-6889
▁scam	-6890
▁semi	-6891
▁soul	-6892
▁tabs	-6893
▁trib	-6894
▁tube	-6895
▁vars	-6896
▁void	-6897
▁wake	-6898
▁wins	-6899
obe	-6900
oby	-6901
ubs	-6902
Cult	-6903
Porn	-6904
acca	-6905
ears	-6906
etiz	-6907
pass	-6908
uals	-6909
▁18,	-6910
▁2.0	-6911
▁Hip	-6912
▁dip	-6913
LWAYS	-6914
agles	-6915
arass	-6916
atles	-6917
ickst	-6918
oated	-6919
separ	-6920
ubble	-6921
▁Lets	-6922
▁Lion	-6923
▁Room	-6924
▁bris	-6925
▁chip	-6926
▁jung	-6927
▁mile	-6928
▁pear	-6929
▁perj	-6930
▁spec	-6931
▁spew	-6932
▁yell	-6933
Doctor	-6934
Donald	-6935
Having	-6936
IATELY	-6937
accept	-6938
ackson	-6939
acular	-6940
aderie	-6941
agging	-6942
ailing	-6943
alkers	-6944
armacy	-6945
arrhea	-6946
artial	-6947
aurant	-6948
awking	-6949
believ	-6950
biance	-6951
byists	-6952
change	-6953
church	-6954
coming	-6955
earned	-6956
elping	-6957
enders	-6958
ential	-6959
ferior	-6960
harast	-6961
icious	-6962
ictive	-6963
iginal	-6964
intend	-6965
ipment	-6966
irteen	-6967
iscuss	-6968
itance	-6969
itchen	-6970
itting	-6971
kraine	-6972
lander	-6973
levant	-6974
monies	-6975
obiles	-6976
oinism	-6977
omatic	-6978
omeday	-6979
onents	-6980
oooooo	-6981
osynth	-6982
ournal	-6983
ourney	-6984
pected	-6985
pended	-6986
perate	-6987
placed	-6988
quakes	-6989
ranted	-6990
rested	-6991
rifice	-6992
rogant	-6993
romagn	-6994
thouse	-6995
triple	-6996
tually	-6997
ubborn	-6998
ublime	-6999
She	-7000
Sim	-7001
UST	-7002
agh	-7003
cli	-7004
fty	-7005
hil	-7006
key	-7007
nce	-7008
uke	-7009
agan	-7010
ahoo	-7011
anct	-7012
ctop	-7013
imed	-7014
isor	-7015
keep	-7016
olid	-7017
reet	-7018
▁Bey	-7019
▁Big	-7020
▁Dep	-7021
▁Des	-7022
▁eug	-7023
▁toy	-7024
aghet	-7025
brain	-7026
enter	-7027
leach	-7028
▁Duch	-7029
▁Each	-7030
▁Jews	-7031
▁disd	-7032
▁diss	-7033
▁dole	-7034
▁whim	-7035
amanth	-7036
chohol	-7037
ctopus	-7038
illary	-7039
mother	-7040
unless	-7041
weight	-7042
worthy	-7043
▁30.00	-7044
▁Belie	-7045
▁Blame	-7046
▁Blues	-7047
▁Cajun	-7048
▁Chick	-7049
▁Close	-7050
▁David	-7051
▁Drive	-7052
▁FOUND	-7053
▁Israe	-7054
▁Korea	-7055
▁Legal	-7056
▁Loved	-7057
▁Micro	-7058
▁Monro	-7059
▁Plame	-7060
▁RIGHT	-7061
▁Rolls	-7062
▁Runes	-7063
▁Saudi	-7064
▁Shall	-7065
▁Steve	-7066
▁Texas	-7067
▁Vegas	-7068
▁Whats	-7069
▁Wrong	-7070
▁Yahoo	-7071
▁admin	-7072
▁agony	-7073
▁ahold	-7074
▁aimed	-7075
▁angry	-7076
▁anime	-7077
▁archa	-7078
▁aunts	-7079
▁babys	-7080
▁backs	-7081
▁badge	-7082
▁balls	-7083
▁banks	-7084
▁bigot	-7085
▁blast	-7086
▁board	-7087
▁bombs	-7088
▁brace	-7089
▁broad	-7090
▁brush	-7091
▁cache	-7092
▁calor	-7093
▁camar	-7094
▁capab	-7095
▁cheat	-7096
▁cloud	-7097
▁curry	-7098
▁dance	-7099
24	-7100
3)	-7101
FL	-7102
.--	-7103
bri	-7104
has	-7105
vil	-7106
▁24	-7107
▁58	-7108
▁Te	-7109
eter	-7110
gans	-7111
iled	-7112
lett	-7113
mber	-7114
roar	-7115
your	-7116
▁Bab	-7117
▁bul	-7118
▁cos	-7119
▁gut	-7120
▁iPh	-7121
▁upp	-7122
arded	-7123
civil	-7124
essin	-7125
ional	-7126
itors	-7127
thier	-7128
would	-7129
▁acid	-7130
▁ball	-7131
▁bike	-7132
▁bulk	-7133
▁clin	-7134
▁outc	-7135
▁pill	-7136
▁spin	-7137
▁wise	-7138
center	-7139
except	-7140
famous	-7141
ingent	-7142
nocchi	-7143
rained	-7144
vember	-7145
▁Brian	-7146
▁Gujar	-7147
▁Smart	-7148
▁alter	-7149
▁bands	-7150
▁decay	-7151
▁depos	-7152
▁desec	-7153
▁dirty	-7154
▁domin	-7155
▁drown	-7156
▁earns	-7157
▁embry	-7158
▁enemy	-7159
▁enorm	-7160
▁eugen	-7161
▁euphe	-7162
▁evalu	-7163
▁explo	-7164
▁fails	-7165
▁farqu	-7166
▁femal	-7167
▁fixed	-7168
▁flood	-7169
▁fuels	-7170
▁gases	-7171
▁genre	-7172
▁giant	-7173
▁gland	-7174
▁greet	-7175
▁grows	-7176
▁guest	-7177
▁hamas	-7178
▁harms	-7179
▁hates	-7180
▁herit	-7181
▁hypro	-7182
▁ideal	-7183
▁isnot	-7184
▁jerse	-7185
▁jokes	-7186
▁label	-7187
▁libel	-7188
▁lifes	-7189
▁limbs	-7190
▁lists	-7191
▁litig	-7192
▁lying	-7193
▁magaz	-7194
▁males	-7195
▁messy	-7196
▁meted	-7197
▁mopey	-7198
▁moths	-7199
BS	-7200
Te	-7201
pa	-7202
ECT	-7203
aus	-7204
eld	-7205
lay	-7206
oop	-7207
oti	-7208
pus	-7209
set	-7210
tit	-7211
upp	-7212
▁2/	-7213
▁Da	-7214
▁eb	-7215
agle	-7216
anta	-7217
elda	-7218
epsi	-7219
esec	-7220
geon	-7221
imer	-7222
ldon	-7223
lity	-7224
orse	-7225
soft	-7226
such	-7227
uses	-7228
▁2/3	-7229
▁BET	-7230
▁Exp	-7231
▁fad	-7232
▁fly	-7233
▁hel	-7234
▁ine	-7235
▁pit	-7236
▁som	-7237
Which	-7238
baric	-7239
ocate	-7240
▁Plan	-7241
▁cert	-7242
▁fasc	-7243
▁http	-7244
▁neck	-7245
astics	-7246
titles	-7247
▁Santa	-7248
▁Thats	-7249
▁drunk	-7250
▁eaten	-7251
▁helpl	-7252
▁inequ	-7253
▁motor	-7254
▁nicer	-7255
▁nukes	-7256
▁obama	-7257
▁optim	-7258
▁overd	-7259
▁overl	-7260
▁overt	-7261
▁paran	-7262
▁piece	-7263
▁pluse	-7264
▁quiet	-7265
▁range	-7266
▁rates	-7267
▁recon	-7268
▁recre	-7269
▁reply	-7270
▁reput	-7271
▁reuse	-7272
▁risks	-7273
▁roads	-7274
▁sales	-7275
▁scary	-7276
▁schol	-7277
▁scold	-7278
▁seeds	-7279
▁seven	-7280
▁shade	-7281
▁shops	-7282
▁sight	-7283
▁silly	-7284
▁simpl	-7285
▁skill	-7286
▁slept	-7287
▁smell	-7288
▁soggy	-7289
▁solar	-7290
▁soups	-7291
▁spect	-7292
▁speed	-7293
▁spoon	-7294
▁stimu	-7295
▁storm	-7296
▁stret	-7297
▁strip	-7298
▁subst	-7299
09	-7300
MO	-7301
RS	-7302
WO	-7303
▁_	-7304
ANS	-7305
Can	-7306
TLE	-7307
aos	-7308
esb	-7309
hop	-7310
ike	-7311
lla	-7312
may	-7313
med	-7314
org	-7315
ras	-7316
ued	-7317
IANS	-7318
Like	-7319
Well	-7320
aret	-7321
sage	-7322
▁Dar	-7323
▁Sal	-7324
▁fan	-7325
First	-7326
comes	-7327
human	-7328
idesp	-7329
osing	-7330
pleas	-7331
plice	-7332
rella	-7333
▁Darf	-7334
▁Hair	-7335
▁Laws	-7336
▁Macs	-7337
▁Poly	-7338
▁beac	-7339
▁isol	-7340
▁lesb	-7341
▁pine	-7342
▁pour	-7343
▁rope	-7344
▁torn	-7345
▁vend	-7346
▁wall	-7347
Either	-7348
antics	-7349
apoint	-7350
isting	-7351
ribing	-7352
rition	-7353
udents	-7354
▁brown	-7355
▁chaos	-7356
▁nomad	-7357
▁prone	-7358
▁revel	-7359
▁sugar	-7360
▁swear	-7361
▁swift	-7362
▁sword	-7363
▁takea	-7364
▁tells	-7365
▁thumb	-7366
▁towel	-7367
▁tower	-7368
▁trait	-7369
▁trend	-7370
▁tribe	-7371
▁tubby	-7372
▁twist	-7373
▁upper	-7374
▁urban	-7375
▁vague	-7376
▁versa	-7377
▁visit	-7378
▁voice	-7379
▁weigh	-7380
▁wiser	-7381
▁wound	-7382
Atheism	-7383
Further	-7384
achment	-7385
aghetti	-7386
ailroad	-7387
alities	-7388
amantha	-7389
anctity	-7390
ardless	-7391
arendra	-7392
arently	-7393
arriage	-7394
assical	-7395
bortion	-7396
choicer	-7397
correct	-7398
deserve	-7399
)?	-7400
.'	-7401
50	-7402
60	-7403
:5	-7404
Of	-7405
PM	-7406
bq	-7407
ga	-7408
ka	-7409
ws	-7410
:59	-7411
VES	-7412
Who	-7413
cap	-7414
ida	-7415
ups	-7416
zon	-7417
▁34	-7418
▁ED	-7419
▁cy	-7420
ELON	-7421
inch	-7422
itly	-7423
othe	-7424
▁ATM	-7425
▁Pan	-7426
▁Res	-7427
▁STU	-7428
▁bbq	-7429
▁doz	-7430
▁ton	-7431
▁wou	-7432
Would	-7433
itude	-7434
nting	-7435
oleon	-7436
▁Game	-7437
▁Mars	-7438
▁Thus	-7439
▁dess	-7440
▁educ	-7441
▁grab	-7442
▁hafe	-7443
▁neat	-7444
▁owes	-7445
▁rage	-7446
▁sink	-7447
▁thin	-7448
amages	-7449
atrist	-7450
imated	-7451
ousing	-7452
▁FELON	-7453
▁Putin	-7454
▁harsh	-7455
▁logos	-7456
▁manga	-7457
Raffles	-7458
capital	-7459
egiance	-7460
ensions	-7461
ervable	-7462
esional	-7463
essinis	-7464
estones	-7465
everage	-7466
guments	-7467
helming	-7468
herself	-7469
history	-7470
ianship	-7471
icapped	-7472
idelity	-7473
ienable	-7474
ifiable	-7475
intendo	-7476
isition	-7477
isposed	-7478
issions	-7479
itement	-7480
lection	-7481
lexible	-7482
lighten	-7483
lightly	-7484
lusions	-7485
meaning	-7486
olerant	-7487
omplice	-7488
onerate	-7489
orderly	-7490
ourcing	-7491
playing	-7492
powered	-7493
pticism	-7494
raction	-7495
raffles	-7496
riculum	-7497
riminal	-7498
science	-7499
?(	-7500
Be	-7501
PR	-7502
ca	-7503
gi	-7504
gu	-7505
ja	-7506
ni	-7507
ns	-7508
Cub	-7509
rew	-7510
war	-7511
▁(2	-7512
▁fi	-7513
Fire	-7514
anse	-7515
asty	-7516
cust	-7517
elgi	-7518
elve	-7519
icit	-7520
roll	-7521
▁Att	-7522
▁Hor	-7523
▁Pak	-7524
▁San	-7525
▁Too	-7526
▁Web	-7527
▁bri	-7528
▁dig	-7529
▁rat	-7530
▁sed	-7531
▁unt	-7532
▁vot	-7533
stone	-7534
▁arms	-7535
▁blat	-7536
▁boss	-7537
▁cite	-7538
▁dude	-7539
advant	-7540
ipedes	-7541
lessly	-7542
▁abund	-7543
▁brief	-7544
▁drama	-7545
▁forth	-7546
▁loose	-7547
▁relic	-7548
▁snake	-7549
▁teeth	-7550
▁telgi	-7551
▁undes	-7552
▁usual	-7553
▁waves	-7554
support	-7555
tenance	-7556
usiness	-7557
welling	-7558
▁ALWAYS	-7559
▁Asleep	-7560
▁Beyond	-7561
▁Blacks	-7562
▁Brazil	-7563
▁COMPLE	-7564
▁Caesar	-7565
▁Cosmos	-7566
▁Darfur	-7567
▁FATHER	-7568
▁Garden	-7569
▁German	-7570
▁Google	-7571
▁Hitler	-7572
▁Indeed	-7573
▁Isreal	-7574
▁Ladies	-7575
▁Monroe	-7576
▁Native	-7577
▁PRESID	-7578
▁Police	-7579
▁Pretty	-7580
▁Rowing	-7581
▁Seeing	-7582
▁Smarts	-7583
▁Social	-7584
▁Sunday	-7585
▁Things	-7586
▁Twenty	-7587
▁Wouldn	-7588
▁accomm	-7589
▁admire	-7590
▁affirm	-7591
▁albeit	-7592
▁anonym	-7593
▁archit	-7594
▁assets	-7595
▁autism	-7596
▁awhile	-7597
▁bailed	-7598
▁ballot	-7599
.,	-7600
17	-7601
45	-7602
80	-7603
An	-7604
CK	-7605
CO	-7606
Fr	-7607
IR	-7608
TA	-7609
jo	-7610
mp	-7611
oz	-7612
vi	-7613
esa	-7614
eur	-7615
reh	-7616
rue	-7617
tal	-7618
uge	-7619
▁13	-7620
▁BE	-7621
Comp	-7622
edit	-7623
lymp	-7624
term	-7625
▁Him	-7626
▁Moz	-7627
▁Oil	-7628
▁RES	-7629
▁STD	-7630
▁dre	-7631
▁pse	-7632
about	-7633
ading	-7634
annum	-7635
eling	-7636
rical	-7637
tical	-7638
▁1000	-7639
▁Gold	-7640
▁Mesa	-7641
▁Such	-7642
▁beer	-7643
▁buck	-7644
▁hall	-7645
▁scri	-7646
▁shor	-7647
ctures	-7648
eopard	-7649
secure	-7650
soever	-7651
▁Money	-7652
▁Olymp	-7653
▁Oscar	-7654
▁began	-7655
▁camer	-7656
▁imply	-7657
▁intim	-7658
▁notch	-7659
▁obnox	-7660
▁paren	-7661
▁prest	-7662
▁pseud	-7663
▁tight	-7664
▁wrest	-7665
▁yield	-7666
Frankly	-7667
eopardy	-7668
ificate	-7669
▁Kickst	-7670
▁bashed	-7671
▁basket	-7672
▁breakf	-7673
▁bright	-7674
▁brutal	-7675
▁bubble	-7676
▁budget	-7677
▁builds	-7678
▁bureau	-7679
▁butter	-7680
▁button	-7681
▁caesar	-7682
▁center	-7683
▁chicks	-7684
▁childs	-7685
▁cloths	-7686
▁comply	-7687
▁compul	-7688
▁confus	-7689
▁conver	-7690
▁copies	-7691
▁cracks	-7692
▁dating	-7693
▁debase	-7694
▁decade	-7695
▁deeper	-7696
▁deeply	-7697
▁deform	-7698
▁denies	-7699
99	-7700
?.	-7701
fs	-7702
ha	-7703
800	-7704
Col	-7705
ada	-7706
ora	-7707
vin	-7708
win	-7709
▁Id	-7710
▁ce	-7711
east	-7712
grim	-7713
inem	-7714
inge	-7715
ishv	-7716
mong	-7717
obey	-7718
outs	-7719
yond	-7720
▁Old	-7721
▁Par	-7722
▁cat	-7723
▁dod	-7724
▁gad	-7725
▁joe	-7726
▁lid	-7727
▁ous	-7728
▁wen	-7729
▁wet	-7730
2,000	-7731
Until	-7732
grims	-7733
known	-7734
▁Char	-7735
▁Sher	-7736
▁Test	-7737
▁desk	-7738
▁hook	-7739
▁mate	-7740
▁rust	-7741
▁subs	-7742
Anyway	-7743
acious	-7744
ipping	-7745
▁North	-7746
▁Union	-7747
▁cease	-7748
▁rated	-7749
▁vishv	-7750
▁wrote	-7751
odating	-7752
▁Coming	-7753
▁Jewish	-7754
▁London	-7755
▁beyond	-7756
▁connot	-7757
▁desert	-7758
▁disreg	-7759
▁divide	-7760
▁domain	-7761
▁donate	-7762
▁doomed	-7763
▁eagles	-7764
▁empath	-7765
▁engage	-7766
▁enthus	-7767
▁esteem	-7768
▁exclus	-7769
▁expert	-7770
▁expire	-7771
▁explic	-7772
▁export	-7773
▁expose	-7774
▁extend	-7775
▁filing	-7776
▁finder	-7777
▁finger	-7778
▁fixing	-7779
▁formed	-7780
▁former	-7781
▁fruits	-7782
▁fulfil	-7783
▁garage	-7784
▁garlic	-7785
▁giants	-7786
▁google	-7787
▁grease	-7788
▁greasy	-7789
▁greedy	-7790
▁grunge	-7791
▁gutted	-7792
▁handed	-7793
▁handle	-7794
▁heroin	-7795
▁hippie	-7796
▁hiring	-7797
▁hoping	-7798
▁humble	-7799
Sh	-7800
-47	-7801
Sue	-7802
YES	-7803
ata	-7804
aul	-7805
urg	-7806
yes	-7807
▁CO	-7808
▁Mr	-7809
aden	-7810
astr	-7811
iage	-7812
ners	-7813
rich	-7814
urvy	-7815
wers	-7816
▁Deb	-7817
▁IIT	-7818
▁Ron	-7819
▁Ter	-7820
▁fur	-7821
▁hey	-7822
▁vol	-7823
abled	-7824
akers	-7825
antic	-7826
ardly	-7827
arina	-7828
uters	-7829
▁cord	-7830
▁deed	-7831
▁forb	-7832
▁lied	-7833
▁shed	-7834
▁sire	-7835
▁stor	-7836
▁tone	-7837
carina	-7838
consin	-7839
esteem	-7840
▁Curvy	-7841
▁Mexic	-7842
▁aband	-7843
▁adage	-7844
▁aging	-7845
▁beers	-7846
▁chill	-7847
▁distr	-7848
▁payer	-7849
▁shall	-7850
▁troub	-7851
eration	-7852
idation	-7853
▁aiding	-7854
▁assign	-7855
▁classy	-7856
▁commen	-7857
▁crises	-7858
▁diesel	-7859
▁dollar	-7860
▁hungry	-7861
▁iPhone	-7862
▁ideals	-7863
▁impair	-7864
▁indian	-7865
▁injury	-7866
▁invent	-7867
▁judged	-7868
▁jungle	-7869
▁kicked	-7870
▁ladies	-7871
▁laptop	-7872
▁latter	-7873
▁lethal	-7874
▁likley	-7875
▁linear	-7876
▁lously	-7877
▁loving	-7878
▁lowest	-7879
▁makind	-7880
▁massac	-7881
▁master	-7882
▁menace	-7883
▁messed	-7884
▁misdem	-7885
▁motion	-7886
▁muscle	-7887
▁museum	-7888
▁mutual	-7889
▁negoti	-7890
▁nicely	-7891
▁notify	-7892
▁orders	-7893
▁outcry	-7894
▁outlaw	-7895
▁owning	-7896
▁packed	-7897
▁palist	-7898
▁papers	-7899
ea	-7900
Oil	-7901
cil	-7902
ila	-7903
oli	-7904
ols	-7905
run	-7906
wer	-7907
▁40	-7908
▁AK	-7909
also	-7910
beat	-7911
fire	-7912
uase	-7913
▁30,	-7914
▁GOP	-7915
▁Hum	-7916
▁Jar	-7917
▁Set	-7918
▁Wan	-7919
▁War	-7920
▁YES	-7921
▁Yea	-7922
▁esc	-7923
▁hip	-7924
▁hoo	-7925
▁hun	-7926
▁lol	-7927
▁pil	-7928
▁sug	-7929
estal	-7930
itain	-7931
ourse	-7932
polit	-7933
rence	-7934
usion	-7935
▁ONLY	-7936
▁Phys	-7937
▁West	-7938
▁bump	-7939
▁mein	-7940
▁pest	-7941
▁sets	-7942
actors	-7943
anging	-7944
charge	-7945
sesion	-7946
skinny	-7947
▁Cause	-7948
▁Using	-7949
▁compe	-7950
▁nerve	-7951
▁sloth	-7952
▁theor	-7953
▁tired	-7954
▁unsub	-7955
▁wider	-7956
▁Others	-7957
▁advent	-7958
▁parish	-7959
▁payers	-7960
▁pearls	-7961
▁picket	-7962
▁pieces	-7963
▁pirate	-7964
▁placed	-7965
▁prerog	-7966
▁proved	-7967
▁pseudo	-7968
▁pulled	-7969
▁qualif	-7970
▁racial	-7971
▁racing	-7972
▁rarely	-7973
▁reckon	-7974
▁reddit	-7975
▁redone	-7976
▁reflex	-7977
▁regret	-7978
▁relief	-7979
▁rental	-7980
▁repair	-7981
▁resemb	-7982
▁resent	-7983
▁ribeye	-7984
▁rivals	-7985
▁robots	-7986
▁rolled	-7987
▁rooted	-7988
▁rotten	-7989
▁routes	-7990
▁saving	-7991
▁scarce	-7992
▁schedu	-7993
▁scrape	-7994
▁scream	-7995
▁script	-7996
▁secure	-7997
▁sexism	-7998
▁shares	-7999
0'	-8000
5)	-8001
Ds	-8002
100	-8003
abb	-8004
afe	-8005
fig	-8006
una	-8007
une	-8008
▁LE	-8009
▁ME	-8010
▁bf	-8011
▁na	-8012
▁wk	-8013
andy	-8014
avel	-8015
oena	-8016
▁Aqu	-8017
▁Bay	-8018
▁Ber	-8019
▁Cop	-8020
▁Mad	-8021
▁Med	-8022
▁Mis	-8023
idate	-8024
istan	-8025
orous	-8026
▁Copy	-8027
▁Stra	-8028
▁cous	-8029
▁cure	-8030
▁defe	-8031
▁hole	-8032
▁math	-8033
▁offe	-8034
▁reci	-8035
▁ring	-8036
▁ruin	-8037
▁tour	-8038
Almost	-8039
Thanks	-8040
actory	-8041
arship	-8042
cially	-8043
earing	-8044
ultane	-8045
▁1822,	-8046
▁abort	-8047
▁chalk	-8048
▁deity	-8049
▁dying	-8050
▁stole	-8051
▁taxed	-8052
▁teams	-8053
matized	-8054
▁Anakin	-8055
▁Basing	-8056
▁Mostly	-8057
▁attent	-8058
▁contem	-8059
▁detest	-8060
▁foetus	-8061
▁hiding	-8062
▁organs	-8063
▁showed	-8064
▁sooner	-8065
▁sorrow	-8066
▁speaks	-8067
▁spends	-8068
▁stable	-8069
▁stands	-8070
▁stayed	-8071
▁sticks	-8072
▁stigma	-8073
▁stings	-8074
▁strugg	-8075
▁submit	-8076
▁suspic	-8077
▁sweets	-8078
▁talent	-8079
▁target	-8080
▁temper	-8081
▁termed	-8082
▁terrif	-8083
▁territ	-8084
▁theore	-8085
▁thrown	-8086
▁topics	-8087
▁touchy	-8088
▁tracks	-8089
▁trauma	-8090
▁travel	-8091
▁trends	-8092
▁tricky	-8093
▁truths	-8094
▁twenty	-8095
▁unbear	-8096
▁unjust	-8097
▁unprof	-8098
▁unsure	-8099
bre	-8100
ief	-8101
mis	-8102
orp	-8103
▁Fe	-8104
▁gy	-8105
...)	-8106
aste	-8107
down	-8108
etry	-8109
inds	-8110
indu	-8111
pted	-8112
sels	-8113
vide	-8114
▁FMA	-8115
▁Hop	-8116
▁Pet	-8117
▁Pri	-8118
▁Sin	-8119
▁Tig	-8120
▁max	-8121
▁mud	-8122
▁rud	-8123
▁ups	-8124
acted	-8125
astro	-8126
atley	-8127
least	-8128
umber	-8129
▁Eden	-8130
▁Fame	-8131
▁Home	-8132
▁News	-8133
▁Wars	-8134
▁Were	-8135
▁aged	-8136
▁chin	-8137
▁inal	-8138
▁sees	-8139
▁shap	-8140
▁surf	-8141
▁vast	-8142
▁vice	-8143
around	-8144
▁THERE	-8145
▁dates	-8146
▁doors	-8147
▁micro	-8148
▁needy	-8149
▁plans	-8150
▁pound	-8151
▁roles	-8152
▁stage	-8153
▁sushi	-8154
▁tooth	-8155
▁Associ	-8156
▁Castro	-8157
▁Middle	-8158
▁Mother	-8159
▁Prayer	-8160
▁bloody	-8161
▁purple	-8162
▁refute	-8163
▁smokes	-8164
▁update	-8165
▁uproar	-8166
▁valley	-8167
▁veggie	-8168
▁viable	-8169
▁victor	-8170
▁visits	-8171
▁voices	-8172
▁warned	-8173
▁waters	-8174
▁weapon	-8175
▁whould	-8176
▁wicket	-8177
▁widesp	-8178
▁winter	-8179
Employee	-8180
Employer	-8181
Marriage	-8182
Religion	-8183
Speaking	-8184
elligent	-8185
ensively	-8186
estinian	-8187
grateful	-8188
harastra	-8189
hilating	-8190
ichotomy	-8191
ispanics	-8192
ividuals	-8193
marriage	-8194
original	-8195
pleasant	-8196
question	-8197
ributive	-8198
ristians	-8199
EN	-8200
gs	-8201
yr	-8202
▁x	-8203
AND	-8204
GAL	-8205
aed	-8206
ota	-8207
▁EU	-8208
▁GO	-8209
Will	-8210
abin	-8211
irts	-8212
plet	-8213
▁Out	-8214
▁dry	-8215
▁lac	-8216
chair	-8217
ender	-8218
inets	-8219
lifer	-8220
marks	-8221
treat	-8222
▁1984	-8223
▁Case	-8224
▁East	-8225
▁Ever	-8226
▁base	-8227
▁clap	-8228
▁clos	-8229
▁ease	-8230
▁evry	-8231
▁fish	-8232
▁gras	-8233
▁hood	-8234
▁obsc	-8235
▁reve	-8236
▁stom	-8237
▁trip	-8238
▁wide	-8239
▁Eight	-8240
▁Irish	-8241
▁asses	-8242
▁drast	-8243
▁image	-8244
▁spice	-8245
▁undis	-8246
iblical	-8247
ighting	-8248
ishment	-8249
istered	-8250
▁acting	-8251
▁begged	-8252
▁buried	-8253
▁contam	-8254
▁disall	-8255
▁flavor	-8256
▁resist	-8257
▁worlds	-8258
separate	-8259
students	-8260
▁100,000	-8261
▁Aladdin	-8262
▁Alcohol	-8263
▁Beatles	-8264
▁Believe	-8265
▁CLEARLY	-8266
▁Certain	-8267
▁Chicken	-8268
▁Croatia	-8269
▁Despite	-8270
▁Duchamp	-8271
▁England	-8272
▁Extreme	-8273
▁Florida	-8274
▁Frankly	-8275
▁Germans	-8276
▁Germany	-8277
▁Gujarat	-8278
▁Hawking	-8279
▁Helping	-8280
▁IITians	-8281
▁Imagine	-8282
▁Instant	-8283
▁Israeli	-8284
▁Killing	-8285
▁Lawyers	-8286
▁Malacca	-8287
▁NOTHING	-8288
▁Neither	-8289
▁Ocarina	-8290
▁PROCESS	-8291
▁Pokemon	-8292
▁Problem	-8293
▁Provide	-8294
▁Sheldon	-8295
▁Someone	-8296
▁Straits	-8297
▁Student	-8298
▁Suicide	-8299
▁UNIFORM	-8300
▁Ukraine	-8301
▁Violent	-8302
▁Whoever	-8303
▁abandon	-8304
▁abstain	-8305
▁abusive	-8306
▁advisor	-8307
▁affects	-8308
▁aggress	-8309
▁anarchy	-8310
▁ancient	-8311
▁anguish	-8312
▁anticip	-8313
▁anyways	-8314
▁appeals	-8315
▁appears	-8316
▁appetiz	-8317
▁approve	-8318
▁ashamed	-8319
▁avocado	-8320
▁babysit	-8321
▁bargain	-8322
▁battles	-8323
▁becuase	-8324
▁bigoted	-8325
▁bigotry	-8326
▁billing	-8327
▁bloated	-8328
▁bombing	-8329
▁britain	-8330
▁burning	-8331
▁buttons	-8332
▁century	-8333
▁channel	-8334
▁charity	-8335
▁chooses	-8336
▁coerced	-8337
▁colours	-8338
▁combine	-8339
▁comment	-8340
▁compare	-8341
▁compuls	-8342
▁constit	-8343
▁contest	-8344
▁counsel	-8345
▁creates	-8346
▁cutting	-8347
▁decency	-8348
▁decides	-8349
▁deliber	-8350
▁demands	-8351
▁dessert	-8352
▁discour	-8353
▁disdain	-8354
▁dismiss	-8355
▁dropped	-8356
▁educate	-8357
▁elevate	-8358
▁emerged	-8359
▁enacted	-8360
▁enemies	-8361
▁entrees	-8362
▁equally	-8363
▁excited	-8364
▁exclude	-8365
▁experts	-8366
▁explore	-8367
▁extreme	-8368
▁farquer	-8369
▁feeding	-8370
▁females	-8371
▁fingers	-8372
▁firearm	-8373
▁flavour	-8374
▁focused	-8375
▁fortune	-8376
▁forward	-8377
▁founded	-8378
▁fucking	-8379
▁fulfill	-8380
▁funeral	-8381
▁gallons	-8382
▁generic	-8383
▁gnocchi	-8384
▁governs	-8385
▁greeted	-8386
▁grilled	-8387
▁gunning	-8388
▁harmful	-8389
▁housing	-8390
▁imposed	-8391
▁impress	-8392
▁indefin	-8393
▁indoctr	-8394
▁initial	-8395
▁intrins	-8396
▁invaded	-8397
▁kitchen	-8398
▁lightly	-8399
▁lobster	-8400
▁located	-8401
▁lottery	-8402
▁managed	-8403
▁mariage	-8404
▁measure	-8405
▁meeting	-8406
▁misused	-8407
▁monkeys	-8408
▁monster	-8409
▁mundane	-8410
▁muslims	-8411
▁negated	-8412
▁nervous	-8413
▁notions	-8414
▁octopus	-8415
▁offence	-8416
▁offices	-8417
▁optimum	-8418
▁organis	-8419
▁origins	-8420
▁outdoor	-8421
▁outlaws	-8422
▁overpop	-8423
▁oversee	-8424
▁parfait	-8425
▁pastime	-8426
▁pennies	-8427
▁perjury	-8428
▁persuit	-8429
▁physics	-8430
▁platter	-8431
▁pleased	-8432
▁pointed	-8433
▁portray	-8434
▁praying	-8435
▁pricing	-8436
▁prisons	-8437
▁profess	-8438
▁prolong	-8439
▁proudly	-8440
▁pudding	-8441
▁pushing	-8442
▁radical	-8443
▁raising	-8444
▁ratings	-8445
▁reached	-8446
▁reaches	-8447
▁readily	-8448
▁realise	-8449
▁recover	-8450
▁redress	-8451
▁reduced	-8452
▁refused	-8453
▁rehabil	-8454
▁relieve	-8455
▁replies	-8456
▁results	-8457
▁retards	-8458
▁returns	-8459
▁rolling	-8460
▁routine	-8461
▁rubbish	-8462
▁screwed	-8463
▁seconds	-8464
▁sending	-8465
▁serving	-8466
▁sexting	-8467
▁shipped	-8468
▁shorter	-8469
▁simpler	-8470
▁singing	-8471
▁sleeker	-8472
▁sourced	-8473
▁sources	-8474
▁spanish	-8475
▁squeeze	-8476
▁stellar	-8477
▁stimuli	-8478
▁streets	-8479
▁studied	-8480
▁symbols	-8481
▁tapioca	-8482
▁tenders	-8483
▁tension	-8484
▁testing	-8485
▁thereof	-8486
▁trigger	-8487
▁twisted	-8488
▁unarmed	-8489
▁undergo	-8490
▁unknown	-8491
▁updates	-8492
▁varsity	-8493
▁veggies	-8494
▁verdict	-8495
▁virgins	-8496
▁watches	-8497
▁weather	-8498
▁weekend	-8499
▁welfare	-8500
▁whining	-8501
▁writers	-8502
▁wronged	-8503
Evolution	-8504
abilizing	-8505
cientific	-8506
depending	-8507
education	-8508
ffesional	-8509
formation	-8510
mongering	-8511
political	-8512
pretation	-8513
quisition	-8514
something	-8515
▁Anything	-8516
▁Beverage	-8517
▁Congress	-8518
▁Consider	-8519
▁Creation	-8520
▁Criminal	-8521
▁Fountain	-8522
▁Generals	-8523
▁Israelis	-8524
▁Liberals	-8525
▁Margaret	-8526
▁McDonald	-8527
▁Mexicans	-8528
▁Michigan	-8529
▁Minister	-8530
▁Moreover	-8531
▁Napoleon	-8532
▁Narendra	-8533
▁Nebraska	-8534
▁Nobility	-8535
▁November	-8536
▁Olympics	-8537
▁Politics	-8538
▁Redskins	-8539
▁Samantha	-8540
▁Scotland	-8541
▁Security	-8542
▁Spanking	-8543
▁accounts	-8544
▁accurate	-8545
▁accusing	-8546
▁adultery	-8547
▁alchohol	-8548
▁ambiance	-8549
▁analysis	-8550
▁applying	-8551
▁approved	-8552
▁arrogant	-8553
▁articles	-8554
▁assuming	-8555
▁athletic	-8556
▁attended	-8557
▁attitude	-8558
▁barbaric	-8559
▁boneless	-8560
▁bookmark	-8561
▁boosting	-8562
▁boutique	-8563
▁brothers	-8564
▁campaign	-8565
▁cheering	-8566
▁coherent	-8567
▁combined	-8568
▁comeback	-8569
▁compared	-8570
▁conflict	-8571
▁congress	-8572
▁constant	-8573
▁consumed	-8574
▁contacts	-8575
▁contains	-8576
▁contrary	-8577
▁converts	-8578
▁counties	-8579
▁coverage	-8580
▁cracking	-8581
▁critical	-8582
▁damaging	-8583
▁darkness	-8584
▁delusion	-8585
▁deprives	-8586
▁deserved	-8587
▁designer	-8588
▁detailed	-8589
▁diabetic	-8590
▁diarrhea	-8591
▁disabled	-8592
▁disaster	-8593
▁discount	-8594
▁discover	-8595
▁displays	-8596
▁disprove	-8597
▁distance	-8598
▁dogmatic	-8599
▁downside	-8600
▁dressing	-8601
▁enforced	-8602
▁enormous	-8603
▁filtered	-8604
▁focusing	-8605
▁football	-8606
▁fountain	-8607
▁fraction	-8608
▁freedoms	-8609
▁gambling	-8610
▁geograph	-8611
▁grandeur	-8612
▁guidance	-8613
▁habitats	-8614
▁handsome	-8615
▁hardship	-8616
▁harmless	-8617
▁helpless	-8618
▁heritage	-8619
▁hesitate	-8620
▁homeless	-8621
▁homelife	-8622
▁homemade	-8623
▁ideology	-8624
▁illegals	-8625
▁improper	-8626
▁incarcer	-8627
▁incident	-8628
▁incompat	-8629
▁inferior	-8630
▁insecure	-8631
▁intended	-8632
▁interven	-8633
▁intruder	-8634
▁invasion	-8635
▁irrespon	-8636
▁jackpots	-8637
▁jeopardy	-8638
▁judgment	-8639
▁judicial	-8640
▁lawsuits	-8641
▁licenses	-8642
▁lifelong	-8643
▁lifetime	-8644
▁likewise	-8645
▁limiting	-8646
▁magazine	-8647
▁managing	-8648
▁manpower	-8649
▁material	-8650
▁minority	-8651
▁misinter	-8652
▁mountain	-8653
▁mutation	-8654
▁normally	-8655
▁nowadays	-8656
▁obedient	-8657
▁offended	-8658
▁offender	-8659
▁opponent	-8660
▁ordering	-8661
▁overdose	-8662
▁parental	-8663
▁payments	-8664
▁peaceful	-8665
▁pedestal	-8666
▁plastics	-8667
▁pleasing	-8668
▁policing	-8669
▁politian	-8670
▁predates	-8671
▁presence	-8672
▁pressing	-8673
▁probable	-8674
▁produced	-8675
▁programm	-8676
▁prohibit	-8677
▁proposed	-8678
▁provider	-8679
▁purposes	-8680
▁pursuits	-8681
▁railroad	-8682
▁reacting	-8683
▁rebuttal	-8684
▁recorded	-8685
▁recycled	-8686
▁referral	-8687
▁reflects	-8688
▁reformed	-8689
▁register	-8690
▁religeon	-8691
▁remained	-8692
▁reminded	-8693
▁removing	-8694
▁reported	-8695
▁resource	-8696
▁returned	-8697
▁reviewed	-8698
▁sacrific	-8699
▁salaried	-8700
▁salaries	-8701
▁scarlett	-8702
▁schedule	-8703
▁selected	-8704
▁sentence	-8705
▁sentient	-8706
▁shifting	-8707
▁slightly	-8708
▁speakers	-8709
▁spectrum	-8710
▁spitting	-8711
▁stagnant	-8712
▁stalkers	-8713
▁stepping	-8714
▁stubborn	-8715
▁suddenly	-8716
▁suitable	-8717
▁supervis	-8718
▁takeaway	-8719
▁tarannum	-8720
▁teamwork	-8721
▁themself	-8722
▁theology	-8723
▁thinkers	-8724
▁thirteen	-8725
▁thousand	-8726
▁throwing	-8727
▁tolerate	-8728
▁touching	-8729
▁training	-8730
▁transfer	-8731
▁troubles	-8732
▁turnover	-8733
▁umbrella	-8734
▁unaccept	-8735
▁unbeliev	-8736
▁underage	-8737
▁unearned	-8738
▁wasteful	-8739
▁weekends	-8740
▁whenever	-8741
▁winnings	-8742
▁withdraw	-8743
Television	-8744
advantaged	-8745
astructure	-8746
democratic	-8747
ominations	-8748
osynthesis	-8749
protection	-8750
romagnetic	-8751
targetting	-8752
▁Basically	-8753
▁Committee	-8754
▁EVERYBODY	-8755
▁Economist	-8756
▁Enlighten	-8757
▁Generally	-8758
▁Hispanics	-8759
▁Microsoft	-8760
▁Political	-8761
▁Yesterday	-8762
▁abilities	-8763
▁acomplice	-8764
▁advertise	-8765
▁affection	-8766
▁alcoholic	-8767
▁anecdotal	-8768
▁answering	-8769
▁architect	-8770
▁arguement	-8771
▁arresting	-8772
▁assertion	-8773
▁associate	-8774
▁attacking	-8775
▁awareness	-8776
▁bookmarks	-8777
▁breakfast	-8778
▁buildings	-8779
▁centuries	-8780
▁classical	-8781
▁clockwise	-8782
▁comparing	-8783
▁compounds	-8784
▁confusing	-8785
▁consensus	-8786
▁consisted	-8787
▁countless	-8788
▁coworkers	-8789
▁criterium	-8790
▁curiosity	-8791
▁daughters	-8792
▁defending	-8793
▁defensive	-8794
▁defiantly	-8795
▁delivered	-8796
▁demanding	-8797
▁democracy	-8798
▁depressed	-8799
▁depresses	-8800
▁destroyed	-8801
▁discovery	-8802
▁discussed	-8803
▁disputing	-8804
▁downloads	-8805
▁downsides	-8806
▁elaborate	-8807
▁elections	-8808
▁eliminate	-8809
▁engineers	-8810
▁equipment	-8811
▁essential	-8812
▁estimated	-8813
▁ethnicity	-8814
▁exception	-8815
▁exonerate	-8816
▁factories	-8817
▁financing	-8818
▁followers	-8819
▁fortunate	-8820
▁garnished	-8821
▁gathering	-8822
▁greatness	-8823
▁guarantee	-8824
▁headlines	-8825
▁highlight	-8826
▁identical	-8827
▁ignorance	-8828
▁illegally	-8829
▁immediate	-8830
▁imperfect	-8831
▁incentive	-8832
▁increased	-8833
▁ingrained	-8834
▁initiated	-8835
▁injection	-8836
▁interfere	-8837
▁investing	-8838
▁knowingly	-8839
▁languages	-8840
▁liability	-8841
▁liberties	-8842
▁lobbyists	-8843
▁locations	-8844
▁malicious	-8845
▁masochism	-8846
▁massively	-8847
▁mentality	-8848
▁murderers	-8849
▁neighbors	-8850
▁neighbour	-8851
▁obtaining	-8852
▁operating	-8853
▁opponents	-8854
▁organisms	-8855
▁outsiders	-8856
▁overblown	-8857
▁overrated	-8858
▁ownership	-8859
▁paperwork	-8860
▁paralyzed	-8861
▁perceived	-8862
▁performed	-8863
▁permitted	-8864
▁perpetual	-8865
▁personnel	-8866
▁poisoning	-8867
▁possesion	-8868
▁practical	-8869
▁practiced	-8870
▁premature	-8871
▁procedure	-8872
▁prohibits	-8873
▁prosecute	-8874
▁publicity	-8875
▁purchased	-8876
▁qualities	-8877
▁reasoning	-8878
▁rebellion	-8879
▁recording	-8880
▁regarding	-8881
▁regularly	-8882
▁regulated	-8883
▁rejection	-8884
▁remaining	-8885
▁reproduce	-8886
▁responses	-8887
▁retaining	-8888
▁returning	-8889
▁ridiculed	-8890
▁sacrifice	-8891
▁satisfied	-8892
▁schooling	-8893
▁seasoning	-8894
▁selection	-8895
▁semantics	-8896
▁sentences	-8897
▁separated	-8898
▁sociopath	-8899
▁spiritual	-8900
▁streaming	-8901
▁strongest	-8902
▁structure	-8903
▁suspended	-8904
▁uncertain	-8905
▁undermine	-8906
▁unrelated	-8907
▁unwilling	-8908
▁virtually	-8909
▁workplace	-8910
▁worthless	-8911
appropriate	-8912
ultaneously	-8913
▁Convinceme	-8914
▁Fatherless	-8915
▁Healthcare	-8916
▁Maharastra	-8917
▁Management	-8918
▁Television	-8919
▁accidental	-8920
▁accurately	-8921
▁alcoholism	-8922
▁algorithms	-8923
▁allegiance	-8924
▁applicants	-8925
▁atrocities	-8926
▁bankruptcy	-8927
▁biological	-8928
▁castration	-8929
▁centipedes	-8930
▁ceremonies	-8931
▁classified	-8932
▁classrooms	-8933
▁consenting	-8934
▁continuing	-8935
▁continuous	-8936
▁cosleeping	-8937
▁courthouse	-8938
▁curriculum	-8939
▁decriminal	-8940
▁deductions	-8941
▁disability	-8942
▁discharged	-8943
▁discredits	-8944
▁discussing	-8945
▁distribute	-8946
▁disturbing	-8947
▁electrical	-8948
▁eliminated	-8949
▁empathetic	-8950
▁enviroment	-8951
▁euphemisms	-8952
▁excitement	-8953
▁extensions	-8954
▁facilities	-8955
▁fascinated	-8956
▁foreigners	-8957
▁foundation	-8958
▁guidelines	-8959
▁healthcare	-8960
▁heartaches	-8961
▁highschool	-8962
▁hyprocracy	-8963
▁immigrants	-8964
▁impression	-8965
▁incentives	-8966
▁industries	-8967
▁infidelity	-8968
▁inflexible	-8969
▁inherently	-8970
▁initiating	-8971
▁intolerant	-8972
▁investment	-8973
▁irrelevant	-8974
▁legalizing	-8975
▁legitimacy	-8976
▁litigation	-8977
▁medication	-8978
▁membership	-8979
▁milestones	-8980
▁minorities	-8981
▁motivation	-8982
▁obligatory	-8983
▁observable	-8984
▁opposition	-8985
▁oppressive	-8986
▁originally	-8987
▁overcooked	-8988
▁overweight	-8989
▁parenthood	-8990
▁patriotism	-8991
▁peacefully	-8992
▁physically	-8993
▁popularity	-8994
▁positively	-8995
▁preference	-8996
▁pretending	-8997
▁procedures	-8998
▁productive	-8999
▁recognizes	-9000
▁recyclable	-9001
▁reputation	-9002
▁revelation	-9003
▁sabrejimmy	-9004
▁satisfying	-9005
▁separation	-9006
▁signatures	-9007
▁smartphone	-9008
▁soundtrack	-9009
▁stereotype	-9010
▁stretching	-9011
▁structures	-9012
▁subjective	-9013
▁sympathize	-9014
▁thereafter	-9015
▁traditions	-9016
▁transplant	-9017
▁unbearable	-9018
▁undermined	-9019
▁unemployed	-9020
▁unpleasant	-9021
▁upbringing	-9022
▁victimless	-9023
▁whatsoever	-9024
▁wheelchair	-9025
▁widespread	-9026
▁worthwhile	-9027
▁Association	-9028
▁Engineering	-9029
▁Individuals	-9030
▁Institution	-9031
▁Kickstarter	-9032
▁accordingly	-9033
▁advancement	-9034
▁adventurism	-9035
▁advertising	-9036
▁affirmation	-9037
▁association	-9038
▁automobiles	-9039
▁beautifully	-9040
▁camaraderie	-9041
▁certificate	-9042
▁combination	-9043
▁complaining	-9044
▁compression	-9045
▁conclusions	-9046
▁consumption	-9047
▁contentious	-9048
▁corporation	-9049
▁correctness	-9050
▁creatoinism	-9051
▁credibility	-9052
▁departments	-9053
▁destination	-9054
▁directional	-9055
▁drastically	-9056
▁earthquakes	-9057
▁educational	-9058
▁electricity	-9059
▁embarrassed	-9060
▁emergencies	-9061
▁exclusively	-9062
▁extensively	-9063
▁financially	-9064
▁handicapped	-9065
▁immigration	-9066
▁implemented	-9067
▁implication	-9068
▁importantly	-9069
▁inalienable	-9070
▁indifferent	-9071
▁inheritance	-9072
▁interaction	-9073
▁interpreted	-9074
▁legislation	-9075
▁maintenance	-9076
▁manufacture	-9077
▁misdemeanor	-9078
▁nationality	-9079
▁outsourcing	-9080
▁outstanding	-9081
▁predictions	-9082
▁predisposed	-9083
▁prerogative	-9084
▁problematic	-9085
▁proceedings	-9086
▁progressive	-9087
▁prohibiting	-9088
▁prosecution	-9089
▁protectable	-9090
▁protections	-9091
▁questioning	-9092
▁requirement	-9093
▁scholarship	-9094
▁selfishness	-9095
▁situational	-9096
▁spectacular	-9097
▁substantial	-9098
▁superiority	-9099
▁surrounding	-9100
▁temperature	-9101
▁theoretical	-9102
▁traumatized	-9103
▁unfortunate	-9104
▁Californians	-9105
▁Constitution	-9106
▁Libertarians	-9107
▁PRESIDENTIAL	-9108
▁accidentally	-9109
▁accomplished	-9110
▁acknowledged	-9111
▁administered	-9112
▁annihilating	-9113
▁associations	-9114
▁capabilities	-9115
▁circumstance	-9116
▁consequently	-9117
▁corporations	-9118
▁demonstrated	-9119
▁dramatically	-9120
▁economically	-9121
▁evolutionary	-9122
▁expectations	-9123
▁geographical	-9124
▁grandparents	-9125
▁guardianship	-9126
▁hypocritical	-9127
▁individually	-9128
▁installation	-9129
▁institutions	-9130
▁intimidation	-9131
▁investigated	-9132
▁jurisdiction	-9133
▁perpetrators	-9134
▁representing	-9135
▁satisfaction	-9136
▁successfully	-9137
▁transmission	-9138
▁unacceptable	-9139
▁unemployment	-9140
▁unprofession	-9141
▁vaccinations	-9142
▁Enlightenment	-9143
▁accommodating	-9144
▁beneficiaries	-9145
▁consideration	-9146
▁destabilizing	-9147
▁disadvantaged	-9148
▁establishment	-9149
▁fundamentally	-9150
▁imperfections	-9151
▁incarceration	-9152
▁individualist	-9153
▁individuality	-9154
▁intrinsically	-9155
▁justification	-9156
▁misunderstood	-9157
▁opportunities	-9158
▁participating	-9159
▁rationalizing	-9160
▁skateboarding	-9161
▁sophisticated	-9162
▁traditionally	-9163
▁unfortunately	-9164
▁constitutional	-9165
▁disappointment	-9166
▁implementation	-9167
▁infrastructure	-9168
▁interpretation	-9169
▁misinterpreted	-9170
▁photosynthesis	-9171
unconstitutional	-9172
▁electromagnetic	-9173
▁representatives	-9174
▁eg	-9175
▁nd	-9176
edly	-9177
ilst	-9178
▁ate	-9179
field	-9180
▁imag	-9181
▁thor	-9182
acters	-9183
ission	-9184
piracy	-9185
▁match	-9186
▁saved	-9187
▁basing	-9188
▁battle	-9189
▁larger	-9190
▁lately	-9191
▁limits	-9192
▁sister	-9193
▁whilst	-9194
oubtedly	-9195
▁trusted	-9196
▁weapons	-9197
protected	-9198
▁included	-9199
▁invested	-9200
▁policies	-9201
▁described	-9202
▁mentioned	-9203
▁officials	-9204
▁producing	-9205
▁terrorism	-9206
▁characters	-9207
▁commission	-9208
▁conspiracy	-9209
▁frequently	-9210
▁thoroughly	-9211
▁affirmative	-9212
▁communicate	-9213
▁undoubtedly	-9214
▁unprotected	-9215
▁increasingly	-9216
-15	-9217
-18	-9218
-80	-9219
.99	-9220
/50	-9221
180	-9222
25.	-9223
30'	-9224
34.	-9225
347	-9226
457	-9227
:1)	-9228
:45	-9229
CHI	-9230
CLU	-9231
EEN	-9232
FLA	-9233
GBT	-9234
IFA	-9235
IMO	-9236
Isn	-9237
LBT	-9238
TAK	-9239
TML	-9240
UNG	-9241
WOW	-9242
gdr	-9243
gfs	-9244
iws	-9245
jdr	-9246
rgu	-9247
viu	-9248
,800	-9249
-15'	-9250
-20'	-9251
-80)	-9252
.(3)	-9253
/201	-9254
/50.	-9255
100.	-9256
1017	-9257
ASIA	-9258
Anim	-9259
Argu	-9260
CCHI	-9261
Cuba	-9262
EGAL	-9263
FLAG	-9264
Gras	-9265
HICK	-9266
ISCO	-9267
Keep	-9268
NESS	-9269
OAST	-9270
ORML	-9271
PRIS	-9272
Play	-9273
SAND	-9274
STER	-9275
TAKE	-9276
TELY	-9277
TION	-9278
Teac	-9279
True	-9280
WEEN	-9281
aphr	-9282
blum	-9283
bono	-9284
flow	-9285
iasm	-9286
iffs	-9287
infl	-9288
jdrk	-9289
joke	-9290
nabb	-9291
orpo	-9292
ovan	-9293
prep	-9294
rmos	-9295
span	-9296
umni	-9297
usgs	-9298
zona	-9299
?3.	-9300
Fund	-9301
▁"24	-9302
▁.40	-9303
▁1/4	-9304
▁2:2	-9305
▁36,	-9306
▁40,	-9307
▁80'	-9308
▁Boa	-9309
▁DaV	-9310
▁EEE	-9311
▁ETA	-9312
▁FAM	-9313
▁FUN	-9314
▁INC	-9315
▁IND	-9316
▁ITT	-9317
▁NFL	-9318
▁Raj	-9319
▁SST	-9320
▁dyn	-9321
▁ftw	-9322
▁gym	-9323
▁lyr	-9324
▁zon	-9325
..."*	-9326
/2013	-9327
34.24	-9328
Being	-9329
Canad	-9330
Desec	-9331
EALLY	-9332
ECTED	-9333
ERVES	-9334
ICIAL	-9335
ITATE	-9336
ITTLE	-9337
LIANS	-9338
RSELF	-9339
SANDS	-9340
Scott	-9341
Video	-9342
Worse	-9343
Wrong	-9344
admis	-9345
agasc	-9346
agued	-9347
ajedy	-9348
algia	-9349
ascot	-9350
becca	-9351
break	-9352
cCain	-9353
cabin	-9354
clips	-9355
euros	-9356
evalu	-9357
glass	-9358
iavol	-9359
ilhel	-9360
kjdrk	-9361
ockey	-9362
plete	-9363
poena	-9364
quila	-9365
repan	-9366
rogen	-9367
ronym	-9368
sened	-9369
senic	-9370
small	-9371
taste	-9372
topia	-9373
uddha	-9374
uebec	-9375
urkey	-9376
uscan	-9377
works	-9378
▁1/4)	-9379
▁11-1	-9380
▁1999	-9381
▁1:45	-9382
▁2/3'	-9383
▁2015	-9384
▁7:30	-9385
▁8:30	-9386
▁Babe	-9387
▁Berl	-9388
▁Bern	-9389
▁Bull	-9390
▁COLL	-9391
▁COMP	-9392
▁CONN	-9393
▁Dais	-9394
▁Debt	-9395
▁EDIT	-9396
▁FAMI	-9397
▁FIFA	-9398
▁FOOD	-9399
!?!	-9400
?',	-9401
EVE	-9402
URT	-9403
Does	-9404
IEVE	-9405
OTTS	-9406
eems	-9407
imsy	-9408
laud	-9409
mmmm	-9410
okay	-9411
osrs	-9412
raud	-9413
rina	-9414
symm	-9415
ymor	-9416
yoza	-9417
▁GAY	-9418
▁OLD	-9419
▁RTS	-9420
▁SAY	-9421
▁yrs	-9422
COTTS	-9423
OTHER	-9424
afina	-9425
ategy	-9426
demon	-9427
hmmmm	-9428
scale	-9429
sugar	-9430
utiny	-9431
xteen	-9432
xymor	-9433
▁Fein	-9434
▁Flay	-9435
▁HATE	-9436
▁HTML	-9437
▁HURT	-9438
▁Haha	-9439
▁LGBT	-9440
▁MUST	-9441
▁Moon	-9442
▁NASC	-9443
▁Palp	-9444
▁Pete	-9445
▁RESU	-9446
▁SELF	-9447
▁UNPR	-9448
▁Viet	-9449
▁WORK	-9450
▁WORN	-9451
▁Ygdr	-9452
▁bugs	-9453
▁buzz	-9454
▁cafe	-9455
▁flex	-9456
▁folk	-9457
▁gaze	-9458
▁iPod	-9459
▁kenn	-9460
▁muds	-9461
▁nosy	-9462
▁owls	-9463
▁sarc	-9464
▁soca	-9465
▁wann	-9466
▁zeal	-9467
******	-9468
400.00	-9469
?!?!?!	-9470
ANASIA	-9471
Bleach	-9472
COTTSB	-9473
Democr	-9474
ECTION	-9475
ELIEVE	-9476
Living	-9477
NOCCHI	-9478
OASTED	-9479
Playst	-9480
URPRIS	-9481
USTICE	-9482
adilla	-9483
andyto	-9484
anilla	-9485
animal	-9486
astram	-9487
atersc	-9488
atrina	-9489
aulter	-9490
awarma	-9491
chrmos	-9492
cilman	-9493
crimes	-9494
ctrine	-9495
define	-9496
dinary	-9497
drogen	-9498
enesis	-9499
gpa	-9500
NATO	-9501
crab	-9502
▁HAP	-9503
▁HAV	-9504
▁PoA	-9505
putee	-9506
▁2002	-9507
▁HAPP	-9508
▁THEN	-9509
▁juxt	-9510
30,000	-9511
Around	-9512
ancies	-9513
asaden	-9514
attery	-9515
erials	-9516
family	-9517
figure	-9518
heimer	-9519
heming	-9520
ilhelm	-9521
ilized	-9522
imming	-9523
incere	-9524
incest	-9525
ineman	-9526
inemat	-9527
inials	-9528
ixteen	-9529
joined	-9530
licted	-9531
liders	-9532
lifted	-9533
ltered	-9534
mining	-9535
mokers	-9536
nachos	-9537
oirity	-9538
omsday	-9539
ophers	-9540
orilla	-9541
osedca	-9542
ottery	-9543
ppered	-9544
profit	-9545
ptiles	-9546
racial	-9547
rategy	-9548
rengen	-9549
rizona	-9550
scroll	-9551
shirts	-9552
stanti	-9553
stique	-9554
street	-9555
urbate	-9556
ussels	-9557
ussian	-9558
veiled	-9559
victim	-9560
winner	-9561
▁"24".	-9562
▁*"...	-9563
▁10-20	-9564
▁10/20	-9565
▁1000'	-9566
▁11-12	-9567
▁1930'	-9568
▁1973,	-9569
▁2013,	-9570
▁2015!	-9571
▁23-11	-9572
▁Aquin	-9573
▁Asada	-9574
▁Charl	-9575
▁Conqu	-9576
▁Contr	-9577
▁Enfor	-9578
▁Filet	-9579
▁Flash	-9580
▁Front	-9581
▁Guant	-9582
▁Harry	-9583
▁Hussi	-9584
▁IMMED	-9585
▁Illum	-9586
▁Incre	-9587
▁Judge	-9588
▁Karma	-9589
▁LOLTV	-9590
▁LOVES	-9591
▁Laden	-9592
▁Larry	-9593
▁Lucky	-9594
▁Medic	-9595
▁Nazis	-9596
▁PCsIf	-9597
▁Peach	-9598
▁Pepsi	-9599
37.	-9600
67.	-9601
ACT	-9602
DCT	-9603
IST	-9604
loe	-9605
SIST	-9606
elax	-9607
nsed	-9608
wait	-9609
▁24-	-9610
▁CPS	-9611
▁UPS	-9612
blume	-9613
choic	-9614
nicer	-9615
regon	-9616
uwait	-9617
valed	-9618
▁Bond	-9619
▁Elon	-9620
▁budd	-9621
▁fond	-9622
▁lids	-9623
!!!!!)	-9624
!)....	-9625
amming	-9626
keeper	-9627
valent	-9628
▁1837.	-9629
▁1967.	-9630
▁Prius	-9631
▁Relax	-9632
▁SHOLD	-9633
▁Salad	-9634
▁Small	-9635
▁Spicy	-9636
▁Tasty	-9637
▁Years	-9638
▁arise	-9639
▁ashes	-9640
▁audio	-9641
▁bored	-9642
▁brisk	-9643
▁budge	-9644
▁bumps	-9645
▁caffe	-9646
▁chief	-9647
▁cooks	-9648
▁cousc	-9649
▁dodge	-9650
▁dynam	-9651
▁escal	-9652
▁fancy	-9653
▁fiber	-9654
▁floor	-9655
▁furry	-9656
▁globe	-9657
▁grasp	-9658
▁gyoza	-9659
▁harry	-9660
▁hefty	-9661
▁heter	-9662
▁hoopl	-9663
▁idoli	-9664
▁jeram	-9665
▁juicy	-9666
▁juven	-9667
▁juvin	-9668
▁kevin	-9669
▁ledge	-9670
▁likli	-9671
▁lofty	-9672
▁malls	-9673
▁mitig	-9674
▁naive	-9675
▁obviu	-9676
▁onset	-9677
▁opium	-9678
▁pepsi	-9679
▁premi	-9680
▁pupil	-9681
▁recie	-9682
▁russi	-9683
▁rusty	-9684
▁scoop	-9685
▁scrub	-9686
▁semes	-9687
▁sewer	-9688
▁siren	-9689
▁skews	-9690
▁skirt	-9691
▁snobb	-9692
▁solja	-9693
▁spicy	-9694
▁splur	-9695
▁squad	-9696
▁straw	-9697
▁stunt	-9698
▁texts	-9699
Chr	-9700
Donn	-9701
ciev	-9702
misp	-9703
▁ISR	-9704
1000)	-9705
Chris	-9706
LLING	-9707
anley	-9708
contr	-9709
gradu	-9710
lemen	-9711
ossom	-9712
▁ISRO	-9713
▁PROM	-9714
▁Skin	-9715
▁akin	-9716
▁inev	-9717
▁palm	-9718
▁pull	-9719
▁task	-9720
000.00	-9721
Change	-9722
Choice	-9723
ILLING	-9724
aptain	-9725
attley	-9726
imizes	-9727
mascul	-9728
offend	-9729
piring	-9730
sticks	-9731
ushche	-9732
▁Crisp	-9733
▁Roman	-9734
▁Worse	-9735
▁Worth	-9736
▁kicks	-9737
▁modif	-9738
▁pagan	-9739
▁pricy	-9740
▁scarc	-9741
▁thief	-9742
▁threw	-9743
▁tools	-9744
▁umbil	-9745
▁unbal	-9746
▁utili	-9747
▁veiws	-9748
▁wests	-9749
6000.00	-9750
70,000?	-9751
800,000	-9752
Animals	-9753
Another	-9754
Captain	-9755
Donnell	-9756
Finally	-9757
FireFox	-9758
Hillary	-9759
ICKNESS	-9760
ISCOVER	-9761
OTECTED	-9762
OUSANDS	-9763
SISTENT	-9764
Sublime	-9765
Through	-9766
abbings	-9767
acebook	-9768
agascar	-9769
aliable	-9770
amorous	-9771
archers	-9772
asadena	-9773
astrami	-9774
ativity	-9775
attails	-9776
aunting	-9777
becouse	-9778
believe	-9779
cabinet	-9780
conciev	-9781
creased	-9782
drafted	-9783
emakers	-9784
emantic	-9785
eminist	-9786
estrong	-9787
finally	-9788
finance	-9789
friends	-9790
gorized	-9791
impress	-9792
ipulate	-9793
iscated	-9794
knowing	-9795
looking	-9796
nership	-9797
obbying	-9798
olidays	-9799
dogs	-9800
glas	-9801
haul	-9802
▁12-	-9803
▁Art	-9804
hairs	-9805
pairs	-9806
plays	-9807
shell	-9808
▁nuer	-9809
▁vert	-9810
enator	-9811
ooping	-9812
ouglas	-9813
ubator	-9814
▁Death	-9815
▁Scary	-9816
▁Sorry	-9817
▁Swear	-9818
▁Trust	-9819
▁doctr	-9820
▁hping	-9821
▁layer	-9822
▁nucle	-9823
▁nuits	-9824
▁vaccu	-9825
arrator	-9826
ibalism	-9827
ivizing	-9828
manager	-9829
olished	-9830
olistic	-9831
olutley	-9832
onizing	-9833
ooooooo	-9834
ophiles	-9835
opsicle	-9836
pirical	-9837
pletely	-9838
preting	-9839
quiring	-9840
reinfor	-9841
repairs	-9842
request	-9843
respass	-9844
ropolit	-9845
russels	-9846
someday	-9847
stalgia	-9848
tential	-9849
udgment	-9850
ullness	-9851
vesting	-9852
waiting	-9853
watersc	-9854
xymoron	-9855
zheimer	-9856
▁30.00,	-9857
▁60-80)	-9858
▁ANYONE	-9859
▁Adding	-9860
▁Africa	-9861
▁Berlin	-9862
▁Blairs	-9863
▁Burger	-9864
▁Claims	-9865
▁Commer	-9866
▁Crimes	-9867
▁Crisis	-9868
▁Crispy	-9869
▁Democr	-9870
▁Donald	-9871
▁Eighth	-9872
▁FAMILY	-9873
▁Fairly	-9874
▁Filled	-9875
▁Galaxy	-9876
▁Gaming	-9877
▁HAHAHA	-9878
▁Hardly	-9879
▁Houses	-9880
▁Leagle	-9881
▁Living	-9882
▁MOTHER	-9883
▁Malays	-9884
▁Misuse	-9885
▁NASCAR	-9886
▁Number	-9887
▁Oregon	-9888
▁PROMOT	-9889
▁Polyam	-9890
▁Remove	-9891
▁Reserv	-9892
▁Sherie	-9893
▁Spirit	-9894
▁Triple	-9895
▁Victim	-9896
▁Westbr	-9897
▁Winter	-9898
▁Wishes	-9899
6.4	-9900
ABS	-9901
ACK	-9902
EMA	-9903
FMA	-9904
1100	-9905
6.49	-9906
NTAR	-9907
belt	-9908
nwer	-9909
ohan	-9910
▁42)	-9911
▁Leg	-9912
▁PhD	-9913
11001	-9914
NTARY	-9915
pover	-9916
ribly	-9917
ulgar	-9918
▁160'	-9919
▁2011	-9920
▁BACK	-9921
▁FEMA	-9922
▁TABS	-9923
▁ackn	-9924
▁navy	-9925
▁pizz	-9926
▁senc	-9927
ctonic	-9928
integr	-9929
mercil	-9930
▁Hamur	-9931
▁Lohan	-9932
▁toolt	-9933
▁undoc	-9934
▁unpet	-9935
LUNTARY	-9936
Parents	-9937
achover	-9938
consist	-9939
flowing	-9940
poverty	-9941
▁Bleach	-9942
▁Carter	-9943
▁Wonder	-9944
▁acknol	-9945
▁adapts	-9946
▁adjust	-9947
▁aggreg	-9948
▁americ	-9949
▁amoral	-9950
▁angles	-9951
▁apathy	-9952
▁aslong	-9953
▁asnwer	-9954
▁astron	-9955
▁brothe	-9956
▁bumper	-9957
▁bypass	-9958
▁canada	-9959
▁caseNo	-9960
▁chatng	-9961
▁chipot	-9962
▁closer	-9963
▁closes	-9964
▁convey	-9965
▁corpus	-9966
▁crazed	-9967
▁curios	-9968
▁despic	-9969
▁diavol	-9970
▁dosage	-9971
▁drowns	-9972
▁enrich	-9973
▁envoir	-9974
▁escort	-9975
▁especi	-9976
▁eventh	-9977
▁execut	-9978
▁extras	-9979
▁exwife	-9980
▁favour	-9981
▁firmly	-9982
▁frustr	-9983
▁fueled	-9984
▁galaxy	-9985
▁gloves	-9986
▁golden	-9987
▁hiking	-9988
▁hiways	-9989
▁hockey	-9990
▁hoodie	-9991
▁hoolig	-9992
▁hunger	-9993
▁immune	-9994
▁insurg	-9995
▁jacket	-9996
▁jurors	-9997
▁juxtap	-9998
▁landsl	-9999
,10	-10000
103	-10001
IND	-10002
PID	-10003
SID	-10004
php	-10005
yea	-10006
9,10	-10007
EVER	-10008
MIND	-10009
clos	-10010
izno	-10011
olph	-10012
phia	-10013
phir	-10014
unno	-10015
▁Bye	-10016
▁Eye	-10017
▁mph	-10018
EMIND	-10019
EVERY	-10020
goers	-10021
going	-10022
hired	-10023
queer	-10024
uizno	-10025
▁Pran	-10026
▁SSID	-10027
▁bias	-10028
▁emph	-10029
▁laps	-10030
▁snap	-10031
Speech	-10032
clical	-10033
culate	-10034
leshed	-10035
noiter	-10036
quered	-10037
rehens	-10038
▁29,10	-10039
▁Dolph	-10040
▁False	-10041
▁Proof	-10042
▁dunno	-10043
▁govts	-10044
▁lemon	-10045
▁mango	-10046
▁trips	-10047
despite	-10048
iblings	-10049
morphia	-10050
phiroth	-10051
▁BETTER	-10052
▁Listed	-10053
▁Orwell	-10054
▁Pranab	-10055
▁Prince	-10056
▁REMIND	-10057
▁STUPID	-10058
▁angers	-10059
▁biomet	-10060
▁cheque	-10061
▁emphas	-10062
▁faults	-10063
▁forego	-10064
▁layers	-10065
▁layman	-10066
▁livest	-10067
▁margar	-10068
▁mascot	-10069
▁medioc	-10070
▁merger	-10071
▁merits	-10072
▁microb	-10073
▁mystic	-10074
▁nobles	-10075
▁nuance	-10076
▁offset	-10077
▁parano	-10078
▁pituit	-10079
▁pizzas	-10080
▁poetry	-10081
▁prague	-10082
▁presti	-10083
▁prides	-10084
▁psychi	-10085
▁psycho	-10086
▁purist	-10087
▁puzzle	-10088
▁quitcl	-10089
▁reveal	-10090
▁ridden	-10091
▁rifles	-10092
▁rowing	-10093
▁ruiner	-10094
▁salmon	-10095
▁sealed	-10096
▁sedate	-10097
▁sensit	-10098
▁shapes	-10099
addy	-10100
raya	-10101
rots	-10102
▁180	-10103
▁50'	-10104
▁Spo	-10105
Court	-10106
acify	-10107
daddy	-10108
hetic	-10109
▁Clan	-10110
▁Mean	-10111
▁edge	-10112
???!!!	-10113
alsify	-10114
ceeded	-10115
rayaan	-10116
rocket	-10117
▁Manip	-10118
▁Sport	-10119
▁athie	-10120
▁bedro	-10121
▁booze	-10122
▁draws	-10123
▁obsur	-10124
▁riots	-10125
▁spark	-10126
address	-10127
riendly	-10128
▁Cheese	-10129
▁Mozill	-10130
▁Spoken	-10131
▁aliens	-10132
▁cereal	-10133
▁desean	-10134
▁exceed	-10135
▁flimsy	-10136
▁league	-10137
▁lifere	-10138
▁machin	-10139
▁obsurd	-10140
▁pacify	-10141
▁plight	-10142
▁secual	-10143
▁shifts	-10144
▁shreds	-10145
▁sneaks	-10146
▁sniffs	-10147
▁snitch	-10148
▁soccer	-10149
▁socioh	-10150
▁solely	-10151
▁soothe	-10152
▁sprink	-10153
▁sprout	-10154
▁stimul	-10155
▁stocks	-10156
▁storms	-10157
▁sucked	-10158
▁sugget	-10159
▁summon	-10160
▁survey	-10161
▁tattoo	-10162
▁temple	-10163
▁thirty	-10164
▁trench	-10165
▁tribes	-10166
▁tribun	-10167
▁tuscan	-10168
▁uncleE	-10169
▁uncles	-10170
▁undead	-10171
▁unprep	-10172
▁untrue	-10173
▁upkeep	-10174
▁upload	-10175
▁valued	-10176
▁ventil	-10177
▁verify	-10178
▁versus	-10179
▁vishvg	-10180
▁wallet	-10181
▁wannna	-10182
▁weighs	-10183
▁wooden	-10184
▁wouold	-10185
▁zoning	-10186
AllWomen	-10187
Congress	-10188
Creation	-10189
EVERYONE	-10190
Feminist	-10191
Fighting	-10192
ISCOVERS	-10193
Judgment	-10194
OLUNTARY	-10195
Shopping	-10196
UICKNESS	-10197
addicted	-10198
ammatory	-10199
/10	-10200
4.5	-10201
ASS	-10202
VIC	-10203
8/10	-10204
ASSI	-10205
EDOM	-10206
VICT	-10207
bani	-10208
cogn	-10209
phab	-10210
▁WOM	-10211
48/10	-10212
EEDOM	-10213
Karen	-10214
alend	-10215
atsby	-10216
ideoL	-10217
named	-10218
preme	-10219
tiest	-10220
▁Cran	-10221
▁Impr	-10222
▁Sinn	-10223
▁Twit	-10224
▁dump	-10225
▁nude	-10226
▁rubb	-10227
ASSIVE	-10228
REEDOM	-10229
VICTED	-10230
cogniz	-10231
denial	-10232
ifiers	-10233
omping	-10234
phabet	-10235
videoL	-10236
▁WOMAN	-10237
▁boobs	-10238
▁cabin	-10239
▁hurts	-10240
Already	-10241
however	-10242
supreme	-10243
witness	-10244
▁Cranst	-10245
▁Gatsby	-10246
▁Stones	-10247
▁calend	-10248
▁obsess	-10249
▁predom	-10250
▁settle	-10251
▁smarty	-10252
▁zealot	-10253
andalism	-10254
apointed	-10255
arsimony	-10256
artender	-10257
attached	-10258
avelling	-10259
breather	-10260
business	-10261
centered	-10262
changing	-10263
chemical	-10264
chipping	-10265
choicers	-10266
cklessly	-10267
closures	-10268
complete	-10269
ctifying	-10270
dwelling	-10271
ervience	-10272
existing	-10273
fighting	-10274
fireThis	-10275
friendsj	-10276
fullness	-10277
gardless	-10278
herishes	-10279
hospital	-10280
hrushche	-10281
icesnsed	-10282
incurred	-10283
inforces	-10284
messinis	-10285
olerance	-10286
opaganda	-10287
orpoises	-10288
pologies	-10289
pressive	-10290
religion	-10291
roducing	-10292
siatrist	-10293
spanking	-10294
stranger	-10295
strating	-10296
sturbate	-10297
thankyou	-10298
uishable	-10299
ITOR	-10300
ORON	-10301
bury	-10302
prox	-10303
▁LOB	-10304
amole	-10305
arker	-10306
arrow	-10307
chief	-10308
hands	-10309
laced	-10310
oungh	-10311
party	-10312
▁Crow	-10313
▁Grow	-10314
▁noun	-10315
▁redo	-10316
▁seaf	-10317
▁sins	-10318
ITORED	-10319
ORONIC	-10320
Sounds	-10321
commer	-10322
letton	-10323
worked	-10324
▁Achie	-10325
▁Neigh	-10326
▁aprox	-10327
▁ethic	-10328
▁feral	-10329
▁loser	-10330
▁shuff	-10331
▁twins	-10332
▁unsec	-10333
arrowly	-10334
grounds	-10335
iloring	-10336
terbury	-10337
▁Expose	-10338
▁brands	-10339
▁darker	-10340
▁eoungh	-10341
▁losses	-10342
ONITORED	-10343
handsome	-10344
ignoring	-10345
iversify	-10346
keletton	-10347
ungement	-10348
valuable	-10349
watching	-10350
xication	-10351
▁(!!!!!)	-10352
▁Actions	-10353
▁Aquinas	-10354
▁Arabian	-10355
▁Bernard	-10356
▁Challen	-10357
▁Cheesec	-10358
▁Collect	-10359
▁Contain	-10360
▁DaVinci	-10361
▁Debates	-10362
▁Develop	-10363
▁Donovan	-10364
▁Enforce	-10365
▁FREEDOM	-10366
▁Finally	-10367
▁FireFox	-10368
▁Georgia	-10369
▁Glaring	-10370
▁Granted	-10371
▁Growing	-10372
▁Guantan	-10373
▁Hearing	-10374
▁Honesty	-10375
▁Jackson	-10376
▁Journal	-10377
▁KILLING	-10378
▁Katrina	-10379
▁Keeping	-10380
▁Kingdom	-10381
▁LOBSTER	-10382
▁Legally	-10383
▁Liberty	-10384
▁Luckily	-10385
▁MORONIC	-10386
▁Minimum	-10387
▁Neurons	-10388
▁Ordered	-10389
▁Partial	-10390
▁ROASTED	-10391
▁Rolling	-10392
▁Russian	-10393
▁Saddams	-10394
▁Setting	-10395
▁Slander	-10396
▁Sliders	-10397
▁Spanish	-10398
▁Stanley	-10399
ANI	-10400
UTH	-10401
GANI	-10402
atta	-10403
▁MAN	-10404
▁SAN	-10405
Color	-10406
cency	-10407
hatta	-10408
loved	-10409
oetus	-10410
ppery	-10411
▁EUTH	-10412
▁SANE	-10413
▁auto	-10414
▁horr	-10415
ORGANI	-10416
concer	-10417
disapp	-10418
foetus	-10419
nature	-10420
office	-10421
outube	-10422
suffer	-10423
▁Flies	-10424
▁fraud	-10425
▁horre	-10426
▁horse	-10427
▁muddy	-10428
▁pasta	-10429
▁tends	-10430
Youtube	-10431
abhatta	-10432
alantly	-10433
lippery	-10434
ltimate	-10435
orseful	-10436
▁Facial	-10437
▁Nature	-10438
▁agrees	-10439
▁cleanl	-10440
▁decoys	-10441
▁holier	-10442
▁joking	-10443
▁mandit	-10444
▁nerves	-10445
▁relies	-10446
Colorado	-10447
Teachers	-10448
ailingly	-10449
birthday	-10450
concerns	-10451
istature	-10452
yabhatta	-10453
▁Hitting	-10454
▁Takings	-10455
▁Thanksg	-10456
▁Through	-10457
▁Twitter	-10458
▁abusing	-10459
▁adamant	-10460
▁adulter	-10461
▁afterno	-10462
▁airflow	-10463
▁altered	-10464
▁america	-10465
▁amputee	-10466
▁annoyed	-10467
▁anytime	-10468
▁appease	-10469
▁applaud	-10470
▁arsenal	-10471
▁astrong	-10472
▁athiest	-10473
▁atleast	-10474
▁attests	-10475
▁barring	-10476
▁beaches	-10477
▁blatant	-10478
▁blocked	-10479
▁boycott	-10480
▁breadth	-10481
▁brisket	-10482
▁buckets	-10483
▁buddies	-10484
▁bullied	-10485
▁bulling	-10486
▁bussing	-10487
▁caloric	-10488
▁calorie	-10489
▁carrots	-10490
▁catastr	-10491
▁centers	-10492
▁cinemat	-10493
▁cleaner	-10494
▁cleanse	-10495
▁clinics	-10496
▁clinton	-10497
▁compels	-10498
▁condoms	-10499
ANT	-10500
Inc	-10501
NTR	-10502
One	-10503
neo	-10504
▁97	-10505
▁99	-10506
ANTS	-10507
Huge	-10508
NTRY	-10509
ayne	-10510
raze	-10511
ummy	-10512
▁(99	-10513
▁GET	-10514
▁WAT	-10515
▁aka	-10516
60.00	-10517
Craze	-10518
Layne	-10519
arene	-10520
deeds	-10521
elery	-10522
neath	-10523
raped	-10524
▁Teen	-10525
▁Term	-10526
▁dull	-10527
OUNTRY	-10528
magine	-10529
▁Notmy	-10530
▁Terma	-10531
▁WANTS	-10532
▁WATER	-10533
▁combo	-10534
▁feeds	-10535
▁limew	-10536
▁mommy	-10537
▁pills	-10538
▁ruler	-10539
▁scrap	-10540
▁windy	-10541
▁yummy	-10542
Imagine	-10543
arCraze	-10544
fortune	-10545
▁Humank	-10546
▁Notmym	-10547
▁celery	-10548
▁earned	-10549
▁flying	-10550
▁jersey	-10551
▁spills	-10552
▁unfath	-10553
▁unreal	-10554
▁urging	-10555
Incident	-10556
Theology	-10557
accident	-10558
▁112,000	-10559
▁COUNTRY	-10560
▁congrad	-10561
▁congreg	-10562
▁cookies	-10563
▁cooking	-10564
▁cousins	-10565
▁credits	-10566
▁criters	-10567
▁crooked	-10568
▁crossed	-10569
▁darkest	-10570
▁decoded	-10571
▁defeats	-10572
▁defiant	-10573
▁defraud	-10574
▁denotes	-10575
▁descrim	-10576
▁desired	-10577
▁diavola	-10578
▁discont	-10579
▁disobey	-10580
▁disrupt	-10581
▁dissent	-10582
▁donkeys	-10583
▁dumbass	-10584
▁dumping	-10585
▁earners	-10586
▁earthly	-10587
▁enhance	-10588
▁enthusi	-10589
▁essence	-10590
▁eternal	-10591
▁eugenic	-10592
▁explode	-10593
▁extream	-10594
▁falsify	-10595
▁feature	-10596
▁flashes	-10597
▁fooling	-10598
▁freakin	-10599
1.)	-10600
20'	-10601
CAT	-10602
ECK	-10603
▁6.	-10604
▁8-	-10605
UCAT	-10606
ddie	-10607
▁(20	-10608
▁MAT	-10609
▁irr	-10610
..1.)	-10611
adows	-10612
amsay	-10613
dding	-10614
domen	-10615
olumb	-10616
orpor	-10617
wires	-10618
▁HECK	-10619
▁Lenn	-10620
▁calc	-10621
amentI	-10622
ergart	-10623
umbent	-10624
umbing	-10625
urring	-10626
uslims	-10627
▁1920'	-10628
▁blows	-10629
▁chime	-10630
▁clubs	-10631
▁doggy	-10632
▁exhib	-10633
▁hosts	-10634
▁seams	-10635
▁stale	-10636
▁succe	-10637
▁tires	-10638
UCATION	-10639
arassal	-10640
asingly	-10641
iatives	-10642
inatory	-10643
muslims	-10644
obeying	-10645
olumbus	-10646
shadows	-10647
▁Arabia	-10648
▁Lennon	-10649
▁MATTER	-10650
▁Pledge	-10651
▁Ramsay	-10652
▁aggree	-10653
▁circum	-10654
▁fatter	-10655
▁gained	-10656
▁regime	-10657
▁sandal	-10658
▁scenes	-10659
▁steams	-10660
▁weeded	-10661
ercially	-10662
ergarten	-10663
orporate	-10664
▁abdomen	-10665
▁athelet	-10666
▁chasing	-10667
▁checked	-10668
▁entails	-10669
▁forgets	-10670
▁freezer	-10671
▁gaining	-10672
▁glutiny	-10673
▁grabbed	-10674
▁grandma	-10675
▁heretic	-10676
▁horrend	-10677
▁inadmis	-10678
▁inequal	-10679
▁intends	-10680
▁isolate	-10681
▁jackpot	-10682
▁jeramia	-10683
▁joining	-10684
▁journey	-10685
▁jumping	-10686
▁laptops	-10687
▁largely	-10688
▁letters	-10689
▁lineman	-10690
▁lunches	-10691
▁masterp	-10692
▁museums	-10693
▁newborn	-10694
▁nodding	-10695
▁nomadic	-10696
▁nowaday	-10697
▁nuanced	-10698
▁nuclear	-10699
ITH	-10700
PIT	-10701
PITE	-10702
cumb	-10703
irds	-10704
▁Atl	-10705
,000'	-10706
,000,	-10707
20!!!	-10708
6,000	-10709
ITHOU	-10710
dging	-10711
engen	-10712
handy	-10713
index	-10714
omena	-10715
payer	-10716
▁Atom	-10717
▁Lock	-10718
▁Orle	-10719
▁facr	-10720
46,000	-10721
ITHOUT	-10722
ederal	-10723
odging	-10724
osling	-10725
▁Atlas	-10726
▁avert	-10727
▁birds	-10728
▁burns	-10729
▁sicko	-10730
20,000,	-10731
assault	-10732
borhood	-10733
evances	-10734
leading	-10735
owledge	-10736
ridging	-10737
surance	-10738
▁1,000'	-10739
▁9/112.	-10740
▁Incumb	-10741
▁Server	-10742
▁Tengen	-10743
▁accomp	-10744
▁facial	-10745
▁favors	-10746
▁feared	-10747
▁mistak	-10748
▁mocked	-10749
▁orient	-10750
▁peopel	-10751
▁sunday	-10752
▁todays	-10753
▁widely	-10754
nowledge	-10755
▁DESPITE	-10756
▁Federal	-10757
▁Gosling	-10758
▁Orleans	-10759
▁WITHOUT	-10760
▁averted	-10761
▁blowing	-10762
▁bullets	-10763
▁frontal	-10764
▁lodging	-10765
▁monthly	-10766
▁nuerons	-10767
▁nuitsen	-10768
▁obliged	-10769
▁offends	-10770
▁organiz	-10771
▁outfits	-10772
▁outlets	-10773
▁outlive	-10774
▁overtax	-10775
▁painted	-10776
▁paraphr	-10777
▁periods	-10778
▁permiss	-10779
▁persist	-10780
▁phoenix	-10781
▁picking	-10782
▁poisons	-10783
▁pollute	-10784
▁poluted	-10785
▁popping	-10786
▁pouring	-10787
▁predict	-10788
▁prepost	-10789
▁presupp	-10790
▁pretext	-10791
▁princip	-10792
▁printed	-10793
▁promiss	-10794
▁rebirth	-10795
▁recieve	-10796
▁reduces	-10797
▁reenter	-10798
▁refills	-10799
10/	-10800
▁7,	-10801
▁78	-10802
Prop	-10803
THER	-10804
Toby	-10805
drop	-10806
ropy	-10807
▁DUM	-10808
▁Ott	-10809
Props	-10810
eleve	-10811
nitch	-10812
▁ACLU	-10813
▁DUMB	-10814
▁Doll	-10815
▁devi	-10816
▁veto	-10817
Snitch	-10818
likely	-10819
ostrom	-10820
uoting	-10821
▁7....	-10822
▁Field	-10823
▁OTHER	-10824
▁chrom	-10825
▁colon	-10826
▁heads	-10827
▁hotel	-10828
▁misin	-10829
▁pitch	-10830
ilfully	-10831
isexual	-10832
ussions	-10833
veryman	-10834
▁Cannot	-10835
▁Dollar	-10836
▁custod	-10837
▁excuss	-10838
▁filler	-10839
▁headed	-10840
▁headqu	-10841
▁neglet	-10842
▁neglig	-10843
▁perman	-10844
▁shield	-10845
▁tested	-10846
avesdrop	-10847
cussions	-10848
everyman	-10849
unlikely	-10850
uspected	-10851
▁Bostrom	-10852
▁Chances	-10853
▁Ottoman	-10854
▁Wilhelm	-10855
▁advised	-10856
▁chromos	-10857
▁designs	-10858
▁deviate	-10859
▁dislike	-10860
▁entropy	-10861
▁failing	-10862
▁forgive	-10863
▁guessed	-10864
▁pitched	-10865
▁replied	-10866
▁revenoo	-10867
▁rewards	-10868
▁richier	-10869
▁robbers	-10870
▁roughly	-10871
▁savings	-10872
▁scoring	-10873
▁seafood	-10874
▁secured	-10875
▁sensory	-10876
▁sexWhat	-10877
▁shocked	-10878
▁shooter	-10879
▁sickens	-10880
▁sinking	-10881
▁skaters	-10882
▁soldier	-10883
▁someday	-10884
▁somkers	-10885
▁sorting	-10886
▁spewing	-10887
▁splurge	-10888
▁sprouts	-10889
▁staging	-10890
▁starter	-10891
▁stemmed	-10892
▁sterile	-10893
▁stimual	-10894
▁stocked	-10895
▁storage	-10896
▁sublime	-10897
▁surpass	-10898
▁suscept	-10899
DON	-10900
ONG	-10901
shr	-10902
RONG	-10903
comm	-10904
lete	-10905
pris	-10906
sama	-10907
▁MED	-10908
▁PEI	-10909
▁Phy	-10910
sized	-10911
touch	-10912
▁MEDC	-10913
▁glam	-10914
▁idol	-10915
▁jumb	-10916
▁mumb	-10917
▁park	-10918
▁pets	-10919
▁rama	-10920
▁turt	-10921
Muslim	-10922
atured	-10923
create	-10924
murder	-10925
ributr	-10926
should	-10927
urpris	-10928
▁Citiz	-10929
▁WRONG	-10930
▁barre	-10931
▁bites	-10932
▁encod	-10933
▁energ	-10934
▁enshr	-10935
▁falls	-10936
▁glass	-10937
▁jumbo	-10938
▁meets	-10939
▁osama	-10940
▁parag	-10941
!!!!!!!	-10942
abiding	-10943
balance	-10944
commits	-10945
▁During	-10946
▁delete	-10947
▁fallen	-10948
▁futher	-10949
▁futile	-10950
▁outlet	-10951
▁static	-10952
▁turtle	-10953
▁wastes	-10954
featured	-10955
hibition	-10956
ironment	-10957
istribut	-10958
therwise	-10959
▁Citizen	-10960
▁Surpris	-10961
▁actualy	-10962
▁barrels	-10963
▁barrist	-10964
▁confirm	-10965
▁distort	-10966
▁distric	-10967
▁falling	-10968
▁mumbles	-10969
▁reevalu	-10970
▁sniffer	-10971
▁tending	-10972
▁themIts	-10973
▁thisNot	-10974
▁toasted	-10975
▁tonight	-10976
▁toolbar	-10977
▁tooltip	-10978
▁topping	-10979
▁touched	-10980
▁touches	-10981
▁tourism	-10982
▁traitor	-10983
▁tricked	-10984
▁unaware	-10985
▁unclear	-10986
▁undeser	-10987
▁undiscl	-10988
▁unheard	-10989
▁unified	-10990
▁utility	-10991
▁utilize	-10992
▁vanilla	-10993
▁vendors	-10994
▁venting	-10995
▁venture	-10996
▁vishvam	-10997
▁visible	-10998
▁warning	-10999
EST	-11000
eek	-11001
iji	-11002
jee	-11003
Seek	-11004
cube	-11005
echn	-11006
oobs	-11007
uana	-11008
▁10,	-11009
▁109	-11010
▁3.0	-11011
▁600	-11012
▁Lee	-11013
▁MTV	-11014
▁lbs	-11015
Techn	-11016
avana	-11017
beats	-11018
boobs	-11019
ijack	-11020
juana	-11021
otony	-11022
panic	-11023
truck	-11024
▁BEST	-11025
▁Fiji	-11026
▁Sony	-11027
▁avid	-11028
▁naut	-11029
▁occa	-11030
▁pean	-11031
▁pedi	-11032
▁ribs	-11033
herjee	-11034
island	-11035
ittata	-11036
onosrs	-11037
uicide	-11038
versey	-11039
▁Apart	-11040
▁affin	-11041
▁chats	-11042
▁coats	-11043
▁dream	-11044
▁herbs	-11045
▁merci	-11046
▁mercy	-11047
▁shock	-11048
▁swell	-11049
Suicide	-11050
brother	-11051
ijacked	-11052
imistic	-11053
kherjee	-11054
sequent	-11055
unistic	-11056
▁FELONI	-11057
▁Racial	-11058
▁camera	-11059
▁copied	-11060
▁housew	-11061
▁influx	-11062
▁mixing	-11063
▁peanut	-11064
▁pediat	-11065
▁senten	-11066
▁sicken	-11067
▁stalls	-11068
▁treaty	-11069
▁varies	-11070
▁winner	-11071
issistic	-11072
ukherjee	-11073
▁Arizona	-11074
▁Iranian	-11075
▁Teavana	-11076
▁environ	-11077
▁peanuts	-11078
▁refered	-11079
▁suffice	-11080
▁teached	-11081
▁weakens	-11082
▁weighed	-11083
▁wingers	-11084
▁zealots	-11085
Canadians	-11086
Comparing	-11087
DISCOVERS	-11088
Democrats	-11089
according	-11090
acemakers	-11091
actresses	-11092
afflement	-11093
andidates	-11094
anitation	-11095
arization	-11096
arranging	-11097
arterback	-11098
arvesting	-11099
exc	-11100
ggo	-11101
Kurt	-11102
chah	-11103
engg	-11104
etto	-11105
ioen	-11106
izio	-11107
rica	-11108
ueso	-11109
zler	-11110
▁Dec	-11111
▁ITS	-11112
▁Rec	-11113
▁Shr	-11114
▁nah	-11115
UNGER	-11116
drink	-11117
ecces	-11118
excus	-11119
gging	-11120
ghbor	-11121
hetto	-11122
ioeng	-11123
▁Pric	-11124
▁Work	-11125
▁damp	-11126
▁fisc	-11127
▁lows	-11128
▁roof	-11129
chahal	-11130
emengg	-11131
izzler	-11132
necces	-11133
ricide	-11134
ricult	-11135
▁Allah	-11136
▁Roald	-11137
▁Shrub	-11138
▁karma	-11139
▁lowas	-11140
▁unita	-11141
college	-11142
ieghbor	-11143
ijuanna	-11144
ricting	-11145
▁Border	-11146
▁COLLIS	-11147
▁HUNGER	-11148
▁Inizio	-11149
▁Lioeng	-11150
▁Within	-11151
▁africa	-11152
▁excers	-11153
▁fiscal	-11154
▁ghetto	-11155
▁hunker	-11156
▁idoliz	-11157
▁lieing	-11158
▁payche	-11159
▁preggo	-11160
▁square	-11161
drinking	-11162
esadilla	-11163
ractical	-11164
sanctity	-11165
▁BETWEEN	-11166
▁College	-11167
▁Decades	-11168
▁Discuss	-11169
▁Pricing	-11170
▁Sizzler	-11171
▁Temengg	-11172
▁Workers	-11173
▁airways	-11174
▁arrests	-11175
▁begging	-11176
▁damning	-11177
▁destiny	-11178
▁hanging	-11179
▁inexcus	-11180
▁speaker	-11181
auranteed	-11182
automatic	-11183
awareness	-11184
cinations	-11185
classical	-11186
cological	-11187
continent	-11188
criptions	-11189
disappear	-11190
diversify	-11191
egardless	-11192
elligence	-11193
emocratic	-11194
ervitives	-11195
hopefully	-11196
icipating	-11197
implement	-11198
inflation	-11199
New	-11200
new	-11201
▁71	-11202
▁??	-11203
ewel	-11204
otte	-11205
▁Ann	-11206
▁THe	-11207
Maybe	-11208
arbar	-11209
osses	-11210
ulses	-11211
urban	-11212
value	-11213
▁Ange	-11214
▁begs	-11215
▁diox	-11216
▁orph	-11217
▁swap	-11218
0,000,	-11219
arbara	-11220
ascent	-11221
ewelry	-11222
ounced	-11223
pastic	-11224
▁Anand	-11225
▁Angel	-11226
▁Seems	-11227
▁godly	-11228
▁steam	-11229
50,000,	-11230
formers	-11231
spastic	-11232
vention	-11233
ventive	-11234
▁Marily	-11235
▁Marine	-11236
▁behave	-11237
▁bosses	-11238
▁chased	-11239
▁cultiv	-11240
▁divers	-11241
▁havent	-11242
▁holder	-11243
▁locals	-11244
▁misery	-11245
▁onesel	-11246
▁orphan	-11247
▁pilfer	-11248
▁singed	-11249
▁squeez	-11250
250,000,	-11251
Facebook	-11252
OOOOOOOO	-11253
▁Barbara	-11254
▁Marilyn	-11255
▁artists	-11256
▁bounced	-11257
▁condone	-11258
▁cricket	-11259
▁cultist	-11260
▁dioxide	-11261
▁genetic	-11262
▁jewelry	-11263
▁languag	-11264
▁mandort	-11265
▁nascent	-11266
▁oneself	-11267
▁painful	-11268
▁parking	-11269
▁singles	-11270
inspiring	-11271
intensive	-11272
interpret	-11273
ivestrong	-11274
kepticism	-11275
lewatersc	-11276
lusionary	-11277
neccesary	-11278
noitering	-11279
omination	-11280
omosexual	-11281
onsmokers	-11282
opolistic	-11283
orization	-11284
reatening	-11285
rehensive	-11286
ributable	-11287
ricultors	-11288
rightness	-11289
rocketing	-11290
ropolitan	-11291
scrollers	-11292
skeletton	-11293
socialist	-11294
sometimes	-11295
suspected	-11296
tolerance	-11297
validates	-11298
videoList	-11299
-70	-11300
BER	-11301
ERS	-11302
▁47	-11303
▁49	-11304
BERT	-11305
cann	-11306
▁494	-11307
▁DHS	-11308
BERTY	-11309
ERSON	-11310
IGHTS	-11311
ORPGs	-11312
anned	-11313
bying	-11314
cided	-11315
enned	-11316
fying	-11317
lands	-11318
luded	-11319
ouned	-11320
▁4949	-11321
▁GONE	-11322
▁Glen	-11323
▁gale	-11324
▁husk	-11325
▁salt	-11326
600.00	-11327
IBERTY	-11328
ennedy	-11329
luding	-11330
olping	-11331
quares	-11332
▁3,800	-11333
▁60-70	-11334
▁Teens	-11335
▁aided	-11336
▁bodys	-11337
▁fines	-11338
▁immat	-11339
▁immor	-11340
▁irony	-11341
▁meats	-11342
▁munch	-11343
▁platy	-11344
▁sells	-11345
Squares	-11346
cluding	-11347
clusion	-11348
decided	-11349
estures	-11350
ierarch	-11351
planned	-11352
ustrial	-11353
▁PERSON	-11354
▁RIGHTS	-11355
▁brunch	-11356
▁dozens	-11357
▁honors	-11358
▁nightm	-11359
▁specim	-11360
▁terman	-11361
Gestures	-11362
andytoes	-11363
assisted	-11364
ilifying	-11365
indering	-11366
national	-11367
▁Kennedy	-11368
▁LIBERTY	-11369
▁MMORPGs	-11370
▁arouned	-11371
▁debatng	-11372
▁disputs	-11373
▁element	-11374
▁posture	-11375
.........	-11376
therefore	-11377
voluntary	-11378
▁29,10:59	-11379
▁Arrested	-11380
▁Brussels	-11381
▁Business	-11382
▁CarCraze	-11383
▁Churches	-11384
▁Columbus	-11385
▁Commerce	-11386
▁Computer	-11387
▁Cranston	-11388
▁DESERVES	-11389
▁Doctrine	-11390
▁Dolphins	-11391
▁Eighteen	-11392
▁Engineer	-11393
▁Football	-11394
▁HESITATE	-11395
▁Homeland	-11396
▁Islander	-11397
▁Japanese	-11398
▁Justices	-11399
Cops	-11400
MENT	-11401
ibly	-11402
ilia	-11403
ruff	-11404
▁Rib	-11405
▁TVs	-11406
▁Ved	-11407
▁Vet	-11408
▁Vir	-11409
Solid	-11410
UMENT	-11411
bandw	-11412
faith	-11413
ginia	-11414
iliar	-11415
ilily	-11416
ruffy	-11417
▁Ribs	-11418
▁Unit	-11419
▁Vers	-11420
▁Veto	-11421
▁Vish	-11422
▁eats	-11423
347180	-11424
GUMENT	-11425
histor	-11426
ilient	-11427
raises	-11428
wesome	-11429
▁Adobe	-11430
▁Cross	-11431
▁Dying	-11432
▁Versa	-11433
▁Vishn	-11434
▁bookx	-11435
▁gross	-11436
▁nones	-11437
▁woods	-11438
bandwag	-11439
freedom	-11440
ilments	-11441
rossing	-11442
ternity	-11443
▁Beware	-11444
▁Vedder	-11445
▁Vishnu	-11446
▁bacter	-11447
▁bookxx	-11448
▁clothe	-11449
▁config	-11450
▁confis	-11451
▁demons	-11452
▁extern	-11453
▁flames	-11454
▁funded	-11455
▁grants	-11456
▁lyrics	-11457
▁retart	-11458
▁shaped	-11459
Cultural	-11460
ishments	-11461
rentices	-11462
sibilily	-11463
▁Awesome	-11464
▁accross	-11465
▁assumes	-11466
▁basicly	-11467
▁confide	-11468
▁familly	-11469
▁malcont	-11470
▁mileage	-11471
▁scruffy	-11472
▁stupied	-11473
▁tequila	-11474
▁thrives	-11475
!!!!!!!!!	-11476
askhistor	-11477
bandwagon	-11478
▁ARGUMENT	-11479
▁Lobbying	-11480
▁Messinis	-11481
▁Mountain	-11482
▁Mozillia	-11483
▁Nazarene	-11484
▁Nintendo	-11485
▁Outcomes	-11486
▁Peterson	-11487
▁Pharmacy	-11488
▁Physical	-11489
▁Pilgrims	-11490
▁Popsicle	-11491
▁Powermat	-11492
▁Recently	-11493
▁Relaxing	-11494
▁Sarassal	-11495
▁Secondly	-11496
▁Subpoena	-11497
▁Swelling	-11498
▁Termaion	-11499
(7.	-11500
ASE	-11501
(7.6	-11502
azon	-11503
gets	-11504
gett	-11505
▁BOT	-11506
▁VOT	-11507
(7.63	-11508
ETHER	-11509
achel	-11510
achio	-11511
aises	-11512
alyst	-11513
aracy	-11514
mazon	-11515
times	-11516
waves	-11517
▁1995	-11518
▁Soup	-11519
▁VOTE	-11520
▁trem	-11521
▁warf	-11522
Amazon	-11523
PLEASE	-11524
almost	-11525
alysts	-11526
interb	-11527
ponsib	-11528
▁Blair	-11529
▁recru	-11530
▁wiped	-11531
emtimes	-11532
forgett	-11533
hearing	-11534
ocaracy	-11535
ourning	-11536
pecific	-11537
▁BOTTLE	-11538
▁Clause	-11539
▁Neuros	-11540
▁Tigers	-11541
▁bachel	-11542
▁citysc	-11543
▁monies	-11544
▁poorer	-11545
▁refine	-11546
▁replic	-11547
▁reserv	-11548
▁smooth	-11549
ervative	-11550
gorithim	-11551
istachio	-11552
specific	-11553
▁BOTTLEE	-11554
▁Factory	-11555
▁Improve	-11556
▁WHETHER	-11557
▁disrect	-11558
▁extinct	-11559
▁fallacy	-11560
▁fearing	-11561
▁gadgets	-11562
▁lesbian	-11563
▁obviuos	-11564
▁posible	-11565
▁praises	-11566
▁rearing	-11567
▁recruit	-11568
▁sharing	-11569
▁tremend	-11570
▁uinterb	-11571
▁warfare	-11572
cientists	-11573
gorithims	-11574
soemtimes	-11575
▁Majority	-11576
▁Terrible	-11577
▁Ultimate	-11578
▁Versaill	-11579
▁Virginia	-11580
▁Williams	-11581
▁YOURSELF	-11582
▁actively	-11583
▁addicted	-11584
▁adopters	-11585
▁advanced	-11586
▁advocate	-11587
▁affinity	-11588
▁agencies	-11589
▁airwaves	-11590
▁alchahal	-11591
▁allusion	-11592
▁alphabet	-11593
▁analysts	-11594
▁appalled	-11595
▁appeared	-11596
▁approval	-11597
▁approves	-11598
▁assigned	-11599
?".	-11600
box	-11601
eks	-11602
ltly	-11603
zied	-11604
▁flu	-11605
ammar	-11606
weeks	-11607
▁Pont	-11608
▁delt	-11609
▁melt	-11610
acific	-11611
contro	-11612
enient	-11613
entral	-11614
herita	-11615
oultly	-11616
pelled	-11617
rosion	-11618
▁Burit	-11619
▁Early	-11620
▁deont	-11621
▁flair	-11622
▁lasts	-11623
▁medal	-11624
▁suply	-11625
▁waive	-11626
Pacific	-11627
control	-11628
customs	-11629
develop	-11630
gherita	-11631
renzied	-11632
▁Burito	-11633
▁Twelve	-11634
▁approx	-11635
▁chican	-11636
▁clergy	-11637
▁hugely	-11638
▁priori	-11639
▁revert	-11640
▁signif	-11641
▁stages	-11642
▁triple	-11643
▁waking	-11644
▁waving	-11645
argument	-11646
everages	-11647
perately	-11648
▁Central	-11649
▁Pontias	-11650
▁concert	-11651
▁debateI	-11652
▁fluency	-11653
▁grammar	-11654
▁lastest	-11655
▁lenient	-11656
▁manages	-11657
▁signing	-11658
▁sounded	-11659
Beverages	-11660
developed	-11661
▁analyzed	-11662
▁archbish	-11663
▁astronom	-11664
▁attached	-11665
▁audacity	-11666
▁avoiding	-11667
▁awaiting	-11668
▁bacteria	-11669
▁beacause	-11670
▁bearable	-11671
▁beauties	-11672
▁biblical	-11673
▁billiona	-11674
▁blasting	-11675
▁blinding	-11676
▁blowback	-11677
▁blurring	-11678
▁bombings	-11679
▁brighter	-11680
▁browsing	-11681
▁brushing	-11682
▁bulldogs	-11683
▁canidate	-11684
▁childrem	-11685
▁chipotle	-11686
▁chugging	-11687
▁civility	-11688
▁cleaning	-11689
▁clearing	-11690
▁clinical	-11691
▁colonies	-11692
▁communes	-11693
▁concentr	-11694
▁condones	-11695
▁confused	-11696
▁constitu	-11697
▁consumes	-11698
▁contamin	-11699
ARN	-11700
kaw	-11701
ALLY	-11702
angs	-11703
buck	-11704
gged	-11705
llyw	-11706
mang	-11707
redo	-11708
ypoc	-11709
▁fox	-11710
3,000	-11711
UALLY	-11712
akeas	-11713
angas	-11714
atern	-11715
bucks	-11716
edged	-11717
fredo	-11718
manga	-11719
nikaw	-11720
opped	-11721
oured	-11722
ucked	-11723
ugged	-11724
unged	-11725
▁Duck	-11726
▁Issu	-11727
▁Mask	-11728
▁bake	-11729
▁bred	-11730
▁draw	-11731
▁ebil	-11732
▁muti	-11733
▁slaw	-11734
▁slay	-11735
▁tang	-11736
▁tuck	-11737
Israel	-11738
Police	-11739
angers	-11740
edding	-11741
istake	-11742
ziness	-11743
▁Chang	-11744
▁Eater	-11745
▁Hypoc	-11746
▁LEARN	-11747
▁bangs	-11748
▁equis	-11749
▁footh	-11750
▁foxes	-11751
▁judis	-11752
▁ruden	-11753
▁shred	-11754
▁sland	-11755
▁slayn	-11756
▁slope	-11757
▁stake	-11758
CTUALLY	-11759
angment	-11760
llywood	-11761
unction	-11762
▁32,000	-11763
▁53,000	-11764
▁Effect	-11765
▁Issues	-11766
▁Kuwait	-11767
▁Sanger	-11768
▁agreed	-11769
▁clever	-11770
▁equity	-11771
▁mugged	-11772
▁passes	-11773
▁poured	-11774
▁rigged	-11775
▁serval	-11776
▁struck	-11777
akeasies	-11778
angering	-11779
function	-11780
ichangas	-11781
lectures	-11782
▁Mistake	-11783
▁alfredo	-11784
▁chopped	-11785
▁dangers	-11786
▁drawing	-11787
▁equates	-11788
▁fratern	-11789
▁futures	-11790
▁instinc	-11791
▁judisum	-11792
▁pledged	-11793
▁shucked	-11794
▁tangled	-11795
▁wedding	-11796
nikawater	-11797
▁ACTUALLY	-11798
▁Hypocric	-11799
eye	-11800
▁64	-11801
Thus	-11802
ccis	-11803
oung	-11804
thew	-11805
These	-11806
Thong	-11807
theft	-11808
uffle	-11809
vited	-11810
▁adds	-11811
▁benn	-11812
atthew	-11813
ccount	-11814
feited	-11815
harise	-11816
huffle	-11817
▁addic	-11818
▁alley	-11819
▁benif	-11820
▁clunk	-11821
▁feats	-11822
Account	-11823
Wearing	-11824
ccisary	-11825
everthe	-11826
invited	-11827
orities	-11828
▁Monday	-11829
▁Option	-11830
▁amoung	-11831
▁biting	-11832
▁clunky	-11833
▁deadly	-11834
▁genome	-11835
▁native	-11836
▁prophe	-11837
▁senior	-11838
▁united	-11839
URPRISED	-11840
aception	-11841
distance	-11842
harisees	-11843
isonally	-11844
ologians	-11845
▁Genesis	-11846
▁Matthew	-11847
▁addings	-11848
▁benifit	-11849
▁bennies	-11850
▁fleshed	-11851
▁notices	-11852
▁propert	-11853
▁vaccuum	-11854
uninvited	-11855
▁Neverthe	-11856
▁assaults	-11857
▁contempl	-11858
▁convicts	-11859
▁corrupts	-11860
▁covertly	-11861
▁creamier	-11862
▁crinials	-11863
▁crossing	-11864
▁cyclical	-11865
▁deadbeat	-11866
▁deafness	-11867
▁declared	-11868
▁defeated	-11869
▁defended	-11870
▁degraded	-11871
▁deifying	-11872
▁deprived	-11873
▁devoting	-11874
▁difficul	-11875
▁director	-11876
▁distract	-11877
▁distrust	-11878
▁dividend	-11879
▁divorced	-11880
▁divorces	-11881
▁doctrine	-11882
▁dominant	-11883
▁doomsday	-11884
▁drowning	-11885
▁earnings	-11886
▁emerging	-11887
▁encoding	-11888
▁energies	-11889
▁enjoying	-11890
▁episodic	-11891
▁esteemed	-11892
▁evaluate	-11893
▁excluded	-11894
▁exhibits	-11895
▁fairness	-11896
▁fallible	-11897
▁feminine	-11898
▁fighters	-11899
**:	-11900
?),	-11901
coh	-11902
Both	-11903
Cold	-11904
Read	-11905
auth	-11906
both	-11907
educ	-11908
gnor	-11909
olds	-11910
oons	-11911
tuse	-11912
yday	-11913
▁Agn	-11914
▁STE	-11915
AMAST	-11916
agnos	-11917
apons	-11918
chata	-11919
cream	-11920
ostco	-11921
▁Jedi	-11922
▁Ruth	-11923
▁STEP	-11924
▁diat	-11925
▁luke	-11926
▁sung	-11927
AMASTE	-11928
author	-11929
cohlic	-11930
gholds	-11931
inians	-11932
invent	-11933
opular	-11934
pecing	-11935
wapons	-11936
▁Fries	-11937
▁Ignor	-11938
▁Paris	-11939
▁Stern	-11940
▁curly	-11941
▁hatch	-11942
▁lukew	-11943
▁moons	-11944
▁spons	-11945
▁stead	-11946
agnosis	-11947
popular	-11948
through	-11949
▁Agnost	-11950
▁Costco	-11951
▁Scotts	-11952
▁bucket	-11953
▁busted	-11954
▁casult	-11955
▁diatri	-11956
▁drives	-11957
▁fewest	-11958
▁hayday	-11959
▁obtuse	-11960
▁rounds	-11961
▁shoots	-11962
▁steady	-11963
▁uneduc	-11964
graduate	-11965
ongholds	-11966
ravating	-11967
▁Forcing	-11968
▁INstead	-11969
▁NAMASTE	-11970
▁Scottsd	-11971
▁devised	-11972
▁evryone	-11973
▁ewapons	-11974
▁freeing	-11975
▁homeown	-11976
▁policeA	-11977
▁threats	-11978
▁worries	-11979
▁Agnostic	-11980
▁Horchata	-11981
▁Ignorant	-11982
▁abundant	-11983
▁alcohlic	-11984
▁cartoons	-11985
▁diatribe	-11986
▁doubters	-11987
▁finishes	-11988
▁foothold	-11989
▁footwear	-11990
▁forgiven	-11991
▁formally	-11992
▁freaking	-11993
▁freeways	-11994
▁freezing	-11995
▁frequent	-11996
▁freshmen	-11997
▁garnered	-11998
▁granting	-11999
Bush	-12000
Nope	-12001
piss	-12002
push	-12003
ushi	-12004
weed	-12005
▁Dope	-12006
▁SHOW	-12007
▁Toby	-12008
▁bisc	-12009
▁burg	-12010
▁cats	-12011
▁expi	-12012
▁subj	-12013
anyway	-12014
client	-12015
lleges	-12016
ploded	-12017
pushed	-12018
▁Sushi	-12019
▁buyer	-12020
▁clams	-12021
▁expos	-12022
▁subpe	-12023
▁togas	-12024
ausible	-12025
efiting	-12026
ficient	-12027
ginally	-12028
healthy	-12029
idences	-12030
imizing	-12031
▁advers	-12032
▁camper	-12033
▁curses	-12034
▁expiri	-12035
▁hailed	-12036
▁houses	-12037
▁infest	-12038
▁lovers	-12039
▁repent	-12040
▁repost	-12041
▁subjug	-12042
▁wordsG	-12043
pasadena	-12044
▁Obesity	-12045
▁beacuse	-12046
▁burgess	-12047
▁confess	-12048
▁declare	-12049
▁dressed	-12050
▁flavors	-12051
▁happier	-12052
▁healthi	-12053
▁pursued	-12054
▁subpeon	-12055
▁surface	-12056
▁wordsGo	-12057
anagement	-12058
enefiting	-12059
▁biscuits	-12060
▁colleges	-12061
▁creature	-12062
▁exposure	-12063
▁generals	-12064
▁grasping	-12065
▁greatlyI	-12066
▁happiest	-12067
▁hooligan	-12068
▁horribly	-12069
▁horrific	-12070
▁housewif	-12071
▁humblebr	-12072
▁hunkered	-12073
▁hydrogen	-12074
▁illegaly	-12075
▁imfamous	-12076
▁impacted	-12077
▁imploded	-12078
▁improvis	-12079
▁impulses	-12080
▁incharge	-12081
▁incompet	-12082
▁incurred	-12083
▁inequity	-12084
▁infested	-12085
▁infringe	-12086
▁injuries	-12087
▁insanely	-12088
▁inspired	-12089
▁inspires	-12090
▁instills	-12091
▁invading	-12092
▁invented	-12093
▁inviting	-12094
▁israelis	-12095
▁jeramiah	-12096
▁jokingly	-12097
▁juvenile	-12098
▁juvinile	-12099
PEG	-12100
JPEG	-12101
bars	-12102
harm	-12103
isey	-12104
uise	-12105
vise	-12106
▁190	-12107
▁Hey	-12108
raise	-12109
reads	-12110
swers	-12111
▁DOES	-12112
▁Jang	-12113
▁Miss	-12114
▁ears	-12115
▁gyro	-12116
▁priz	-12117
▁vise	-12118
actics	-12119
finish	-12120
▁Craig	-12121
▁DOESN	-12122
▁Jango	-12123
▁Linds	-12124
▁Organ	-12125
▁asker	-12126
▁brute	-12127
▁chair	-12128
▁dared	-12129
▁debit	-12130
▁entre	-12131
▁insct	-12132
▁prett	-12133
▁scars	-12134
arsight	-12135
harmony	-12136
idering	-12137
obvious	-12138
▁Plameg	-12139
▁artist	-12140
▁blouse	-12141
▁devout	-12142
▁dreams	-12143
▁enters	-12144
▁entree	-12145
▁insert	-12146
▁noisey	-12147
▁prizes	-12148
▁restit	-12149
▁senses	-12150
▁Answers	-12151
▁Charter	-12152
▁Lindsay	-12153
▁Missile	-12154
▁andused	-12155
▁baffles	-12156
▁definet	-12157
▁discret	-12158
▁hangers	-12159
▁insight	-12160
▁tactics	-12161
▁talents	-12162
▁theists	-12163
▁threads	-12164
▁untried	-12165
▁welcome	-12166
arsighted	-12167
▁agreeing	-12168
▁debating	-12169
▁disguise	-12170
▁embarass	-12171
▁failures	-12172
▁insctinc	-12173
▁inserted	-12174
▁insights	-12175
▁keyboard	-12176
▁laughing	-12177
▁lesbians	-12178
▁limewire	-12179
▁lobotomy	-12180
▁loosened	-12181
▁luckiest	-12182
▁lukewarm	-12183
▁manChris	-12184
▁manScott	-12185
▁managers	-12186
▁marginal	-12187
▁massacre	-12188
▁measured	-12189
▁measures	-12190
▁mediocre	-12191
▁mentions	-12192
▁merciful	-12193
▁mischief	-12194
▁mistaken	-12195
▁modeling	-12196
▁modifier	-12197
▁moraless	-12198
▁mourning	-12199
').	-12200
.).	-12201
?).	-12202
Have	-12203
cape	-12204
doll	-12205
have	-12206
loan	-12207
save	-12208
weak	-12209
▁17.	-12210
▁Isn	-12211
▁Kor	-12212
▁POT	-12213
▁USS	-12214
!....	-12215
aveat	-12216
orial	-12217
ponge	-12218
train	-12219
▁USSR	-12220
▁cram	-12221
▁dial	-12222
▁wavy	-12223
jected	-12224
object	-12225
pongeb	-12226
▁Koran	-12227
▁asser	-12228
▁borne	-12229
▁brave	-12230
▁crank	-12231
▁crout	-12232
▁crown	-12233
▁hurst	-12234
▁plead	-12235
▁wrist	-12236
.......	-12237
anistan	-12238
dollars	-12239
etscape	-12240
ogether	-12241
ostered	-12242
secuted	-12243
trained	-12244
▁Andrew	-12245
▁Priest	-12246
▁archae	-12247
▁assort	-12248
▁caveat	-12249
▁inject	-12250
▁refers	-12251
▁relate	-12252
▁selfes	-12253
▁string	-12254
▁wander	-12255
mentThis	-12256
pongebob	-12257
stration	-12258
together	-12259
▁Arsenal	-12260
▁bestial	-12261
▁curries	-12262
▁dresses	-12263
▁endings	-12264
▁prosper	-12265
▁protest	-12266
ghanistan	-12267
otherwise	-12268
▁Biblical	-12269
▁Netscape	-12270
▁croutons	-12271
▁dialysis	-12272
▁fostered	-12273
▁mystique	-12274
▁narrator	-12275
▁narrowly	-12276
▁negleted	-12277
▁nieghbor	-12278
▁nowadayz	-12279
▁obscured	-12280
▁observed	-12281
▁offenses	-12282
▁offsides	-12283
▁operates	-12284
▁organism	-12285
▁outdoors	-12286
▁outlined	-12287
▁outsider	-12288
▁overhaul	-12289
▁overlook	-12290
▁oxymoron	-12291
▁painless	-12292
▁paranoia	-12293
▁pathetic	-12294
▁patience	-12295
▁peppered	-12296
▁perceive	-12297
▁perished	-12298
▁pilgrims	-12299
BTW	-12300
xof	-12301
Mell	-12302
ankl	-12303
asks	-12304
chup	-12305
upac	-12306
▁Cup	-12307
▁Ref	-12308
▁gee	-12309
▁phr	-12310
▁phy	-12311
▁roy	-12312
Melli	-12313
ccess	-12314
gener	-12315
irits	-12316
▁Alas	-12317
▁fits	-12318
▁frys	-12319
▁omit	-12320
▁reme	-12321
▁toys	-12322
▁tuna	-12323
etchup	-12324
incess	-12325
ornell	-12326
▁Copyw	-12327
▁Lunch	-12328
▁Tupac	-12329
▁crisp	-12330
▁famed	-12331
▁finds	-12332
▁fried	-12333
▁phase	-12334
▁remed	-12335
▁roast	-12336
▁royal	-12337
▁soooo	-12338
▁vener	-12339
Battery	-12340
itating	-12341
problem	-12342
success	-12343
▁Minion	-12344
▁Reform	-12345
▁Sharma	-12346
▁dought	-12347
▁excess	-12348
▁fought	-12349
▁frankl	-12350
▁gamble	-12351
▁meddle	-12352
▁phrase	-12353
Children	-12354
Melliare	-12355
distinct	-12356
gerating	-12357
princess	-12358
problems	-12359
standard	-12360
▁160,000	-12361
▁Cornell	-12362
▁Spirits	-12363
▁Thought	-12364
▁Witness	-12365
▁drought	-12366
▁instant	-12367
▁ketchup	-12368
▁pierced	-12369
▁remeber	-12370
Vprincess	-12371
employers	-12372
generally	-12373
▁cheating	-12374
▁childits	-12375
▁decrease	-12376
▁demeanor	-12377
▁donating	-12378
▁doughter	-12379
▁obsessed	-12380
▁overtime	-12381
▁pirating	-12382
▁planning	-12383
▁playable	-12384
▁plumbing	-12385
▁politely	-12386
▁pollutes	-12387
▁potheads	-12388
▁prestige	-12389
▁prettier	-12390
▁prisoner	-12391
▁producer	-12392
▁ptential	-12393
▁publicly	-12394
▁randomly	-12395
▁realizes	-12396
▁receives	-12397
▁reckless	-12398
▁recreate	-12399
eys	-12400
lug	-12401
rug	-12402
yss	-12403
Plug	-12404
aven	-12405
eign	-12406
isps	-12407
ledg	-12408
mery	-12409
ogus	-12410
▁2:1	-12411
▁aug	-12412
Power	-12413
Third	-12414
avily	-12415
hower	-12416
oldly	-12417
veled	-12418
venir	-12419
venue	-12420
▁Drug	-12421
▁Mush	-12422
▁bigI	-12423
▁bigg	-12424
▁buys	-12425
▁chem	-12426
▁curt	-12427
▁desn	-12428
▁desp	-12429
▁nowA	-12430
▁pugs	-12431
Public	-12432
estors	-12433
orneys	-12434
▁Emery	-12435
▁abyss	-12436
▁atoms	-12437
▁bogus	-12438
▁chees	-12439
▁cheif	-12440
▁demac	-12441
▁indis	-12442
▁jaded	-12443
▁pitif	-12444
▁tipha	-12445
cestors	-12446
enhower	-12447
legally	-12448
righted	-12449
vereign	-12450
▁Avenue	-12451
▁Public	-12452
▁boldly	-12453
▁cheesy	-12454
▁crisps	-12455
▁curtis	-12456
▁demacr	-12457
▁heaven	-12458
▁horror	-12459
▁infant	-12460
▁opinon	-12461
▁viewed	-12462
▁visual	-12463
although	-12464
ledgable	-12465
▁augment	-12466
▁biggots	-12467
▁cheated	-12468
▁chemist	-12469
▁deprive	-12470
▁despise	-12471
▁heavily	-12472
▁leveled	-12473
▁moronic	-12474
▁oceanic	-12475
▁pitiful	-12476
▁quietly	-12477
▁seating	-12478
▁sincere	-12479
▁smokers	-12480
▁superst	-12481
▁viewers	-12482
▁viewing	-12483
▁whereby	-12484
isenhower	-12485
▁Mushroom	-12486
▁icecream	-12487
▁indisput	-12488
▁initiate	-12489
▁isolated	-12490
▁leverage	-12491
▁regarded	-12492
▁regulars	-12493
▁regulate	-12494
▁reliance	-12495
▁remedies	-12496
▁reminder	-12497
▁repeated	-12498
▁reponsib	-12499
".*	-12500
cup	-12501
▁2-	-12502
▁22	-12503
▁27	-12504
▁48	-12505
▁6'	-12506
Lord	-12507
athu	-12508
dull	-12509
ford	-12510
sign	-12511
▁70'	-12512
▁nav	-12513
given	-12514
lousy	-12515
occup	-12516
ordon	-12517
rille	-12518
▁Alle	-12519
▁fert	-12520
▁lord	-12521
▁obli	-12522
▁sord	-12523
ILIANS	-12524
amford	-12525
parent	-12526
rients	-12527
▁Alley	-12528
▁Impro	-12529
▁Lousy	-12530
▁Throw	-12531
▁WOULD	-12532
▁bases	-12533
▁belly	-12534
▁cents	-12535
▁coath	-12536
▁dathu	-12537
▁downh	-12538
▁enter	-12539
▁glory	-12540
▁posed	-12541
▁surve	-12542
VILIANS	-12543
dullted	-12544
omantic	-12545
▁Gordon	-12546
▁Grille	-12547
▁accent	-12548
▁aching	-12549
▁chains	-12550
▁hemisp	-12551
▁lessen	-12552
▁navies	-12553
▁patent	-12554
▁sordid	-12555
▁thongs	-12556
IVILIANS	-12557
everyone	-12558
▁bashing	-12559
▁diction	-12560
occupying	-12561
parenting	-12562
▁Advocate	-12563
▁Improves	-12564
▁Stamford	-12565
▁downhill	-12566
▁fourmost	-12567
▁languags	-12568
▁pharmacy	-12569
▁reposted	-12570
▁reptiles	-12571
▁reserved	-12572
▁restrict	-12573
▁retainer	-12574
▁retarted	-12575
▁revealed	-12576
▁romantic	-12577
▁rudeness	-12578
▁russians	-12579
▁sanctity	-12580
▁sciences	-12581
▁scolding	-12582
▁screamed	-12583
▁scrubbed	-12584
▁sedation	-12585
▁semester	-12586
▁senators	-12587
▁sencless	-12588
▁servants	-12589
▁sexually	-12590
▁shameful	-12591
▁shawarma	-12592
▁sickened	-12593
▁singling	-12594
▁slanders	-12595
▁sleeping	-12596
▁slippery	-12597
▁smacking	-12598
▁smelling	-12599
oca	-12600
▁JF	-12601
▁Jo	-12602
?---	-12603
View	-12604
aval	-12605
ianc	-12606
iane	-12607
ocau	-12608
ocol	-12609
urns	-12610
view	-12611
xism	-12612
▁JFK	-12613
▁Jim	-12614
▁Joe	-12615
▁OFF	-12616
print	-12617
rince	-12618
since	-12619
▁Coca	-12620
▁Jade	-12621
▁coat	-12622
▁cock	-12623
▁coll	-12624
▁dime	-12625
▁iced	-12626
▁infu	-12627
▁knoc	-12628
▁mism	-12629
▁twat	-12630
Prince	-12631
Surely	-12632
ardian	-12633
ghtful	-12634
heaval	-12635
ocaust	-12636
prints	-12637
versed	-12638
▁Burns	-12639
▁Diane	-12640
▁Sands	-12641
▁Shias	-12642
▁appel	-12643
▁assem	-12644
▁blant	-12645
▁divis	-12646
▁fianc	-12647
▁petul	-12648
▁poker	-12649
▁potty	-12650
▁steer	-12651
Viewers	-12652
ensives	-12653
fectant	-12654
ightful	-12655
igorous	-12656
linging	-12657
ocolate	-12658
oherent	-12659
▁Misjud	-12660
▁appall	-12661
▁append	-12662
▁clones	-12663
▁collap	-12664
▁infect	-12665
▁infuri	-12666
▁issueI	-12667
▁oceans	-12668
▁prince	-12669
▁throng	-12670
▁vulgar	-12671
contrary	-12672
editated	-12673
guardian	-12674
olocaust	-12675
▁Baiting	-12676
▁blaring	-12677
▁marxism	-12678
▁throngs	-12679
infectant	-12680
repancies	-12681
▁Gamecube	-12682
▁OFFICIAL	-12683
▁appelate	-12684
▁assemble	-12685
▁collapse	-12686
▁divisive	-12687
▁knocking	-12688
▁petulant	-12689
▁smoothly	-12690
▁souvenir	-12691
▁specials	-12692
▁speeches	-12693
▁speeding	-12694
▁spinoffs	-12695
▁sponosrs	-12696
▁sponsors	-12697
▁staffing	-12698
▁statuses	-12699
,,,	-12700
."-	-12701
300	-12702
500	-12703
:00	-12704
,500	-12705
arne	-12706
icts	-12707
sian	-12708
sien	-12709
▁BOM	-12710
▁Blv	-12711
▁Boy	-12712
▁Doy	-12713
▁STP	-12714
▁Toy	-12715
▁WWE	-12716
▁dna	-12717
ausal	-12718
berry	-12719
dited	-12720
ilber	-12721
ishna	-12722
ravel	-12723
▁7:00	-12724
▁Blvd	-12725
▁Boyz	-12726
▁Kill	-12727
▁Parm	-12728
▁Stal	-12729
berrys	-12730
causal	-12731
erates	-12732
ilbert	-12733
imates	-12734
inates	-12735
raints	-12736
rishna	-12737
rument	-12738
▁2,500	-12739
▁Asian	-12740
▁BOMBS	-12741
▁Carne	-12742
▁Doyle	-12743
▁Hsien	-12744
▁Media	-12745
▁annie	-12746
▁badly	-12747
▁brung	-12748
▁smith	-12749
ceptive	-12750
umented	-12751
usually	-12752
▁Edited	-12753
▁Korean	-12754
▁Parmes	-12755
▁Stalin	-12756
▁Toyota	-12757
▁incept	-12758
▁neverm	-12759
▁partly	-12760
▁retard	-12761
▁trials	-12762
oderates	-12763
rumental	-12764
stations	-12765
▁Gilbert	-12766
▁Nations	-12767
▁episode	-12768
▁krishna	-12769
▁polling	-12770
▁unravel	-12771
Moderates	-12772
hospitals	-12773
▁Parmesan	-12774
▁climates	-12775
▁payraise	-12776
▁preceded	-12777
▁realized	-12778
▁sizeable	-12779
▁steering	-12780
▁sticking	-12781
▁stooping	-12782
▁strapped	-12783
▁strategy	-12784
▁stuffing	-12785
▁suburban	-12786
▁succeful	-12787
▁suffered	-12788
▁supplied	-12789
▁surveill	-12790
▁sweating	-12791
▁swimming	-12792
▁swingers	-12793
▁symbolic	-12794
▁talented	-12795
▁tempting	-12796
▁tendency	-12797
▁terminal	-12798
▁textures	-12799
bra	-12800
brah	-12801
deen	-12802
onde	-12803
▁WHO	-12804
▁emp	-12805
Assum	-12806
Tried	-12807
adequ	-12808
elato	-12809
never	-12810
suage	-12811
▁9-11	-12812
▁Aren	-12813
▁Chim	-12814
▁cunt	-12815
▁eman	-12816
▁fade	-12817
▁gaps	-12818
▁kidd	-12819
▁leak	-12820
▁pail	-12821
!!!!!!	-12822
Assume	-12823
ailure	-12824
before	-12825
braham	-12826
cepted	-12827
icular	-12828
uition	-12829
velope	-12830
▁Reaff	-12831
▁alarm	-12832
▁argum	-12833
▁attem	-12834
▁cunts	-12835
▁email	-12836
▁hopel	-12837
▁worng	-12838
failure	-12839
inition	-12840
▁atteme	-12841
▁blonde	-12842
▁colors	-12843
▁emanci	-12844
▁gelato	-12845
▁intake	-12846
▁kiddos	-12847
▁physic	-12848
▁sauces	-12849
▁theseg	-12850
acefully	-12851
adequate	-12852
elevated	-12853
esbefore	-12854
icularly	-12855
orically	-12856
▁Abraham	-12857
▁Hillary	-12858
▁ILLEGAL	-12859
▁aborted	-12860
▁argumnt	-12861
▁assuage	-12862
▁donates	-12863
▁emancip	-12864
▁empires	-12865
▁endless	-12866
▁inspire	-12867
▁seeming	-12868
▁tuition	-12869
▁unpetty	-12870
ffinition	-12871
rationale	-12872
▁Horrible	-12873
▁Reaffirm	-12874
▁controls	-12875
▁develope	-12876
▁hopeless	-12877
▁imperson	-12878
▁intimate	-12879
▁spankage	-12880
▁theaters	-12881
▁theories	-12882
▁theorist	-12883
▁theorize	-12884
▁thereIts	-12885
▁threaten	-12886
▁throughs	-12887
▁tolerant	-12888
▁trespass	-12889
▁tribunal	-12890
▁underdog	-12891
▁unjustly	-12892
▁unlikely	-12893
▁unveiled	-12894
▁upheaval	-12895
▁validate	-12896
▁validity	-12897
▁vehicles	-12898
▁ventures	-12899
OMS	-12900
bey	-12901
DOMS	-12902
beas	-12903
robe	-12904
▁---	-12905
▁mto	-12906
haria	-12907
incip	-12908
lance	-12909
licit	-12910
perse	-12911
ultan	-12912
▁ditt	-12913
▁obey	-12914
▁rave	-12915
▁sake	-12916
Whites	-12917
actals	-12918
ammals	-12919
erelic	-12920
ittles	-12921
▁Notre	-12922
▁deals	-12923
▁ditto	-12924
▁effin	-12925
▁maker	-12926
▁malay	-12927
▁reper	-12928
▁saves	-12929
▁shitt	-12930
Gravity	-12931
ardrobe	-12932
ijkjdrk	-12933
lically	-12934
ligions	-12935
ointing	-12936
▁Sharia	-12937
▁Sultan	-12938
▁blamed	-12939
▁comped	-12940
▁elicit	-12941
▁flight	-12942
▁habeas	-12943
erelicts	-12944
incipals	-12945
ordinary	-12946
▁Anybody	-12947
▁CONDOMS	-12948
▁JUSTICE	-12949
▁Rebecca	-12950
▁compost	-12951
▁dumbest	-12952
▁happend	-12953
▁mammals	-12954
▁muddles	-12955
▁pretend	-12956
▁refuses	-12957
▁wrongly	-12958
Religions	-12959
iblically	-12960
permanent	-12961
▁bastards	-12962
▁beverage	-12963
▁compound	-12964
▁disperse	-12965
▁fractals	-12966
▁religous	-12967
▁spelling	-12968
▁tijkjdrk	-12969
▁vishvgur	-12970
▁visually	-12971
▁vitality	-12972
▁volation	-12973
▁wanderer	-12974
▁wardrobe	-12975
▁welcomes	-12976
▁whouldnt	-12977
▁wilfully	-12978
▁winnable	-12979
▁worrying	-12980
▁writings	-12981
!!!!!!!!!!	-12982
OOOOOOOOOD	-12983
__________	-12984
aedophiles	-12985
aggerating	-12986
alestinian	-12987
apointment	-12988
arrassment	-12989
artnership	-12990
candidates	-12991
christians	-12992
cognizable	-12993
commercial	-12994
conclusion	-12995
convenient	-12996
convinceme	-12997
corrective	-12998
denialists	-12999
00,	-13000
via	-13001
abye	-13002
iens	-13003
mary	-13004
mory	-13005
norm	-13006
vens	-13007
▁58.	-13008
▁RAM	-13009
ansia	-13010
asary	-13011
dress	-13012
heavy	-13013
olved	-13014
ptown	-13015
▁58.6	-13016
▁ANAL	-13017
▁Down	-13018
▁Goal	-13019
▁Init	-13020
▁Topp	-13021
▁dens	-13022
▁dorm	-13023
▁fias	-13024
▁gown	-13025
▁horm	-13026
always	-13027
insane	-13028
istory	-13029
liants	-13030
number	-13031
ummary	-13032
▁2100,	-13033
▁Heart	-13034
▁Mabye	-13035
▁Toppa	-13036
▁bless	-13037
▁bowls	-13038
▁clown	-13039
▁decom	-13040
▁difer	-13041
▁dorms	-13042
▁frees	-13043
▁guide	-13044
▁hybri	-13045
▁mouse	-13046
▁ovens	-13047
▁seedy	-13048
astised	-13049
ireless	-13050
unlight	-13051
▁Armory	-13052
▁Choice	-13053
▁Firsts	-13054
▁Uptown	-13055
▁consol	-13056
▁fiasco	-13057
▁hybrid	-13058
▁noodle	-13059
▁popped	-13060
Sunlight	-13061
dressing	-13062
essasary	-13063
leveland	-13064
▁Orwells	-13065
▁Summary	-13066
▁amansia	-13067
▁bribing	-13068
▁charger	-13069
▁hormone	-13070
▁hybrids	-13071
▁mission	-13072
▁treason	-13073
chalantly	-13074
▁Alliance	-13075
▁Contrary	-13076
▁assholeI	-13077
▁blessing	-13078
▁consoles	-13079
▁diferent	-13080
▁microbes	-13081
▁revolved	-13082
▁wireless	-13083
discovered	-13084
essimistic	-13085
functional	-13086
government	-13087
ierarchies	-13088
impressing	-13089
impressive	-13090
incomplete	-13091
liferation	-13092
peacefully	-13093
pretenders	-13094
recklessly	-13095
rehensible	-13096
reinforced	-13097
resightful	-13098
responding	-13099
tym	-13100
▁4'	-13101
cost	-13102
ends	-13103
ickn	-13104
ilty	-13105
kids	-13106
mile	-13107
okes	-13108
▁INS	-13109
▁INT	-13110
agile	-13111
asual	-13112
athon	-13113
first	-13114
icked	-13115
lting	-13116
smell	-13117
thora	-13118
uated	-13119
unkie	-13120
usual	-13121
▁Dead	-13122
▁Dick	-13123
▁Send	-13124
▁bury	-13125
▁etym	-13126
▁perv	-13127
▁vile	-13128
casual	-13129
claims	-13130
reason	-13131
things	-13132
ulated	-13133
▁Brill	-13134
▁FIGHT	-13135
▁apple	-13136
▁dated	-13137
▁delay	-13138
▁incon	-13139
▁jerks	-13140
▁nickn	-13141
▁norms	-13142
Keeping	-13143
sibilty	-13144
▁Brilli	-13145
▁Either	-13146
▁INTENT	-13147
▁Junkie	-13148
▁addict	-13149
▁amends	-13150
▁evokes	-13151
▁slower	-13152
▁wicked	-13153
IDIATELY	-13154
▁FOUNDER	-13155
▁bailing	-13156
▁donated	-13157
▁fragile	-13158
▁gasping	-13159
▁melting	-13160
▁ourself	-13161
▁unusual	-13162
....!!!!!	-13163
▁arguable	-13164
▁condemns	-13165
▁dragging	-13166
▁inconven	-13167
▁marathon	-13168
▁nickname	-13169
▁nobheads	-13170
▁plethora	-13171
▁socailly	-13172
▁unreason	-13173
▁workable	-13174
treatments	-13175
ucinations	-13176
ulesbefore	-13177
uppression	-13178
victimless	-13179
▁Achieving	-13180
▁Addictive	-13181
▁Algorithm	-13182
▁Anecdotal	-13183
▁Bartender	-13184
▁Bollywood	-13185
▁CIVILIANS	-13186
▁CONVICTED	-13187
▁Canadiens	-13188
▁Classical	-13189
▁Cleveland	-13190
▁Companies	-13191
▁Container	-13192
▁Continent	-13193
▁Countries	-13194
▁Deadlines	-13195
▁Dichotomy	-13196
▁Different	-13197
▁Distribut	-13198
▁Expensive	-13199
Ick	-13200
▁38	-13201
▁LB	-13202
▁LS	-13203
▁Lu	-13204
20!!	-13205
Born	-13206
chia	-13207
cles	-13208
corn	-13209
free	-13210
logy	-13211
obly	-13212
uade	-13213
▁Bob	-13214
▁LBG	-13215
▁LSD	-13216
▁Lif	-13217
▁Rob	-13218
▁bob	-13219
▁dub	-13220
chiav	-13221
iping	-13222
ipist	-13223
lasty	-13224
legal	-13225
money	-13226
▁Hope	-13227
▁LBGT	-13228
▁Land	-13229
▁Last	-13230
▁Less	-13231
▁Lies	-13232
▁Live	-13233
▁Lous	-13234
▁Lucy	-13235
▁bits	-13236
▁cigs	-13237
▁club	-13238
▁deck	-13239
▁hack	-13240
▁juvy	-13241
▁scab	-13242
▁ship	-13243
School	-13244
chiavo	-13245
corned	-13246
orious	-13247
xample	-13248
▁Bobby	-13249
▁Lifer	-13250
▁Lions	-13251
▁Takei	-13252
▁brack	-13253
▁brass	-13254
▁brink	-13255
▁faces	-13256
▁furor	-13257
Example	-13258
Similar	-13259
atering	-13260
entious	-13261
oplasty	-13262
▁Babies	-13263
▁Lousis	-13264
▁embell	-13265
▁equili	-13266
▁picker	-13267
▁piping	-13268
▁statue	-13269
▁subord	-13270
▁trendy	-13271
▁Hamurar	-13272
▁Schiavo	-13273
▁Sixteen	-13274
▁bagging	-13275
▁bracket	-13276
▁dubious	-13277
▁muscles	-13278
▁sayWhat	-13279
▁trilogy	-13280
inoplasty	-13281
▁Hamurarb	-13282
▁catering	-13283
▁dictates	-13284
▁engaging	-13285
▁executes	-13286
▁fiddling	-13287
▁painfree	-13288
▁persuade	-13289
▁probobly	-13290
▁regional	-13291
▁speaches	-13292
▁storages	-13293
hinoplasty	-13294
▁Hamurarbb	-13295
▁Healthier	-13296
▁Holocaust	-13297
▁Hopefully	-13298
▁Humankind	-13299
15)	-13300
Rep	-13301
bad	-13302
eph	-13303
lbe	-13304
ney	-13305
▁DV	-13306
▁Lo	-13307
chas	-13308
ecut	-13309
epar	-13310
mass	-13311
rite	-13312
▁(40	-13313
▁Das	-13314
▁Day	-13315
▁Del	-13316
▁Det	-13317
▁Dis	-13318
▁Dos	-13319
▁Dri	-13320
▁Due	-13321
5.15)	-13322
achie	-13323
ephen	-13324
itech	-13325
llite	-13326
oulbe	-13327
▁DVDs	-13328
▁Dame	-13329
▁Delt	-13330
▁bite	-13331
▁dugs	-13332
▁leaf	-13333
▁rite	-13334
▁wats	-13335
▁whip	-13336
(5.15)	-13337
Repent	-13338
achute	-13339
assist	-13340
chaser	-13341
igious	-13342
losing	-13343
others	-13344
▁Dasan	-13345
▁Delta	-13346
▁Detro	-13347
▁Faith	-13348
▁Separ	-13349
▁Tiger	-13350
▁Write	-13351
▁beach	-13352
▁lakes	-13353
▁numer	-13354
▁unite	-13355
ecutive	-13356
express	-13357
▁Dasani	-13358
▁Loaded	-13359
▁Sheria	-13360
▁adhere	-13361
▁announ	-13362
▁hitech	-13363
▁incite	-13364
▁overhe	-13365
▁spaces	-13366
▁stream	-13367
▁sucker	-13368
atellite	-13369
▁Daycare	-13370
▁Detroit	-13371
▁Driving	-13372
▁Stephen	-13373
▁exposed	-13374
▁neglect	-13375
▁suckerp	-13376
▁troulbe	-13377
achieving	-13378
assistant	-13379
▁Courtney	-13380
▁Disagree	-13381
▁caffeine	-13382
▁discreet	-13383
▁overheat	-13384
▁prophecy	-13385
▁stomping	-13386
▁Executive	-13387
▁Hypocricy	-13388
▁Insurance	-13389
▁Inventive	-13390
▁Isrealian	-13391
▁Judgement	-13392
▁Knowledge	-13393
▁Lousisana	-13394
▁Marijuana	-13395
▁Meanwhile	-13396
▁Mukherjee	-13397
▁POTENTIAL	-13398
▁Pharisees	-13399
"--	-13400
CON	-13401
Cue	-13402
ido	-13403
irh	-13404
uct	-13405
▁''	-13406
CONS	-13407
PECT	-13408
bout	-13409
fell	-13410
ooch	-13411
▁mol	-13412
▁vic	-13413
About	-13414
forms	-13415
still	-13416
years	-13417
▁GLBT	-13418
▁exes	-13419
▁fate	-13420
▁wirh	-13421
▁wong	-13422
aquhar	-13423
▁Cance	-13424
▁WORLD	-13425
▁bikes	-13426
▁freak	-13427
▁petty	-13428
▁pooch	-13429
▁uncon	-13430
accines	-13431
instead	-13432
uctance	-13433
whether	-13434
▁Cancel	-13435
▁Youtub	-13436
▁awared	-13437
▁befell	-13438
▁centry	-13439
▁imagin	-13440
▁insist	-13441
▁molest	-13442
▁snakes	-13443
▁unconf	-13444
COTTSBLU	-13445
▁Faquhar	-13446
▁RESPECT	-13447
▁Serbian	-13448
▁flyable	-13449
▁fundido	-13450
▁justise	-13451
▁moments	-13452
▁proving	-13453
▁rounded	-13454
▁sausage	-13455
▁section	-13456
▁willful	-13457
COTTSBLUF	-13458
▁Basinets	-13459
▁Vaccines	-13460
▁frittata	-13461
▁motivate	-13462
▁passable	-13463
COTTSBLUFF	-13464
▁Polyamory	-13465
▁Porpoises	-13466
▁Realistic	-13467
▁Reservoir	-13468
▁Resources	-13469
▁SURPRISED	-13470
▁Seriously	-13471
▁Spaghetti	-13472
▁Spongebob	-13473
▁Starbucks	-13474
▁THOUSANDS	-13475
▁Teenagers	-13476
▁Terrorism	-13477
▁VOLUNTARY	-13478
▁Wondering	-13479
▁Youtubers	-13480
▁abandoned	-13481
▁abridging	-13482
▁absoultly	-13483
▁academics	-13484
▁accompany	-13485
▁accounted	-13486
▁addicting	-13487
▁addictive	-13488
▁admitting	-13489
▁adulterer	-13490
▁affiliate	-13491
▁afternoon	-13492
▁aggressor	-13493
▁agonizing	-13494
▁agressive	-13495
▁ancestors	-13496
▁annoyance	-13497
▁answerers	-13498
▁apologies	-13499
19	-13500
BI	-13501
,!!	-13502
19)	-13503
NBA	-13504
adv	-13505
ius	-13506
sim	-13507
▁Fi	-13508
▁ie	-13509
Here	-13510
allu	-13511
ampa	-13512
anim	-13513
fall	-13514
hear	-13515
mani	-13516
mers	-13517
oofy	-13518
▁Cir	-13519
▁FBI	-13520
▁Jul	-13521
▁awe	-13522
brium	-13523
uming	-13524
▁(19)	-13525
▁,,!!	-13526
▁Boom	-13527
▁Bott	-13528
▁WNBA	-13529
▁doom	-13530
▁merg	-13531
▁sits	-13532
HICKEN	-13533
Lastly	-13534
encour	-13535
ibrate	-13536
simply	-13537
▁Imani	-13538
▁Sallu	-13539
▁Tampa	-13540
▁Times	-13541
▁Where	-13542
▁binge	-13543
▁cheek	-13544
▁flake	-13545
▁goofy	-13546
▁prise	-13547
▁reads	-13548
▁rolls	-13549
▁solit	-13550
▁spoke	-13551
ainfall	-13552
animity	-13553
regated	-13554
vibrate	-13555
▁Anyone	-13556
▁Bottle	-13557
▁absent	-13558
▁allien	-13559
▁flakey	-13560
▁genius	-13561
▁remark	-13562
▁rudely	-13563
▁suited	-13564
▁whants	-13565
assuming	-13566
encourge	-13567
gregated	-13568
▁BELIEVE	-13569
▁CHICKEN	-13570
▁athlete	-13571
▁condemn	-13572
▁fitting	-13573
▁fulfils	-13574
▁mergers	-13575
▁organic	-13576
▁reeling	-13577
▁shortly	-13578
▁summers	-13579
▁swapped	-13580
▁torrent	-13581
▁vaulter	-13582
advancing	-13583
▁Circumst	-13584
▁cheerful	-13585
▁commuter	-13586
▁couscous	-13587
▁dedicate	-13588
▁demonize	-13589
▁potatoes	-13590
▁rainfall	-13591
▁solitary	-13592
▁underper	-13593
▁unionism	-13594
oppression	-13595
▁appalling	-13596
▁appealing	-13597
▁appetizer	-13598
▁assaulted	-13599
7,	-13600
Mac	-13601
aci	-13602
doo	-13603
lad	-13604
▁TJ	-13605
▁TY	-13606
▁Tj	-13607
▁Ty	-13608
▁wo	-13609
-47'	-13610
aint	-13611
make	-13612
obah	-13613
open	-13614
▁Gee	-13615
▁MIR	-13616
▁Tin	-13617
▁coo	-13618
▁lab	-13619
▁rim	-13620
▁tid	-13621
ladim	-13622
obahn	-13623
oping	-13624
paint	-13625
▁Cash	-13626
▁Geez	-13627
▁Laci	-13628
▁MIRI	-13629
▁TYPE	-13630
▁Type	-13631
▁blim	-13632
▁epid	-13633
▁notm	-13634
▁salv	-13635
▁sigh	-13636
▁tidy	-13637
▁woes	-13638
alerie	-13639
eating	-13640
iscrim	-13641
▁Glory	-13642
▁Recca	-13643
▁Roast	-13644
▁Wales	-13645
▁dodgy	-13646
▁pleed	-13647
▁taboo	-13648
▁trigg	-13649
athcare	-13650
discrim	-13651
esimony	-13652
getable	-13653
ladimir	-13654
utobahn	-13655
▁Rajast	-13656
▁assure	-13657
▁blimem	-13658
▁epidem	-13659
▁hatred	-13660
▁labour	-13661
▁pricey	-13662
▁Damages	-13663
▁Rajasth	-13664
▁Valerie	-13665
▁amongst	-13666
▁notmove	-13667
▁profits	-13668
▁quoting	-13669
▁rubbing	-13670
▁separat	-13671
▁violate	-13672
▁Autobahn	-13673
▁Vladimir	-13674
▁balanced	-13675
▁epidemic	-13676
▁mandates	-13677
▁paranoid	-13678
▁pleeding	-13679
▁tesimony	-13680
▁triggers	-13681
▁wrestles	-13682
consistent	-13683
▁Rajasthan	-13684
▁asserting	-13685
▁assessing	-13686
▁assurance	-13687
▁astronomy	-13688
▁athieists	-13689
▁athiestic	-13690
▁attorneys	-13691
▁attourney	-13692
▁avaliable	-13693
▁bachelors	-13694
▁balancing	-13695
▁bartender	-13696
▁beleivers	-13697
▁belittles	-13698
▁biometric	-13699
FY	-13700
wr	-13701
yd	-13702
FYI	-13703
Sem	-13704
hyd	-13705
owl	-13706
yri	-13707
▁SW	-13708
ambs	-13709
mild	-13710
ngus	-13711
none	-13712
odor	-13713
ooey	-13714
rill	-13715
trad	-13716
yria	-13717
▁pow	-13718
▁sow	-13719
atine	-13720
odoro	-13721
▁Bowl	-13722
▁Gods	-13723
▁NATO	-13724
▁hips	-13725
▁mout	-13726
Semper	-13727
Simply	-13728
▁Angus	-13729
▁Chose	-13730
▁Crazy	-13731
▁ILLEA	-13732
▁Nobel	-13733
▁Syria	-13734
▁dehyd	-13735
▁euros	-13736
▁gooey	-13737
▁juice	-13738
▁lambs	-13739
Culture	-13740
omodoro	-13741
rounder	-13742
▁Enable	-13743
▁affair	-13744
▁arrive	-13745
▁fellas	-13746
▁powers	-13747
▁raving	-13748
▁relive	-13749
▁thrill	-13750
▁wrongs	-13751
lemental	-13752
terblume	-13753
▁Phoenix	-13754
▁Physics	-13755
▁customs	-13756
▁disease	-13757
▁heading	-13758
▁skipped	-13759
▁sliding	-13760
▁upscale	-13761
Increased	-13762
istration	-13763
▁ILLEAGAL	-13764
▁Medicaid	-13765
▁Pomodoro	-13766
▁browsers	-13767
▁mouthing	-13768
▁relieved	-13769
▁seminary	-13770
LVprincess	-13771
▁Character	-13772
▁EDUCATION	-13773
▁Palpatine	-13774
▁blatantly	-13775
▁bloodline	-13776
▁breakdown	-13777
▁breakneck	-13778
▁brutality	-13779
▁burgesses	-13780
▁buzzwords	-13781
▁calculate	-13782
▁calendars	-13783
▁canfinish	-13784
▁cardboard	-13785
▁casulties	-13786
▁chastised	-13787
▁chemicals	-13788
▁chemistry	-13789
▁chocolate	-13790
▁cigarette	-13791
▁citizenry	-13792
▁cityscape	-13793
▁civilised	-13794
▁civilized	-13795
▁coattails	-13796
▁cognitely	-13797
▁cognitive	-13798
▁commiment	-13799
CJ	-13800
ho	-13801
102	-13802
CJA	-13803
asi	-13804
jas	-13805
102"	-13806
aley	-13807
atly	-13808
best	-13809
bush	-13810
only	-13811
otas	-13812
reen	-13813
sent	-13814
▁Lef	-13815
▁Pap	-13816
▁bay	-13817
▁maj	-13818
▁nin	-13819
Tejas	-13820
adult	-13821
atter	-13822
dirty	-13823
green	-13824
issol	-13825
unism	-13826
▁1990	-13827
▁Left	-13828
▁Papa	-13829
▁YCJA	-13830
▁arab	-13831
▁fiat	-13832
▁flip	-13833
▁pubs	-13834
▁thay	-13835
chigan	-13836
ciples	-13837
liment	-13838
makers	-13839
oulder	-13840
pposed	-13841
▁Going	-13842
▁honey	-13843
▁ninja	-13844
▁picks	-13845
▁quasi	-13846
▁runes	-13847
Ichigan	-13848
▁Dissol	-13849
▁Serbia	-13850
▁Staley	-13851
▁arabic	-13852
▁batter	-13853
▁dosent	-13854
▁majest	-13855
▁morsel	-13856
▁partys	-13857
▁quotas	-13858
▁ruling	-13859
▁slaves	-13860
▁smoked	-13861
▁tribal	-13862
artening	-13863
eriously	-13864
illusion	-13865
inciples	-13866
powerful	-13867
supposed	-13868
▁Boulder	-13869
▁GNOCCHI	-13870
▁avoided	-13871
▁clearer	-13872
▁lowered	-13873
▁majesty	-13874
▁ooooooo	-13875
▁outster	-13876
▁probaly	-13877
Seriously	-13878
offenders	-13879
supported	-13880
▁MIchigan	-13881
▁Scottish	-13882
▁childish	-13883
▁consular	-13884
▁homeland	-13885
▁magicaly	-13886
▁offering	-13887
▁switches	-13888
fatherless	-13889
heartening	-13890
illusioned	-13891
▁Communism	-13892
▁Conquests	-13893
▁Parliment	-13894
▁battering	-13895
▁bettering	-13896
▁commision	-13897
▁committee	-13898
▁computers	-13899
";	-13900
14	-13901
BOR	-13902
Was	-13903
ett	-13904
uce	-13905
xia	-13906
Apes	-13907
cion	-13908
enis	-13909
ille	-13910
sein	-13911
tuce	-13912
▁Arv	-13913
▁gal	-13914
▁hav	-13915
▁itI	-13916
acism	-13917
afted	-13918
apper	-13919
icher	-13920
mokes	-13921
nyder	-13922
rower	-13923
▁1500	-13924
▁ABOR	-13925
▁Fett	-13926
▁HAND	-13927
▁cali	-13928
▁cort	-13929
▁havn	-13930
▁mock	-13931
astard	-13932
orexia	-13933
orpion	-13934
ortals	-13935
smokes	-13936
ungies	-13937
ussein	-13938
▁Arvay	-13939
▁Files	-13940
▁evict	-13941
▁penis	-13942
▁scans	-13943
illegal	-13944
orrower	-13945
quility	-13946
▁Arvayo	-13947
▁Forced	-13948
▁League	-13949
▁Racism	-13950
▁SHOULD	-13951
▁Snyder	-13952
▁cortex	-13953
▁donors	-13954
▁mascul	-13955
▁rapper	-13956
▁reborn	-13957
▁resurg	-13958
▁richer	-13959
▁runner	-13960
▁stepst	-13961
entlemen	-13962
▁Bastard	-13963
▁Bungies	-13964
▁HANDING	-13965
▁Hussein	-13966
▁Weather	-13967
▁caliber	-13968
▁expanse	-13969
▁gorilla	-13970
▁hundred	-13971
▁lettuce	-13972
▁mortals	-13973
▁needing	-13974
▁shafted	-13975
anquility	-13976
▁ABORTION	-13977
▁Pakistan	-13978
▁Scorpion	-13979
▁anorexia	-13980
▁borrower	-13981
▁coercion	-13982
▁holdinds	-13983
▁patented	-13984
▁platypus	-13985
▁retarded	-13986
▁complains	-13987
▁concealed	-13988
▁conquered	-13989
▁constants	-13990
▁contained	-13991
▁cooperate	-13992
▁corrected	-13993
▁corrosion	-13994
▁counterar	-13995
▁custodial	-13996
▁decompose	-13997
▁decreased	-13998
▁decreases	-13999
Get	-14000
hfe	-14001
sle	-14002
xic	-14003
Best	-14004
King	-14005
RAEL	-14006
hfej	-14007
rous	-14008
shed	-14009
xico	-14010
▁BIG	-14011
▁uno	-14012
Those	-14013
aling	-14014
heres	-14015
ingle	-14016
otter	-14017
▁cows	-14018
▁hers	-14019
▁mall	-14020
▁meth	-14021
▁toli	-14022
▁triv	-14023
ISRAEL	-14024
Single	-14025
irited	-14026
uating	-14027
▁1977.	-14028
▁Darth	-14029
▁asian	-14030
▁guise	-14031
▁ihfej	-14032
▁urges	-14033
brainer	-14034
▁Depart	-14035
▁Giving	-14036
▁Lastly	-14037
▁hassle	-14038
▁mexico	-14039
▁rising	-14040
▁safest	-14041
▁salads	-14042
▁toliet	-14043
▁undert	-14044
Internet	-14045
enuating	-14046
pastrami	-14047
▁Dealing	-14048
▁Profits	-14049
▁Smoking	-14050
▁adheres	-14051
▁blindly	-14052
▁command	-14053
▁guilted	-14054
▁maximum	-14055
▁nobodys	-14056
▁populum	-14057
▁tasting	-14058
▁trivial	-14059
▁trotter	-14060
▁birthday	-14061
▁bracelet	-14062
▁paycheck	-14063
▁snobbish	-14064
▁spirited	-14065
▁thingies	-14066
etributive	-14067
▁Westbrook	-14068
▁bloodshed	-14069
▁dedicated	-14070
▁defendant	-14071
▁definetly	-14072
▁democrats	-14073
▁demograph	-14074
▁dependent	-14075
▁derelicts	-14076
▁desecrate	-14077
▁designing	-14078
▁desisions	-14079
▁desperate	-14080
▁devolping	-14081
▁dichotomy	-14082
▁differnce	-14083
▁disallows	-14084
▁discontin	-14085
▁disintegr	-14086
▁disregard	-14087
▁distracts	-14088
▁districts	-14089
▁downright	-14090
▁eachother	-14091
▁eavesdrop	-14092
▁economyHe	-14093
▁embryonic	-14094
▁emissions	-14095
▁empirical	-14096
▁emptiness	-14097
▁enforcers	-14098
▁escalates	-14099
aad	-14100
hom	-14101
hot	-14102
lum	-14103
mom	-14104
ooo	-14105
ums	-14106
xty	-14107
▁CD	-14108
▁eh	-14109
cass	-14110
idow	-14111
mult	-14112
odka	-14113
ptor	-14114
tama	-14115
ylum	-14116
▁Sue	-14117
ereby	-14118
homos	-14119
isten	-14120
odity	-14121
ophic	-14122
▁1985	-14123
▁Fits	-14124
▁LAST	-14125
▁Pand	-14126
▁fame	-14127
▁sooo	-14128
▁wint	-14129
34.24"	-14130
aaders	-14131
config	-14132
direct	-14133
ongrel	-14134
police	-14135
unatic	-14136
▁Fatal	-14137
▁Still	-14138
▁THEIR	-14139
▁Utama	-14140
▁comic	-14141
▁felon	-14142
▁nexty	-14143
▁stain	-14144
▁vodka	-14145
▁widow	-14146
cassary	-14147
homosap	-14148
lawyers	-14149
multise	-14150
reating	-14151
▁Listen	-14152
▁asylum	-14153
▁forums	-14154
▁infall	-14155
▁nereby	-14156
▁phenom	-14157
▁refuge	-14158
▁safely	-14159
▁vastly	-14160
chrmosom	-14161
gnosedca	-14162
multisex	-14163
whomever	-14164
▁Married	-14165
▁Pandora	-14166
▁dieases	-14167
▁entered	-14168
▁examine	-14169
▁lunatic	-14170
▁mongrel	-14171
▁mussels	-14172
▁recycle	-14173
▁rubbery	-14174
▁supoena	-14175
▁vending	-14176
▁winters	-14177
▁Treating	-14178
▁beleives	-14179
▁credible	-14180
▁creditor	-14181
▁differnt	-14182
▁eternity	-14183
▁hallways	-14184
▁laziness	-14185
▁leaaders	-14186
▁referred	-14187
chrmosomes	-14188
homosapien	-14189
▁commodity	-14190
▁dominance	-14191
▁especialy	-14192
▁ethically	-14193
▁etymology	-14194
▁everyones	-14195
▁everytime	-14196
▁excersise	-14197
▁excessive	-14198
▁executing	-14199
Co	-14200
dy	-14201
bdy	-14202
moe	-14203
sta	-14204
yet	-14205
▁NK	-14206
anke	-14207
athe	-14208
omas	-14209
orst	-14210
rack	-14211
than	-14212
▁16,	-14213
▁5.3	-14214
▁Eld	-14215
▁NKR	-14216
▁eve	-14217
▁iit	-14218
▁inm	-14219
▁kud	-14220
▁nes	-14221
▁rox	-14222
▁xtk	-14223
Books	-14224
INESS	-14225
Worst	-14226
ankee	-14227
ental	-14228
ileve	-14229
olics	-14230
shmoe	-14231
▁Ster	-14232
▁fare	-14233
▁loCo	-14234
▁tong	-14235
▁wits	-14236
Health	-14237
having	-14238
ointed	-14239
quence	-14240
▁Chand	-14241
▁ETAPS	-14242
▁Elder	-14243
▁cried	-14244
▁hindu	-14245
▁hound	-14246
▁kudos	-14247
▁roxas	-14248
▁seeks	-14249
▁xtklp	-14250
discuss	-14251
venties	-14252
▁Mental	-14253
▁Report	-14254
▁Thomas	-14255
▁Yankee	-14256
▁broker	-14257
▁bullet	-14258
▁deliri	-14259
▁inmate	-14260
▁lifeRe	-14261
▁loathe	-14262
▁shirts	-14263
▁sugary	-14264
▁tongue	-14265
behaving	-14266
▁Manipur	-14267
▁beileve	-14268
▁deposit	-14269
▁evident	-14270
▁evrybdy	-14271
▁factual	-14272
▁gangsta	-14273
▁hounded	-14274
▁Sterling	-14275
▁assisted	-14276
▁delirium	-14277
▁hinduism	-14278
▁sequence	-14279
capitalism	-14280
▁HAPPINESS	-14281
▁Including	-14282
▁appointed	-14283
▁catholics	-14284
▁committer	-14285
▁expertise	-14286
▁expirence	-14287
▁explained	-14288
▁exploited	-14289
▁expressed	-14290
▁extreamly	-14291
▁factorThe	-14292
▁favorable	-14293
▁feminists	-14294
▁fireworks	-14295
▁flavorful	-14296
▁forfeited	-14297
▁fortitude	-14298
▁forwarded	-14299
7'	-14300
BC	-14301
etb	-14302
lld	-14303
oll	-14304
yer	-14305
▁5.	-14306
▁BN	-14307
▁Bi	-14308
▁IM	-14309
▁IV	-14310
▁sf	-14311
Roll	-14312
Such	-14313
fool	-14314
itum	-14315
oost	-14316
soon	-14317
▁BBC	-14318
▁BNP	-14319
▁IMH	-14320
▁IMO	-14321
▁Yep	-14322
▁sfj	-14323
▁tha	-14324
...17	-14325
11017	-14326
agann	-14327
apply	-14328
▁IMHO	-14329
▁apps	-14330
▁cann	-14331
▁fris	-14332
▁nose	-14333
▁sfji	-14334
311017	-14335
Lagann	-14336
etbart	-14337
lawyer	-14338
riages	-14339
▁15-20	-14340
▁Biker	-14341
▁acual	-14342
▁river	-14343
▁roost	-14344
▁sfjii	-14345
foolish	-14346
married	-14347
pliment	-14348
▁Gather	-14349
▁cannon	-14350
▁commer	-14351
▁deGras	-14352
▁ethics	-14353
▁sfjiiy	-14354
▁unused	-14355
▁woulld	-14356
anderson	-14357
▁bailout	-14358
▁careers	-14359
▁frisked	-14360
▁jerseys	-14361
▁payback	-14362
▁plagued	-14363
▁reapply	-14364
▁sfjiiyt	-14365
▁tablets	-14366
▁unloved	-14367
▁upwards	-14368
ganderson	-14369
▁Humanity	-14370
▁Imprison	-14371
▁commerce	-14372
▁deGrasse	-14373
▁nautical	-14374
▁predomin	-14375
▁produces	-14376
▁sfjiiytg	-14377
scientific	-14378
▁Brietbart	-14379
▁Marriages	-14380
▁Schooling	-14381
▁Vilifying	-14382
▁behaviors	-14383
▁frustrate	-14384
▁functions	-14385
▁gatherers	-14386
▁generated	-14387
▁generates	-14388
▁gradually	-14389
▁graduated	-14390
▁gravitate	-14391
▁grounding	-14392
▁guacamole	-14393
▁hardships	-14394
▁haveboobs	-14395
▁headquart	-14396
▁healthier	-14397
▁heartbeat	-14398
▁heartedly	-14399
70	-14400
GB	-14401
Oh	-14402
SC	-14403
cd	-14404
fy	-14405
GBs	-14406
cdc	-14407
dub	-14408
lut	-14409
LICE	-14410
heck	-14411
ilos	-14412
medi	-14413
▁21'	-14414
▁Ate	-14415
▁FAR	-14416
▁FSC	-14417
▁Son	-14418
▁VER	-14419
OLICE	-14420
clean	-14421
saves	-14422
▁Asus	-14423
▁Call	-14424
▁Dare	-14425
▁Took	-14426
▁VERY	-14427
▁bran	-14428
▁clip	-14429
▁gass	-14430
▁iffy	-14431
▁loot	-14432
ermany	-14433
▁kilos	-14434
▁overw	-14435
▁somke	-14436
awesome	-14437
duboard	-14438
suicide	-14439
▁POLICE	-14440
▁Tookie	-14441
▁branch	-14442
▁deport	-14443
▁devast	-14444
▁facist	-14445
▁fondly	-14446
▁gassed	-14447
▁illust	-14448
▁intact	-14449
▁namely	-14450
mediated	-14451
▁affairs	-14452
▁airship	-14453
▁archaic	-14454
▁fastest	-14455
▁germany	-14456
▁branches	-14457
▁contries	-14458
▁feminism	-14459
▁irritate	-14460
▁noticing	-14461
▁reasoned	-14462
▁recourse	-14463
▁sections	-14464
▁Guantanam	-14465
▁Notmymuse	-14466
▁chicanery	-14467
▁economize	-14468
▁forgiving	-14469
▁gentlemen	-14470
▁graduates	-14471
▁heathcare	-14472
▁honorable	-14473
▁hopefully	-14474
▁hourglass	-14475
▁household	-14476
▁iincurred	-14477
▁imitating	-14478
▁impartial	-14479
▁inability	-14480
▁inception	-14481
▁incidents	-14482
▁inclusion	-14483
▁incubator	-14484
▁incumbent	-14485
▁indecency	-14486
▁indicates	-14487
▁indicator	-14488
▁indisting	-14489
▁infection	-14490
▁infinitum	-14491
▁informing	-14492
▁inspected	-14493
▁instances	-14494
▁integrate	-14495
▁intensive	-14496
▁interface	-14497
▁intrested	-14498
▁invention	-14499
''	-14500
.1	-14501
6)	-14502
8,	-14503
CE	-14504
EO	-14505
ky	-14506
tf	-14507
ACE	-14508
did	-14509
fan	-14510
uty	-14511
▁HS	-14512
▁MD	-14513
▁bc	-14514
▁bo	-14515
LACE	-14516
anic	-14517
deal	-14518
duty	-14519
ldom	-14520
test	-14521
▁(6)	-14522
▁NYC	-14523
▁Phe	-14524
▁SEO	-14525
▁Sky	-14526
▁btw	-14527
▁itt	-14528
▁wtf	-14529
arity	-14530
ethod	-14531
timer	-14532
▁Iron	-14533
▁MDMA	-14534
▁Maul	-14535
▁Much	-14536
▁YOUR	-14537
▁boot	-14538
▁lamp	-14539
▁nine	-14540
▁sine	-14541
alousy	-14542
apping	-14543
method	-14544
▁2018,	-14545
▁LEAST	-14546
▁Malay	-14547
▁PFLAG	-14548
▁PLACE	-14549
▁Phelp	-14550
▁gover	-14551
▁islam	-14552
▁panic	-14553
▁probl	-14554
▁sting	-14555
▁wring	-14556
Meaning	-14557
fathers	-14558
▁Phelps	-14559
▁Surely	-14560
▁critic	-14561
▁hearty	-14562
▁ordeal	-14563
▁rarity	-14564
▁seldom	-14565
▁sloths	-14566
▁stingy	-14567
▁subtly	-14568
symmetry	-14569
▁closest	-14570
▁ideally	-14571
▁kidding	-14572
▁manners	-14573
▁satisfy	-14574
▁wickets	-14575
particles	-14576
▁brothels	-14577
▁clapping	-14578
▁commence	-14579
▁elevator	-14580
▁improved	-14581
▁jealousy	-14582
▁mislaced	-14583
▁openings	-14584
▁resulted	-14585
▁shutting	-14586
▁tectonic	-14587
▁vigorous	-14588
▁Charlotte	-14589
▁criticize	-14590
▁goverment	-14591
▁innocents	-14592
▁inventive	-14593
▁investors	-14594
▁iteration	-14595
▁justifies	-14596
▁juxtapost	-14597
▁kenneling	-14598
▁lawmakers	-14599
!(	-14600
.:	-14601
75	-14602
Af	-14603
SA	-14604
sa	-14605
tm	-14606
.:-	-14607
Bye	-14608
Rem	-14609
agm	-14610
din	-14611
ffs	-14612
htm	-14613
lev	-14614
nis	-14615
ssa	-14616
tch	-14617
too	-14618
▁yu	-14619
.:-)	-14620
Pick	-14621
cher	-14622
eple	-14623
html	-14624
lave	-14625
qaed	-14626
rink	-14627
▁(75	-14628
▁19.	-14629
▁50.	-14630
▁NSA	-14631
▁Sti	-14632
▁ras	-14633
After	-14634
adism	-14635
akota	-14636
lyssa	-14637
qaeda	-14638
slave	-14639
unnis	-14640
viets	-14641
▁Odin	-14642
▁THEM	-14643
▁UNIT	-14644
▁bean	-14645
▁dele	-14646
▁undo	-14647
agmire	-14648
iliffs	-14649
senior	-14650
vering	-14651
▁Stipe	-14652
▁corny	-14653
▁deleg	-14654
▁provo	-14655
▁qaeda	-14656
▁rasci	-14657
▁robes	-14658
▁swoon	-14659
▁telev	-14660
▁thick	-14661
ailiffs	-14662
answers	-14663
estinal	-14664
▁50/50.	-14665
▁75,000	-14666
▁Alyssa	-14667
▁Lakota	-14668
▁Poeple	-14669
▁Ronald	-14670
▁Sadism	-14671
▁Sunnis	-14672
▁missed	-14673
▁shades	-14674
▁shrink	-14675
Remember	-14676
ouvering	-14677
ropology	-14678
▁INDIANS	-14679
▁Soviets	-14680
▁rascist	-14681
▁scrapes	-14682
▁Sanction	-14683
▁Thatcher	-14684
▁bailiffs	-14685
▁commonly	-14686
▁covering	-14687
▁momentum	-14688
▁passport	-14689
▁piercing	-14690
▁quagmire	-14691
▁summoned	-14692
thropology	-14693
▁abundance	-14694
▁delegated	-14695
▁legendary	-14696
▁lessening	-14697
▁licensees	-14698
▁liklihood	-14699
Ad	-14700
Lu	-14701
Ws	-14702
JWs	-14703
Luv	-14704
nor	-14705
ryo	-14706
▁wd	-14707
Adam	-14708
anny	-14709
bryo	-14710
ingu	-14711
orce	-14712
wage	-14713
yson	-14714
▁1/3	-14715
▁HOT	-14716
▁lip	-14717
lived	-14718
major	-14719
▁Asia	-14720
▁NEAR	-14721
▁NEED	-14722
▁SJWs	-14723
▁daft	-14724
▁eben	-14725
▁latt	-14726
▁pink	-14727
embryo	-14728
ivorce	-14729
outher	-14730
▁Tyson	-14731
▁latte	-14732
▁lingu	-14733
▁medic	-14734
▁nanny	-14735
▁patch	-14736
▁pinko	-14737
▁shots	-14738
▁wdout	-14739
osition	-14740
outhern	-14741
▁sector	-14742
▁steals	-14743
ansexual	-14744
▁Divorce	-14745
▁Gravity	-14746
▁Madison	-14747
▁divides	-14748
▁horrors	-14749
▁invited	-14750
▁perfrom	-14751
▁remakes	-14752
▁spilled	-14753
▁basinets	-14754
▁chopping	-14755
▁findings	-14756
▁hijacked	-14757
▁linguine	-14758
▁lobbying	-14759
▁meanings	-14760
▁medicine	-14761
▁outlived	-14762
▁southern	-14763
▁switched	-14764
▁Witnesses	-14765
▁heartache	-14766
▁licesnsed	-14767
▁logically	-14768
▁machinery	-14769
▁makingwhy	-14770
▁manditory	-14771
▁marketers	-14772
▁masculine	-14773
[...]
