<unk>	0
<s>	0
</s>	0
▁t	-0
▁a	-1
▁th	-2
in	-3
er	-4
▁w	-5
▁the	-6
▁s	-7
ou	-8
on	-9
re	-10
▁b	-11
▁i	-12
at	-13
▁c	-14
▁h	-15
▁o	-16
en	-17
▁p	-18
▁m	-19
▁to	-20
an	-21
ing	-22
▁an	-23
▁f	-24
es	-25
▁d	-26
or	-27
▁I	-28
ll	-29
▁be	-30
▁l	-31
ed	-32
it	-33
▁and	-34
▁n	-35
▁of	-36
▁in	-37
st	-38
▁y	-39
▁is	-40
ve	-41
▁g	-42
om	-43
ot	-44
▁you	-45
ar	-46
al	-47
ic	-48
le	-49
ld	-50
ap	-51
se	-52
▁e	-53
▁that	-54
▁it	-55
is	-56
▁ha	-57
ion	-58
app	-59
▁wh	-60
▁re	-61
▁[	-62
ent	-63
ould	-64
et	-65
as	-66
ay	-67
ly	-68
ow	-69
ut	-70
▁on	-71
ver	-72
her	-73
▁for	-74
ri	-75
▁u	-76
▁not	-77
ct	-78
▁have	-79
oo	-80
▁are	-81
op	-82
gh	-83
▁T	-84
id	-85
ch	-86
ce	-87
▁st	-88
he	-89
ke	-90
ere	-91
▁li	-92
▁do	-93
ith	-94
▁as	-95
..	-96
out	-97
all	-98
im	-99
▁they	-100
▁with	-101
ir	-102
ill	-103
ro	-104
ad	-105
▁he	-106
inapp	-107
▁or	-108
▁would	-109
ome	-110
ur	-111
▁can	-112
▁sh	-113
▁we	-114
ers	-115
▁de	-116
▁j	-117
▁ch	-118
▁se	-119
am	-120
▁so	-121
▁mo	-122
ght	-123
▁but	-124
ust	-125
au	-126
nd	-127
ation	-128
▁k	-129
li	-130
▁your	-131
ter	-132
one	-133
▁con	-134
▁A	-135
ally	-136
eop	-137
▁ab	-138
▁was	-139
eople	-140
▁S	-141
0]	-142
our	-143
ant	-144
▁this	-145
▁su	-146
▁if	-147
▁ne	-148
▁people	-149
▁all	-150
th	-151
ment	-152
▁me	-153
ge	-154
ol	-155
▁W	-156
ink	-157
ess	-158
ain	-159
il	-160
ate	-161
▁bec	-162
▁at	-163
ood	-164
▁go	-165
ause	-166
est	-167
▁should	-168
▁ex	-169
▁pro	-170
ci	-171
20]	-172
▁The	-173
ble	-174
▁al	-175
▁my	-176
▁com	-177
▁r	-178
▁wor	-179
and	-180
▁some	-181
ac	-182
▁le	-183
▁think	-184
▁there	-185
us	-186
▁C	-187
▁because	-188
▁get	-189
▁who	-190
▁just	-191
nt	-192
▁will	-193
very	-194
▁them	-195
qu	-196
▁what	-197
fe	-198
▁any	-199
▁B	-200
▁don	-201
ul	-202
▁their	-203
▁v	-204
ity	-205
▁like	-206
end	-207
ther	-208
▁ma	-209
▁no	-210
▁(	-211
pe	-212
▁has	-213
▁fr	-214
ous	-215
ort	-216
ive	-217
▁more	-218
um	-219
▁tr	-220
▁by	-221
▁out	-222
▁about	-223
▁"	-224
erson	-225
▁M	-226
▁other	-227
ong	-228
em	-229
▁one	-230
ist	-231
▁It	-232
▁than	-233
▁If	-234
▁person	-235
▁ri	-236
ather	-237
if	-238
▁good	-239
▁kn	-240
▁up	-241
un	-242
▁from	-243
▁pl	-244
▁ev	-245
os	-246
▁ta	-247
▁un	-248
res	-249
ice	-250
lie	-251
▁ar	-252
▁la	-253
▁H	-254
▁F	-255
▁know	-256
el	-257
▁our	-258
ough	-259
are	-260
▁pr	-261
king	-262
▁P	-263
▁belie	-264
ig	-265
▁Th	-266
act	-267
▁tim	-268
▁right	-269
▁N	-270
▁then	-271
▁bet	-272
art	-273
▁fe	-274
▁want	-275
▁us	-276
pp	-277
▁ag	-278
▁man	-279
▁Y	-280
ving	-281
ore	-282
ence	-283
...	-284
ud	-285
ich	-286
od	-287
▁say	-288
pt	-289
ild	-290
▁only	-291
ard	-292
ind	-293
ose	-294
▁en	-295
▁does	-296
▁when	-297
ound	-298
▁were	-299
ies	-300
iv	-301
pl	-302
ie	-303
so	-304
▁time	-305
▁father	-306
ast	-307
way	-308
hing	-309
ions	-310
ab	-311
▁better	-312
sel	-313
▁ad	-314
▁im	-315
▁law	-316
▁am	-317
▁need	-318
ue	-319
ack	-320
der	-321
ure	-322
▁believe	-323
▁way	-324
▁every	-325
▁thing	-326
fer	-327
ish	-328
▁life	-329
▁O	-330
age	-331
▁lo	-332
▁act	-333
ount	-334
▁E	-335
▁te	-336
▁child	-337
uch	-338
▁cl	-339
▁had	-340
ans	-341
ame	-342
ool	-343
▁hel	-344
▁pre	-345
▁cont	-346
▁being	-347
▁help	-348
▁make	-349
▁int	-350
ase	-351
ide	-352
able	-353
▁sp	-354
▁how	-355
▁much	-356
reat	-357
▁po	-358
▁see	-359
ry	-360
▁G	-361
ag	-362
rim	-363
▁been	-364
▁even	-365
ace	-366
ves	-367
ical	-368
▁gr	-369
▁could	-370
ire	-371
▁ac	-372
▁which	-373
▁Wh	-374
▁comm	-375
ite	-376
ight	-377
▁may	-378
--	-379
▁R	-380
▁qu	-381
▁really	-382
omet	-383
▁his	-384
▁off	-385
▁wr	-386
▁someone	-387
▁did	-388
ep	-389
▁dis	-390
▁U	-391
ook	-392
ple	-393
▁D	-394
▁We	-395
here	-396
ect	-397
ine	-398
▁res	-399
chool	-400
ff	-401
▁him	-402
!!	-403
▁L	-404
ach	-405
▁soci	-406
other	-407
▁feel	-408
▁most	-409
▁1	-410
ob	-411
▁mar	-412
▁over	-413
ass	-414
▁again	-415
▁also	-416
gal	-417
▁chan	-418
les	-419
ious	-420
ear	-421
▁world	-422
▁wat	-423
ub	-424
▁You	-425
▁school	-426
ty	-427
▁und	-428
▁somet	-429
ck	-430
▁dr	-431
▁pol	-432
thing	-433
▁very	-434
▁br	-435
▁count	-436
▁why	-437
irst	-438
self	-439
orm	-440
ree	-441
▁its	-442
ip	-443
▁she	-444
▁In	-445
ting	-446
per	-447
wn	-448
ens	-449
▁her	-450
▁work	-451
▁under	-452
orn	-453
own	-454
ost	-455
ason	-456
oney	-457
▁many	-458
als	-459
1]	-460
iz	-461
▁arg	-462
▁bot	-463
ary	-464
ress	-465
▁spe	-466
▁ser	-467
▁money	-468
ated	-469
ways	-470
▁year	-471
▁reason	-472
ile	-473
▁cons	-474
▁per	-475
ument	-476
vern	-477
▁crim	-478
▁happ	-479
con	-480
ved	-481
▁def	-482
kes	-483
ory	-484
▁Ch	-485
▁So	-486
▁own	-487
ution	-488
▁going	-489
ia	-490
lic	-491
less	-492
▁dec	-493
▁always	-494
▁something	-495
▁dif	-496
▁pay	-497
▁This	-498
ick	-499
▁em	-500
ance	-501
int	-502
▁imp	-503
▁govern	-504
ra	-505
▁too	-506
▁take	-507
▁kill	-508
ult	-509
ety	-510
▁use	-511
ually	-512
oy	-513
lig	-514
▁those	-515
3]	-516
▁comp	-517
ade	-518
ail	-519
▁cour	-520
▁supp	-521
ual	-522
▁rec	-523
▁never	-524
2]	-525
ea	-526
▁wom	-527
4]	-528
5]	-529
ism	-530
▁into	-531
ian	-532
▁kid	-533
▁bu	-534
▁gu	-535
▁still	-536
ily	-537
▁seem	-538
▁wrong	-539
__	-540
▁af	-541
▁But	-542
▁these	-543
▁differ	-544
▁where	-545
be	-546
itt	-547
ates	-548
ever	-549
▁place	-550
si	-551
su	-552
▁hum	-553
▁first	-554
00	-555
▁att	-556
▁government	-557
▁here	-558
▁J	-559
ren	-560
ition	-561
▁There	-562
▁part	-563
▁id	-564
....	-565
▁such	-566
pect	-567
▁bad	-568
▁having	-569
ict	-570
▁inc	-571
arn	-572
fore	-573
▁back	-574
ations	-575
ber	-576
ger	-577
cept	-578
▁thr	-579
▁fact	-580
fect	-581
▁sm	-582
▁same	-583
▁-	-584
iew	-585
▁sa	-586
▁2	-587
▁They	-588
▁bl	-589
▁long	-590
▁quest	-591
urn	-592
ces	-593
ody	-594
▁stud	-595
▁society	-596
▁co	-597
▁day	-598
▁allow	-599
▁anything	-600
ful	-601
▁ind	-602
oc	-603
ign	-604
▁ob	-605
blem	-606
▁well	-607
▁relig	-608
▁things	-609
ince	-610
▁try	-611
▁argument	-612
ath	-613
▁And	-614
▁lot	-615
▁look	-616
8]	-617
▁ke	-618
▁pos	-619
▁give	-620
▁doesn	-621
▁personal	-622
▁pur	-623
igh	-624
lle	-625
▁acc	-626
▁job	-627
▁sim	-628
▁able	-629
▁best	-630
▁down	-631
▁problem	-632
ousy	-633
arent	-634
▁human	-635
vel	-636
▁now	-637
▁sex	-638
▁mean	-639
▁water	-640
tain	-641
▁won	-642
ating	-643
▁marri	-644
6]	-645
ents	-646
▁bas	-647
▁legal	-648
ef	-649
▁sc	-650
▁case	-651
ak	-652
▁put	-653
▁ter	-654
▁great	-655
▁lousy	-656
▁country	-657
mer	-658
▁sy	-659
▁How	-660
▁des	-661
▁got	-662
▁food	-663
▁kids	-664
du	-665
og	-666
▁after	-667
ord	-668
▁real	-669
▁op	-670
alth	-671
▁big	-672
▁rem	-673
7]	-674
ug	-675
▁fu	-676
ense	-677
▁inter	-678
▁against	-679
ven	-680
ically	-681
ought	-682
▁others	-683
▁'	-684
The	-685
its	-686
▁order	-687
▁without	-688
▁inst	-689
vol	-690
▁tw	-691
stand	-692
ublic	-693
▁around	-694
▁another	-695
▁find	-696
9]	-697
ys	-698
ell	-699
rist	-700
▁doing	-701
▁change	-702
ors	-703
▁fri	-704
▁min	-705
▁keep	-706
▁sure	-707
led	-708
▁No	-709
stem	-710
▁eas	-711
▁new	-712
▁view	-713
▁through	-714
▁different	-715
ower	-716
▁end	-717
▁come	-718
▁less	-719
▁anyone	-720
▁parent	-721
▁support	-722
aff	-723
▁app	-724
▁fam	-725
▁system	-726
up	-727
▁et	-728
▁love	-729
ably	-730
▁call	-731
▁children	-732
get	-733
ject	-734
▁etc	-735
▁while	-736
▁years	-737
▁question	-738
inal	-739
▁che	-740
▁gen	-741
▁str	-742
meric	-743
▁made	-744
▁state	-745
).	-746
▁el	-747
▁ph	-748
▁ass	-749
▁isn	-750
▁let	-751
▁court	-752
ft	-753
cess	-754
▁mat	-755
▁turn	-756
lf	-757
hip	-758
▁Al	-759
▁mur	-760
ility	-761
▁live	-762
▁learn	-763
▁enough	-764
▁understand	-765
ank	-766
pon	-767
▁ro	-768
▁both	-769
▁point	-770
▁US	-771
▁makes	-772
▁rights	-773
▁wouldn	-774
▁3	-775
▁rel	-776
apore	-777
▁away	-778
▁before	-779
▁common	-780
ingapore	-781
wh	-782
ave	-783
ely	-784
read	-785
▁prob	-786
▁prot	-787
ertain	-788
▁might	-789
sw	-790
ise	-791
▁cr	-792
ittle	-793
▁rest	-794
▁two	-795
▁didn	-796
▁high	-797
▁self	-798
▁murder	-799
▁public	-800
▁rather	-801
ists	-802
vers	-803
▁ext	-804
▁answ	-805
▁pret	-806
▁little	-807
ars	-808
ced	-809
ings	-810
▁inf	-811
affles	-812
▁Americ	-813
▁Singapore	-814
red	-815
oice	-816
▁start	-817
▁nothing	-818
▁yourself	-819
ouse	-820
▁hard	-821
▁happen	-822
xt	-823
air	-824
▁sit	-825
▁since	-826
▁respon	-827
we	-828
ese	-829
----	-830
▁deb	-831
▁bott	-832
▁else	-833
▁ille	-834
▁show	-835
▁protect	-836
▁actually	-837
conom	-838
▁defin	-839
▁friend	-840
arm	-841
ead	-842
ial	-843
▁He	-844
ploy	-845
▁ins	-846
▁mor	-847
▁sub	-848
▁tell	-849
▁polit	-850
ider	-851
▁exp	-852
ither	-853
▁stop	-854
cation	-855
▁found	-856
▁pursu	-857
ey	-858
ics	-859
▁For	-860
▁Ind	-861
sible	-862
▁char	-863
▁ever	-864
▁used	-865
▁become	-866
▁family	-867
▁illegal	-868
▁probably	-869
▁ent	-870
▁hand	-871
av	-872
oth	-873
peri	-874
▁adv	-875
▁rep	-876
▁done	-877
▁idea	-878
▁must	-879
▁seems	-880
▁health	-881
▁dep	-882
▁lead	-883
▁prop	-884
selves	-885
▁econom	-886
any	-887
ope	-888
▁My	-889
▁each	-890
▁gener	-891
▁woman	-892
▁class	-893
▁watch	-894
▁pretty	-895
day	-896
ries	-897
iform	-898
▁That	-899
▁exam	-900
▁laws	-901
▁creat	-902
▁drink	-903
▁However	-904
iss	-905
ular	-906
▁though	-907
iol	-908
▁God	-909
▁ask	-910
▁tal	-911
▁tax	-912
iting	-913
▁care	-914
▁home	-915
▁opin	-916
▁requ	-917
▁whole	-918
▁accept	-919
▁thought	-920
▁ben	-921
▁drug	-922
ortion	-923
▁least	-924
▁speci	-925
Th	-926
co	-927
gn	-928
old	-929
▁St	-930
▁dri	-931
▁sci	-932
▁crime	-933
▁death	-934
▁Raffles	-935
▁everyone	-936
edu	-937
not	-938
use	-939
▁cor	-940
▁trying	-941
If	-942
gr	-943
ox	-944
ier	-945
ush	-946
ians	-947
ices	-948
▁cas	-949
▁cur	-950
▁few	-951
▁set	-952
▁play	-953
ristian	-954
▁uniform	-955
11]	-956
cing	-957
aught	-958
▁evol	-959
▁benef	-960
▁answer	-961
har	-962
▁What	-963
▁kind	-964
▁said	-965
▁invol	-966
▁needs	-967
▁police	-968
▁example	-969
▁students	-970
ons	-971
ides	-972
▁men	-973
▁dont	-974
▁pres	-975
▁pursuit	-976
aw	-977
ng	-978
▁ty	-979
▁cle	-980
▁equ	-981
▁far	-982
though	-983
▁agree	-984
▁women	-985
▁employ	-986
▁certain	-987
▁religion	-988
▁5	-989
14]	-990
ness	-991
▁means	-992
▁consider	-993
ks	-994
the	-995
ited	-996
▁nat	-997
▁yes	-998
▁contro	-999
▁opinion	-1000
lly	-1001
▁reg	-1002
ffect	-1003
ption	-1004
▁lives	-1005
▁power	-1006
▁parents	-1007
▁K	-1008
ply	-1009
ten	-1010
▁Be	-1011
ater	-1012
▁car	-1013
▁run	-1014
velop	-1015
▁form	-1016
▁read	-1017
▁viol	-1018
▁matter	-1019
▁allowed	-1020
but	-1021
▁fl	-1022
▁fo	-1023
body	-1024
▁choice	-1025
▁effect	-1026
▁either	-1027
),	-1028
▁.	-1029
ied	-1030
uth	-1031
▁wa	-1032
▁add	-1033
▁bus	-1034
▁buy	-1035
▁sur	-1036
anger	-1037
iness	-1038
ities	-1039
▁choo	-1040
▁free	-1041
▁serv	-1042
▁sign	-1043
▁stand	-1044
ison	-1045
▁edu	-1046
▁pop	-1047
▁pass	-1048
▁situ	-1049
▁produ	-1050
▁themselves	-1051
MV	-1052
Wh	-1053
cc	-1054
ged	-1055
uck	-1056
▁As	-1057
____	-1058
ages	-1059
ible	-1060
ives	-1061
▁cre	-1062
▁jud	-1063
▁mil	-1064
ident	-1065
lease	-1066
quhar	-1067
vious	-1068
▁grow	-1069
▁poor	-1070
▁prov	-1071
ortant	-1072
▁marriage	-1073
▁important	-1074
lect	-1075
reed	-1076
▁true	-1077
▁contin	-1078
▁saying	-1079
▁*	-1080
▁,	-1081
sue	-1082
▁Is	-1083
▁Why	-1084
▁loo	-1085
ately	-1086
itely	-1087
▁moral	-1088
▁simply	-1089
▁social	-1090
ision	-1091
▁proper	-1092
▁education	-1093
▁everything	-1094
".	-1095
15]	-1096
ote	-1097
▁sl	-1098
!!!!	-1099
osed	-1100
▁ear	-1101
▁tri	-1102
ative	-1103
ready	-1104
▁times	-1105
▁choose	-1106
▁experi	-1107
▁develop	-1108
ros	-1109
▁val	-1110
▁disc	-1111
▁cause	-1112
▁comple	-1113
12]	-1114
for	-1115
imes	-1116
ivid	-1117
tern	-1118
▁Far	-1119
▁mus	-1120
▁anim	-1121
▁word	-1122
idence	-1123
▁making	-1124
▁already	-1125
▁getting	-1126
▁instead	-1127
▁shouldn	-1128
aim	-1129
ang	-1130
sib	-1131
ific	-1132
▁bab	-1133
▁married	-1134
▁abortion	-1135
az	-1136
ize	-1137
▁ap	-1138
most	-1139
▁Yes	-1140
▁leg	-1141
▁conc	-1142
▁course	-1143
▁likely	-1144
fic	-1145
peci	-1146
▁sol	-1147
▁last	-1148
▁small	-1149
▁cannot	-1150
ake	-1151
erv	-1152
▁To	-1153
ards	-1154
ning	-1155
olog	-1156
stit	-1157
vent	-1158
▁die	-1159
▁pot	-1160
▁pun	-1161
▁bill	-1162
▁gets	-1163
▁mind	-1164
▁brain	-1165
▁issue	-1166
▁maybe	-1167
▁Farquhar	-1168
▁countries	-1169
▁evolution	-1170
▁experience	-1171
cy	-1172
ru	-1173
acy	-1174
▁hu	-1175
llow	-1176
▁bre	-1177
▁old	-1178
16]	-1179
ken	-1180
oup	-1181
ove	-1182
rem	-1183
ural	-1184
▁gay	-1185
▁med	-1186
▁mon	-1187
ether	-1188
▁based	-1189
▁teach	-1190
▁debate	-1191
▁mother	-1192
▁Christian	-1193
▁fatherless	-1194
ts	-1195
ili	-1196
ror	-1197
ute	-1198
▁sal	-1199
▁war	-1200
▁next	-1201
▁plan	-1202
▁worth	-1203
▁belief	-1204
▁interest	-1205
10]	-1206
13]	-1207
17]	-1208
rit	-1209
form	-1210
rect	-1211
▁CMV	-1212
▁cap	-1213
▁det	-1214
▁mem	-1215
▁pri	-1216
irect	-1217
▁Well	-1218
▁When	-1219
▁body	-1220
▁hist	-1221
▁lawy	-1222
▁assum	-1223
ational	-1224
▁individ	-1225
▁looking	-1226
▁relations	-1227
ross	-1228
▁stup	-1229
reedom	-1230
▁expect	-1231
ib	-1232
ix	-1233
▁4	-1234
jor	-1235
ont	-1236
ants	-1237
iven	-1238
rent	-1239
ware	-1240
▁cou	-1241
▁rap	-1242
▁smo	-1243
▁top	-1244
▁uni	-1245
▁ment	-1246
▁move	-1247
▁porn	-1248
▁side	-1249
▁India	-1250
▁cases	-1251
▁exist	-1252
▁milit	-1253
▁danger	-1254
▁require	-1255
▁evidence	-1256
▁relationship	-1257
▁ra	-1258
▁guy	-1259
▁mov	-1260
▁num	-1261
atever	-1262
▁follow	-1263
▁stupid	-1264
lt	-1265
cal	-1266
gin	-1267
ife	-1268
lud	-1269
▁An	-1270
ient	-1271
▁imm	-1272
▁non	-1273
aring	-1274
▁Chin	-1275
▁aren	-1276
▁full	-1277
▁term	-1278
gether	-1279
▁bring	-1280
▁punish	-1281
▁strong	-1282
▁subject	-1283
▁business	-1284
▁criminal	-1285
▁together	-1286
18]	-1287
▁fun	-1288
ments	-1289
▁conf	-1290
▁left	-1291
▁post	-1292
▁claim	-1293
▁freedom	-1294
▁respect	-1295
▁situation	-1296
."	-1297
ew	-1298
io	-1299
▁V	-1300
▁Un	-1301
▁di	-1302
▁gl	-1303
arch	-1304
fort	-1305
ided	-1306
ween	-1307
▁Not	-1308
▁env	-1309
▁opp	-1310
▁win	-1311
▁Most	-1312
▁cond	-1313
▁conv	-1314
▁expl	-1315
▁says	-1316
▁sell	-1317
▁fight	-1318
▁group	-1319
▁sense	-1320
▁People	-1321
▁between	-1322
▁company	-1323
▁serious	-1324
▁talking	-1325
▁involved	-1326
▁problems	-1327
▁political	-1328
▁definitely	-1329
19]	-1330
▁dog	-1331
▁book	-1332
▁break	-1333
▁night	-1334
pecially	-1335
▁economy	-1336
to	-1337
000	-1338
alk	-1339
ric	-1340
▁sk	-1341
cond	-1342
empt	-1343
irth	-1344
lish	-1345
ract	-1346
unch	-1347
▁bur	-1348
▁dem	-1349
▁hon	-1350
astic	-1351
ences	-1352
ently	-1353
orney	-1354
▁Just	-1355
▁hold	-1356
▁seen	-1357
ancing	-1358
▁comes	-1359
▁happy	-1360
▁music	-1361
▁prove	-1362
▁using	-1363
▁killed	-1364
▁living	-1365
▁religious	-1366
ted	-1367
band	-1368
▁outs	-1369
▁stat	-1370
▁commun	-1371
▁taking	-1372
▁terror	-1373
ER	-1374
lus	-1375
ony	-1376
oph	-1377
▁TV	-1378
This	-1379
ital	-1380
oint	-1381
ping	-1382
▁All	-1383
▁Mar	-1384
▁age	-1385
▁beh	-1386
▁inn	-1387
▁mom	-1388
▁cost	-1389
▁cult	-1390
▁easy	-1391
▁harm	-1392
▁hour	-1393
▁phys	-1394
ending	-1395
▁cloth	-1396
▁leave	-1397
▁almost	-1398
▁coming	-1399
▁option	-1400
▁scient	-1401
--------	-1402
▁bottles	-1403
▁correct	-1404
▁perfect	-1405
▁whether	-1406
▁attorney	-1407
ends	-1408
ures	-1409
ying	-1410
▁hus	-1411
▁fund	-1412
▁exact	-1413
▁whatever	-1414
OT	-1415
So	-1416
ec	-1417
bor	-1418
joy	-1419
ket	-1420
▁av	-1421
▁pe	-1422
gest	-1423
orts	-1424
ully	-1425
▁abs	-1426
▁dam	-1427
▁eat	-1428
▁eff	-1429
▁fin	-1430
▁gam	-1431
▁lic	-1432
▁log	-1433
▁pat	-1434
▁wee	-1435
ality	-1436
where	-1437
▁came	-1438
▁fail	-1439
▁jail	-1440
▁land	-1441
▁line	-1442
▁main	-1443
▁sent	-1444
▁sing	-1445
▁clear	-1446
▁enjoy	-1447
▁level	-1448
▁major	-1449
▁often	-1450
▁taken	-1451
▁crimes	-1452
▁direct	-1453
▁record	-1454
▁simple	-1455
▁theory	-1456
▁America	-1457
▁current	-1458
▁schools	-1459
stitution	-1460
▁Although	-1461
▁military	-1462
zy	-1463
icy	-1464
▁civ	-1465
▁due	-1466
▁god	-1467
▁met	-1468
▁ret	-1469
▁adult	-1470
▁envir	-1471
▁commit	-1472
▁husband	-1473
▁decision	-1474
??	-1475
br	-1476
ned	-1477
ork	-1478
ues	-1479
▁10	-1480
▁On	-1481
utes	-1482
▁adm	-1483
▁art	-1484
▁bit	-1485
ional	-1486
rible	-1487
▁deal	-1488
▁emot	-1489
▁goes	-1490
▁hope	-1491
▁list	-1492
▁took	-1493
▁vide	-1494
▁given	-1495
▁judge	-1496
▁pregn	-1497
▁refer	-1498
▁sever	-1499
▁trans	-1500
▁called	-1501
▁chance	-1502
▁includ	-1503
▁longer	-1504
▁complet	-1505
▁control	-1506
▁friends	-1507
▁however	-1508
idd	-1509
▁es	-1510
▁aff	-1511
▁cop	-1512
ensive	-1513
▁argue	-1514
▁necess	-1515
ES	-1516
It	-1517
bs	-1518
aps	-1519
ets	-1520
ges	-1521
hol	-1522
lim	-1523
ses	-1524
▁sw	-1525
▁ve	-1526
hers	-1527
ines	-1528
iter	-1529
▁bel	-1530
▁dad	-1531
▁doc	-1532
▁exc	-1533
▁fil	-1534
▁low	-1535
▁occ	-1536
▁par	-1537
aving	-1538
▁Also	-1539
▁With	-1540
▁baby	-1541
▁fire	-1542
▁head	-1543
▁open	-1544
▁prof	-1545
▁stay	-1546
▁type	-1547
▁China	-1548
▁First	-1549
▁birth	-1550
▁black	-1551
▁compl	-1552
▁local	-1553
▁speak	-1554
▁super	-1555
ression	-1556
▁actual	-1557
▁easily	-1558
▁inform	-1559
▁intell	-1560
▁itself	-1561
▁partic	-1562
▁prison	-1563
▁states	-1564
▁within	-1565
▁process	-1566
▁student	-1567
▁benefits	-1568
▁continue	-1569
▁drinking	-1570
▁thinking	-1571
▁sometimes	-1572
irl	-1573
ball	-1574
icken	-1575
ounds	-1576
right	-1577
▁huge	-1578
▁house	-1579
▁spouse	-1580
▁unless	-1581
▁product	-1582
pr	-1583
You	-1584
ner	-1585
oof	-1586
uly	-1587
aces	-1588
ased	-1589
cial	-1590
enal	-1591
▁enc	-1592
▁est	-1593
▁gun	-1594
iving	-1595
▁fair	-1596
▁fast	-1597
▁hear	-1598
▁mill	-1599
▁once	-1600
▁pain	-1601
▁rich	-1602
▁teac	-1603
▁test	-1604
▁went	-1605
▁wish	-1606
▁These	-1607
▁heart	-1608
▁incre	-1609
▁innoc	-1610
▁thats	-1611
ulation	-1612
▁amount	-1613
▁market	-1614
sibility	-1615
▁clothes	-1616
▁created	-1617
▁history	-1618
▁service	-1619
▁document	-1620
▁possible	-1621
▁personally	-1622
▁responsible	-1623
ock	-1624
uss	-1625
▁ref	-1626
aking	-1627
icide	-1628
onment	-1629
▁number	-1630
▁reasons	-1631
**	-1632
ee	-1633
▁:	-1634
amp	-1635
ats	-1636
eal	-1637
man	-1638
ange	-1639
itiz	-1640
ntil	-1641
sequ	-1642
wise	-1643
▁She	-1644
▁ori	-1645
▁rid	-1646
▁tow	-1647
▁typ	-1648
ender	-1649
fully	-1650
istic	-1651
llege	-1652
uring	-1653
▁Bush	-1654
▁cant	-1655
▁days	-1656
▁guil	-1657
▁issu	-1658
▁jobs	-1659
▁name	-1660
▁priv	-1661
▁step	-1662
▁tast	-1663
▁walk	-1664
anking	-1665
▁Every	-1666
▁equal	-1667
▁truly	-1668
▁caught	-1669
▁design	-1670
▁myself	-1671
▁nation	-1672
▁wonder	-1673
▁general	-1674
▁dangerous	-1675
▁difference	-1676
aur	-1677
ging	-1678
ured	-1679
▁eng	-1680
▁lar	-1681
▁mot	-1682
iddle	-1683
▁drugs	-1684
▁elect	-1685
▁price	-1686
▁treat	-1687
▁policy	-1688
▁environment	-1689
",	-1690
ED	-1691
ON	-1692
ij	-1693
sh	-1694
And	-1695
fox	-1696
gan	-1697
omm	-1698
urt	-1699
▁19	-1700
▁Ob	-1701
atic	-1702
haps	-1703
itch	-1704
ling	-1705
▁fut	-1706
▁hot	-1707
ively	-1708
ribut	-1709
▁Some	-1710
▁dest	-1711
▁fall	-1712
▁fine	-1713
▁fore	-1714
▁ones	-1715
▁past	-1716
▁rese	-1717
▁stre	-1718
▁team	-1719
▁vote	-1720
▁wife	-1721
▁along	-1722
▁build	-1723
▁games	-1724
▁later	-1725
▁moder	-1726
▁young	-1727
▁lawyer	-1728
▁office	-1729
▁result	-1730
▁single	-1731
▁sports	-1732
▁animals	-1733
▁beliefs	-1734
▁consequ	-1735
▁killing	-1736
▁working	-1737
▁American	-1738
▁innocent	-1739
▁certainly	-1740
▁questions	-1741
▁completely	-1742
▁Christianity	-1743
dd	-1744
aid	-1745
alf	-1746
ime	-1747
▁ey	-1748
ared	-1749
ized	-1750
▁inv	-1751
▁yet	-1752
itted	-1753
▁girl	-1754
▁hate	-1755
▁prom	-1756
▁knows	-1757
▁prefer	-1758
▁chicken	-1759
▁outside	-1760
▁7	-1761
ama	-1762
ana	-1763
ees	-1764
ele	-1765
let	-1766
oot	-1767
ott	-1768
rap	-1769
▁At	-1770
atch	-1771
ised	-1772
like	-1773
ocus	-1774
urch	-1775
▁Can	-1776
▁bar	-1777
▁cra	-1778
▁dev	-1779
▁fig	-1780
▁fit	-1781
▁mal	-1782
▁neg	-1783
ances	-1784
cohol	-1785
ology	-1786
▁appe	-1787
▁cust	-1788
▁dist	-1789
▁film	-1790
▁prim	-1791
▁rece	-1792
enalty	-1793
urther	-1794
verage	-1795
▁citiz	-1796
▁enfor	-1797
▁focus	-1798
▁liber	-1799
▁month	-1800
▁movie	-1801
▁offic	-1802
▁proof	-1803
▁today	-1804
▁trust	-1805
▁works	-1806
ination	-1807
▁easier	-1808
▁honest	-1809
▁indust	-1810
▁please	-1811
▁wanted	-1812
▁college	-1813
▁concept	-1814
▁healthy	-1815
▁knowing	-1816
▁learned	-1817
▁natural	-1818
▁penalty	-1819
▁science	-1820
▁physical	-1821
▁pregnant	-1822
▁supposed	-1823
▁individual	-1824
bers	-1825
▁appro	-1826
▁entire	-1827
▁middle	-1828
▁restaur	-1829
▁usually	-1830
▁position	-1831
▁necessary	-1832
▁especially	-1833
AT	-1834
As	-1835
OO	-1836
eav	-1837
ech	-1838
ird	-1839
isk	-1840
osp	-1841
rop	-1842
umb	-1843
▁20	-1844
▁Af	-1845
▁PE	-1846
▁Re	-1847
,000	-1848
▁Eng	-1849
▁NOT	-1850
▁Now	-1851
▁ill	-1852
▁var	-1853
▁vis	-1854
anies	-1855
cause	-1856
▁Many	-1857
▁Will	-1858
▁cell	-1859
▁dish	-1860
▁game	-1861
▁gave	-1862
▁grad	-1863
▁infl	-1864
▁lack	-1865
▁surv	-1866
▁talk	-1867
▁wast	-1868
ration	-1869
▁Thank	-1870
▁const	-1871
▁deser	-1872
▁front	-1873
▁guess	-1874
▁spend	-1875
▁story	-1876
▁truth	-1877
▁until	-1878
▁video	-1879
▁wants	-1880
▁write	-1881
viously	-1882
▁figure	-1883
▁intern	-1884
▁issues	-1885
▁justif	-1886
▁nature	-1887
▁potent	-1888
volution	-1889
▁attempt	-1890
▁bottled	-1891
▁contact	-1892
▁driving	-1893
▁minutes	-1894
▁prevent	-1895
▁spanking	-1896
▁employees	-1897
▁therefore	-1898
irm	-1899
ield	-1900
▁eth	-1901
▁hom	-1902
▁mess	-1903
▁miss	-1904
▁news	-1905
▁hands	-1906
▁heard	-1907
▁object	-1908
▁status	-1909
▁meaning	-1910
▁suicide	-1911
▁specific	-1912
▁scientific	-1913
!!!	-1914
ash	-1915
iju	-1916
ins	-1917
ips	-1918
irc	-1919
oid	-1920
ret	-1921
▁ok	-1922
▁ur	-1923
ands	-1924
erci	-1925
hood	-1926
ilar	-1927
ires	-1928
more	-1929
olut	-1930
view	-1931
▁cau	-1932
▁col	-1933
▁den	-1934
▁ide	-1935
▁ign	-1936
▁lim	-1937
▁mis	-1938
agine	-1939
ction	-1940
ember	-1941
ouble	-1942
▁dead	-1943
▁host	-1944
▁mass	-1945
▁mist	-1946
▁nice	-1947
▁road	-1948
▁sour	-1949
▁wait	-1950
▁wear	-1951
ession	-1952
inated	-1953
▁accom	-1954
▁begin	-1955
▁cheap	-1956
▁clean	-1957
▁close	-1958
▁early	-1959
▁light	-1960
▁quite	-1961
▁shows	-1962
▁takes	-1963
▁three	-1964
▁worry	-1965
▁action	-1966
▁assume	-1967
▁consum	-1968
▁during	-1969
▁endeav	-1970
▁extrem	-1971
▁future	-1972
▁giving	-1973
▁alcohol	-1974
▁happens	-1975
▁plastic	-1976
▁selfish	-1977
▁univers	-1978
▁writing	-1979
▁creation	-1980
▁intellig	-1981
▁research	-1982
▁services	-1983
▁violence	-1984
▁community	-1985
▁companies	-1986
▁population	-1987
▁punishment	-1988
oub	-1989
▁cu	-1990
▁ir	-1991
esus	-1992
▁half	-1993
▁raped	-1994
▁affect	-1995
▁consci	-1996
▁forget	-1997
▁regard	-1998
▁helping	-1999
2.	-2000
IT	-2001
In	-2002
OU	-2003
ex	-2004
▁6	-2005
But	-2006
acc	-2007
edi	-2008
erm	-2009
hib	-2010
hic	-2011
iam	-2012
ows	-2013
rom	-2014
▁--	-2015
▁30	-2016
▁Bl	-2017
▁Or	-2018
▁aw	-2019
▁jo	-2020
What	-2021
aged	-2022
akes	-2023
ault	-2024
aybe	-2025
cipl	-2026
ffer	-2027
gram	-2028
ilos	-2029
imum	-2030
ined	-2031
ouch	-2032
pose	-2033
rant	-2034
used	-2035
what	-2036
▁Don	-2037
▁Pro	-2038
▁ali	-2039
▁arm	-2040
▁cal	-2041
▁div	-2042
▁gre	-2043
▁sat	-2044
▁suc	-2045
▁sus	-2046
ading	-2047
ained	-2048
ended	-2049
ening	-2050
ering	-2051
ircum	-2052
itive	-2053
ledge	-2054
uslim	-2055
verse	-2056
▁Brit	-2057
▁born	-2058
▁city	-2059
▁guys	-2060
▁lose	-2061
▁risk	-2062
▁sand	-2063
▁scen	-2064
▁scre	-2065
▁sick	-2066
▁wasn	-2067
▁wont	-2068
atives	-2069
esides	-2070
ijuana	-2071
urance	-2072
▁Jesus	-2073
▁Since	-2074
▁Somet	-2075
▁abuse	-2076
▁areas	-2077
▁cover	-2078
▁dress	-2079
▁earth	-2080
▁media	-2081
▁minor	-2082
▁offer	-2083
olutely	-2084
▁asking	-2085
▁attent	-2086
▁charge	-2087
▁concer	-2088
▁create	-2089
▁encour	-2090
▁modern	-2091
▁months	-2092
▁places	-2093
▁speech	-2094
........	-2095
▁William	-2096
▁account	-2097
▁actions	-2098
▁charact	-2099
▁convict	-2100
▁decided	-2101
▁license	-2102
▁present	-2103
▁program	-2104
▁reality	-2105
▁complain	-2106
▁friendly	-2107
▁property	-2108
▁terrible	-2109
▁watching	-2110
▁advancing	-2111
▁extremely	-2112
▁considered	-2113
▁particular	-2114
▁responsibility	-2115
ny	-2116
cent	-2117
ency	-2118
osex	-2119
▁lif	-2120
▁paid	-2121
▁thus	-2122
▁books	-2123
▁value	-2124
▁white	-2125
▁compet	-2126
▁fathers	-2127
▁ordered	-2128
1.	-2129
AN	-2130
ah	-2131
ov	-2132
▁9	-2133
cks	-2134
cri	-2135
oud	-2136
raq	-2137
ube	-2138
▁Cl	-2139
▁Do	-2140
▁IE	-2141
▁Im	-2142
▁Of	-2143
▁sn	-2144
acks	-2145
etus	-2146
land	-2147
lies	-2148
ring	-2149
uals	-2150
▁...	-2151
▁Cub	-2152
▁Let	-2153
▁Our	-2154
▁aut	-2155
▁cut	-2156
▁fat	-2157
▁fav	-2158
▁fel	-2159
▁sug	-2160
▁tor	-2161
▁tot	-2162
asing	-2163
ially	-2164
imate	-2165
ister	-2166
riage	-2167
▁Fire	-2168
▁Your	-2169
▁bull	-2170
▁card	-2171
▁deli	-2172
▁doll	-2173
▁gain	-2174
▁glob	-2175
▁near	-2176
▁redu	-2177
▁stri	-2178
▁tend	-2179
▁wage	-2180
▁warm	-2181
▁week	-2182
itions	-2183
resent	-2184
▁Other	-2185
▁activ	-2186
▁alone	-2187
▁chose	-2188
▁crazy	-2189
▁impro	-2190
▁influ	-2191
▁lunch	-2192
▁organ	-2193
▁pract	-2194
▁sound	-2195
▁table	-2196
▁topic	-2197
▁touch	-2198
▁trade	-2199
▁vehic	-2200
▁worst	-2201
ircumst	-2202
licious	-2203
▁Please	-2204
▁courts	-2205
▁defend	-2206
▁effort	-2207
▁member	-2208
▁philos	-2209
▁prohib	-2210
▁remove	-2211
▁review	-2212
▁second	-2213
▁sexual	-2214
▁superi	-2215
▁taught	-2216
________	-2217
▁capital	-2218
▁content	-2219
▁culture	-2220
▁defense	-2221
▁exactly	-2222
▁justice	-2223
▁quality	-2224
▁realize	-2225
▁several	-2226
▁similar	-2227
▁started	-2228
▁citizens	-2229
▁controll	-2230
▁happened	-2231
▁learning	-2232
▁recently	-2233
▁required	-2234
▁somebody	-2235
▁teachers	-2236
▁arguments	-2237
▁marijuana	-2238
▁represent	-2239
▁information	-2240
erg	-2241
hod	-2242
ogn	-2243
▁rul	-2244
▁told	-2245
▁extra	-2246
▁across	-2247
▁claims	-2248
▁popular	-2249
▁reading	-2250
▁restaurant	-2251
?"	-2252
AL	-2253
LY	-2254
af	-2255
gg	-2256
ze	-2257
▁/	-2258
ark	-2259
com	-2260
eds	-2261
ery	-2262
gth	-2263
hab	-2264
ior	-2265
ler	-2266
ole	-2267
ton	-2268
ury	-2269
▁50	-2270
▁:)	-2271
▁Oh	-2272
▁Sh	-2273
▁ru	-2274
eral	-2275
leep	-2276
nter	-2277
omen	-2278
ones	-2279
ongs	-2280
rael	-2281
reme	-2282
▁Eur	-2283
▁Its	-2284
▁Who	-2285
▁ele	-2286
▁fix	-2287
▁hit	-2288
▁hor	-2289
▁ple	-2290
▁vot	-2291
There	-2292
atory	-2293
ature	-2294
econd	-2295
elebr	-2296
ginal	-2297
icket	-2298
ories	-2299
which	-2300
▁Even	-2301
▁athe	-2302
▁dict	-2303
▁disp	-2304
▁earn	-2305
▁evil	-2306
▁prep	-2307
▁remo	-2308
▁seek	-2309
▁soft	-2310
▁tech	-2311
▁ways	-2312
ercise	-2313
fortun	-2314
ording	-2315
seless	-2316
▁avail	-2317
▁becom	-2318
▁civil	-2319
▁final	-2320
▁gives	-2321
▁grant	-2322
▁labor	-2323
▁large	-2324
▁neigh	-2325
▁occur	-2326
▁skill	-2327
▁spank	-2328
▁worse	-2329
agement	-2330
▁Europe	-2331
▁Muslim	-2332
▁States	-2333
▁adults	-2334
▁animal	-2335
▁celebr	-2336
▁cheese	-2337
▁couple	-2338
▁destro	-2339
▁detail	-2340
▁disapp	-2341
▁eating	-2342
▁guilty	-2343
▁paying	-2344
▁recomm	-2345
▁series	-2346
▁suffer	-2347
▁Because	-2348
▁ability	-2349
▁average	-2350
▁changed	-2351
▁classes	-2352
▁comfort	-2353
▁discipl	-2354
▁discrim	-2355
▁enforce	-2356
▁feeling	-2357
▁founder	-2358
▁himself	-2359
▁imagine	-2360
▁legally	-2361
▁million	-2362
▁perform	-2363
▁purpose	-2364
▁special	-2365
▁trouble	-2366
▁vehicle	-2367
▁willing	-2368
▁circumst	-2369
▁economic	-2370
▁endeavor	-2371
▁exercise	-2372
▁available	-2373
▁delicious	-2374
▁generally	-2375
▁insurance	-2376
▁knowledge	-2377
▁philosoph	-2378
▁terrorists	-2379
▁differently	-2380
▁8	-2381
att	-2382
opt	-2383
par	-2384
▁ep	-2385
▁unf	-2386
▁comb	-2387
▁crap	-2388
▁cred	-2389
▁fant	-2390
▁load	-2391
▁method	-2392
▁recogn	-2393
▁resour	-2394
▁return	-2395
▁homosex	-2396
▁committed	-2397
▁developed	-2398
.3	-2399
20	-2400
EN	-2401
OR	-2402
cl	-2403
mb	-2404
tt	-2405
How	-2406
Why	-2407
dit	-2408
eah	-2409
ike	-2410
ker	-2411
ocr	-2412
oss	-2413
ral	-2414
row	-2415
sec	-2416
ude	-2417
uff	-2418
und	-2419
▁18	-2420
▁Ex	-2421
▁Ne	-2422
▁Sp	-2423
▁TH	-2424
oubt	-2425
rate	-2426
rest	-2427
ried	-2428
they	-2429
uman	-2430
uted	-2431
wich	-2432
work	-2433
▁USA	-2434
▁ago	-2435
▁air	-2436
▁din	-2437
▁fac	-2438
▁hop	-2439
▁mag	-2440
▁oil	-2441
▁pap	-2442
▁rac	-2443
▁sue	-2444
.....	-2445
antly	-2446
ished	-2447
▁Iraq	-2448
▁area	-2449
▁cool	-2450
▁deep	-2451
▁eyes	-2452
▁fill	-2453
▁held	-2454
▁knew	-2455
▁mach	-2456
▁male	-2457
▁meal	-2458
▁none	-2459
▁rent	-2460
▁rout	-2461
▁sett	-2462
▁site	-2463
▁slow	-2464
▁vict	-2465
ablish	-2466
action	-2467
isions	-2468
ission	-2469
▁Canad	-2470
▁Would	-2471
▁above	-2472
▁among	-2473
▁aware	-2474
▁cross	-2475
▁divor	-2476
▁doubt	-2477
▁finan	-2478
▁fries	-2479
▁ident	-2480
▁looks	-2481
▁quick	-2482
▁share	-2483
▁shoot	-2484
▁smart	-2485
▁stuck	-2486
▁techn	-2487
▁tried	-2488
ability	-2489
ication	-2490
ortions	-2491
▁afford	-2492
▁church	-2493
▁couldn	-2494
▁descri	-2495
▁global	-2496
▁helped	-2497
▁immedi	-2498
▁societ	-2499
▁street	-2500
▁values	-2501
▁English	-2502
▁answers	-2503
▁dollars	-2504
▁express	-2505
▁lawyers	-2506
▁leaving	-2507
▁logical	-2508
▁playing	-2509
▁politic	-2510
▁provide	-2511
▁putting	-2512
▁receive	-2513
▁running	-2514
▁survive	-2515
▁watched	-2516
▁although	-2517
▁honestly	-2518
▁instance	-2519
▁murdered	-2520
▁remember	-2521
▁sandwich	-2522
▁superior	-2523
▁Americans	-2524
▁basically	-2525
▁effective	-2526
▁establish	-2527
▁expensive	-2528
▁influence	-2529
▁potential	-2530
▁president	-2531
▁acceptable	-2532
▁discipline	-2533
▁development	-2534
▁interesting	-2535
----------------	-2536
na	-2537
born	-2538
onic	-2539
▁pet	-2540
▁sides	-2541
▁decent	-2542
▁decide	-2543
▁movies	-2544
▁benefit	-2545
▁depends	-2546
'.	-2547
AS	-2548
Al	-2549
He	-2550
IC	-2551
OM	-2552
by	-2553
de	-2554
ma	-2555
ps	-2556
ww	-2557
aws	-2558
azz	-2559
gle	-2560
how	-2561
iod	-2562
ked	-2563
mon	-2564
omp	-2565
ped	-2566
por	-2567
yle	-2568
▁**	-2569
▁UN	-2570
▁hy	-2571
ains	-2572
amed	-2573
angu	-2574
ceed	-2575
chie	-2576
cist	-2577
life	-2578
line	-2579
nect	-2580
nger	-2581
ourt	-2582
over	-2583
resh	-2584
rial	-2585
ties	-2586
▁100	-2587
▁Any	-2588
▁agg	-2589
▁ath	-2590
▁boo	-2591
▁box	-2592
▁gas	-2593
▁hab	-2594
▁nor	-2595
▁opt	-2596
▁tea	-2597
arter	-2598
cient	-2599
icial	-2600
iding	-2601
ooked	-2602
▁Then	-2603
▁auth	-2604
▁cand	-2605
▁exec	-2606
▁face	-2607
▁gall	-2608
▁impe	-2609
▁lost	-2610
▁roll	-2611
▁safe	-2612
▁sold	-2613
choice	-2614
rength	-2615
▁After	-2616
▁asked	-2617
▁basis	-2618
▁behav	-2619
▁carry	-2620
▁favor	-2621
▁fetus	-2622
▁force	-2623
▁fresh	-2624
▁haven	-2625
▁helps	-2626
▁keeps	-2627
▁langu	-2628
▁lower	-2629
▁peace	-2630
▁reach	-2631
▁rehab	-2632
▁taxes	-2633
▁throw	-2634
▁waste	-2635
▁weeks	-2636
itional	-2637
venient	-2638
▁Christ	-2639
▁Thanks	-2640
▁United	-2641
▁aspect	-2642
▁bother	-2643
▁burger	-2644
▁custom	-2645
▁exists	-2646
▁gotten	-2647
▁humans	-2648
▁listen	-2649
▁mental	-2650
▁moment	-2651
▁period	-2652
▁reduce	-2653
▁ticket	-2654
▁wealth	-2655
▁Firefox	-2656
▁Without	-2657
▁accompl	-2658
▁address	-2659
▁constru	-2660
▁foreign	-2661
▁further	-2662
▁growing	-2663
▁letting	-2664
▁members	-2665
▁mention	-2666
▁minimum	-2667
▁obvious	-2668
▁perhaps	-2669
▁persons	-2670
▁profess	-2671
▁project	-2672
▁wearing	-2673
▁younger	-2674
▁accident	-2675
▁contract	-2676
▁greatest	-2677
▁humanity	-2678
▁majority	-2679
▁original	-2680
▁positive	-2681
▁strength	-2682
▁contribut	-2683
▁entertain	-2684
▁happening	-2685
▁ourselves	-2686
▁religions	-2687
▁seriously	-2688
▁absolutely	-2689
▁disappoint	-2690
▁constitution	-2691
▁intelligence	-2692
▁circumstances	-2693
▁understanding	-2694
asy	-2695
isod	-2696
▁bom	-2697
▁dat	-2698
▁obs	-2699
▁base	-2700
▁doct	-2701
▁pict	-2702
▁rape	-2703
▁upon	-2704
option	-2705
▁known	-2706
▁separ	-2707
▁babies	-2708
▁daught	-2709
▁income	-2710
▁invest	-2711
▁possib	-2712
▁proven	-2713
▁conserv	-2714
▁discuss	-2715
▁percent	-2716
▁approach	-2717
▁founding	-2718
▁solution	-2719
▁speaking	-2720
▁conscious	-2721
▁resources	-2722
.*	-2723
.5	-2724
IN	-2725
My	-2726
We	-2727
lo	-2728
ls	-2729
ne	-2730
oh	-2731
ph	-2732
ti	-2733
???	-2734
For	-2735
VER	-2736
Yes	-2737
add	-2738
bar	-2739
cle	-2740
den	-2741
ert	-2742
ids	-2743
ilt	-2744
ipp	-2745
lam	-2746
pre	-2747
pro	-2748
que	-2749
unk	-2750
vis	-2751
▁Pr	-2752
▁tv	-2753
abet	-2754
ator	-2755
efin	-2756
enty	-2757
gers	-2758
ican	-2759
iced	-2760
icul	-2761
ises	-2762
itle	-2763
ived	-2764
kind	-2765
pite	-2766
play	-2767
reds	-2768
rict	-2769
room	-2770
rupt	-2771
that	-2772
uter	-2773
ward	-2774
▁Act	-2775
▁ann	-2776
▁bed	-2777
▁boy	-2778
▁dut	-2779
▁ess	-2780
▁fed	-2781
▁hur	-2782
▁ult	-2783
alism	-2784
ament	-2785
ators	-2786
azing	-2787
cover	-2788
iring	-2789
izing	-2790
light	-2791
oices	-2792
oring	-2793
ropri	-2794
▁Both	-2795
▁Good	-2796
▁Look	-2797
▁cent	-2798
▁cops	-2799
▁dumb	-2800
▁feed	-2801
▁firm	-2802
▁forg	-2803
▁hund	-2804
▁hurt	-2805
▁init	-2806
▁lots	-2807
▁luck	-2808
▁mand	-2809
▁norm	-2810
▁pers	-2811
▁poll	-2812
▁race	-2813
▁rate	-2814
▁soon	-2815
▁tort	-2816
▁trad	-2817
acking	-2818
arents	-2819
itness	-2820
lement	-2821
lusion	-2822
orning	-2823
ottled	-2824
▁Court	-2825
▁Maybe	-2826
▁achie	-2827
▁below	-2828
▁bills	-2829
▁built	-2830
▁check	-2831
▁effic	-2832
▁feels	-2833
▁field	-2834
▁oppos	-2835
▁paper	-2836
▁phone	-2837
▁proud	-2838
▁short	-2839
▁smoke	-2840
▁stuff	-2841
▁title	-2842
▁train	-2843
▁views	-2844
artment	-2845
endment	-2846
ionally	-2847
ization	-2848
▁Change	-2849
▁School	-2850
▁allows	-2851
▁anyway	-2852
▁behind	-2853
▁casual	-2854
▁causes	-2855
▁demand	-2856
▁diabet	-2857
▁diffic	-2858
▁forced	-2859
▁gender	-2860
▁groups	-2861
▁histor	-2862
▁passed	-2863
▁prices	-2864
▁racism	-2865
▁report	-2866
▁seeing	-2867
▁spread	-2868
▁amazing	-2869
▁brought	-2870
▁capable	-2871
▁chances	-2872
▁clearly	-2873
▁connect	-2874
▁continu	-2875
▁details	-2876
▁divorce	-2877
▁drivers	-2878
▁leaders	-2879
▁private	-2880
▁related	-2881
▁ridicul	-2882
▁smoking	-2883
▁success	-2884
▁suggest	-2885
▁useless	-2886
▁warming	-2887
▁Marriage	-2888
▁building	-2889
▁directly	-2890
▁neighbor	-2891
▁rational	-2892
▁requires	-2893
▁thoughts	-2894
▁uniforms	-2895
▁Obviously	-2896
▁Sometimes	-2897
▁attention	-2898
▁character	-2899
▁christian	-2900
▁condition	-2901
▁currently	-2902
▁decisions	-2903
▁employers	-2904
▁financial	-2905
▁somewhere	-2906
▁standards	-2907
▁generation	-2908
▁immediately	-2909
▁consequences	-2910
▁relationships	-2911
ify	-2912
ager	-2913
▁aud	-2914
▁tac	-2915
ience	-2916
▁argu	-2917
▁bank	-2918
▁flag	-2919
▁lazy	-2920
▁repl	-2921
▁vers	-2922
▁apply	-2923
▁blood	-2924
▁motiv	-2925
▁raise	-2926
▁reven	-2927
▁advice	-2928
▁civili	-2929
▁episod	-2930
ervation	-2931
▁anybody	-2932
▁brother	-2933
▁complex	-2934
▁effects	-2935
▁adoption	-2936
▁possibly	-2937
▁properly	-2938
▁definition	-2939
▁developing	-2940
▁homosexual	-2941
2)	-2942
4.	-2943
ID	-2944
LE	-2945
MA	-2946
OL	-2947
TS	-2948
To	-2949
ax	-2950
eg	-2951
ev	-2952
my	-2953
no	-2954
tr	-2955
vy	-2956
ye	-2957
.2.	-2958
Its	-2959
aut	-2960
avy	-2961
don	-2962
eak	-2963
egr	-2964
erk	-2965
isp	-2966
nce	-2967
nel	-2968
ops	-2969
ots	-2970
rib	-2971
uit	-2972
ump	-2973
ung	-2974
you	-2975
zer	-2976
▁AN	-2977
▁ST	-2978
▁Tw	-2979
▁ca	-2980
▁da	-2981
▁fa	-2982
▁nu	-2983
▁pu	-2984
Edit	-2985
airs	-2986
alif	-2987
alse	-2988
augh	-2989
aves	-2990
cies	-2991
ener	-2992
head	-2993
ired	-2994
mosp	-2995
oard	-2996
olit	-2997
outh	-2998
rodu	-2999
ship	-3000
time	-3001
▁Che	-3002
▁Con	-3003
▁Ear	-3004
▁Mac	-3005
▁One	-3006
▁Wor	-3007
▁YOU	-3008
▁bag	-3009
▁bal	-3010
▁ban	-3011
▁bod	-3012
▁cow	-3013
▁los	-3014
▁red	-3015
▁sad	-3016
▁sen	-3017
▁ste	-3018
▁tap	-3019
▁ten	-3020
▁tip	-3021
alled	-3022
cture	-3023
esity	-3024
inate	-3025
inist	-3026
itten	-3027
rated	-3028
riend	-3029
▁alot	-3030
▁burn	-3031
▁busy	-3032
▁date	-3033
▁dram	-3034
▁exce	-3035
▁goal	-3036
▁gone	-3037
▁hair	-3038
▁hide	-3039
▁kept	-3040
▁mine	-3041
▁plus	-3042
▁pred	-3043
▁push	-3044
▁rele	-3045
▁save	-3046
▁teen	-3047
▁town	-3048
▁vacc	-3049
▁weak	-3050
erhaps	-3051
▁Islam	-3052
▁While	-3053
▁admit	-3054
▁avoid	-3055
▁boost	-3056
▁brows	-3057
▁cards	-3058
▁catch	-3059
▁event	-3060
▁exper	-3061
▁fault	-3062
▁goals	-3063
▁gradu	-3064
▁grand	-3065
▁hours	-3066
▁immig	-3067
▁imple	-3068
▁inher	-3069
▁insan	-3070
▁laugh	-3071
▁liter	-3072
▁obese	-3073
▁overp	-3074
▁owner	-3075
▁serve	-3076
▁ships	-3077
▁solve	-3078
▁space	-3079
▁steal	-3080
▁thous	-3081
▁toler	-3082
▁union	-3083
▁wages	-3084
▁words	-3085
However	-3086
ressive	-3087
▁Father	-3088
▁Indian	-3089
▁Israel	-3090
▁access	-3091
▁active	-3092
▁advant	-3093
▁athlet	-3094
▁atmosp	-3095
▁belong	-3096
▁condem	-3097
▁drinks	-3098
▁driver	-3099
▁essent	-3100
▁extens	-3101
▁faster	-3102
▁ignore	-3103
▁intent	-3104
▁lifest	-3105
▁nobody	-3106
▁notice	-3107
▁planet	-3108
▁plates	-3109
▁racist	-3110
▁recent	-3111
▁select	-3112
▁threat	-3113
▁unlike	-3114
ropriate	-3115
▁British	-3116
▁anymore	-3117
▁biggest	-3118
▁charged	-3119
▁explain	-3120
▁include	-3121
▁keeping	-3122
▁missing	-3123
▁morning	-3124
▁nations	-3125
▁primary	-3126
▁regular	-3127
▁removed	-3128
▁showing	-3129
▁species	-3130
▁suspect	-3131
▁various	-3132
▁written	-3133
▁behavior	-3134
▁believes	-3135
▁describe	-3136
▁designed	-3137
▁expected	-3138
▁feelings	-3139
▁fighting	-3140
▁hundreds	-3141
▁identity	-3142
▁increase	-3143
▁internet	-3144
▁millions	-3145
▁mistakes	-3146
▁national	-3147
▁negative	-3148
▁officers	-3149
▁previous	-3150
▁provides	-3151
▁restrict	-3152
▁societal	-3153
▁software	-3154
▁standard	-3155
▁starting	-3156
▁stopping	-3157
▁universe	-3158
▁according	-3159
▁difficult	-3160
▁emotional	-3161
▁fundament	-3162
▁implement	-3163
▁including	-3164
▁interests	-3165
▁justified	-3166
▁otherwise	-3167
▁protected	-3168
▁recession	-3169
▁recommend	-3170
▁atmosphere	-3171
▁convenient	-3172
▁industrial	-3173
▁ridiculous	-3174
▁situations	-3175
▁throughout	-3176
▁consequence	-3177
▁individuals	-3178
▁15	-3179
cket	-3180
orry	-3181
▁sec	-3182
▁damn	-3183
▁dogs	-3184
▁menu	-3185
▁mere	-3186
▁perm	-3187
▁cells	-3188
▁facts	-3189
▁teens	-3190
▁damage	-3191
▁instit	-3192
▁server	-3193
▁advance	-3194
▁ethical	-3195
▁fantasy	-3196
!)	-3197
.)	-3198
.-	-3199
10	-3200
AR	-3201
go	-3202
kn	-3203
za	-3204
.00	-3205
.3.	-3206
CMV	-3207
Don	-3208
ady	-3209
agn	-3210
aly	-3211
ape	-3212
eed	-3213
ext	-3214
isf	-3215
ley	-3216
mar	-3217
mas	-3218
men	-3219
ney	-3220
oes	-3221
pay	-3222
pet	-3223
ran	-3224
udd	-3225
upp	-3226
zed	-3227
▁16	-3228
▁21	-3229
▁Ad	-3230
▁Am	-3231
▁Ar	-3232
▁By	-3233
▁DA	-3234
▁IN	-3235
▁IS	-3236
▁PR	-3237
▁Ph	-3238
▁Ro	-3239
▁Sc	-3240
▁UK	-3241
▁bi	-3242
▁vs	-3243
EDIT	-3244
Just	-3245
They	-3246
ades	-3247
anas	-3248
ancy	-3249
ases	-3250
ateg	-3251
ders	-3252
ered	-3253
etic	-3254
gree	-3255
iber	-3256
icks	-3257
iety	-3258
ivil	-3259
izes	-3260
just	-3261
oman	-3262
ples	-3263
port	-3264
rito	-3265
ster	-3266
vert	-3267
▁200	-3268
▁Edu	-3269
▁Law	-3270
▁Nob	-3271
▁dom	-3272
▁gar	-3273
▁lat	-3274
▁piz	-3275
▁sac	-3276
▁son	-3277
▁sum	-3278
▁tar	-3279
▁unw	-3280
_____	-3281
aging	-3282
andom	-3283
apped	-3284
arely	-3285
arily	-3286
belie	-3287
enced	-3288
enses	-3289
erous	-3290
esome	-3291
hical	-3292
ingly	-3293
llent	-3294
owing	-3295
stead	-3296
urons	-3297
▁From	-3298
▁Life	-3299
▁Plus	-3300
▁Sure	-3301
▁Yout	-3302
▁acts	-3303
▁adap	-3304
▁bail	-3305
▁band	-3306
▁cold	-3307
▁debt	-3308
▁felt	-3309
▁fuel	-3310
▁gays	-3311
▁late	-3312
▁lets	-3313
▁link	-3314
▁mult	-3315
▁nood	-3316
▁note	-3317
▁pack	-3318
▁rely	-3319
▁role	-3320
▁rule	-3321
▁sale	-3322
▁sort	-3323
▁warn	-3324
▁wars	-3325
Americ	-3326
itable	-3327
ligion	-3328
ressed	-3329
ternet	-3330
▁Calif	-3331
▁Defin	-3332
▁Those	-3333
▁alive	-3334
▁basic	-3335
▁bible	-3336
▁bunch	-3337
▁cream	-3338
▁girls	-3339
▁grade	-3340
▁grown	-3341
▁honor	-3342
▁ideas	-3343
▁ignor	-3344
▁initi	-3345
▁lawsu	-3346
▁lived	-3347
▁logic	-3348
▁meant	-3349
▁oblig	-3350
▁older	-3351
▁party	-3352
▁prime	-3353
▁salad	-3354
▁scene	-3355
▁songs	-3356
▁store	-3357
▁sucks	-3358
▁taste	-3359
▁thier	-3360
▁types	-3361
▁whats	-3362
covered	-3363
ilities	-3364
imately	-3365
itation	-3366
▁applic	-3367
▁arrest	-3368
▁bigger	-3369
▁bullsh	-3370
▁convin	-3371
▁crimin	-3372
▁degree	-3373
▁determ	-3374
▁device	-3375
▁dinner	-3376
▁failed	-3377
▁famili	-3378
▁habits	-3379
▁highly	-3380
▁integr	-3381
▁looked	-3382
▁minors	-3383
▁normal	-3384
▁origin	-3385
▁played	-3386
▁plenty	-3387
▁prosec	-3388
▁random	-3389
▁remind	-3390
▁satisf	-3391
▁search	-3392
▁served	-3393
▁starts	-3394
▁switch	-3395
▁useful	-3396
▁victim	-3397
atically	-3398
▁achieve	-3399
▁attract	-3400
▁browser	-3401
▁burrito	-3402
▁changes	-3403
▁choices	-3404
▁contain	-3405
▁counter	-3406
▁debates	-3407
▁factors	-3408
▁federal	-3409
▁firefox	-3410
▁hurting	-3411
▁impeach	-3412
▁improve	-3413
▁mankind	-3414
▁methods	-3415
▁mothers	-3416
▁obesity	-3417
▁records	-3418
▁selling	-3419
▁systems	-3420
▁teacher	-3421
▁towards	-3422
▁treated	-3423
▁warrant	-3424
▁witness	-3425
▁Californ	-3426
▁Canadian	-3427
▁Everyone	-3428
▁activity	-3429
▁allowing	-3430
▁computer	-3431
▁creating	-3432
▁employer	-3433
▁favorite	-3434
▁function	-3435
▁language	-3436
▁morality	-3437
▁murderer	-3438
▁particip	-3439
▁politics	-3440
▁products	-3441
▁provided	-3442
▁reaction	-3443
▁signific	-3444
▁teaching	-3445
▁Education	-3446
▁amendment	-3447
▁convicted	-3448
▁depending	-3449
▁excellent	-3450
▁existence	-3451
▁literally	-3452
▁referring	-3453
▁respected	-3454
▁statement	-3455
▁suffering	-3456
▁typically	-3457
▁violation	-3458
▁accomplish	-3459
▁assumption	-3460
▁conditions	-3461
▁historical	-3462
▁increasing	-3463
▁philosophy	-3464
▁protection	-3465
▁reasonable	-3466
▁regardless	-3467
▁settlement	-3468
▁comfortable	-3469
▁enforcement	-3470
▁established	-3471
▁politicians	-3472
▁disappointed	-3473
▁discrimination	-3474
ters	-3475
▁cup	-3476
▁inj	-3477
agers	-3478
rison	-3479
▁amer	-3480
▁curi	-3481
▁meat	-3482
▁oper	-3483
▁accur	-3484
▁loved	-3485
▁third	-3486
▁tough	-3487
▁except	-3488
▁pocket	-3489
▁refuse	-3490
▁salary	-3491
▁sounds	-3492
▁unborn	-3493
▁consent	-3494
▁respond	-3495
▁changing	-3496
▁daughter	-3497
▁episodes	-3498
▁imprison	-3499
▁programs	-3500
▁following	-3501
▁supporting	-3502
▁consciousness	-3503
',	-3504
,"	-3505
.(	-3506
//	-3507
11	-3508
7.	-3509
?-	-3510
CT	-3511
Ch	-3512
EL	-3513
ET	-3514
NA	-3515
UT	-3516
ek	-3517
gu	-3518
me	-3519
rd	-3520
://	-3521
Any	-3522
ING	-3523
Not	-3524
ams	-3525
bel	-3526
cer	-3527
cho	-3528
cul	-3529
del	-3530
eel	-3531
een	-3532
eor	-3533
hes	-3534
ift	-3535
ium	-3536
kay	-3537
kin	-3538
law	-3539
nic	-3540
ode	-3541
off	-3542
ond	-3543
sed	-3544
she	-3545
top	-3546
ttp	-3547
unt	-3548
val	-3549
why	-3550
▁Es	-3551
▁FF	-3552
▁Fr	-3553
▁Go	-3554
▁Gu	-3555
▁ID	-3556
▁NO	-3557
▁Pl	-3558
▁Po	-3559
▁WW	-3560
▁ho	-3561
▁ju	-3562
With	-3563
Your	-3564
aced	-3565
aded	-3566
apan	-3567
book	-3568
care	-3569
come	-3570
fact	-3571
gain	-3572
iles	-3573
inct	-3574
ival	-3575
lied	-3576
live	-3577
orer	-3578
oted	-3579
rass	-3580
real	-3581
rees	-3582
roat	-3583
sing	-3584
some	-3585
tery	-3586
vant	-3587
well	-3588
zero	-3589
▁Are	-3590
▁Bet	-3591
▁DNA	-3592
▁Did	-3593
▁Fri	-3594
▁Ham	-3595
▁Man	-3596
▁New	-3597
▁bro	-3598
▁cig	-3599
▁cuz	-3600
▁emp	-3601
▁fem	-3602
▁ing	-3603
▁lob	-3604
▁mix	-3605
▁nob	-3606
▁pal	-3607
▁pie	-3608
▁saf	-3609
▁sau	-3610
▁saw	-3611
▁sem	-3612
▁sou	-3613
▁spo	-3614
▁squ	-3615
▁swe	-3616
▁tem	-3617
▁uns	-3618
0,000	-3619
achos	-3620
ankly	-3621
estin	-3622
igher	-3623
imacy	-3624
iment	-3625
imony	-3626
ining	-3627
isted	-3628
itled	-3629
lient	-3630
llect	-3631
ograp	-3632
onest	-3633
ortun	-3634
round	-3635
stant	-3636
stood	-3637
tered	-3638
there	-3639
urity	-3640
verty	-3641
▁Crim	-3642
▁Cuba	-3643
▁Geor	-3644
▁Iran	-3645
▁Kids	-3646
▁King	-3647
▁Like	-3648
▁Lion	-3649
▁Luck	-3650
▁Mich	-3651
▁Pres	-3652
▁Russ	-3653
▁abst	-3654
▁adul	-3655
▁anti	-3656
▁bele	-3657
▁camp	-3658
▁cere	-3659
▁chem	-3660
▁clot	-3661
▁copy	-3662
▁dark	-3663
▁degr	-3664
▁drop	-3665
▁duty	-3666
▁empt	-3667
▁fort	-3668
▁hang	-3669
▁hire	-3670
▁hosp	-3671
▁impl	-3672
▁jack	-3673
▁kick	-3674
▁mama	-3675
▁onto	-3676
▁peop	-3677
▁pier	-3678
▁piss	-3679
▁prog	-3680
▁rise	-3681
▁room	-3682
▁sals	-3683
▁send	-3684
▁shop	-3685
▁star	-3686
▁unet	-3687
▁uses	-3688
▁whom	-3689
▁yeah	-3690
Second	-3691
anasia	-3692
enders	-3693
estern	-3694
formed	-3695
iction	-3696
idates	-3697
illing	-3698
prised	-3699
ternal	-3700
urally	-3701
▁Being	-3702
▁Bible	-3703
▁Earth	-3704
▁House	-3705
▁Japan	-3706
▁Obama	-3707
▁Right	-3708
▁Water	-3709
▁World	-3710
▁aside	-3711
▁autom	-3712
▁beaut	-3713
▁bland	-3714
▁bound	-3715
▁bread	-3716
▁clerk	-3717
▁conce	-3718
▁contr	-3719
▁costs	-3720
▁drive	-3721
▁ended	-3722
▁faith	-3723
▁fully	-3724
▁liked	-3725
▁meals	-3726
▁minds	-3727
▁model	-3728
▁motto	-3729
▁moved	-3730
▁parts	-3731
▁patio	-3732
▁pizza	-3733
▁signs	-3734
▁sleep	-3735
▁steps	-3736
▁strug	-3737
▁study	-3738
▁tempt	-3739
▁total	-3740
▁vital	-3741
▁wheel	-3742
ountain	-3743
veryone	-3744
▁Friday	-3745
▁Having	-3746
▁Scient	-3747
▁Second	-3748
▁abused	-3749
▁altern	-3750
▁appear	-3751
▁author	-3752
▁breaks	-3753
▁career	-3754
▁cooked	-3755
▁corpor	-3756
▁define	-3757
▁denied	-3758
▁extent	-3759
▁incred	-3760
▁judges	-3761
▁nearly	-3762
▁needed	-3763
▁remain	-3764
▁retain	-3765
▁reward	-3766
▁scenar	-3767
▁signed	-3768
▁skills	-3769
▁source	-3770
▁specif	-3771
▁stress	-3772
▁surely	-3773
▁tenant	-3774
▁thinks	-3775
▁underm	-3776
▁videos	-3777
▁voting	-3778
▁worked	-3779
!!!!!!!!	-3780
inations	-3781
ribution	-3782
▁Besides	-3783
▁Bottled	-3784
▁Youtube	-3785
▁aspects	-3786
▁balance	-3787
▁becomes	-3788
▁calling	-3789
▁climate	-3790
▁complic	-3791
▁concent	-3792
▁convers	-3793
▁creator	-3794
▁custody	-3795
▁despite	-3796
▁display	-3797
▁dispute	-3798
▁forever	-3799
▁granted	-3800
▁greater	-3801
▁grounds	-3802
▁hearing	-3803
▁helpful	-3804
▁justify	-3805
▁leading	-3806
▁massive	-3807
▁medical	-3808
▁mistake	-3809
▁morally	-3810
▁neurons	-3811
▁noodles	-3812
▁noticed	-3813
▁overall	-3814
▁partner	-3815
▁passing	-3816
▁picture	-3817
▁poverty	-3818
▁produce	-3819
▁promote	-3820
▁quickly	-3821
▁raffles	-3822
▁request	-3823
▁setting	-3824
▁spanked	-3825
▁stopped	-3826
▁telling	-3827
▁totally	-3828
▁variety	-3829
▁violent	-3830
▁waiting	-3831
▁workers	-3832
ification	-3833
uthanasia	-3834
▁Actually	-3835
▁Internet	-3836
▁Unfortun	-3837
▁administ	-3838
▁becoming	-3839
▁birthday	-3840
▁delivery	-3841
▁dramatic	-3842
▁entirely	-3843
▁entitled	-3844
▁exciting	-3845
▁horrible	-3846
▁industry	-3847
▁maintain	-3848
▁opportun	-3849
▁powerful	-3850
▁prepared	-3851
▁punished	-3852
▁relation	-3853
▁relative	-3854
▁socially	-3855
▁stranger	-3856
▁unfortun	-3857
▁President	-3858
▁abortions	-3859
▁agreement	-3860
▁beginning	-3861
▁childhood	-3862
▁complaint	-3863
▁concerned	-3864
▁convinced	-3865
▁criminals	-3866
▁dictators	-3867
▁efficient	-3868
▁encourage	-3869
▁intellect	-3870
▁lifestyle	-3871
▁mandatory	-3872
▁obviously	-3873
▁perfectly	-3874
▁sentenced	-3875
▁surprised	-3876
▁terrorist	-3877
▁thousands	-3878
▁transport	-3879
▁unethical	-3880
▁wonderful	-3881
▁wondering	-3882
▁Especially	-3883
▁beneficial	-3884
▁casualties	-3885
▁management	-3886
▁protecting	-3887
▁technology	-3888
▁ultimately	-3889
▁university	-3890
▁appropriate	-3891
▁emotionally	-3892
▁essentially	-3893
▁fundamental	-3894
▁performance	-3895
▁possibility	-3896
▁reservation	-3897
▁traditional	-3898
▁conversation	-3899
▁conservatives	-3900
▁entertainment	-3901
▁administration	-3902
________________	-3903
otes	-3904
▁gang	-3905
▁gold	-3906
idents	-3907
▁block	-3908
▁emerg	-3909
▁india	-3910
▁rebut	-3911
▁rules	-3912
▁weird	-3913
▁bought	-3914
▁engine	-3915
▁arguing	-3916
▁conflic	-3917
▁deserve	-3918
▁matters	-3919
▁baseball	-3920
▁deserves	-3921
▁petition	-3922
▁separate	-3923
▁objective	-3924
!"	-3925
"?	-3926
?!	-3927
IG	-3928
No	-3929
OP	-3930
RE	-3931
ST	-3932
UN	-3933
UR	-3934
da	-3935
do	-3936
gt	-3937
hy	-3938
mm	-3939
mo	-3940
mp	-3941
of	-3942
rs	-3943
sy	-3944
xx	-3945
yo	-3946
▁)	-3947
▁?	-3948
.4.	-3949
:1.	-3950
ATE	-3951
HER	-3952
ICE	-3953
Now	-3954
aci	-3955
ait	-3956
ald	-3957
ale	-3958
ann	-3959
ask	-3960
ato	-3961
aul	-3962
bed	-3963
car	-3964
ctr	-3965
dis	-3966
ean	-3967
eem	-3968
gor	-3969
ina	-3970
inc	-3971
irt	-3972
jud	-3973
lex	-3974
obb	-3975
oen	-3976
ohn	-3977
oin	-3978
omy	-3979
oos	-3980
put	-3981
reg	-3982
tar	-3983
urb	-3984
was	-3985
wed	-3986
www	-3987
▁..	-3988
▁1)	-3989
▁1/	-3990
▁12	-3991
▁60	-3992
▁DO	-3993
▁El	-3994
▁Fl	-3995
▁HA	-3996
▁Ma	-3997
▁Mc	-3998
▁NE	-3999
▁OK	-4000
▁PC	-4001
▁SH	-4002
Also	-4003
Good	-4004
alls	-4005
anda	-4006
appy	-4007
back	-4008
ccer	-4009
cers	-4010
cons	-4011
erve	-4012
gant	-4013
gust	-4014
ials	-4015
illa	-4016
ills	-4017
illy	-4018
inci	-4019
iple	-4020
irty	-4021
lier	-4022
lled	-4023
long	-4024
mbol	-4025
oooo	-4026
ores	-4027
otic	-4028
part	-4029
plom	-4030
ream	-4031
reci	-4032
requ	-4033
rive	-4034
soci	-4035
this	-4036
utch	-4037
when	-4038
▁Add	-4039
▁App	-4040
▁Com	-4041
▁Gay	-4042
▁Hit	-4043
▁Jud	-4044
▁Mex	-4045
▁Pil	-4046
▁Sup	-4047
▁bow	-4048
▁enh	-4049
▁fol	-4050
▁gaz	-4051
▁lay	-4052
▁led	-4053
▁loc	-4054
▁mer	-4055
▁nut	-4056
▁ped	-4057
▁rob	-4058
▁spl	-4059
▁sup	-4060
▁unc	-4061
▁upd	-4062
▁yog	-4063
While	-4064
alian	-4065
allen	-4066
arden	-4067
aries	-4068
asure	-4069
athol	-4070
board	-4071
bsite	-4072
cking	-4073
emocr	-4074
epend	-4075
human	-4076
icing	-4077
ified	-4078
inter	-4079
inton	-4080
ising	-4081
itals	-4082
lines	-4083
ocide	-4084
onder	-4085
onent	-4086
oting	-4087
point	-4088
pping	-4089
rency	-4090
ronic	-4091
thood	-4092
uable	-4093
ufact	-4094
useum	-4095
while	-4096
woman	-4097
▁Aust	-4098
▁Beef	-4099
▁Cons	-4100
▁EVER	-4101
▁Face	-4102
▁John	-4103
▁Make	-4104
▁Okay	-4105
▁Over	-4106
▁Pray	-4107
▁Reds	-4108
▁Very	-4109
▁Yeah	-4110
▁adam	-4111
▁ages	-4112
▁arch	-4113
▁bush	-4114
▁calm	-4115
▁cash	-4116
▁died	-4117
▁elim	-4118
▁fear	-4119
▁feet	-4120
▁flav	-4121
▁flaw	-4122
▁foot	-4123
▁four	-4124
▁guns	-4125
▁hars	-4126
▁intr	-4127
▁jury	-4128
▁lady	-4129
▁meet	-4130
▁okay	-4131
▁pick	-4132
▁plat	-4133
▁pool	-4134
▁poss	-4135
▁pros	-4136
▁recy	-4137
▁seat	-4138
▁slap	-4139
▁soda	-4140
▁sole	-4141
▁spir	-4142
▁ster	-4143
▁stra	-4144
▁susp	-4145
▁text	-4146
▁tons	-4147
▁tool	-4148
▁user	-4149
▁wind	-4150
▁womb	-4151
......	-4152
Please	-4153
aganda	-4154
ateful	-4155
atures	-4156
employ	-4157
encies	-4158
gender	-4159
gorith	-4160
ground	-4161
hesive	-4162
ogical	-4163
omever	-4164
ounter	-4165
preted	-4166
ulated	-4167
ulting	-4168
vision	-4169
▁Afric	-4170
▁Black	-4171
▁Count	-4172
▁Dutch	-4173
▁Elvis	-4174
▁Gener	-4175
▁Human	-4176
▁Liber	-4177
▁Mario	-4178
▁State	-4179
▁Their	-4180
▁White	-4181
▁alien	-4182
▁annoy	-4183
▁attit	-4184
▁blind	-4185
▁brand	-4186
▁breat	-4187
▁candy	-4188
▁cares	-4189
▁chips	-4190
▁curvy	-4191
▁embar	-4192
▁empty	-4193
▁energ	-4194
▁false	-4195
▁forms	-4196
▁guilt	-4197
▁heavy	-4198
▁impos	-4199
▁kinda	-4200
▁lines	-4201
▁marry	-4202
▁miles	-4203
▁mouth	-4204
▁moves	-4205
▁named	-4206
▁patri	-4207
▁plain	-4208
▁press	-4209
▁purch	-4210
▁ready	-4211
▁relie	-4212
▁round	-4213
▁ruled	-4214
▁salsa	-4215
▁shape	-4216
▁shown	-4217
▁sight	-4218
▁stars	-4219
▁stick	-4220
▁tacos	-4221
▁terms	-4222
▁tests	-4223
▁theft	-4224
▁trial	-4225
▁trick	-4226
▁whose	-4227
▁yours	-4228
▁youth	-4229
atching	-4230
hington	-4231
iveness	-4232
ootball	-4233
ublican	-4234
▁Better	-4235
▁Church	-4236
▁George	-4237
▁Honest	-4238
▁Really	-4239
▁Russia	-4240
▁advert	-4241
▁bodies	-4242
▁bottle	-4243
▁bottom	-4244
▁brains	-4245
▁caused	-4246
▁cities	-4247
▁client	-4248
▁closed	-4249
▁colour	-4250
▁cowork	-4251
▁criter	-4252
▁democr	-4253
▁depend	-4254
▁diplom	-4255
▁downlo	-4256
▁estate	-4257
▁explan	-4258
▁facing	-4259
▁factor	-4260
▁fairly	-4261
▁forgot	-4262
▁fortun	-4263
▁grades	-4264
▁ground	-4265
▁higher	-4266
▁impact	-4267
▁invent	-4268
▁latest	-4269
▁lesson	-4270
▁liable	-4271
▁mainly	-4272
▁memory	-4273
▁mostly	-4274
▁museum	-4275
▁nachos	-4276
▁online	-4277
▁owners	-4278
▁perpet	-4279
▁poorly	-4280
▁safety	-4281
▁seemed	-4282
▁solved	-4283
▁stance	-4284
▁strict	-4285
▁symbol	-4286
▁target	-4287
▁tasted	-4288
▁taxpay	-4289
▁thanks	-4290
▁unions	-4291
▁unique	-4292
▁waiter	-4293
▁walked	-4294
gendered	-4295
ological	-4296
▁Another	-4297
▁Austral	-4298
▁Chinese	-4299
▁Further	-4300
▁Indians	-4301
▁Instead	-4302
▁Parents	-4303
▁Perhaps	-4304
▁Supreme	-4305
▁absence	-4306
▁appreci	-4307
▁awesome	-4308
▁beating	-4309
▁besides	-4310
▁charges	-4311
▁collect	-4312
▁concern	-4313
▁corrupt	-4314
▁destroy	-4315
▁disgust	-4316
▁dishwas	-4317
▁expense	-4318
▁failure	-4319
▁greatly	-4320
▁highest	-4321
▁holding	-4322
▁largest	-4323
▁lawsuit	-4324
▁machine	-4325
▁objects	-4326
▁options	-4327
▁outcome	-4328
▁peoples	-4329
▁portion	-4330
▁prepare	-4331
▁privacy	-4332
▁reviews	-4333
▁smaller	-4334
▁somehow	-4335
▁trading	-4336
▁turning	-4337
▁wanting	-4338
▁wasting	-4339
▁website	-4340
▁worried	-4341
itionally	-4342
▁accepted	-4343
▁american	-4344
▁anywhere	-4345
▁arrested	-4346
▁atheists	-4347
▁athletes	-4348
▁believed	-4349
▁bringing	-4350
▁chemical	-4351
▁clothing	-4352
▁cohesive	-4353
▁convince	-4354
▁cultural	-4355
▁currency	-4356
▁customer	-4357
▁emotions	-4358
▁executed	-4359
▁external	-4360
▁genocide	-4361
▁ignorant	-4362
▁independ	-4363
▁informed	-4364
▁internal	-4365
▁machines	-4366
▁manufact	-4367
▁minister	-4368
▁movement	-4369
▁multiple	-4370
▁numerous	-4371
▁opposite	-4372
▁pursuing	-4373
▁released	-4374
▁response	-4375
▁severely	-4376
▁somewhat	-4377
▁spending	-4378
▁stronger	-4379
▁Evolution	-4380
▁Something	-4381
▁advantage	-4382
▁authority	-4383
▁celebrity	-4384
▁condemned	-4385
▁construct	-4386
▁container	-4387
▁continued	-4388
▁correctly	-4389
▁encounter	-4390
▁happiness	-4391
▁involving	-4392
▁judgement	-4393
▁naturally	-4394
▁presented	-4395
▁realistic	-4396
▁socialism	-4397
▁universal	-4398
▁California	-4399
▁Definitely	-4400
▁activities	-4401
▁characters	-4402
▁conclusion	-4403
▁confidence	-4404
▁conscience	-4405
▁depression	-4406
▁documented	-4407
▁everywhere	-4408
▁graduation	-4409
▁impossible	-4410
▁revolution	-4411
▁temptation	-4412
▁understood	-4413
▁alternative	-4414
▁application	-4415
▁differences	-4416
▁effectively	-4417
▁necessarily	-4418
▁prohibition	-4419
▁construction	-4420
▁neighborhood	-4421
▁particularly	-4422
▁professional	-4423
▁prostitution	-4424
▁Unfortunately	-4425
▁contributions	-4426
▁individuality	-4427
▁transgendered	-4428
ils	-4429
ita	-4430
anna	-4431
icip	-4432
▁eye	-4433
▁odd	-4434
▁pup	-4435
▁quo	-4436
▁data	-4437
▁suck	-4438
▁blame	-4439
▁county	-4440
▁credit	-4441
▁pupils	-4442
▁supply	-4443
▁unfair	-4444
▁offense	-4445
▁parties	-4446
▁replace	-4447
▁version	-4448
▁accurate	-4449
▁addition	-4450
▁audience	-4451
▁election	-4452
▁believing	-4453
▁competent	-4454
▁teenagers	-4455
▁discussion	-4456
▁permission	-4457
▁recognized	-4458
▁scientists	-4459
▁institution	-4460
.0	-4461
1)	-4462
3'	-4463
47	-4464
5.	-4465
?)	-4466
AY	-4467
CH	-4468
Em	-4469
HA	-4470
IF	-4471
IL	-4472
IS	-4473
Is	-4474
LD	-4475
MM	-4476
On	-4477
PE	-4478
PS	-4479
Re	-4480
TI	-4481
VE	-4482
ai	-4483
bl	-4484
cr	-4485
gy	-4486
kg	-4487
ms	-4488
oT	-4489
pm	-4490
zz	-4491
-20	-4492
AST	-4493
All	-4494
ESS	-4495
IGH	-4496
Let	-4497
ONE	-4498
ado	-4499
ael	-4500
amm	-4501
arc	-4502
bac	-4503
bal	-4504
bon	-4505
can	-4506
def	-4507
des	-4508
eep	-4509
enc	-4510
enn	-4511
fee	-4512
gen	-4513
hed	-4514
hel	-4515
ias	-4516
ien	-4517
imb	-4518
lip	-4519
med	-4520
mor	-4521
nat	-4522
owd	-4523
poc	-4524
rav	-4525
rif	-4526
sex	-4527
str	-4528
uel	-4529
ulf	-4530
ull	-4531
vey	-4532
who	-4533
wor	-4534
▁25	-4535
▁80	-4536
▁AL	-4537
▁Ca	-4538
▁DU	-4539
▁De	-4540
▁En	-4541
▁Le	-4542
▁Tr	-4543
...)	-4544
Cain	-4545
Sure	-4546
That	-4547
Then	-4548
Well	-4549
ague	-4550
ahoo	-4551
aign	-4552
aism	-4553
aked	-4554
anta	-4555
arma	-4556
arry	-4557
char	-4558
crim	-4559
eaks	-4560
edge	-4561
eren	-4562
esar	-4563
ffee	-4564
good	-4565
hole	-4566
icer	-4567
icro	-4568
idel	-4569
iers	-4570
iest	-4571
imal	-4572
isis	-4573
isms	-4574
kers	-4575
know	-4576
laws	-4577
lord	-4578
oday	-4579
olen	-4580
omed	-4581
ooks	-4582
oral	-4583
osen	-4584
pass	-4585
pret	-4586
raid	-4587
rape	-4588
rete	-4589
rise	-4590
then	-4591
▁199	-4592
▁201	-4593
▁Abs	-4594
▁Adv	-4595
▁BUT	-4596
▁Dar	-4597
▁Dep	-4598
▁Dis	-4599
▁Get	-4600
▁Gov	-4601
▁Had	-4602
▁Her	-4603
▁Ill	-4604
▁Jew	-4605
▁LOL	-4606
▁Mal	-4607
▁Min	-4608
▁OoT	-4609
▁PRO	-4610
▁Pal	-4611
▁Put	-4612
▁Rem	-4613
▁Rep	-4614
▁Ser	-4615
▁Sub	-4616
▁THE	-4617
▁Was	-4618
▁Wow	-4619
▁Yet	-4620
▁beg	-4621
▁bud	-4622
▁bum	-4623
▁cam	-4624
▁cat	-4625
▁ded	-4626
▁egg	-4627
▁fee	-4628
▁gad	-4629
▁gap	-4630
▁gri	-4631
▁hes	-4632
▁idi	-4633
▁key	-4634
▁lik	-4635
▁mut	-4636
▁rib	-4637
▁rub	-4638
▁scr	-4639
▁six	-4640
▁sle	-4641
▁sun	-4642
▁tab	-4643
▁tra	-4644
▁unh	-4645
▁vac	-4646
▁ver	-4647
▁web	-4648
!!!!!	-4649
First	-4650
Point	-4651
abase	-4652
aches	-4653
adies	-4654
after	-4655
agree	-4656
althy	-4657
anted	-4658
arett	-4659
ashed	-4660
asion	-4661
bacco	-4662
bring	-4663
cings	-4664
claim	-4665
ensed	-4666
iable	-4667
iance	-4668
icles	-4669
ients	-4670
ifics	-4671
ipped	-4672
irgin	-4673
ishes	-4674
itate	-4675
lling	-4676
lying	-4677
maybe	-4678
olice	-4679
olute	-4680
onely	-4681
oogle	-4682
ossil	-4683
power	-4684
pring	-4685
quest	-4686
riced	-4687
rived	-4688
rough	-4689
thats	-4690
think	-4691
under	-4692
urder	-4693
uting	-4694
▁Base	-4695
▁Bill	-4696
▁Comm	-4697
▁Comp	-4698
▁Didn	-4699
▁East	-4700
▁Expl	-4701
▁Food	-4702
▁Germ	-4703
▁Give	-4704
▁Have	-4705
▁Here	-4706
▁Jazz	-4707
▁Love	-4708
▁Mont	-4709
▁More	-4710
▁Ohio	-4711
▁Once	-4712
▁Oper	-4713
▁Read	-4714
▁Sadd	-4715
▁Stop	-4716
▁Thai	-4717
▁abol	-4718
▁abus	-4719
▁anal	-4720
▁army	-4721
▁asse	-4722
▁bast	-4723
▁bear	-4724
▁beat	-4725
▁blow	-4726
▁bomb	-4727
▁bout	-4728
▁brut	-4729
▁butt	-4730
▁cart	-4731
▁clos	-4732
▁code	-4733
▁cuts	-4734
▁dear	-4735
▁deem	-4736
▁defe	-4737
▁dies	-4738
▁enem	-4739
▁fans	-4740
▁fish	-4741
▁five	-4742
▁fool	-4743
▁fulf	-4744
▁gaza	-4745
▁gift	-4746
▁grav	-4747
▁hasn	-4748
▁hell	-4749
▁hung	-4750
▁insp	-4751
▁item	-4752
▁jazz	-4753
▁join	-4754
▁junk	-4755
▁king	-4756
▁lies	-4757
▁loan	-4758
▁moth	-4759
▁ours	-4760
▁path	-4761
▁pays	-4762
▁port	-4763
▁pray	-4764
▁pure	-4765
▁puts	-4766
▁quit	-4767
▁ramp	-4768
▁rare	-4769
▁reck	-4770
▁repe	-4771
▁rude	-4772
▁sens	-4773
▁shel	-4774
▁shot	-4775
▁shut	-4776
▁sist	-4777
▁size	-4778
▁skin	-4779
▁skip	-4780
▁slim	-4781
▁song	-4782
▁stim	-4783
▁stru	-4784
▁suff	-4785
▁tatt	-4786
▁ther	-4787
▁trau	-4788
▁unhe	-4789
▁vary	-4790
▁vast	-4791
▁vent	-4792
▁winn	-4793
▁zero	-4794
Employ	-4795
cience	-4796
esting	-4797
etwork	-4798
friend	-4799
herent	-4800
inally	-4801
ington	-4802
istics	-4803
manent	-4804
orrect	-4805
pecial	-4806
porary	-4807
ptions	-4808
riment	-4809
rorism	-4810
school	-4811
udents	-4812
▁Again	-4813
▁Check	-4814
▁Civil	-4815
▁Hamas	-4816
▁Order	-4817
▁Polit	-4818
▁Santa	-4819
▁Think	-4820
▁Today	-4821
▁Which	-4822
▁Women	-4823
▁Yahoo	-4824
▁accus	-4825
▁actor	-4826
▁anger	-4827
▁armed	-4828
▁awful	-4829
▁breed	-4830
▁categ	-4831
▁chain	-4832
▁color	-4833
▁crowd	-4834
▁cruel	-4835
▁decor	-4836
▁demon	-4837
▁deter	-4838
▁fails	-4839
▁films	-4840
▁flash	-4841
▁folks	-4842
▁genre	-4843
▁goods	-4844
▁holds	-4845
▁ideal	-4846
▁indic	-4847
▁innov	-4848
▁kills	-4849
▁kinds	-4850
▁lands	-4851
▁leads	-4852
▁legit	-4853
▁limit	-4854
▁loads	-4855
▁loves	-4856
▁lying	-4857
▁metal	-4858
▁naked	-4859
▁needy	-4860
▁plays	-4861
▁react	-4862
▁safer	-4863
▁sauce	-4864
▁scare	-4865
▁shoes	-4866
▁shout	-4867
▁sites	-4868
▁split	-4869
▁sport	-4870
▁staff	-4871
▁steak	-4872
▁style	-4873
▁thank	-4874
▁track	-4875
▁trail	-4876
▁tries	-4877
▁trump	-4878
▁twice	-4879
▁unfit	-4880
▁valid	-4881
▁weren	-4882
▁wings	-4883
atholic	-4884
ibility	-4885
ictions	-4886
jection	-4887
natural	-4888
ography	-4889
pective	-4890
reation	-4891
respect	-4892
roduced	-4893
stitute	-4894
▁Almost	-4895
▁County	-4896
▁Cubans	-4897
▁Hitler	-4898
▁Nobody	-4899
▁Person	-4900
▁Pilate	-4901
▁Should	-4902
▁Soccer	-4903
▁Twitch	-4904
▁Unless	-4905
▁actors	-4906
▁afraid	-4907
▁appeal	-4908
▁assert	-4909
▁associ	-4910
▁barely	-4911
▁biased	-4912
▁boring	-4913
▁breath	-4914
▁burden	-4915
▁burned	-4916
▁buying	-4917
▁caring	-4918
▁chosen	-4919
▁christ	-4920
▁coffee	-4921
▁compar	-4922
▁disast	-4923
▁doctor	-4924
▁domain	-4925
▁ending	-4926
▁energy	-4927
▁ethnic	-4928
▁famous	-4929
▁flawed	-4930
▁fossil	-4931
▁gather	-4932
▁hardly	-4933
▁hearts	-4934
▁ideals	-4935
▁incomp	-4936
▁insane	-4937
▁leaves	-4938
▁letter	-4939
▁lonely	-4940
▁losing	-4941
▁manage	-4942
▁manner	-4943
▁mature	-4944
▁merely	-4945
▁morals	-4946
▁moving	-4947
▁obtain	-4948
▁offers	-4949
▁pieces	-4950
▁pissed	-4951
▁ponder	-4952
▁posted	-4953
▁prejud	-4954
▁proced	-4955
▁profit	-4956
▁proves	-4957
▁pursue	-4958
▁rating	-4959
▁router	-4960
▁smoker	-4961
▁spirit	-4962
▁stolen	-4963
▁summer	-4964
▁surger	-4965
▁toward	-4966
▁turned	-4967
▁weaker	-4968
▁weight	-4969
▁wholly	-4970
▁window	-4971
▁yogurt	-4972
Everyone	-4973
Football	-4974
standing	-4975
vernment	-4976
▁African	-4977
▁Clinton	-4978
▁Italian	-4979
▁Judaism	-4980
▁Michael	-4981
▁Muslims	-4982
▁Special	-4983
▁Whether	-4984
▁accomod	-4985
▁applied	-4986
▁attacks	-4987
▁beautif	-4988
▁beleive	-4989
▁benefic	-4990
▁careful	-4991
▁challen	-4992
▁cheaper	-4993
▁citizen	-4994
▁confuse	-4995
▁context	-4996
▁dealing	-4997
▁defined	-4998
▁discred	-4999
▁earlier	-5000
▁engaged	-5001
▁enjoyed	-5002
▁evening	-5003
▁evolved	-5004
▁finding	-5005
▁funding	-5006
▁ignored	-5007
▁implies	-5008
▁install	-5009
▁insured	-5010
▁involve	-5011
▁lacking	-5012
▁limited	-5013
▁murders	-5014
▁mustard	-5015
▁neither	-5016
▁officer	-5017
▁pattern	-5018
▁percept	-5019
▁possess	-5020
▁privile	-5021
▁proceed	-5022
▁rampant	-5023
▁remains	-5024
▁repairs	-5025
▁sisters	-5026
▁skilled	-5027
▁steroid	-5028
▁succeed	-5029
▁suppose	-5030
▁supreme	-5031
▁teaches	-5032
▁theater	-5033
▁tobacco	-5034
▁typical	-5035
▁unhappy	-5036
▁wealthy	-5037
▁western	-5038
▁whereas	-5039
▁worship	-5040
▁wouldnt	-5041
Americans	-5042
Evolution	-5043
estinians	-5044
▁Baseball	-5045
▁Catholic	-5046
▁Explorer	-5047
▁Facebook	-5048
▁Honestly	-5049
▁Montreal	-5050
▁Religion	-5051
▁absolute	-5052
▁abstract	-5053
▁answered	-5054
▁billions	-5055
▁bullshit	-5056
▁campaign	-5057
▁cigarett	-5058
▁comments	-5059
▁commited	-5060
▁complete	-5061
▁concrete	-5062
▁consumer	-5063
▁credible	-5064
▁database	-5065
▁distinct	-5066
▁download	-5067
▁electric	-5068
▁equality	-5069
▁everyday	-5070
▁familiar	-5071
▁farquhar	-5072
▁freedoms	-5073
▁hardware	-5074
▁includes	-5075
▁indirect	-5076
▁intimacy	-5077
▁landlord	-5078
▁liberals	-5079
▁licensed	-5080
▁location	-5081
▁mentally	-5082
▁nobility	-5083
▁occurred	-5084
▁opinions	-5085
▁portions	-5086
▁practice	-5087
▁received	-5088
▁remained	-5089
▁scenario	-5090
▁soldiers	-5091
▁standing	-5092
▁straight	-5093
▁strictly	-5094
▁strongly	-5095
▁struggle	-5096
▁supports	-5097
▁surround	-5098
▁tortured	-5099
▁unemploy	-5100
▁unwanted	-5101
▁valuable	-5102
▁whomever	-5103
▁Australia	-5104
▁Everybody	-5105
▁accepting	-5106
▁apartment	-5107
▁connected	-5108
▁continues	-5109
▁copyright	-5110
▁corporate	-5111
▁degrading	-5112
▁determine	-5113
▁detriment	-5114
▁diabetics	-5115
▁diplomacy	-5116
▁documents	-5117
▁economics	-5118
▁embarrass	-5119
▁enhancing	-5120
▁extension	-5121
▁fantastic	-5122
▁governing	-5123
▁hospitals	-5124
▁immigrant	-5125
▁impressed	-5126
▁installed	-5127
▁listening	-5128
▁motivated	-5129
▁piercings	-5130
▁pollution	-5131
▁pregnancy	-5132
▁producers	-5133
▁provision	-5134
▁seemingly	-5135
▁suggested	-5136
▁treatment	-5137
▁Absolutely	-5138
▁Christians	-5139
▁Washington	-5140
▁Wellington	-5141
▁acceptance	-5142
▁additional	-5143
▁aggression	-5144
▁appearance	-5145
▁attempting	-5146
▁attractive	-5147
▁background	-5148
▁candidates	-5149
▁capitalism	-5150
▁conception	-5151
▁department	-5152
▁destroying	-5153
▁discovered	-5154
▁disgusting	-5155
▁disrespect	-5156
▁encouraged	-5157
▁encourages	-5158
▁extensions	-5159
▁honorifics	-5160
▁incredible	-5161
▁introduced	-5162
▁liberalism	-5163
▁overpriced	-5164
▁production	-5165
▁propaganda	-5166
▁relatively	-5167
▁successful	-5168
▁vaccinated	-5169
▁visitation	-5170
▁Furthermore	-5171
▁assumptions	-5172
▁competition	-5173
▁concentrate	-5174
▁controlling	-5175
▁creationism	-5176
▁dishwashers	-5177
▁explanation	-5178
▁governments	-5179
▁integration	-5180
▁opportunity	-5181
▁perspective	-5182
▁potentially	-5183
▁practically	-5184
▁restaurants	-5185
▁Constitution	-5186
▁conditioning	-5187
▁dictatorship	-5188
▁intellectual	-5189
▁specifically	-5190
▁communication	-5191
▁environmental	-5192
▁homosexuality	-5193
▁representation	-5194
▁transportation	-5195
................	-5196
▁characteristics	-5197
pir	-5198
tal	-5199
▁yo	-5200
▁gov	-5201
▁ice	-5202
arify	-5203
icate	-5204
▁bars	-5205
▁cars	-5206
▁fees	-5207
▁rock	-5208
▁scar	-5209
▁stem	-5210
▁taco	-5211
▁weap	-5212
oughly	-5213
▁bever	-5214
▁bully	-5215
▁corru	-5216
▁gangs	-5217
▁sorry	-5218
▁stops	-5219
▁wanna	-5220
▁affirm	-5221
▁leader	-5222
▁minded	-5223
▁scared	-5224
▁unable	-5225
▁bombers	-5226
▁clarify	-5227
▁curious	-5228
▁doctors	-5229
▁injured	-5230
▁revenge	-5231
▁evolving	-5232
▁pictures	-5233
▁promotes	-5234
▁accidents	-5235
▁beverages	-5236
▁civilians	-5237
▁emergency	-5238
▁offensive	-5239
▁commission	-5240
▁committing	-5241
▁conviction	-5242
▁corruption	-5243
▁interested	-5244
▁meaningful	-5245
▁percentage	-5246
▁statements	-5247
▁conservative	-5248
▁imprisonment	-5249
-1	-5250
09	-5251
1/	-5252
2,	-5253
3,	-5254
30	-5255
4)	-5256
6,	-5257
80	-5258
BA	-5259
BS	-5260
BT	-5261
By	-5262
DH	-5263
DP	-5264
Do	-5265
FO	-5266
Gs	-5267
OD	-5268
OW	-5269
Of	-5270
Or	-5271
UK	-5272
dr	-5273
fl	-5274
gl	-5275
ha	-5276
ns	-5277
oz	-5278
pa	-5279
sm	-5280
ta	-5281
tw	-5282
yn	-5283
▁z	-5284
.2)	-5285
.3)	-5286
.5.	-5287
.50	-5288
Are	-5289
Bay	-5290
Bec	-5291
DHD	-5292
ELY	-5293
GEN	-5294
God	-5295
Hey	-5296
IDS	-5297
ION	-5298
OOD	-5299
-7	-5300
HS	-5301
Sh	-5302
OOL	-5303
ORM	-5304
PGs	-5305
PLE	-5306
Pro	-5307
VIL	-5308
Yet	-5309
alu	-5310
arr	-5311
ata	-5312
ays	-5313
ban	-5314
cap	-5315
cre	-5316
din	-5317
dom	-5318
dot	-5319
dra	-5320
edy	-5321
esb	-5322
etc	-5323
eve	-5324
fam	-5325
gar	-5326
gia	-5327
gly	-5328
hal	-5329
hem	-5330
ibl	-5331
iny	-5332
ioc	-5333
key	-5334
lin	-5335
mat	-5336
mit	-5337
ogy	-5338
oir	-5339
ois	-5340
oom	-5341
org	-5342
oun	-5343
pap	-5344
pop	-5345
rel	-5346
set	-5347
sum	-5348
tin	-5349
war	-5350
win	-5351
▁!!	-5352
▁1.	-5353
▁11	-5354
▁14	-5355
▁17	-5356
▁75	-5357
▁9/	-5358
▁90	-5359
▁Dr	-5360
▁IT	-5361
▁Lo	-5362
▁SO	-5363
▁Su	-5364
▁Up	-5365
▁WH	-5366
▁cy	-5367
▁iP	-5368
▁mp	-5369
▁mt	-5370
▁ou	-5371
▁ut	-5372
▁ya	-5373
"...	-5374
)...	-5375
..."	-5376
1000	-5377
Even	-5378
Most	-5379
Once	-5380
Only	-5381
PICE	-5382
Plus	-5383
Some	-5384
TIAL	-5385
Tube	-5386
YONE	-5387
acca	-5388
akin	-5389
ames	-5390
anic	-5391
anks	-5392
atur	-5393
bear	-5394
bery	-5395
bour	-5396
coin	-5397
ctob	-5398
ctor	-5399
3.	-5400
TV	-5401
▁;	-5402
Spe	-5403
aud	-5404
chi	-5405
equ	-5406
oli	-5407
▁40	-5408
▁Co	-5409
▁IF	-5410
▁MM	-5411
▁NY	-5412
▁OJ	-5413
▁Sm	-5414
IGHT	-5415
OOOO	-5416
ales	-5417
bell	-5418
cuss	-5419
dden	-5420
ding	-5421
duct	-5422
each	-5423
emic	-5424
enda	-5425
esis	-5426
evil	-5427
fair	-5428
fted	-5429
gets	-5430
girl	-5431
helm	-5432
hist	-5433
hold	-5434
idal	-5435
ilet	-5436
ilst	-5437
iors	-5438
keys	-5439
leum	-5440
lime	-5441
lude	-5442
made	-5443
mony	-5444
oded	-5445
omin	-5446
onna	-5447
oops	-5448
ored	-5449
porn	-5450
prof	-5451
prot	-5452
ptic	-5453
quor	-5454
rend	-5455
rove	-5456
stic	-5457
sure	-5458
ueen	-5459
uits	-5460
ulin	-5461
ulum	-5462
unks	-5463
uros	-5464
urse	-5465
vate	-5466
week	-5467
with	-5468
word	-5469
yers	-5470
ysis	-5471
zing	-5472
▁1/2	-5473
▁18,	-5474
▁197	-5475
▁AND	-5476
▁Acc	-5477
▁Bri	-5478
▁Bur	-5479
▁CAN	-5480
▁COM	-5481
▁CON	-5482
▁Cob	-5483
▁Cos	-5484
▁DUI	-5485
▁FAT	-5486
▁Fox	-5487
▁GDP	-5488
▁Has	-5489
▁Men	-5490
▁Mod	-5491
▁Mon	-5492
▁Moz	-5493
▁NAS	-5494
▁Naz	-5495
▁OUR	-5496
▁Oft	-5497
▁PMA	-5498
▁Pas	-5499
,,	-5500
AM	-5501
NO	-5502
TM	-5503
sp	-5504
---	-5505
.1.	-5506
bry	-5507
iet	-5508
isl	-5509
see	-5510
▁Gl	-5511
▁OF	-5512
▁ON	-5513
▁gi	-5514
aren	-5515
ares	-5516
bage	-5517
bish	-5518
conf	-5519
dist	-5520
http	-5521
igan	-5522
indu	-5523
irlf	-5524
obia	-5525
odel	-5526
oler	-5527
side	-5528
supp	-5529
udes	-5530
▁ALL	-5531
▁Fat	-5532
▁Nap	-5533
▁Pri	-5534
▁Run	-5535
▁SCH	-5536
▁See	-5537
▁Tex	-5538
▁UFO	-5539
▁WOR	-5540
▁WWI	-5541
▁Web	-5542
▁ads	-5543
▁aid	-5544
▁ang	-5545
▁ant	-5546
▁ars	-5547
▁del	-5548
▁dry	-5549
▁ect	-5550
▁gal	-5551
▁jer	-5552
▁jur	-5553
▁lap	-5554
▁liv	-5555
▁mad	-5556
▁mas	-5557
▁mid	-5558
▁mtv	-5559
▁ner	-5560
▁nom	-5561
▁oce	-5562
▁owe	-5563
▁pad	-5564
▁pir	-5565
▁pow	-5566
▁rad	-5567
▁rif	-5568
▁rot	-5569
▁row	-5570
▁sch	-5571
▁sel	-5572
▁sil	-5573
▁ske	-5574
▁sor	-5575
▁spr	-5576
▁umb	-5577
▁ups	-5578
▁wis	-5579
▁wow	-5580
Aside	-5581
Civil	-5582
GENTS	-5583
Where	-5584
Women	-5585
acity	-5586
affic	-5587
allel	-5588
alley	-5589
aming	-5590
ample	-5591
anced	-5592
arant	-5593
atred	-5594
bably	-5595
birth	-5596
bling	-5597
ciety	-5598
cracy	-5599
mos	-5600
tly	-5601
▁Us	-5602
unge	-5603
▁Bit	-5604
▁Red	-5605
chair	-5606
dotal	-5607
entic	-5608
erate	-5609
erial	-5610
erved	-5611
etary	-5612
gally	-5613
gment	-5614
group	-5615
heads	-5616
iders	-5617
iency	-5618
iffer	-5619
iling	-5620
inois	-5621
ippie	-5622
ittee	-5623
liers	-5624
mpath	-5625
oenix	-5626
onomy	-5627
oolen	-5628
orate	-5629
osity	-5630
osure	-5631
ourse	-5632
ously	-5633
prise	-5634
raits	-5635
rants	-5636
retty	-5637
rific	-5638
rives	-5639
sides	-5640
somet	-5641
thank	-5642
ulate	-5643
utral	-5644
versy	-5645
vince	-5646
water	-5647
white	-5648
women	-5649
▁9/11	-5650
▁ADHD	-5651
▁AIDS	-5652
▁Athe	-5653
▁Benc	-5654
▁City	-5655
▁Cold	-5656
▁Eden	-5657
▁Hall	-5658
▁High	-5659
▁Keep	-5660
▁Kurt	-5661
▁Lord	-5662
▁Modi	-5663
▁Next	-5664
▁None	-5665
▁Nope	-5666
▁Phys	-5667
▁Porn	-5668
▁Soft	-5669
▁Sund	-5670
▁Supp	-5671
▁Take	-5672
▁Went	-5673
▁YOUR	-5674
▁York	-5675
▁anni	-5676
▁bart	-5677
▁bath	-5678
▁biol	-5679
▁blah	-5680
▁bone	-5681
▁bowl	-5682
▁boys	-5683
▁cast	-5684
▁chat	-5685
▁chow	-5686
▁coer	-5687
▁cogn	-5688
▁cong	-5689
▁cook	-5690
▁core	-5691
▁corn	-5692
▁coun	-5693
▁crit	-5694
▁deaf	-5695
▁decl	-5696
▁defi	-5697
▁diet	-5698
▁dise	-5699
▁door	-5700
▁eBay	-5701
▁emer	-5702
▁ends	-5703
▁fake	-5704
▁fell	-5705
▁file	-5706
▁fing	-5707
▁garn	-5708
▁grew	-5709
▁hobb	-5710
▁holy	-5711
▁hood	-5712
▁http	-5713
▁ills	-5714
▁ingr	-5715
▁irre	-5716
▁joke	-5717
▁jump	-5718
▁legs	-5719
▁lesb	-5720
▁loss	-5721
▁lust	-5722
▁meas	-5723
▁owed	-5724
▁plug	-5725
▁pose	-5726
▁pour	-5727
▁prem	-5728
▁puzz	-5729
▁reli	-5730
▁runs	-5731
▁scum	-5732
▁shif	-5733
▁shit	-5734
▁slip	-5735
▁spot	-5736
▁suit	-5737
▁sush	-5738
▁sust	-5739
▁tens	-5740
▁thru	-5741
▁tree	-5742
▁ugly	-5743
▁unne	-5744
▁urge	-5745
▁vegg	-5746
▁wand	-5747
▁wild	-5748
▁wing	-5749
▁writ	-5750
!_____	-5751
70,000	-5752
ENTIAL	-5753
agging	-5754
aiting	-5755
alyzed	-5756
assion	-5757
belief	-5758
called	-5759
ccable	-5760
cooked	-5761
ctober	-5762
efully	-5763
engers	-5764
father	-5765
ferior	-5766
gument	-5767
humane	-5768
icious	-5769
iforms	-5770
ifying	-5771
ildren	-5772
inance	-5773
iolent	-5774
iously	-5775
ishing	-5776
itchen	-5777
opping	-5778
orship	-5779
people	-5780
pocrit	-5781
ravity	-5782
respon	-5783
resses	-5784
roleum	-5785
social	-5786
terday	-5787
untary	-5788
utions	-5789
washed	-5790
▁2006,	-5791
▁Apple	-5792
▁Belie	-5793
▁Crime	-5794
▁Croat	-5795
▁Cross	-5796
▁Cuban	-5797
▁Event	-5798
▁Jones	-5799
▁Major	-5800
▁NEVER	-5801
▁Often	-5802
▁Opera	-5803
▁Power	-5804
▁SPICE	-5805
▁Satur	-5806
▁Scott	-5807
▁South	-5808
▁Three	-5809
▁_____	-5810
▁abort	-5811
▁adapt	-5812
▁advis	-5813
▁ahead	-5814
▁apart	-5815
▁audio	-5816
▁award	-5817
▁balls	-5818
▁bands	-5819
▁basil	-5820
▁blown	-5821
▁calls	-5822
▁capab	-5823
▁cheer	-5824
▁couch	-5825
▁crash	-5826
▁daily	-5827
▁decoy	-5828
▁didnt	-5829
▁dirty	-5830
▁disco	-5831
▁drain	-5832
▁explo	-5833
▁fence	-5834
▁fewer	-5835
▁fired	-5836
▁firms	-5837
▁flaws	-5838
▁frequ	-5839
▁fruit	-5840
▁frust	-5841
▁funds	-5842
▁girlf	-5843
▁gonna	-5844
▁green	-5845
▁habit	-5846
▁hopes	-5847
▁hyper	-5848
▁idiot	-5849
▁image	-5850
▁incon	-5851
▁inequ	-5852
▁infin	-5853
▁input	-5854
▁irrit	-5855
▁jackp	-5856
▁jokes	-5857
▁knock	-5858
▁loses	-5859
▁magic	-5860
▁mixed	-5861
▁newly	-5862
▁nowad	-5863
▁occup	-5864
▁olive	-5865
▁ounce	-5866
▁outdo	-5867
▁owned	-5868
▁pants	-5869
▁peers	-5870
▁plate	-5871
▁prior	-5872
▁prize	-5873
▁races	-5874
▁range	-5875
▁realm	-5876
▁reimb	-5877
▁route	-5878
▁screw	-5879
▁shame	-5880
▁sizes	-5881
▁slide	-5882
▁solid	-5883
▁souls	-5884
▁spell	-5885
▁squee	-5886
▁stagn	-5887
▁stere	-5888
▁stood	-5889
▁sweet	-5890
▁swing	-5891
▁tasty	-5892
▁truck	-5893
▁turns	-5894
▁uncle	-5895
▁unpop	-5896
▁usage	-5897
▁users	-5898
▁vegan	-5899
▁voted	-5900
▁wager	-5901
▁wider	-5902
▁wives	-5903
Because	-5904
Besides	-5905
Perhaps	-5906
Without	-5907
because	-5908
bottled	-5909
cessary	-5910
defense	-5911
ecdotal	-5912
itively	-5913
ivalent	-5914
knowled	-5915
leeping	-5916
mission	-5917
ologies	-5918
ongress	-5919
ophobia	-5920
parents	-5921
perfect	-5922
protect	-5923
rapment	-5924
tarians	-5925
ulating	-5926
vinceme	-5927
▁AGENTS	-5928
▁Before	-5929
▁Canada	-5930
▁Cobain	-5931
▁Econom	-5932
▁Engine	-5933
▁France	-5934
▁Health	-5935
▁Making	-5936
▁McCain	-5937
▁Murder	-5938
▁Pascal	-5939
▁Reddit	-5940
▁Rights	-5941
▁SCHOOL	-5942
▁Saddam	-5943
▁Sounds	-5944
▁Spring	-5945
▁Though	-5946
▁affili	-5947
▁agenda	-5948
▁anarch	-5949
▁assess	-5950
▁assets	-5951
▁assist	-5952
▁attack	-5953
▁attend	-5954
▁backed	-5955
▁banned	-5956
▁became	-5957
▁begins	-5958
▁behalf	-5959
▁beings	-5960
▁bitter	-5961
▁bodily	-5962
▁brings	-5963
▁cancer	-5964
▁carbon	-5965
▁crisis	-5966
▁dating	-5967
▁deaths	-5968
▁decade	-5969
▁deemed	-5970
▁desert	-5971
▁desire	-5972
▁devote	-5973
▁dining	-5974
▁doesnt	-5975
▁double	-5976
▁drunks	-5977
▁duties	-5978
▁enjoys	-5979
▁ensure	-5980
▁equals	-5981
▁evolve	-5982
▁expert	-5983
▁fellow	-5984
▁felons	-5985
▁fights	-5986
▁filled	-5987
▁finish	-5988
▁forces	-5989
▁freeze	-5990
▁gallon	-5991
▁garden	-5992
▁growth	-5993
▁harder	-5994
▁hiring	-5995
▁implic	-5996
▁incent	-5997
▁incest	-5998
▁indeed	-5999
▁ingred	-6000
▁insens	-6001
▁inside	-6002
▁insult	-6003
▁intend	-6004
▁interf	-6005
▁intrud	-6006
▁israel	-6007
▁issued	-6008
▁legacy	-6009
▁legend	-6010
▁legisl	-6011
▁liquor	-6012
▁loaded	-6013
▁lowest	-6014
▁marrow	-6015
▁masses	-6016
▁medium	-6017
▁messes	-6018
▁muslim	-6019
▁notary	-6020
▁opened	-6021
▁orders	-6022
▁outlaw	-6023
▁pedoph	-6024
▁phones	-6025
▁placed	-6026
▁pledge	-6027
▁points	-6028
▁poison	-6029
▁potato	-6030
▁powers	-6031
▁presid	-6032
▁princi	-6033
▁purely	-6034
▁raised	-6035
▁raises	-6036
▁rarely	-6037
▁recall	-6038
▁recycl	-6039
▁reform	-6040
▁region	-6041
▁regret	-6042
▁repeat	-6043
▁resort	-6044
▁ruined	-6045
▁scores	-6046
▁screen	-6047
▁season	-6048
▁seated	-6049
▁selves	-6050
▁serves	-6051
▁severe	-6052
▁sexism	-6053
▁showed	-6054
▁silent	-6055
▁slowly	-6056
▁specul	-6057
▁spoken	-6058
▁stated	-6059
▁steaks	-6060
▁strike	-6061
▁strive	-6062
▁sudden	-6063
▁tables	-6064
▁tastes	-6065
▁taxing	-6066
▁theyre	-6067
▁throat	-6068
▁towing	-6069
▁tracks	-6070
▁troops	-6071
▁virgin	-6072
▁waited	-6073
▁waters	-6074
▁wishes	-6075
▁worthy	-6076
Although	-6077
American	-6078
Secondly	-6079
abortion	-6080
bringing	-6081
ensively	-6082
gorithms	-6083
ifically	-6084
ophistic	-6085
question	-6086
ursement	-6087
whatever	-6088
▁Bitcoin	-6089
▁Britain	-6090
▁Britian	-6091
▁Conserv	-6092
▁Depends	-6093
▁Firstly	-6094
▁Malacca	-6095
▁Mexican	-6096
▁October	-6097
▁Plastic	-6098
▁Redskin	-6099
▁Society	-6100
▁Straits	-6101
▁Support	-6102
▁Usually	-6103
▁YouTube	-6104
▁accepts	-6105
▁alright	-6106
▁applies	-6107
▁arrived	-6108
▁asshole	-6109
▁atheism	-6110
▁atheist	-6111
▁bastard	-6112
▁belongs	-6113
▁billion	-6114
▁burgers	-6115
▁channel	-6116
▁chronic	-6117
▁closely	-6118
▁commits	-6119
▁compete	-6120
▁conduct	-6121
▁consens	-6122
▁consist	-6123
▁consult	-6124
▁consume	-6125
▁contrad	-6126
▁couples	-6127
▁covered	-6128
▁creates	-6129
▁crowded	-6130
▁cruelty	-6131
▁damages	-6132
▁decades	-6133
▁decline	-6134
▁default	-6135
▁deliver	-6136
▁dictate	-6137
▁disturb	-6138
▁elegant	-6139
▁emotion	-6140
▁envirom	-6141
▁finally	-6142
▁fitness	-6143
▁follows	-6144
▁foolish	-6145
▁gadgets	-6146
▁gallery	-6147
▁garbage	-6148
▁gravity	-6149
▁guarant	-6150
▁handled	-6151
▁harmony	-6152
▁harsher	-6153
▁herself	-6154
▁hobbies	-6155
▁hostess	-6156
▁hostile	-6157
▁immoral	-6158
▁impound	-6159
▁infring	-6160
▁insulin	-6161
▁killers	-6162
▁kitchen	-6163
▁lecture	-6164
▁liberal	-6165
▁liberty	-6166
▁licence	-6167
▁magical	-6168
▁minimal	-6169
▁network	-6170
▁neutral	-6171
▁newspap	-6172
▁numbers	-6173
▁opening	-6174
▁opposed	-6175
▁outsour	-6176
▁overpop	-6177
▁passion	-6178
▁patient	-6179
▁payment	-6180
▁physics	-6181
▁planned	-6182
▁players	-6183
▁promise	-6184
▁propose	-6185
▁ratings	-6186
▁reflect	-6187
▁remodel	-6188
▁reprodu	-6189
▁revenue	-6190
▁reverse	-6191
▁secular	-6192
▁servers	-6193
▁settled	-6194
▁shelter	-6195
▁smarter	-6196
▁sources	-6197
▁stating	-6198
▁statute	-6199
▁staying	-6200
▁stepson	-6201
▁stories	-6202
▁strange	-6203
▁strateg	-6204
▁strikes	-6205
▁studied	-6206
▁studies	-6207
▁surgery	-6208
▁sympath	-6209
▁tattoos	-6210
▁tension	-6211
▁torture	-6212
▁traffic	-6213
▁transpl	-6214
▁victory	-6215
▁visited	-6216
▁weather	-6217
▁winning	-6218
▁wrapped	-6219
Christian	-6220
Therefore	-6221
elevision	-6222
emocratic	-6223
istically	-6224
terrorism	-6225
▁Children	-6226
▁Creation	-6227
▁Illinois	-6228
▁National	-6229
▁Personal	-6230
▁Probably	-6231
▁Remember	-6232
▁Saturday	-6233
▁Software	-6234
▁Uniforms	-6235
▁Watching	-6236
▁accounts	-6237
▁admitted	-6238
▁affected	-6239
▁annoying	-6240
▁articles	-6241
▁attempts	-6242
▁autonomy	-6243
▁bankrupt	-6244
▁benefici	-6245
▁breaking	-6246
▁calories	-6247
▁capacity	-6248
▁category	-6249
▁ceremony	-6250
▁civilian	-6251
▁coherent	-6252
▁concepts	-6253
▁conflict	-6254
▁constant	-6255
▁contains	-6256
▁coverage	-6257
▁coworker	-6258
▁creative	-6259
▁criteria	-6260
▁cultures	-6261
▁defining	-6262
▁designer	-6263
▁destroys	-6264
▁diabetes	-6265
▁disagree	-6266
▁dressing	-6267
▁elements	-6268
▁enforced	-6269
▁entering	-6270
▁equation	-6271
▁examples	-6272
▁existing	-6273
▁expenses	-6274
▁families	-6275
▁features	-6276
▁followed	-6277
▁frontmen	-6278
▁gambling	-6279
▁grateful	-6280
▁hypocrit	-6281
▁inferior	-6282
▁inherent	-6283
▁inhumane	-6284
▁insanity	-6285
▁involves	-6286
▁judicial	-6287
▁maturity	-6288
▁monetary	-6289
▁official	-6290
▁optional	-6291
▁parallel	-6292
▁patterns	-6293
▁planning	-6294
▁platform	-6295
▁pleasure	-6296
▁pressure	-6297
▁progress	-6298
▁projects	-6299
▁purchase	-6300
▁reaching	-6301
▁reformed	-6302
▁relevant	-6303
▁reminded	-6304
▁removing	-6305
▁rewarded	-6306
▁rightful	-6307
▁sentence	-6308
▁shooting	-6309
▁shouldnt	-6310
▁starving	-6311
▁stealing	-6312
▁steroids	-6313
▁subjects	-6314
▁substant	-6315
▁supervis	-6316
▁surprise	-6317
▁survival	-6318
▁suspects	-6319
▁taxation	-6320
▁taxpayer	-6321
▁throught	-6322
▁ultimate	-6323
▁vacation	-6324
▁violated	-6325
▁violates	-6326
▁warnings	-6327
especially	-6328
▁According	-6329
▁Advancing	-6330
▁Bencoolen	-6331
▁Otherwise	-6332
▁Therefore	-6333
▁abolished	-6334
▁acknowled	-6335
▁addiction	-6336
▁adulthood	-6337
▁affecting	-6338
▁attentive	-6339
▁attitudes	-6340
▁authentic	-6341
▁beautiful	-6342
▁boyfriend	-6343
▁carefully	-6344
▁celebrate	-6345
▁challenge	-6346
▁christmas	-6347
▁commiting	-6348
▁component	-6349
▁conceived	-6350
▁consumers	-6351
▁contracts	-6352
▁courtroom	-6353
▁crossings	-6354
▁daughters	-6355
▁decorated	-6356
▁deterrent	-6357
▁disbelief	-6358
▁discussed	-6359
▁distribut	-6360
▁elsewhere	-6361
▁endeavors	-6362
▁enjoyable	-6363
▁everybody	-6364
▁expecting	-6365
▁impeached	-6366
▁increases	-6367
▁ingrained	-6368
▁legalized	-6369
▁liability	-6370
▁magically	-6371
▁mentioned	-6372
▁militants	-6373
▁offenders	-6374
▁overrated	-6375
▁parenting	-6376
▁patriotic	-6377
▁permanent	-6378
▁personnel	-6379
▁petroleum	-6380
▁prejudice	-6381
▁prisoners	-6382
▁privilege	-6383
▁processes	-6384
▁professor	-6385
▁profiling	-6386
▁providing	-6387
▁reasoning	-6388
▁regulated	-6389
▁remaining	-6390
▁resulting	-6391
▁screening	-6392
▁senseless	-6393
▁singapore	-6394
▁societies	-6395
▁stability	-6396
▁suppliers	-6397
▁supported	-6398
▁temporary	-6399
▁testimony	-6400
▁unhealthy	-6401
▁unpopular	-6402
▁witnesses	-6403
▁Euthanasia	-6404
▁Eventually	-6405
▁Everything	-6406
▁Government	-6407
▁Scientolog	-6408
▁accomodate	-6409
▁addressing	-6410
▁advantages	-6411
▁appreciate	-6412
▁approached	-6413
▁charitable	-6414
▁cigarettes	-6415
▁commitment	-6416
▁comparison	-6417
▁compassion	-6418
▁connection	-6419
▁constructs	-6420
▁contribute	-6421
▁controlled	-6422
▁controller	-6423
▁definately	-6424
▁determined	-6425
▁efficiency	-6426
▁eliminated	-6427
▁employment	-6428
▁engagement	-6429
▁entrapment	-6430
▁equivalent	-6431
▁euthanasia	-6432
▁eventually	-6433
▁expression	-6434
▁foundation	-6435
▁girlfriend	-6436
▁homophobia	-6437
▁impeccable	-6438
▁impression	-6439
▁indirectly	-6440
▁industries	-6441
▁inherently	-6442
▁intentions	-6443
▁obligation	-6444
▁occupation	-6445
▁opposition	-6446
▁passengers	-6447
▁performing	-6448
▁politician	-6449
▁profession	-6450
▁protesting	-6451
▁questioned	-6452
▁references	-6453
▁republican	-6454
▁respecting	-6455
▁standpoint	-6456
▁supposedly	-6457
ophisticated	-6458
▁Scientology	-6459
▁accountable	-6460
▁accusations	-6461
▁brainwashed	-6462
▁citizenship	-6463
▁complicated	-6464
▁considering	-6465
▁controllers	-6466
▁controversy	-6467
▁definitions	-6468
▁detrimental	-6469
▁expectation	-6470
▁experiences	-6471
▁extensively	-6472
▁homosexuals	-6473
▁implemented	-6474
▁ingredients	-6475
▁insensitive	-6476
▁intelligent	-6477
▁interpreted	-6478
▁involvement	-6479
▁participate	-6480
▁pornography	-6481
▁recognition	-6482
▁recommended	-6483
▁retribution	-6484
▁significant	-6485
▁speculative	-6486
▁technically	-6487
▁theological	-6488
▁unnecessary	-6489
▁Additionally	-6490
▁capabilities	-6491
▁christianity	-6492
▁implications	-6493
▁independence	-6494
▁palestinians	-6495
▁requirements	-6496
▁restrictions	-6497
▁universities	-6498
▁Conservatives	-6499
▁automatically	-6500
▁discriminated	-6501
▁disrespectful	-6502
▁documentation	-6503
▁philosophical	-6504
▁reimbursement	-6505
▁revolutionary	-6506
▁significantly	-6507
▁implementation	-6508
▁scientifically	-6509
▁24	-6510
▁hi	-6511
fast	-6512
gans	-6513
▁ate	-6514
etime	-6515
field	-6516
icans	-6517
tedly	-6518
▁batt	-6519
▁beef	-6520
▁gods	-6521
▁odds	-6522
▁olds	-6523
▁pita	-6524
▁thor	-6525
▁till	-6526
inding	-6527
piracy	-6528
▁funny	-6529
▁shell	-6530
▁ironic	-6531
▁minute	-6532
▁missed	-6533
▁organs	-6534
▁thrown	-6535
▁undoub	-6536
▁amounts	-6537
▁comment	-6538
▁forcing	-6539
▁hitting	-6540
▁manager	-6541
▁message	-6542
agination	-6543
▁lifetime	-6544
▁outright	-6545
▁presence	-6546
▁rebuttal	-6547
▁studying	-6548
▁breakfast	-6549
▁conflicts	-6550
▁marriages	-6551
▁consenting	-6552
▁conspiracy	-6553
▁motivation	-6554
▁productive	-6555
▁thoroughly	-6556
▁advancement	-6557
▁observation	-6558
▁undoubtedly	-6559
.4)	-6560
/20	-6561
1/1	-6562
22,	-6563
:30	-6564
ATO	-6565
BOD	-6566
ELF	-6567
ERE	-6568
Fox	-6569
ICK	-6570
MMI	-6571
OTE	-6572
OUN	-6573
TER	-6574
TRE	-6575
cca	-6576
coz	-6577
eks	-6578
ggy	-6579
xxx	-6580
yrs	-6581
▁32	-6582
▁Kn	-6583
.(2)	-6584
BODY	-6585
CESS	-6586
ESID	-6587
ETAL	-6588
From	-6589
HAHA	-6590
Jazz	-6591
LEAR	-6592
TREM	-6593
When	-6594
affe	-6595
aska	-6596
axes	-6597
beye	-6598
cape	-6599
axy	-6600
dog	-6601
ugs	-6602
Note	-6603
Tell	-6604
Wake	-6605
cott	-6606
ddit	-6607
draw	-6608
eker	-6609
from	-6610
grad	-6611
hosp	-6612
ibly	-6613
igma	-6614
immy	-6615
ioca	-6616
ique	-6617
kins	-6618
lcom	-6619
lymp	-6620
mark	-6621
miss	-6622
octr	-6623
offs	-6624
opey	-6625
osyn	-6626
oxes	-6627
phol	-6628
prop	-6629
rule	-6630
scar	-6631
ubby	-6632
uddy	-6633
unts	-6634
▁(1)	-6635
▁1.5	-6636
▁196	-6637
▁198	-6638
▁ANY	-6639
▁ARE	-6640
▁Caj	-6641
▁DES	-6642
▁Dav	-6643
▁FPS	-6644
▁Guj	-6645
▁Hah	-6646
▁IDE	-6647
▁IMM	-6648
▁IND	-6649
▁NBA	-6650
▁NHS	-6651
▁Nye	-6652
▁Obi	-6653
▁PCs	-6654
▁Pho	-6655
▁Reg	-6656
▁Smo	-6657
▁Two	-6658
▁Veg	-6659
▁WHY	-6660
▁dys	-6661
▁eup	-6662
▁flo	-6663
▁psy	-6664
YBODY	-6665
abili	-6666
addin	-6667
algia	-6668
aried	-6669
armed	-6670
arrhe	-6671
astru	-6672
atern	-6673
aults	-6674
aware	-6675
based	-6676
blown	-6677
ceded	-6678
ctics	-6679
ctrum	-6680
ellar	-6681
erman	-6682
guish	-6683
hamed	-6684
infor	-6685
isons	-6686
ispan	-6687
kemon	-6688
lands	-6689
leted	-6690
matic	-6691
occhi	-6692
ocked	-6693
oided	-6694
onado	-6695
ondon	-6696
otomy	-6697
pelin	-6698
ponge	-6699
bec	-6700
mak	-6701
▁2)	-6702
▁28	-6703
▁2:	-6704
▁Jr	-6705
?!?!	-6706
beit	-6707
dict	-6708
gger	-6709
mber	-6710
sien	-6711
▁Ext	-6712
▁obn	-6713
▁vel	-6714
00.00	-6715
ictim	-6716
learn	-6717
phone	-6718
prove	-6719
reads	-6720
rence	-6721
rench	-6722
roper	-6723
track	-6724
urred	-6725
ushed	-6726
weeks	-6727
words	-6728
worth	-6729
▁....	-6730
▁Arab	-6731
▁Bang	-6732
▁CMMI	-6733
▁Cont	-6734
▁Cops	-6735
▁Darf	-6736
▁Does	-6737
▁EVIL	-6738
▁Fair	-6739
▁Flor	-6740
▁GOOD	-6741
▁HATE	-6742
▁HAVE	-6743
▁IDEA	-6744
▁INDI	-6745
▁Isra	-6746
▁Lady	-6747
▁Marg	-6748
▁Mark	-6749
▁NASA	-6750
▁Nebr	-6751
▁Ocar	-6752
▁Only	-6753
▁STOP	-6754
▁Scot	-6755
▁Serb	-6756
▁Serv	-6757
▁Stal	-6758
▁Star	-6759
▁Teen	-6760
▁Time	-6761
▁Tony	-6762
▁Tues	-6763
▁UNIF	-6764
▁WWII	-6765
▁asks	-6766
▁astr	-6767
▁bags	-6768
▁bcoz	-6769
▁bike	-6770
▁blue	-6771
▁cope	-6772
▁curb	-6773
▁delu	-6774
▁deny	-6775
▁dial	-6776
▁dude	-6777
▁dull	-6778
▁ears	-6779
▁eggs	-6780
▁epic	-6781
▁fidd	-6782
▁glad	-6783
▁govt	-6784
▁infr	-6785
▁iraq	-6786
▁jerk	-6787
▁jock	-6788
▁loud	-6789
▁maso	-6790
▁medd	-6791
▁mode	-6792
▁nerd	-6793
▁nerv	-6794
▁nutr	-6795
▁oath	-6796
▁obed	-6797
▁peer	-6798
▁penn	-6799
UNS	-6800
raf	-6801
raz	-6802
****	-6803
Cult	-6804
ails	-6805
etiz	-6806
ndra	-6807
ovan	-6808
▁Cra	-6809
▁HES	-6810
adequ	-6811
ailro	-6812
chism	-6813
false	-6814
ickst	-6815
inary	-6816
oated	-6817
press	-6818
razil	-6819
ultan	-6820
uncon	-6821
urism	-6822
▁GUNS	-6823
▁Room	-6824
▁Saud	-6825
▁elab	-6826
▁guac	-6827
▁guid	-6828
▁perj	-6829
▁phen	-6830
▁phot	-6831
▁plea	-6832
▁pork	-6833
▁pudd	-6834
▁punn	-6835
▁ride	-6836
▁rose	-6837
▁sarc	-6838
▁semi	-6839
▁spew	-6840
▁tabs	-6841
▁trib	-6842
▁tube	-6843
▁vars	-6844
▁void	-6845
▁wake	-6846
▁wins	-6847
▁yell	-6848
▁zeal	-6849
Doctor	-6850
Donald	-6851
Having	-6852
ITians	-6853
accept	-6854
acious	-6855
actory	-6856
acular	-6857
ademic	-6858
ailing	-6859
alkers	-6860
alsify	-6861
ancies	-6862
anning	-6863
arrhea	-6864
artial	-6865
believ	-6866
byists	-6867
change	-6868
elping	-6869
ential	-6870
harast	-6871
icidal	-6872
icient	-6873
ictive	-6874
iginal	-6875
imilar	-6876
incipl	-6877
intend	-6878
irteen	-6879
itance	-6880
itives	-6881
lander	-6882
levant	-6883
makers	-6884
monies	-6885
obiles	-6886
ocking	-6887
oinism	-6888
omatic	-6889
omeday	-6890
onents	-6891
oooooo	-6892
orders	-6893
osynth	-6894
ourney	-6895
parate	-6896
pected	-6897
pholes	-6898
quakes	-6899
oby	-6900
ubs	-6901
▁LO	-6902
▁xt	-6903
DING	-6904
OULD	-6905
Porn	-6906
ears	-6907
ffes	-6908
free	-6909
iped	-6910
uine	-6911
vals	-6912
wear	-6913
yles	-6914
▁Bob	-6915
▁Hip	-6916
▁Inc	-6917
▁bob	-6918
▁dip	-6919
ached	-6920
antha	-6921
atles	-6922
eyond	-6923
leach	-6924
ocity	-6925
ubble	-6926
▁Lets	-6927
▁RPGs	-6928
▁Roll	-6929
▁Town	-6930
▁chip	-6931
▁hack	-6932
▁mari	-6933
▁pear	-6934
▁purp	-6935
▁spec	-6936
aurant	-6937
config	-6938
icated	-6939
itting	-6940
mother	-6941
perate	-6942
rafice	-6943
ranted	-6944
ricult	-6945
rifice	-6946
rogant	-6947
romagn	-6948
suming	-6949
target	-6950
ubborn	-6951
ublime	-6952
uchamp	-6953
umping	-6954
vember	-6955
weight	-6956
worthy	-6957
▁30.00	-6958
▁Blame	-6959
▁Blues	-6960
▁Books	-6961
▁CLEAR	-6962
▁Close	-6963
▁David	-6964
▁Drive	-6965
▁Israe	-6966
▁Legal	-6967
▁Loved	-6968
▁Micro	-6969
▁Monro	-6970
▁Olymp	-6971
▁Oscar	-6972
▁RIGHT	-6973
▁Rolls	-6974
▁Runes	-6975
▁Saudi	-6976
▁Shall	-6977
▁Sorry	-6978
▁Steve	-6979
▁Texas	-6980
▁Truth	-6981
▁Vegas	-6982
▁Whats	-6983
▁admin	-6984
▁agony	-6985
▁ahold	-6986
▁alleg	-6987
▁angry	-6988
▁anime	-6989
▁annih	-6990
▁archa	-6991
▁aunts	-6992
▁babys	-6993
▁backs	-6994
▁badge	-6995
▁bigot	-6996
▁blank	-6997
▁blast	-6998
▁bless	-6999
7,	-7000
FL	-7001
GAL	-7002
She	-7003
UST	-7004
agh	-7005
bri	-7006
fty	-7007
roc	-7008
uke	-7009
▁IR	-7010
Here	-7011
agan	-7012
anct	-7013
atly	-7014
ctop	-7015
fell	-7016
icle	-7017
lett	-7018
reak	-7019
your	-7020
▁Big	-7021
▁coo	-7022
▁doo	-7023
▁eug	-7024
▁gut	-7025
▁toy	-7026
acted	-7027
aghet	-7028
alien	-7029
brain	-7030
ching	-7031
illed	-7032
imply	-7033
ouses	-7034
rease	-7035
▁Each	-7036
▁Jews	-7037
▁ball	-7038
▁bust	-7039
▁dole	-7040
▁pine	-7041
▁salv	-7042
▁sigh	-7043
▁whim	-7044
▁wise	-7045
center	-7046
chohol	-7047
ctopus	-7048
except	-7049
famous	-7050
icking	-7051
morrow	-7052
tching	-7053
▁Smart	-7054
▁alter	-7055
▁atroc	-7056
▁board	-7057
▁bombs	-7058
▁broad	-7059
▁bucks	-7060
▁calor	-7061
▁chick	-7062
▁clock	-7063
▁cloud	-7064
▁colon	-7065
▁confr	-7066
▁crack	-7067
▁curry	-7068
▁dance	-7069
▁decay	-7070
▁delet	-7071
▁delux	-7072
▁depos	-7073
▁desec	-7074
▁dream	-7075
▁drown	-7076
▁earns	-7077
▁embry	-7078
▁enemy	-7079
▁enorm	-7080
▁eugen	-7081
▁evalu	-7082
▁fancy	-7083
▁femin	-7084
▁fixed	-7085
▁flood	-7086
▁fried	-7087
▁fuels	-7088
▁gases	-7089
▁giant	-7090
▁glass	-7091
▁globe	-7092
▁greet	-7093
▁grows	-7094
▁guard	-7095
▁hamas	-7096
▁hates	-7097
▁hypro	-7098
▁isnot	-7099
24	-7100
3)	-7101
EE	-7102
aph	-7103
eld	-7104
eto	-7105
eur	-7106
has	-7107
nal	-7108
oms	-7109
ras	-7110
ray	-7111
uce	-7112
vil	-7113
▁58	-7114
▁eb	-7115
Comp	-7116
alot	-7117
arat	-7118
elda	-7119
eter	-7120
geon	-7121
iled	-7122
imer	-7123
itor	-7124
ldon	-7125
orse	-7126
roar	-7127
tuce	-7128
uses	-7129
veal	-7130
▁dos	-7131
▁iPh	-7132
▁len	-7133
▁wal	-7134
▁wet	-7135
Which	-7136
ammar	-7137
arded	-7138
civil	-7139
ented	-7140
essin	-7141
itors	-7142
level	-7143
thier	-7144
would	-7145
▁acid	-7146
▁apes	-7147
▁neck	-7148
▁nine	-7149
▁pill	-7150
▁spin	-7151
▁unre	-7152
ingent	-7153
nocchi	-7154
ournal	-7155
uality	-7156
▁jerse	-7157
▁juris	-7158
▁libel	-7159
▁lifes	-7160
▁limbs	-7161
▁lists	-7162
▁magaz	-7163
▁males	-7164
▁match	-7165
▁merit	-7166
▁meted	-7167
▁micro	-7168
▁monop	-7169
▁mopey	-7170
▁moths	-7171
▁motor	-7172
▁names	-7173
▁nerve	-7174
▁nukes	-7175
▁obama	-7176
▁overt	-7177
▁overw	-7178
▁parad	-7179
▁paran	-7180
▁piece	-7181
▁pluse	-7182
▁polic	-7183
▁quiet	-7184
▁rates	-7185
▁rebel	-7186
▁recei	-7187
▁reply	-7188
▁reput	-7189
▁reuse	-7190
▁roads	-7191
▁sales	-7192
▁saved	-7193
▁scary	-7194
▁scold	-7195
▁seeds	-7196
▁sends	-7197
▁seven	-7198
▁shade	-7199
hh	-7200
ANS	-7201
Can	-7202
LLE	-7203
ida	-7204
lla	-7205
may	-7206
oop	-7207
oti	-7208
tit	-7209
ued	-7210
▁2/	-7211
▁IM	-7212
▁Wr	-7213
▁yr	-7214
cust	-7215
epsi	-7216
esec	-7217
rief	-7218
ruit	-7219
such	-7220
▁BET	-7221
▁Gen	-7222
▁STD	-7223
▁Wal	-7224
▁fad	-7225
▁fly	-7226
▁har	-7227
▁som	-7228
acter	-7229
baric	-7230
nting	-7231
ocate	-7232
plice	-7233
rella	-7234
▁ILLE	-7235
▁Laws	-7236
▁Plan	-7237
▁Poly	-7238
▁cert	-7239
▁scri	-7240
▁shed	-7241
▁span	-7242
▁wall	-7243
antics	-7244
apoint	-7245
astics	-7246
isting	-7247
police	-7248
titles	-7249
▁Thats	-7250
▁brief	-7251
▁eaten	-7252
▁greed	-7253
▁messy	-7254
▁revel	-7255
▁shops	-7256
▁silly	-7257
▁skate	-7258
▁slept	-7259
▁smell	-7260
▁sneak	-7261
▁soggy	-7262
▁solar	-7263
▁spect	-7264
▁speed	-7265
▁spent	-7266
▁spoon	-7267
▁stead	-7268
▁stimu	-7269
▁stock	-7270
▁strip	-7271
▁subst	-7272
▁swear	-7273
▁swift	-7274
▁sword	-7275
▁takea	-7276
▁tells	-7277
▁texts	-7278
▁thumb	-7279
▁towel	-7280
▁tower	-7281
▁trend	-7282
▁tribe	-7283
▁tubby	-7284
▁unple	-7285
▁upper	-7286
▁urban	-7287
▁versa	-7288
▁visit	-7289
▁weigh	-7290
▁wides	-7291
▁wiser	-7292
.......	-7293
Firstly	-7294
Further	-7295
Through	-7296
aghetti	-7297
alities	-7298
anctity	-7299
)?	-7300
.'	-7301
50	-7302
8,	-7303
fy	-7304
ka	-7305
▁!	-7306
▁_	-7307
VES	-7308
aos	-7309
hop	-7310
oon	-7311
roy	-7312
ups	-7313
Fire	-7314
IATE	-7315
aret	-7316
heck	-7317
inch	-7318
othe	-7319
sues	-7320
▁ATM	-7321
▁Pan	-7322
▁Res	-7323
▁Sal	-7324
▁doz	-7325
▁fan	-7326
▁ton	-7327
▁wou	-7328
ckets	-7329
oleon	-7330
osing	-7331
▁Game	-7332
▁Hair	-7333
▁Macs	-7334
▁Real	-7335
▁dess	-7336
▁educ	-7337
▁grab	-7338
▁isol	-7339
▁rage	-7340
▁rice	-7341
▁sink	-7342
▁thin	-7343
IATELY	-7344
amages	-7345
utable	-7346
volved	-7347
▁brown	-7348
▁chaos	-7349
▁etern	-7350
▁forth	-7351
▁harsh	-7352
▁logos	-7353
▁nomad	-7354
▁ocean	-7355
▁prone	-7356
▁trees	-7357
▁unsub	-7358
▁voice	-7359
amantha	-7360
ardless	-7361
arendra	-7362
arriage	-7363
assical	-7364
athetic	-7365
bortion	-7366
capital	-7367
choicer	-7368
cinated	-7369
claimed	-7370
comfort	-7371
correct	-7372
deserve	-7373
develop	-7374
ervable	-7375
essinis	-7376
estones	-7377
everage	-7378
guments	-7379
helming	-7380
hemisms	-7381
herself	-7382
history	-7383
ianship	-7384
idelity	-7385
isition	-7386
isposed	-7387
issions	-7388
lexible	-7389
lighten	-7390
lusions	-7391
mentary	-7392
olerant	-7393
ologize	-7394
omplice	-7395
onerate	-7396
oronado	-7397
playing	-7398
pticism	-7399
60	-7400
Be	-7401
Im	-7402
PR	-7403
Un	-7404
bq	-7405
ga	-7406
ii	-7407
ni	-7408
Cub	-7409
dep	-7410
gay	-7411
rew	-7412
▁34	-7413
▁Cr	-7414
▁ED	-7415
Athe	-7416
ELON	-7417
Like	-7418
elve	-7419
icit	-7420
ites	-7421
lley	-7422
orth	-7423
roll	-7424
▁Att	-7425
▁Des	-7426
▁Hor	-7427
▁Pak	-7428
▁STU	-7429
▁Too	-7430
▁bbq	-7431
▁dig	-7432
▁fas	-7433
▁lie	-7434
▁sed	-7435
itude	-7436
major	-7437
stone	-7438
▁Such	-7439
▁Thus	-7440
▁arms	-7441
▁blat	-7442
▁hafe	-7443
▁torn	-7444
actors	-7445
atrist	-7446
ctures	-7447
encing	-7448
imated	-7449
lessly	-7450
ousing	-7451
▁Champ	-7452
▁FELON	-7453
▁North	-7454
▁Putin	-7455
▁abund	-7456
▁doctr	-7457
▁gland	-7458
▁manga	-7459
▁paren	-7460
▁snake	-7461
▁taxed	-7462
▁undes	-7463
▁usual	-7464
▁waves	-7465
Atheism	-7466
Raffles	-7467
TREMELY	-7468
icapped	-7469
related	-7470
respass	-7471
riculum	-7472
riminal	-7473
science	-7474
stalgia	-7475
support	-7476
usiness	-7477
ustrial	-7478
versity	-7479
violent	-7480
welling	-7481
▁Anyone	-7482
▁Asleep	-7483
▁Beyond	-7484
▁Blacks	-7485
▁Brazil	-7486
▁COMPLE	-7487
▁Caesar	-7488
▁Carter	-7489
▁Clause	-7490
▁Coming	-7491
▁Cosmos	-7492
▁Darfur	-7493
▁Disney	-7494
▁Either	-7495
▁FATHER	-7496
▁Garden	-7497
▁German	-7498
▁Google	-7499
.,	-7500
45	-7501
?(	-7502
CK	-7503
Fr	-7504
NE	-7505
Su	-7506
Te	-7507
ca	-7508
ja	-7509
jo	-7510
kr	-7511
ok	-7512
vi	-7513
▁0	-7514
oty	-7515
reh	-7516
ulk	-7517
▁13	-7518
asty	-7519
iche	-7520
▁Dri	-7521
▁Mat	-7522
▁RES	-7523
▁Ukr	-7524
▁Yea	-7525
▁cos	-7526
▁dre	-7527
▁hey	-7528
▁pse	-7529
▁rat	-7530
about	-7531
annum	-7532
order	-7533
pread	-7534
rical	-7535
tical	-7536
▁1000	-7537
▁Gold	-7538
▁THAT	-7539
▁boss	-7540
▁bulk	-7541
▁shor	-7542
People	-7543
secure	-7544
soever	-7545
▁discl	-7546
▁divid	-7547
▁helpl	-7548
▁imply	-7549
▁items	-7550
▁pseud	-7551
▁wrest	-7552
Frankly	-7553
ificate	-7554
▁French	-7555
▁Indeed	-7556
▁Isreal	-7557
▁Kickst	-7558
▁Ladies	-7559
▁Monroe	-7560
▁PRESID	-7561
▁Prayer	-7562
▁Pretty	-7563
▁Rowing	-7564
▁Smarts	-7565
▁Sunday	-7566
▁Surely	-7567
▁Taking	-7568
▁Things	-7569
▁Ukrain	-7570
▁Wouldn	-7571
▁absent	-7572
▁accomm	-7573
▁admire	-7574
▁albeit	-7575
▁aliens	-7576
▁autism	-7577
▁awhile	-7578
▁bailed	-7579
▁bashed	-7580
▁basket	-7581
▁bloody	-7582
▁bright	-7583
▁brutal	-7584
▁bubble	-7585
▁budget	-7586
▁butter	-7587
▁button	-7588
▁center	-7589
▁childs	-7590
▁cliche	-7591
▁cloths	-7592
▁combat	-7593
▁comply	-7594
▁compul	-7595
▁conver	-7596
▁copies	-7597
▁corner	-7598
▁cracks	-7599
99	-7600
?.	-7601
An	-7602
fs	-7603
kl	-7604
▁x	-7605
800	-7606
Col	-7607
ada	-7608
bas	-7609
esy	-7610
ios	-7611
ora	-7612
ria	-7613
uts	-7614
▁51	-7615
▁BE	-7616
▁Id	-7617
▁ce	-7618
▁na	-7619
Thou	-7620
east	-7621
grim	-7622
ishv	-7623
mong	-7624
ndia	-7625
outs	-7626
yond	-7627
▁Him	-7628
▁Oil	-7629
▁Old	-7630
▁Par	-7631
▁dod	-7632
▁lol	-7633
India	-7634
Until	-7635
asbas	-7636
edule	-7637
grims	-7638
rying	-7639
ureau	-7640
uries	-7641
▁Char	-7642
▁Sher	-7643
▁hook	-7644
▁mate	-7645
▁mein	-7646
▁rust	-7647
▁subs	-7648
▁cease	-7649
▁dried	-7650
▁loose	-7651
▁notch	-7652
▁obnox	-7653
▁rated	-7654
▁relic	-7655
▁vishv	-7656
▁wrote	-7657
ilating	-7658
odating	-7659
▁London	-7660
▁beyond	-7661
▁debase	-7662
▁deeper	-7663
▁deeply	-7664
▁delete	-7665
▁deluxe	-7666
▁denies	-7667
▁depart	-7668
▁devast	-7669
▁dishes	-7670
▁disreg	-7671
▁domest	-7672
▁donate	-7673
▁doomed	-7674
▁engage	-7675
▁esteem	-7676
▁events	-7677
▁exclus	-7678
▁excuse	-7679
▁expire	-7680
▁export	-7681
▁expose	-7682
▁favour	-7683
▁felony	-7684
▁female	-7685
▁finder	-7686
▁finger	-7687
▁fixing	-7688
▁flavor	-7689
▁formed	-7690
▁former	-7691
▁fruits	-7692
▁fulfil	-7693
▁garage	-7694
▁garlic	-7695
▁golden	-7696
▁google	-7697
▁grease	-7698
▁greasy	-7699
De	-7700
Pl	-7701
UL	-7702
-47	-7703
Sue	-7704
imm	-7705
ona	-7706
rep	-7707
urg	-7708
yes	-7709
▁3.	-7710
▁35	-7711
aden	-7712
anch	-7713
astr	-7714
inge	-7715
ners	-7716
orms	-7717
rich	-7718
urvy	-7719
wers	-7720
▁Deb	-7721
▁Hus	-7722
▁Ron	-7723
▁fur	-7724
▁gel	-7725
▁lid	-7726
▁ram	-7727
▁ris	-7728
▁wen	-7729
acing	-7730
antic	-7731
aters	-7732
enter	-7733
known	-7734
pause	-7735
▁cord	-7736
▁deed	-7737
▁desk	-7738
▁isnt	-7739
▁lied	-7740
▁rope	-7741
▁stor	-7742
Anyway	-7743
consin	-7744
esteem	-7745
▁Curvy	-7746
▁aging	-7747
▁beers	-7748
▁chill	-7749
▁payer	-7750
▁risks	-7751
▁shall	-7752
eppelin	-7753
▁Jewish	-7754
▁Sponge	-7755
▁assign	-7756
▁ballot	-7757
▁checks	-7758
▁classy	-7759
▁commen	-7760
▁crises	-7761
▁diesel	-7762
▁dollar	-7763
▁grunge	-7764
▁gutted	-7765
▁handed	-7766
▁hatred	-7767
▁heroin	-7768
▁hippie	-7769
▁hoaxes	-7770
▁hoping	-7771
▁hugely	-7772
▁humble	-7773
▁hungry	-7774
▁impair	-7775
▁indian	-7776
▁injury	-7777
▁island	-7778
▁judged	-7779
▁jurisd	-7780
▁kicked	-7781
▁kidney	-7782
▁ladies	-7783
▁laptop	-7784
▁lately	-7785
▁latter	-7786
▁lethal	-7787
▁likley	-7788
▁limits	-7789
▁linear	-7790
▁lously	-7791
▁loving	-7792
▁makind	-7793
▁massac	-7794
▁master	-7795
▁menace	-7796
▁messed	-7797
▁motion	-7798
▁muscle	-7799
Oil	-7800
YES	-7801
dem	-7802
elf	-7803
gov	-7804
run	-7805
wer	-7806
▁AK	-7807
▁AR	-7808
▁Bo	-7809
▁Mr	-7810
fait	-7811
oles	-7812
uase	-7813
▁30,	-7814
▁Exp	-7815
▁Hum	-7816
▁Jar	-7817
▁Set	-7818
▁Ter	-7819
▁Wan	-7820
▁War	-7821
▁YES	-7822
▁amb	-7823
▁hun	-7824
▁jun	-7825
▁sty	-7826
▁vol	-7827
abled	-7828
ardly	-7829
asant	-7830
eanor	-7831
itain	-7832
polit	-7833
▁Kore	-7834
▁ONLY	-7835
▁diss	-7836
▁forb	-7837
▁tone	-7838
Either	-7839
charge	-7840
eaning	-7841
ipping	-7842
verted	-7843
▁Cause	-7844
▁Hindu	-7845
▁Using	-7846
▁compe	-7847
▁persu	-7848
▁sloth	-7849
▁sorts	-7850
▁tired	-7851
eration	-7852
▁Except	-7853
▁Others	-7854
▁advent	-7855
▁aiding	-7856
▁jungle	-7857
▁mutual	-7858
▁negoti	-7859
▁nicely	-7860
▁notify	-7861
▁orient	-7862
▁owning	-7863
▁packed	-7864
▁palist	-7865
▁papers	-7866
▁parish	-7867
▁payers	-7868
▁pearls	-7869
▁pedest	-7870
▁physic	-7871
▁picket	-7872
▁pirate	-7873
▁posses	-7874
▁proved	-7875
▁pseudo	-7876
▁pulled	-7877
▁purpos	-7878
▁puzzle	-7879
▁racial	-7880
▁racing	-7881
▁railro	-7882
▁rebell	-7883
▁reckon	-7884
▁reddit	-7885
▁redone	-7886
▁reflex	-7887
▁relief	-7888
▁rental	-7889
▁repair	-7890
▁resemb	-7891
▁resent	-7892
▁resist	-7893
▁reveal	-7894
▁ribeye	-7895
▁rivals	-7896
▁rolled	-7897
▁rooted	-7898
▁rotten	-7899
5)	-7900
:-	-7901
gi	-7902
cil	-7903
▁oh	-7904
▁wk	-7905
andy	-7906
dest	-7907
elgi	-7908
even	-7909
fire	-7910
isex	-7911
soft	-7912
uate	-7913
▁Aqu	-7914
▁Bab	-7915
▁Bas	-7916
▁Bay	-7917
▁GOP	-7918
▁Int	-7919
▁alt	-7920
▁ous	-7921
▁pil	-7922
▁vul	-7923
kinny	-7924
usion	-7925
▁2000	-7926
▁View	-7927
▁beac	-7928
▁chug	-7929
▁cous	-7930
▁hole	-7931
▁math	-7932
▁mins	-7933
▁pest	-7934
▁reci	-7935
▁ruin	-7936
▁sets	-7937
▁tour	-7938
cially	-7939
ctions	-7940
skinny	-7941
▁1822,	-7942
▁Cajun	-7943
▁camer	-7944
▁chalk	-7945
▁deity	-7946
▁posts	-7947
▁quant	-7948
▁sugar	-7949
▁teams	-7950
▁telgi	-7951
▁whore	-7952
▁yield	-7953
▁Anakin	-7954
▁Seeing	-7955
▁campus	-7956
▁detest	-7957
▁hiding	-7958
▁routes	-7959
▁saving	-7960
▁scrape	-7961
▁scream	-7962
▁script	-7963
▁shares	-7964
▁sicken	-7965
▁sister	-7966
▁solves	-7967
▁sooner	-7968
▁sorrow	-7969
▁speaks	-7970
▁square	-7971
▁stable	-7972
▁stayed	-7973
▁stigma	-7974
▁stings	-7975
▁strugg	-7976
▁submit	-7977
▁survey	-7978
▁suspic	-7979
▁sweets	-7980
▁temper	-7981
▁termed	-7982
▁terrif	-7983
▁themes	-7984
▁theore	-7985
▁toilet	-7986
▁topics	-7987
▁touchy	-7988
▁trauma	-7989
▁travel	-7990
▁tricky	-7991
▁truths	-7992
▁twenty	-7993
▁unbear	-7994
▁unjust	-7995
▁unprof	-7996
▁update	-7997
▁uproar	-7998
▁valley	-7999
Ds	-8000
100	-8001
ief	-8002
mis	-8003
una	-8004
une	-8005
uns	-8006
uum	-8007
▁Fa	-8008
▁Fe	-8009
▁Hi	-8010
▁LE	-8011
▁ME	-8012
▁bf	-8013
▁gy	-8014
Next	-8015
itig	-8016
oena	-8017
▁2.0	-8018
▁BOO	-8019
▁Ber	-8020
▁FMA	-8021
▁Hop	-8022
▁Mad	-8023
▁Med	-8024
▁Mis	-8025
▁Pet	-8026
▁hip	-8027
▁max	-8028
▁mud	-8029
▁pus	-8030
▁rud	-8031
▁via	-8032
arted	-8033
idate	-8034
istan	-8035
otion	-8036
▁Home	-8037
▁News	-8038
▁Were	-8039
▁aged	-8040
▁cure	-8041
▁dick	-8042
▁reel	-8043
▁sees	-8044
▁tele	-8045
▁unst	-8046
▁vice	-8047
▁virt	-8048
▁wore	-8049
ribing	-8050
▁THERE	-8051
▁agent	-8052
▁faced	-8053
▁forum	-8054
▁roles	-8055
▁stole	-8056
▁sushi	-8057
▁tooth	-8058
intendo	-8059
matized	-8060
▁Mother	-8061
▁acting	-8062
▁begged	-8063
▁broken	-8064
▁contem	-8065
▁foetus	-8066
▁handle	-8067
▁purple	-8068
▁viable	-8069
▁vision	-8070
▁visits	-8071
▁voices	-8072
▁warned	-8073
▁weapon	-8074
▁welcom	-8075
▁whilst	-8076
▁whould	-8077
▁winter	-8078
▁wished	-8079
▁workpl	-8080
Employee	-8081
Employer	-8082
Marriage	-8083
Religion	-8084
Speaking	-8085
although	-8086
enerally	-8087
ensation	-8088
estinian	-8089
everyone	-8090
grateful	-8091
harastra	-8092
idelines	-8093
ifferent	-8094
inciples	-8095
ividuals	-8096
marriage	-8097
original	-8098
rational	-8099
Tab	-8100
Try	-8101
orp	-8102
▁EU	-8103
▁GO	-8104
▁GW	-8105
Will	-8106
abin	-8107
agle	-8108
aste	-8109
down	-8110
etry	-8111
inds	-8112
sels	-8113
sely	-8114
vide	-8115
zard	-8116
?"...	-8117
astro	-8118
atley	-8119
ellig	-8120
inets	-8121
ivity	-8122
least	-8123
marks	-8124
treat	-8125
umber	-8126
▁Case	-8127
▁Fame	-8128
▁cite	-8129
▁clap	-8130
▁ease	-8131
▁evry	-8132
▁hind	-8133
▁obsc	-8134
▁prey	-8135
▁shap	-8136
▁soul	-8137
▁stom	-8138
▁trip	-8139
▁wide	-8140
around	-8141
icable	-8142
opters	-8143
owered	-8144
▁asses	-8145
▁banks	-8146
▁deeds	-8147
▁doors	-8148
▁drast	-8149
▁mount	-8150
▁pound	-8151
▁resol	-8152
▁towns	-8153
▁undis	-8154
charged	-8155
iblical	-8156
ishment	-8157
istered	-8158
▁Castro	-8159
▁Hispan	-8160
▁Middle	-8161
▁buried	-8162
▁contam	-8163
▁disall	-8164
▁iPhone	-8165
▁refute	-8166
▁smokes	-8167
▁unsure	-8168
ributive	-8169
separate	-8170
stitutes	-8171
stration	-8172
students	-8173
venience	-8174
▁100,000	-8175
▁Aladdin	-8176
▁Alcohol	-8177
▁Banning	-8178
▁Beatles	-8179
▁Believe	-8180
▁CLEARLY	-8181
▁Certain	-8182
▁Croatia	-8183
▁Despite	-8184
▁Donovan	-8185
▁Driving	-8186
▁Duchamp	-8187
▁England	-8188
▁Example	-8189
▁Extreme	-8190
▁Florida	-8191
▁Frankly	-8192
▁Germans	-8193
▁Germany	-8194
▁Gujarat	-8195
▁Helping	-8196
▁IITians	-8197
▁Imagine	-8198
▁Improve	-8199
gs	-8200
aed	-8201
▁Da	-8202
▁RE	-8203
ALLY	-8204
keep	-8205
plet	-8206
▁lac	-8207
▁sin	-8208
lifer	-8209
otism	-8210
▁gras	-8211
▁sire	-8212
Thanks	-8213
▁Eight	-8214
▁spice	-8215
▁caesar	-8216
▁Instant	-8217
▁Islamic	-8218
▁Israeli	-8219
▁Killing	-8220
▁Lawyers	-8221
▁Mozilla	-8222
▁Neither	-8223
▁Ocarina	-8224
▁PROCESS	-8225
▁Pokemon	-8226
▁Problem	-8227
▁Provide	-8228
▁Science	-8229
▁Service	-8230
▁Sheldon	-8231
▁Shouldn	-8232
▁Someone	-8233
▁Suicide	-8234
▁Tuesday	-8235
▁UNIFORM	-8236
▁Ukraine	-8237
▁Western	-8238
▁abstain	-8239
▁abusive	-8240
▁adapted	-8241
▁adverse	-8242
▁advised	-8243
▁advisor	-8244
▁affects	-8245
▁aggress	-8246
▁anarchy	-8247
▁anguish	-8248
▁anticip	-8249
▁anytime	-8250
▁anyways	-8251
▁appeals	-8252
▁appears	-8253
▁appetiz	-8254
▁approve	-8255
▁archite	-8256
▁ashamed	-8257
▁assault	-8258
▁babysit	-8259
▁bargain	-8260
▁battles	-8261
▁becuase	-8262
▁bigoted	-8263
▁bigotry	-8264
▁billing	-8265
▁bloated	-8266
▁bombing	-8267
▁borders	-8268
▁britain	-8269
▁burning	-8270
▁buttons	-8271
▁century	-8272
▁charity	-8273
▁chasbas	-8274
▁claimed	-8275
▁classic	-8276
▁closest	-8277
▁coerced	-8278
▁colored	-8279
▁colours	-8280
▁compare	-8281
▁compuls	-8282
▁conceal	-8283
▁constit	-8284
▁contest	-8285
▁counsel	-8286
▁cutting	-8287
▁dealers	-8288
▁decency	-8289
▁decides	-8290
▁defeats	-8291
▁defence	-8292
▁deprive	-8293
▁desires	-8294
▁dessert	-8295
▁devices	-8296
▁discour	-8297
▁dismiss	-8298
▁dropped	-8299
▁educate	-8300
▁elected	-8301
▁elevate	-8302
▁emerged	-8303
▁enacted	-8304
▁enemies	-8305
▁english	-8306
▁entrees	-8307
▁equally	-8308
▁excited	-8309
▁exclude	-8310
▁existed	-8311
▁experts	-8312
▁expired	-8313
▁explore	-8314
▁falsify	-8315
▁feature	-8316
▁feeding	-8317
▁females	-8318
▁fiction	-8319
▁firearm	-8320
▁flavour	-8321
▁focused	-8322
▁fortune	-8323
▁forward	-8324
▁founded	-8325
▁frankly	-8326
▁freezer	-8327
▁fucking	-8328
▁funeral	-8329
▁gallons	-8330
▁generic	-8331
▁gnocchi	-8332
▁governs	-8333
▁grammar	-8334
▁greeted	-8335
▁grilled	-8336
▁happend	-8337
▁harmful	-8338
▁heartbe	-8339
▁hearted	-8340
▁housing	-8341
▁illness	-8342
▁imposed	-8343
▁impress	-8344
▁inadequ	-8345
▁inalien	-8346
▁indefin	-8347
▁indoctr	-8348
▁initial	-8349
▁intrins	-8350
▁invaded	-8351
▁joining	-8352
▁kingdom	-8353
▁lessons	-8354
▁lettuce	-8355
▁lightly	-8356
▁lobster	-8357
▁located	-8358
▁lottery	-8359
▁managed	-8360
▁mariage	-8361
▁measure	-8362
▁misused	-8363
▁monitor	-8364
▁monkeys	-8365
▁monster	-8366
▁negated	-8367
▁neglect	-8368
▁nervous	-8369
▁notions	-8370
▁octopus	-8371
▁offices	-8372
▁oneself	-8373
▁optimum	-8374
▁organis	-8375
▁origins	-8376
▁outdoor	-8377
▁outlaws	-8378
▁oversee	-8379
▁package	-8380
▁parfait	-8381
▁pastime	-8382
▁pennies	-8383
▁perjury	-8384
▁persuit	-8385
▁phoenix	-8386
▁platter	-8387
▁pleased	-8388
▁plugins	-8389
▁pointed	-8390
▁portray	-8391
▁pouring	-8392
▁praying	-8393
▁prescri	-8394
▁prosper	-8395
▁proudly	-8396
▁pudding	-8397
▁pushing	-8398
▁radical	-8399
▁raising	-8400
▁rapists	-8401
▁reaches	-8402
▁readily	-8403
▁realise	-8404
▁receipt	-8405
▁recover	-8406
▁redress	-8407
▁reduced	-8408
▁refused	-8409
▁rehabil	-8410
▁relieve	-8411
▁replies	-8412
▁results	-8413
▁retards	-8414
▁returns	-8415
▁robbery	-8416
▁rolling	-8417
▁routine	-8418
▁rubbish	-8419
▁scratch	-8420
▁screwed	-8421
▁seconds	-8422
▁seeming	-8423
▁sending	-8424
▁seniors	-8425
▁serving	-8426
▁sexting	-8427
▁shipped	-8428
▁shocked	-8429
▁shorter	-8430
▁signing	-8431
▁singing	-8432
▁sleeker	-8433
▁sourced	-8434
▁squeeze	-8435
▁station	-8436
▁stellar	-8437
▁stimuli	-8438
▁streets	-8439
▁sustain	-8440
▁symbols	-8441
▁tactics	-8442
▁tapioca	-8443
▁tenders	-8444
▁testing	-8445
▁thereby	-8446
▁thereof	-8447
▁threads	-8448
▁trigger	-8449
▁trusted	-8450
▁unarmed	-8451
▁undergo	-8452
▁unknown	-8453
▁updates	-8454
▁varsity	-8455
▁veggies	-8456
▁venture	-8457
▁verdict	-8458
▁viewing	-8459
▁virgins	-8460
▁walking	-8461
▁weekend	-8462
▁writers	-8463
abilizing	-8464
cientific	-8465
depending	-8466
education	-8467
ensorship	-8468
ffesional	-8469
formation	-8470
mongering	-8471
political	-8472
pretation	-8473
quisition	-8474
something	-8475
▁Anything	-8476
▁Assuming	-8477
▁Beverage	-8478
▁Congress	-8479
▁Consider	-8480
▁Coronado	-8481
▁Criminal	-8482
▁European	-8483
▁Fountain	-8484
▁Generals	-8485
▁Israelis	-8486
▁Liberals	-8487
▁Margaret	-8488
▁McDonald	-8489
▁Mexicans	-8490
▁Michigan	-8491
▁Minister	-8492
▁Moreover	-8493
▁Napoleon	-8494
▁Narendra	-8495
▁Nebraska	-8496
▁Nobility	-8497
▁November	-8498
▁Olympics	-8499
▁Physical	-8500
▁Politics	-8501
▁Redskins	-8502
▁Republic	-8503
▁Samantha	-8504
▁Scotland	-8505
▁Spanking	-8506
▁Students	-8507
▁academic	-8508
▁achieved	-8509
▁adultery	-8510
▁agricult	-8511
▁alchohol	-8512
▁analysis	-8513
▁applying	-8514
▁approved	-8515
▁arrogant	-8516
▁artistic	-8517
▁assuming	-8518
▁athletic	-8519
▁attended	-8520
▁attitude	-8521
▁barbaric	-8522
▁bathroom	-8523
▁boneless	-8524
▁bookmark	-8525
▁boosting	-8526
▁bothered	-8527
▁boutique	-8528
▁breeding	-8529
▁brothers	-8530
▁checking	-8531
▁cheering	-8532
▁choosing	-8533
▁combined	-8534
▁comeback	-8535
▁commerci	-8536
▁compared	-8537
▁confront	-8538
▁congress	-8539
▁consumes	-8540
▁contacts	-8541
▁contempt	-8542
▁contrary	-8543
▁controls	-8544
▁converts	-8545
▁cracking	-8546
▁creature	-8547
▁critical	-8548
▁damaging	-8549
▁darkness	-8550
▁deprives	-8551
▁deserved	-8552
▁detailed	-8553
▁diabetic	-8554
▁diarrhea	-8555
▁disabled	-8556
▁disaster	-8557
▁discover	-8558
▁diseases	-8559
▁displays	-8560
▁disprove	-8561
▁doctrine	-8562
▁dogmatic	-8563
▁domestic	-8564
▁employee	-8565
▁enjoying	-8566
▁enormous	-8567
▁eternity	-8568
▁explorer	-8569
▁exposure	-8570
▁extended	-8571
▁filtered	-8572
▁focusing	-8573
▁football	-8574
▁fountain	-8575
▁grandeur	-8576
▁guidance	-8577
▁handsome	-8578
▁hardship	-8579
▁harmless	-8580
▁helpless	-8581
▁hesitate	-8582
▁homeless	-8583
▁homemade	-8584
▁hospital	-8585
▁hostages	-8586
▁ideology	-8587
▁illegals	-8588
▁immature	-8589
▁improper	-8590
▁improves	-8591
▁incident	-8592
▁included	-8593
▁incompat	-8594
▁insecure	-8595
▁intended	-8596
▁interact	-8597
▁interven	-8598
▁intruder	-8599
▁invasion	-8600
▁irrespon	-8601
▁jackpots	-8602
▁judgment	-8603
▁lawsuits	-8604
▁lesbians	-8605
▁licenses	-8606
▁lifelong	-8607
▁likewise	-8608
▁limiting	-8609
▁magazine	-8610
▁managing	-8611
▁marrying	-8612
▁material	-8613
▁minority	-8614
▁misinter	-8615
▁misunder	-8616
▁motivate	-8617
▁mutation	-8618
▁nowadays	-8619
▁obedient	-8620
▁occasion	-8621
▁offender	-8622
▁opponent	-8623
▁ordering	-8624
▁parental	-8625
▁payments	-8626
▁peaceful	-8627
▁pedestal	-8628
▁plastics	-8629
▁pleasing	-8630
▁policing	-8631
▁polished	-8632
▁politian	-8633
▁predates	-8634
▁presents	-8635
▁produced	-8636
▁prohibit	-8637
▁proposed	-8638
▁purposes	-8639
▁pursuits	-8640
▁railroad	-8641
▁reacting	-8642
▁recorded	-8643
▁referral	-8644
▁reflects	-8645
▁regarded	-8646
▁register	-8647
▁religeon	-8648
▁reported	-8649
▁republic	-8650
▁resource	-8651
▁sacrific	-8652
▁salaried	-8653
▁salaries	-8654
▁scarlett	-8655
▁schedule	-8656
▁secondly	-8657
▁selected	-8658
▁sensible	-8659
▁sentient	-8660
▁shifting	-8661
▁speakers	-8662
▁spectrum	-8663
▁spitting	-8664
▁stagnant	-8665
▁stalkers	-8666
▁steering	-8667
▁stepping	-8668
▁stereoty	-8669
▁stubborn	-8670
▁suddenly	-8671
▁suicidal	-8672
▁suitable	-8673
▁superman	-8674
▁takeaway	-8675
▁tarannum	-8676
▁themself	-8677
▁theology	-8678
▁theories	-8679
▁thinkers	-8680
▁thirteen	-8681
▁thousand	-8682
▁throwing	-8683
▁tolerate	-8684
▁tomorrow	-8685
▁touching	-8686
▁training	-8687
▁transfer	-8688
▁trespass	-8689
▁turnover	-8690
▁umbrella	-8691
▁unaccept	-8692
▁unbeliev	-8693
▁underage	-8694
▁unlikely	-8695
▁unstable	-8696
▁velocity	-8697
▁waitress	-8698
▁whenever	-8699
▁winnings	-8700
▁withdraw	-8701
astructure	-8702
democratic	-8703
ominations	-8704
osynthesis	-8705
protection	-8706
romagnetic	-8707
targetting	-8708
▁Amendment	-8709
▁Committee	-8710
▁EVERYBODY	-8711
▁Economist	-8712
▁Enlighten	-8713
▁Generally	-8714
▁Hispanics	-8715
▁Microsoft	-8716
▁Political	-8717
▁Yesterday	-8718
▁acomplice	-8719
▁advertise	-8720
▁affection	-8721
▁alcoholic	-8722
▁anecdotal	-8723
▁answering	-8724
▁apologize	-8725
▁arguement	-8726
▁assertion	-8727
▁attacking	-8728
▁awareness	-8729
▁birthdays	-8730
▁bookmarks	-8731
▁buildings	-8732
▁civilized	-8733
▁classical	-8734
▁classroom	-8735
▁clockwise	-8736
▁comparing	-8737
▁completed	-8738
▁compounds	-8739
▁confident	-8740
▁consensus	-8741
▁consisted	-8742
▁countless	-8743
▁coworkers	-8744
▁creatures	-8745
▁criterium	-8746
▁curiosity	-8747
▁customers	-8748
▁defending	-8749
▁defiantly	-8750
▁delivered	-8751
▁democracy	-8752
▁depressed	-8753
▁depresses	-8754
▁described	-8755
▁direction	-8756
▁discovery	-8757
▁diversity	-8758
▁downloads	-8759
▁downsides	-8760
▁elaborate	-8761
▁elections	-8762
▁eliminate	-8763
▁engineers	-8764
▁essential	-8765
▁estimated	-8766
▁ethnicity	-8767
▁execution	-8768
▁exonerate	-8769
▁expertise	-8770
▁explained	-8771
▁factories	-8772
▁financing	-8773
▁forgotten	-8774
▁fortunate	-8775
▁gathering	-8776
▁gradually	-8777
▁greatness	-8778
▁guarantee	-8779
▁headlines	-8780
▁highlight	-8781
▁identical	-8782
▁ignorance	-8783
▁illegally	-8784
▁illogical	-8785
▁immediate	-8786
▁imperfect	-8787
▁incorrect	-8788
▁increased	-8789
▁initiated	-8790
▁injection	-8791
▁interfere	-8792
▁investing	-8793
▁knowingly	-8794
▁languages	-8795
▁liberties	-8796
▁lobbyists	-8797
▁locations	-8798
▁logically	-8799
▁loopholes	-8800
▁malicious	-8801
▁masochism	-8802
▁massively	-8803
▁mentality	-8804
▁neighbour	-8805
▁nostalgia	-8806
▁nutrition	-8807
▁obtaining	-8808
▁officials	-8809
▁operating	-8810
▁opponents	-8811
▁organisms	-8812
▁outsiders	-8813
▁ownership	-8814
▁paperwork	-8815
▁paralyzed	-8816
▁performed	-8817
▁permitted	-8818
▁perpetual	-8819
▁pointless	-8820
▁poisoning	-8821
▁possesion	-8822
▁practical	-8823
▁practiced	-8824
▁premature	-8825
▁principle	-8826
▁procedure	-8827
▁producing	-8828
▁prohibits	-8829
▁prosecute	-8830
▁publicity	-8831
▁purchased	-8832
▁qualities	-8833
▁recording	-8834
▁reference	-8835
▁regarding	-8836
▁regularly	-8837
▁rejection	-8838
▁reporting	-8839
▁reproduce	-8840
▁responses	-8841
▁retaining	-8842
▁sacrafice	-8843
▁sacrifice	-8844
▁sarcastic	-8845
▁satisfied	-8846
▁scenarios	-8847
▁seasoning	-8848
▁selection	-8849
▁semantics	-8850
▁sentences	-8851
▁sentiment	-8852
▁separated	-8853
▁spiritual	-8854
▁streaming	-8855
▁strongest	-8856
▁structure	-8857
▁superiors	-8858
▁suspended	-8859
▁taxpayers	-8860
▁uncertain	-8861
▁undermine	-8862
▁unwilling	-8863
▁violating	-8864
▁virtually	-8865
▁workplace	-8866
▁worthless	-8867
appropriate	-8868
stitutional	-8869
▁Convinceme	-8870
▁Fatherless	-8871
▁Healthcare	-8872
▁Industrial	-8873
▁Maharastra	-8874
▁Management	-8875
▁Republican	-8876
▁Revolution	-8877
▁Television	-8878
▁accidental	-8879
▁accurately	-8880
▁alcoholism	-8881
▁algorithms	-8882
▁allegiance	-8883
▁applicants	-8884
▁bankruptcy	-8885
▁betterment	-8886
▁biological	-8887
▁castration	-8888
▁ceremonies	-8889
▁classified	-8890
▁concerning	-8891
▁constantly	-8892
▁contradict	-8893
▁cosleeping	-8894
▁curriculum	-8895
▁decriminal	-8896
▁dedication	-8897
▁disability	-8898
▁discharged	-8899
▁discredits	-8900
▁discussing	-8901
▁disturbing	-8902
▁electrical	-8903
▁elementary	-8904
▁empathetic	-8905
▁enviroment	-8906
▁euphemisms	-8907
▁exceptions	-8908
▁experiment	-8909
▁facilities	-8910
▁fascinated	-8911
▁foreigners	-8912
▁frequently	-8913
▁healthcare	-8914
▁heartaches	-8915
▁highschool	-8916
▁hyprocracy	-8917
▁immigrants	-8918
▁imprisoned	-8919
▁incredibly	-8920
▁inflexible	-8921
▁initiating	-8922
▁innovation	-8923
▁intolerant	-8924
▁inventions	-8925
▁investment	-8926
▁irrelevant	-8927
▁legalizing	-8928
▁legitimacy	-8929
▁lifestyles	-8930
▁medication	-8931
▁membership	-8932
▁milestones	-8933
▁minorities	-8934
▁moderation	-8935
▁negatively	-8936
▁newspapers	-8937
▁obligatory	-8938
▁observable	-8939
▁oppressive	-8940
▁originally	-8941
▁overcooked	-8942
▁overweight	-8943
▁parenthood	-8944
▁patriotism	-8945
▁peacefully	-8946
▁perception	-8947
▁physically	-8948
▁popularity	-8949
▁positively	-8950
▁preference	-8951
▁presidency	-8952
▁pretending	-8953
▁principles	-8954
▁procedures	-8955
▁programmed	-8956
▁prohibited	-8957
▁prosecuted	-8958
▁recognizes	-8959
▁recyclable	-8960
▁reputation	-8961
▁respectful	-8962
▁revelation	-8963
▁separation	-8964
▁signatures	-8965
▁skateboard	-8966
▁smartphone	-8967
▁soundtrack	-8968
▁stretching	-8969
▁structures	-8970
▁subjective	-8971
▁sufficient	-8972
▁supervisor	-8973
▁sympathize	-8974
▁television	-8975
▁thereafter	-8976
▁traditions	-8977
▁transplant	-8978
▁unbearable	-8979
▁undermined	-8980
▁unemployed	-8981
▁unpleasant	-8982
▁upbringing	-8983
▁victimless	-8984
▁whatsoever	-8985
▁wheelchair	-8986
▁widespread	-8987
▁worthwhile	-8988
▁Engineering	-8989
▁Imagination	-8990
▁Individuals	-8991
▁Institution	-8992
▁Kickstarter	-8993
▁accordingly	-8994
▁adventurism	-8995
▁advertising	-8996
▁affirmation	-8997
▁association	-8998
▁automobiles	-8999
▁businessman	-9000
▁celebrating	-9001
▁celebration	-9002
▁certificate	-9003
▁communities	-9004
▁complaining	-9005
▁compression	-9006
▁conclusions	-9007
▁consumption	-9008
▁contentious	-9009
▁contributed	-9010
▁corporation	-9011
▁correctness	-9012
▁creatoinism	-9013
▁credibility	-9014
▁departments	-9015
▁destination	-9016
▁directional	-9017
▁discredited	-9018
▁drastically	-9019
▁earthquakes	-9020
▁electricity	-9021
▁embarrassed	-9022
▁emergencies	-9023
▁exclusively	-9024
▁financially	-9025
▁generations	-9026
▁handicapped	-9027
▁immigration	-9028
▁implication	-9029
▁inalienable	-9030
▁indifferent	-9031
▁inheritance	-9032
▁interaction	-9033
▁legislation	-9034
▁manufacture	-9035
▁meaningless	-9036
▁nationality	-9037
▁orientation	-9038
▁outsourcing	-9039
▁outstanding	-9040
▁politically	-9041
▁predisposed	-9042
▁problematic	-9043
▁proceedings	-9044
▁progressive	-9045
▁prohibiting	-9046
▁prosecution	-9047
▁protectable	-9048
▁protections	-9049
▁questioning	-9050
▁requirement	-9051
▁restriction	-9052
▁selfishness	-9053
▁situational	-9054
▁spectacular	-9055
▁substantial	-9056
▁superiority	-9057
▁surrounding	-9058
▁temperature	-9059
▁theoretical	-9060
▁traumatized	-9061
▁unfortunate	-9062
▁Californians	-9063
▁Libertarians	-9064
▁PRESIDENTIAL	-9065
▁accomplished	-9066
▁acknowledged	-9067
▁administered	-9068
▁annihilating	-9069
▁associations	-9070
▁circumstance	-9071
▁compensation	-9072
▁contribution	-9073
▁creationists	-9074
▁dramatically	-9075
▁economically	-9076
▁embarrassing	-9077
▁evolutionary	-9078
▁expectations	-9079
▁grandparents	-9080
▁guardianship	-9081
▁hypocritical	-9082
▁individually	-9083
▁installation	-9084
▁institutions	-9085
▁organization	-9086
▁overwhelming	-9087
▁representing	-9088
▁satisfaction	-9089
▁successfully	-9090
▁transmission	-9091
▁unacceptable	-9092
▁unemployment	-9093
▁vaccinations	-9094
▁Enlightenment	-9095
▁accommodating	-9096
▁beneficiaries	-9097
▁consideration	-9098
▁destabilizing	-9099
▁establishment	-9100
▁imperfections	-9101
▁intelligently	-9102
▁international	-9103
▁intrinsically	-9104
▁justification	-9105
▁opportunities	-9106
▁rationalizing	-9107
▁sophisticated	-9108
▁Scientologists	-9109
▁constitutional	-9110
▁disappointment	-9111
▁impressionable	-9112
▁infrastructure	-9113
▁interpretation	-9114
▁misinterpreted	-9115
▁overpopulation	-9116
▁photosynthesis	-9117
unconstitutional	-9118
▁electromagnetic	-9119
▁representatives	-9120
▁ed	-9121
▁nd	-9122
▁mun	-9123
▁envy	-9124
▁mayo	-9125
icipal	-9126
▁added	-9127
lefield	-9128
▁basing	-9129
▁expand	-9130
▁larger	-9131
▁secure	-9132
▁binding	-9133
▁operate	-9134
▁posting	-9135
▁weapons	-9136
▁commonly	-9137
▁invested	-9138
▁municipal	-9139
▁terrorism	-9140
▁affirmative	-9141
▁combination	-9142
▁communicate	-9143
▁increasingly	-9144
-15	-9145
-18	-9146
.99	-9147
/50	-9148
180	-9149
30'	-9150
347	-9151
457	-9152
80,	-9153
:1)	-9154
:45	-9155
AUL	-9156
AYS	-9157
CHI	-9158
EVE	-9159
GBT	-9160
IFA	-9161
ISR	-9162
Isn	-9163
LBT	-9164
MDs	-9165
TML	-9166
gfs	-9167
gpa	-9168
jdr	-9169
klp	-9170
viu	-9171
,800	-9172
-15'	-9173
-20'	-9174
.(3)	-9175
/201	-9176
/50.	-9177
100.	-9178
4.24	-9179
AGAL	-9180
AULT	-9181
Anim	-9182
CCHI	-9183
Cuba	-9184
Gras	-9185
HICK	-9186
IEVE	-9187
ISRA	-9188
IVIL	-9189
Keep	-9190
NATO	-9191
NECT	-9192
NESS	-9193
OAST	-9194
ORML	-9195
OUNT	-9196
PRIS	-9197
Play	-9198
ULTS	-9199
Teac	-9200
blum	-9201
bono	-9202
crab	-9203
dogs	-9204
elta	-9205
guns	-9206
iasm	-9207
ietn	-9208
iffs	-9209
infl	-9210
jdrk	-9211
joke	-9212
logy	-9213
nwer	-9214
okov	-9215
orpo	-9216
ougl	-9217
rmos	-9218
sume	-9219
ukew	-9220
umni	-9221
usgs	-9222
ymor	-9223
yria	-9224
▁"24	-9225
▁2/3	-9226
▁24/	-9227
▁2:2	-9228
▁3.0	-9229
▁40,	-9230
▁40?	-9231
▁7.0	-9232
▁ALW	-9233
▁Boa	-9234
▁CPS	-9235
▁DaV	-9236
▁FAM	-9237
▁Feb	-9238
▁GAY	-9239
▁IMH	-9240
▁IMO	-9241
▁IRA	-9242
▁ITT	-9243
▁KIL	-9244
▁NFL	-9245
▁OLD	-9246
▁REM	-9247
▁SAY	-9248
▁UPS	-9249
▁aka	-9250
▁dyn	-9251
▁ftw	-9252
*****	-9253
..."*	-9254
34.24	-9255
60.00	-9256
Being	-9257
Canad	-9258
Death	-9259
ERVES	-9260
METAL	-9261
OUNTR	-9262
Relig	-9263
Scott	-9264
UALLY	-9265
Worse	-9266
acify	-9267
admis	-9268
agued	-9269
auria	-9270
becca	-9271
blume	-9272
break	-9273
brium	-9274
cCain	-9275
cabin	-9276
embry	-9277
euros	-9278
evalu	-9279
glass	-9280
handy	-9281
iasco	-9282
kjdrk	-9283
klore	-9284
ocado	-9285
ockey	-9286
olley	-9287
onkey	-9288
oungh	-9289
plete	-9290
poena	-9291
rogen	-9292
ruiti	-9293
small	-9294
spare	-9295
sugar	-9296
taste	-9297
teach	-9298
tinue	-9299
?3.	-9300
eems	-9301
rina	-9302
▁60-	-9303
▁HAP	-9304
▁HAV	-9305
afina	-9306
ascar	-9307
demon	-9308
girls	-9309
party	-9310
regon	-9311
uebec	-9312
urkey	-9313
uscan	-9314
utiny	-9315
volta	-9316
works	-9317
xymor	-9318
▁11-1	-9319
▁1976	-9320
▁1985	-9321
▁1:45	-9322
▁2/3'	-9323
▁2015	-9324
▁7:30	-9325
▁8:30	-9326
▁Babe	-9327
▁Bern	-9328
▁Bull	-9329
▁COMP	-9330
▁CONV	-9331
▁Dais	-9332
▁Debt	-9333
▁Drug	-9334
▁EDIT	-9335
▁FAMI	-9336
▁Flay	-9337
▁HAPP	-9338
▁HTML	-9339
▁Haha	-9340
▁KILL	-9341
▁Know	-9342
▁LGBT	-9343
▁Lobb	-9344
▁MUST	-9345
▁Odin	-9346
▁Pete	-9347
▁SELF	-9348
▁Toby	-9349
▁UNPR	-9350
▁Veto	-9351
▁WORK	-9352
▁WORN	-9353
▁bona	-9354
▁boom	-9355
▁buzz	-9356
▁cycl	-9357
▁dysf	-9358
▁ebil	-9359
▁flex	-9360
▁gimm	-9361
▁iPod	-9362
▁muds	-9363
▁narr	-9364
▁noun	-9365
▁soca	-9366
▁tiny	-9367
▁zone	-9368
34.24"	-9369
400.00	-9370
?!?!?!	-9371
Assume	-9372
Bleach	-9373
Democr	-9374
ISRAEL	-9375
Monkey	-9376
NOCCHI	-9377
OASTED	-9378
PRISED	-9379
Simply	-9380
Speech	-9381
Suffer	-9382
USTICE	-9383
Unions	-9384
Unless	-9385
acilly	-9386
adilla	-9387
agneto	-9388
amming	-9389
andora	-9390
anilla	-9391
aphics	-9392
asaden	-9393
astram	-9394
atrina	-9395
awarma	-9396
buttal	-9397
chrmos	-9398
cilman	-9399
!?!	-9400
OLUN	-9401
Paci	-9402
STER	-9403
imsy	-9404
mato	-9405
mmmm	-9406
osrs	-9407
symm	-9408
yoza	-9409
▁COP	-9410
▁FUN	-9411
▁PBS	-9412
▁SST	-9413
▁yrs	-9414
BSTER	-9415
ITATE	-9416
OLUNT	-9417
hmmmm	-9418
thems	-9419
▁COPS	-9420
▁gale	-9421
▁nosy	-9422
▁task	-9423
▁wann	-9424
Around	-9425
cisely	-9426
crimes	-9427
ctrine	-9428
destru	-9429
dinary	-9430
drogen	-9431
eously	-9432
erials	-9433
family	-9434
fellas	-9435
garity	-9436
heimer	-9437
idemic	-9438
ilhelm	-9439
incere	-9440
incest	-9441
inials	-9442
issues	-9443
ittata	-9444
liders	-9445
lifted	-9446
ongrel	-9447
onosrs	-9448
orilla	-9449
osedca	-9450
profit	-9451
proper	-9452
pushed	-9453
quares	-9454
rategy	-9455
rengen	-9456
stanti	-9457
tinent	-9458
uoting	-9459
urbate	-9460
ussels	-9461
veiled	-9462
winism	-9463
winner	-9464
▁"24".	-9465
▁*"...	-9466
▁10-20	-9467
▁10/20	-9468
▁1000'	-9469
▁11-12	-9470
▁1930'	-9471
▁1967.	-9472
▁1973,	-9473
▁2013,	-9474
▁2015!	-9475
▁Aquin	-9476
▁Asada	-9477
▁Bobby	-9478
▁Charl	-9479
▁Contr	-9480
▁Darth	-9481
▁Death	-9482
▁Delta	-9483
▁Enfor	-9484
▁FAULT	-9485
▁Filet	-9486
▁Flash	-9487
▁Garry	-9488
▁Harry	-9489
▁Husse	-9490
▁INDIA	-9491
▁Incre	-9492
▁Judge	-9493
▁Karma	-9494
▁Korea	-9495
▁LOVES	-9496
▁Laden	-9497
▁Larry	-9498
▁Lucky	-9499
sns	-9500
nsed	-9501
okay	-9502
▁EEE	-9503
laced	-9504
shell	-9505
valed	-9506
xteen	-9507
▁Area	-9508
▁Bond	-9509
▁Code	-9510
▁akin	-9511
▁fond	-9512
▁juxt	-9513
▁palm	-9514
30,000	-9515
attery	-9516
client	-9517
culate	-9518
ixteen	-9519
ottery	-9520
ptiles	-9521
valent	-9522
▁Files	-9523
▁Front	-9524
▁Guant	-9525
▁METAL	-9526
▁Medic	-9527
▁Nazis	-9528
▁PCsIf	-9529
▁Pepsi	-9530
▁Salad	-9531
▁Sandy	-9532
▁Sunde	-9533
▁Syria	-9534
▁Tasty	-9535
▁Vietn	-9536
▁Wales	-9537
▁WebDe	-9538
▁Wrong	-9539
▁Years	-9540
▁airfl	-9541
▁altog	-9542
▁ashes	-9543
▁belei	-9544
▁bisex	-9545
▁bored	-9546
▁budge	-9547
▁cabin	-9548
▁caffe	-9549
▁camar	-9550
▁chief	-9551
▁dodge	-9552
▁drove	-9553
▁dynam	-9554
▁empir	-9555
▁floor	-9556
▁foxes	-9557
▁furry	-9558
▁gotta	-9559
▁grasp	-9560
▁gyoza	-9561
▁harry	-9562
▁hefty	-9563
▁heter	-9564
▁holes	-9565
▁juicy	-9566
▁juven	-9567
▁likli	-9568
▁lofty	-9569
▁lukew	-9570
▁malls	-9571
▁mercy	-9572
▁mitig	-9573
▁muddy	-9574
▁naive	-9575
▁obviu	-9576
▁onset	-9577
▁opium	-9578
▁pagan	-9579
▁pepsi	-9580
▁pills	-9581
▁prsns	-9582
▁rambl	-9583
▁recie	-9584
▁recyc	-9585
▁rusty	-9586
▁scoop	-9587
▁scrub	-9588
▁semes	-9589
▁siren	-9590
▁snobb	-9591
▁solja	-9592
▁soror	-9593
▁splur	-9594
▁squad	-9595
▁straw	-9596
▁swimm	-9597
▁thief	-9598
▁threw	-9599
37.	-9600
ACT	-9601
Chr	-9602
DCT	-9603
UTH	-9604
rgu	-9605
Argu	-9606
CTED	-9607
belt	-9608
▁BEL	-9609
▁SUR	-9610
Chris	-9611
UTHAN	-9612
amsay	-9613
arcer	-9614
choic	-9615
guise	-9616
helps	-9617
▁2002	-9618
▁2007	-9619
▁24/9	-9620
▁peek	-9621
▁vert	-9622
Change	-9623
Choice	-9624
keeper	-9625
usiasm	-9626
▁1837.	-9627
▁24/96	-9628
▁cheek	-9629
▁misgu	-9630
▁neoli	-9631
▁seams	-9632
▁tools	-9633
▁trait	-9634
▁umbil	-9635
▁unbal	-9636
▁upset	-9637
70,000?	-9638
800,000	-9639
Animals	-9640
Another	-9641
Arguing	-9642
Finally	-9643
FireFox	-9644
ICKNESS	-9645
Imagine	-9646
NECTION	-9647
OLUNTAR	-9648
OTECTED	-9649
Pacific	-9650
Sublime	-9651
Suicide	-9652
UTHANAS	-9653
anchise	-9654
archers	-9655
asadena	-9656
astrami	-9657
attails	-9658
aturity	-9659
aunting	-9660
becouse	-9661
believe	-9662
cabinet	-9663
creased	-9664
customs	-9665
discuss	-9666
drafted	-9667
emantic	-9668
finally	-9669
finance	-9670
flowing	-9671
gorithm	-9672
hearted	-9673
husiasm	-9674
impress	-9675
ipulate	-9676
irginia	-9677
istingu	-9678
knowing	-9679
nership	-9680
omantic	-9681
ooooooo	-9682
ophiles	-9683
orderly	-9684
osauria	-9685
picable	-9686
pletely	-9687
rendous	-9688
repairs	-9689
request	-9690
russels	-9691
tential	-9692
ullness	-9693
ultisex	-9694
vesting	-9695
waiting	-9696
xymoron	-9697
zheimer	-9698
▁30.00,	-9699
103	-9700
wait	-9701
▁160	-9702
▁Art	-9703
▁INC	-9704
▁ISR	-9705
anley	-9706
atoes	-9707
goers	-9708
going	-9709
lemen	-9710
upper	-9711
uwait	-9712
▁160'	-9713
▁Adam	-9714
▁Budd	-9715
▁ISRO	-9716
▁Ohhh	-9717
▁bias	-9718
▁budd	-9719
▁woes	-9720
!!!!!)	-9721
!)....	-9722
000.00	-9723
attley	-9724
ilized	-9725
imizes	-9726
ppered	-9727
rocket	-9728
sticks	-9729
uddles	-9730
▁1977.	-9731
▁Buddh	-9732
▁INCOM	-9733
▁Ohhhh	-9734
▁Roman	-9735
▁arise	-9736
▁fiber	-9737
▁kicks	-9738
▁mango	-9739
▁unpet	-9740
6000.00	-9741
olutley	-9742
opsicle	-9743
payment	-9744
someday	-9745
▁ALWAYS	-9746
▁Adding	-9747
▁Africa	-9748
▁Burger	-9749
▁CONVIC	-9750
▁COUNTR	-9751
▁Commer	-9752
▁Crimes	-9753
▁Crisis	-9754
▁Democr	-9755
▁Eighth	-9756
▁FAMILY	-9757
▁Facial	-9758
▁Fairly	-9759
▁Filled	-9760
▁Gaming	-9761
▁HAHAHA	-9762
▁Hammon	-9763
▁Hardly	-9764
▁Houses	-9765
▁Humank	-9766
▁INCOME	-9767
▁Kuwait	-9768
▁Leagle	-9769
▁Loaded	-9770
▁Misjud	-9771
▁Misuse	-9772
▁Number	-9773
▁Oregon	-9774
▁Palace	-9775
▁Police	-9776
▁Polyam	-9777
▁Ramsay	-9778
▁Regard	-9779
▁Remove	-9780
▁Reserv	-9781
▁Resour	-9782
▁Sharma	-9783
▁Sherie	-9784
▁Truman	-9785
▁Tupper	-9786
▁Victim	-9787
▁Whilst	-9788
▁Winter	-9789
▁Wishes	-9790
▁Wonder	-9791
▁aggreg	-9792
▁amoral	-9793
▁angles	-9794
▁annoys	-9795
▁asnwer	-9796
▁astron	-9797
▁bacter	-9798
▁befell	-9799
ACK	-9800
APE	-9801
CAR	-9802
haul	-9803
izno	-9804
misp	-9805
rots	-9806
weak	-9807
▁Bye	-9808
▁Eye	-9809
conno	-9810
contr	-9811
ennel	-9812
hired	-9813
ituit	-9814
olita	-9815
truck	-9816
truth	-9817
uizno	-9818
▁BACK	-9819
▁RAPE	-9820
▁Twit	-9821
▁cafe	-9822
▁navy	-9823
▁nuer	-9824
▁nuke	-9825
▁pull	-9826
▁redo	-9827
▁senc	-9828
▁wavy	-9829
integr	-9830
ouples	-9831
▁Conqu	-9832
▁False	-9833
▁Steak	-9834
▁Worse	-9835
▁Worth	-9836
▁govts	-9837
▁loser	-9838
▁nucle	-9839
▁nuits	-9840
▁riots	-9841
▁steam	-9842
▁steel	-9843
▁steer	-9844
couples	-9845
despite	-9846
eminist	-9847
iblings	-9848
riendly	-9849
ropolit	-9850
▁Blairs	-9851
▁Lolita	-9852
▁NASCAR	-9853
▁biomet	-9854
▁blocks	-9855
▁brothe	-9856
▁bumper	-9857
▁bureau	-9858
▁bypass	-9859
▁camper	-9860
▁canada	-9861
▁caseNo	-9862
▁cathol	-9863
▁cereal	-9864
▁cheesy	-9865
▁chicks	-9866
▁chipot	-9867
▁closer	-9868
▁convey	-9869
▁crazed	-9870
▁curios	-9871
▁darker	-9872
▁dosage	-9873
▁dosent	-9874
▁dreamt	-9875
▁drowns	-9876
▁dysfun	-9877
▁enrich	-9878
▁envoir	-9879
▁eoungh	-9880
▁escape	-9881
▁eventh	-9882
▁extras	-9883
▁facial	-9884
▁flames	-9885
▁frustr	-9886
▁fueled	-9887
▁galaxy	-9888
▁gelato	-9889
▁gettin	-9890
▁giants	-9891
▁grandd	-9892
▁hazard	-9893
▁hemisp	-9894
▁hiking	-9895
▁hiways	-9896
▁hoodie	-9897
▁hunger	-9898
▁hunker	-9899
EMA	-9900
FMA	-9901
LEE	-9902
PID	-9903
SID	-9904
ANTS	-9905
TLEE	-9906
chev	-9907
elax	-9908
ummy	-9909
unno	-9910
▁42)	-9911
▁Leg	-9912
▁POL	-9913
▁RTS	-9914
topia	-9915
▁FEMA	-9916
▁SSID	-9917
▁amok	-9918
▁edge	-9919
▁gaze	-9920
OTTLEE	-9921
joined	-9922
mercil	-9923
rehens	-9924
▁Looks	-9925
▁Relax	-9926
▁WANTS	-9927
▁dunno	-9928
▁mommy	-9929
▁norms	-9930
▁yummy	-9931
Parents	-9932
iloring	-9933
lightly	-9934
manager	-9935
reinfor	-9936
ushchev	-9937
witness	-9938
▁POLICE	-9939
▁STUPID	-9940
▁Utopia	-9941
▁firmly	-9942
▁immune	-9943
▁incons	-9944
▁insurg	-9945
▁jacket	-9946
▁juxtap	-9947
▁labour	-9948
▁layers	-9949
▁layman	-9950
▁livest	-9951
▁locals	-9952
▁mandit	-9953
▁margar	-9954
▁mashed	-9955
▁medioc	-9956
▁merger	-9957
▁merits	-9958
▁microb	-9959
▁mixing	-9960
▁monopo	-9961
▁neatly	-9962
▁nerves	-9963
▁nobles	-9964
▁offset	-9965
▁parano	-9966
▁patern	-9967
▁plight	-9968
▁poetry	-9969
▁prague	-9970
▁premed	-9971
▁prides	-9972
▁psychi	-9973
▁psycho	-9974
▁purist	-9975
▁qualif	-9976
▁remedy	-9977
▁replic	-9978
▁rifles	-9979
▁robots	-9980
▁rowing	-9981
▁ruiner	-9982
▁rushed	-9983
▁sedate	-9984
▁sensit	-9985
▁shifts	-9986
▁sniffs	-9987
▁soccer	-9988
▁solely	-9989
▁soothe	-9990
▁specim	-9991
▁spills	-9992
▁sprink	-9993
▁sprout	-9994
▁steams	-9995
▁stocks	-9996
▁strata	-9997
▁sucked	-9998
▁summon	-9999
One	-10000
neo	-10001
php	-10002
EVER	-10003
Kids	-10004
addy	-10005
alyp	-10006
ayne	-10007
neck	-10008
ohan	-10009
olph	-10010
phia	-10011
phir	-10012
prep	-10013
▁mph	-10014
Layne	-10015
arene	-10016
neath	-10017
plays	-10018
queer	-10019
ricts	-10020
tiest	-10021
▁Pran	-10022
▁emph	-10023
▁fert	-10024
▁lids	-10025
addict	-10026
alypse	-10027
ceived	-10028
denial	-10029
enator	-10030
leshed	-10031
piring	-10032
ubator	-10033
▁Dolph	-10034
▁Lohan	-10035
▁Proof	-10036
▁Swear	-10037
▁delay	-10038
▁islam	-10039
ibalism	-10040
ilators	-10041
ivizing	-10042
morphia	-10043
onizing	-10044
phiroth	-10045
preting	-10046
quiring	-10047
▁BETTER	-10048
▁Donald	-10049
▁Mozill	-10050
▁Pranab	-10051
▁Prince	-10052
▁angers	-10053
▁cheque	-10054
▁emphas	-10055
▁mystic	-10056
▁ridden	-10057
▁shreds	-10058
▁socioh	-10059
▁temple	-10060
▁theres	-10061
▁thewor	-10062
▁thirty	-10063
▁trendy	-10064
▁tribes	-10065
▁tribun	-10066
▁tuscan	-10067
▁uinter	-10068
▁uncles	-10069
▁unprep	-10070
▁upkeep	-10071
▁upscal	-10072
▁vacuum	-10073
▁valued	-10074
▁verify	-10075
▁versus	-10076
▁vishvg	-10077
▁volley	-10078
▁wallet	-10079
▁wander	-10080
▁weighs	-10081
▁wouold	-10082
AllWomen	-10083
Congress	-10084
Creation	-10085
EVERYONE	-10086
Feminist	-10087
IDIATELY	-10088
Improper	-10089
OLUNTARY	-10090
Shopping	-10091
UICKNESS	-10092
UTHANASI	-10093
addicted	-10094
ammatory	-10095
andalism	-10096
apointed	-10097
argument	-10098
arsimony	-10099
4.5	-10100
ABS	-10101
ASS	-10102
IND	-10103
INT	-10104
loe	-10105
ASSI	-10106
EDOM	-10107
Toby	-10108
deen	-10109
deep	-10110
atsby	-10111
mares	-10112
named	-10113
pover	-10114
▁HINT	-10115
▁TABS	-10116
ASSIVE	-10117
REEDOM	-10118
ascist	-10119
ceeded	-10120
ctonic	-10121
▁Achie	-10122
▁Jimmy	-10123
▁Trust	-10124
▁boobs	-10125
▁draws	-10126
▁lemon	-10127
▁obsur	-10128
▁trips	-10129
▁whloe	-10130
Already	-10131
however	-10132
overall	-10133
poverty	-10134
▁Cheese	-10135
▁Gatsby	-10136
▁Listed	-10137
▁REMIND	-10138
▁aggree	-10139
▁americ	-10140
▁chains	-10141
▁exceed	-10142
▁league	-10143
▁marked	-10144
▁obsurd	-10145
▁salmon	-10146
▁storms	-10147
▁tarter	-10148
assingly	-10149
attached	-10150
avelling	-10151
business	-10152
centered	-10153
chipping	-10154
choicers	-10155
cklessly	-10156
complete	-10157
ctifying	-10158
cussions	-10159
destruct	-10160
distract	-10161
dwelling	-10162
elligent	-10163
eriously	-10164
ermining	-10165
ervience	-10166
existing	-10167
fireThis	-10168
graduate	-10169
hospital	-10170
icesnsed	-10171
ichotomy	-10172
icopters	-10173
ignoring	-10174
ilibrium	-10175
imulated	-10176
incurred	-10177
inforces	-10178
ituitary	-10179
messinis	-10180
olerance	-10181
orpoises	-10182
powerful	-10183
pressive	-10184
rassment	-10185
roducing	-10186
ronicles	-10187
roughout	-10188
rushchev	-10189
siatrist	-10190
stranger	-10191
strating	-10192
thankyou	-10193
underage	-10194
ungement	-10195
vantaged	-10196
wardness	-10197
▁(!!!!!)	-10198
▁Actions	-10199
/10	-10200
20'	-10201
EEN	-10202
MEN	-10203
8/10	-10204
Donn	-10205
Fund	-10206
MENT	-10207
ORON	-10208
WEEN	-10209
bani	-10210
clos	-10211
▁180	-10212
▁Emb	-10213
▁Spo	-10214
48/10	-10215
Karen	-10216
UMENT	-10217
arrow	-10218
ossom	-10219
uffle	-10220
▁Crow	-10221
▁FOOD	-10222
▁Grow	-10223
▁THEN	-10224
▁THOU	-10225
▁facr	-10226
▁nude	-10227
▁pizz	-10228
GUMENT	-10229
ORONIC	-10230
huffle	-10231
mascul	-10232
rested	-10233
worked	-10234
▁1920'	-10235
▁Neigh	-10236
▁Spicy	-10237
▁Sport	-10238
▁THOUS	-10239
▁freak	-10240
▁gloss	-10241
▁shuff	-10242
▁unsec	-10243
Donnell	-10244
alantly	-10245
arrowly	-10246
ocratic	-10247
olished	-10248
▁Embass	-10249
▁Expose	-10250
▁Phelps	-10251
▁Spoken	-10252
▁Sports	-10253
▁filler	-10254
▁flimsy	-10255
▁hockey	-10256
▁machin	-10257
▁pizzas	-10258
▁settle	-10259
▁smarty	-10260
▁victor	-10261
Donnells	-10262
closures	-10263
herishes	-10264
ourished	-10265
xication	-10266
▁Aquinas	-10267
▁Arabian	-10268
▁BELIEVE	-10269
▁BETWEEN	-10270
▁Bernard	-10271
▁COMPLET	-10272
▁CONVICT	-10273
▁Challen	-10274
▁Cheesec	-10275
▁DaVinci	-10276
▁Damages	-10277
▁Debates	-10278
▁Develop	-10279
▁Discuss	-10280
▁Embassy	-10281
▁Enforce	-10282
▁Evolved	-10283
▁FREEDOM	-10284
▁Factory	-10285
▁Finally	-10286
▁General	-10287
▁Georgia	-10288
▁Glaring	-10289
▁Granted	-10290
▁Growing	-10291
▁Guantan	-10292
▁Honesty	-10293
▁Hussien	-10294
▁INDIANS	-10295
▁Iranian	-10296
▁Katrina	-10297
▁Keeping	-10298
▁Knowing	-10299
▁8-	-10300
bury	-10301
phab	-10302
raze	-10303
▁50'	-10304
Craze	-10305
amole	-10306
domen	-10307
ggong	-10308
longs	-10309
omena	-10310
ppery	-10311
preme	-10312
▁Batt	-10313
▁Shaw	-10314
▁horr	-10315
▁latt	-10316
▁unlo	-10317
coming	-10318
commer	-10319
concer	-10320
letton	-10321
phabet	-10322
▁bedro	-10323
▁clubs	-10324
▁combo	-10325
▁feeds	-10326
▁fraud	-10327
▁horse	-10328
▁hurts	-10329
▁latte	-10330
▁plead	-10331
▁pregg	-10332
▁spark	-10333
▁windy	-10334
Squares	-10335
arCraze	-10336
enggong	-10337
etscape	-10338
ijuanna	-10339
inatory	-10340
lippery	-10341
orseful	-10342
supreme	-10343
terbury	-10344
▁Nature	-10345
▁Shawsh	-10346
▁Stones	-10347
▁agrees	-10348
▁preggo	-10349
▁unfail	-10350
▁unfath	-10351
Teachers	-10352
birthday	-10353
concerns	-10354
esadilla	-10355
istature	-10356
keletton	-10357
religion	-10358
▁Collect	-10359
▁LOBSTER	-10360
▁Legally	-10361
▁Luckily	-10362
▁MORONIC	-10363
▁Magneto	-10364
▁Minimum	-10365
▁Network	-10366
▁Neurons	-10367
▁Ordered	-10368
▁Partial	-10369
▁RESULTS	-10370
▁ROASTED	-10371
▁Rolling	-10372
▁Russian	-10373
▁Saddams	-10374
▁Setting	-10375
▁Similar	-10376
▁Sixteen	-10377
▁Sliders	-10378
▁Spongeb	-10379
▁Twitter	-10380
▁Viewing	-10381
▁Whoever	-10382
▁abdomen	-10383
▁abusing	-10384
▁adamant	-10385
▁adulter	-10386
▁afterno	-10387
▁alimony	-10388
▁altered	-10389
▁altough	-10390
▁america	-10391
▁ancient	-10392
▁annoyed	-10393
▁anthems	-10394
▁astrong	-10395
▁athelet	-10396
▁atleast	-10397
▁averted	-10398
▁beaches	-10399
DMA	-10400
THER	-10401
cogn	-10402
zona	-10403
▁COL	-10404
▁DUM	-10405
▁WOM	-10406
alaxy	-10407
mland	-10408
oetus	-10409
▁COLL	-10410
▁Clan	-10411
▁DUMB	-10412
▁Doll	-10413
▁MDMA	-10414
▁auto	-10415
▁seaf	-10416
▁snap	-10417
▁snob	-10418
cogniz	-10419
ergart	-10420
foetus	-10421
island	-10422
reland	-10423
rizona	-10424
tmland	-10425
▁Flies	-10426
▁IMMED	-10427
▁Jacks	-10428
▁OTHER	-10429
▁WOMAN	-10430
▁felon	-10431
▁ruler	-10432
▁xtklp	-10433
asingly	-10434
htmland	-10435
imultan	-10436
ltimate	-10437
married	-10438
▁COLLIS	-10439
▁Dollar	-10440
▁Galaxy	-10441
▁decoys	-10442
▁fatter	-10443
▁favors	-10444
▁fiasco	-10445
▁holier	-10446
▁relies	-10447
▁snitch	-10448
▁strife	-10449
▁sugary	-10450
▁sugget	-10451
ergarten	-10452
▁Arizona	-10453
▁Ireland	-10454
▁Jackson	-10455
▁barring	-10456
▁beacuse	-10457
▁begging	-10458
▁blatant	-10459
▁blessed	-10460
▁blocked	-10461
▁boycott	-10462
▁breadth	-10463
▁bribing	-10464
▁buddies	-10465
▁bullied	-10466
▁bulling	-10467
▁bussing	-10468
▁caliber	-10469
▁caloric	-10470
▁calorie	-10471
▁camarad	-10472
▁carrots	-10473
▁catastr	-10474
▁causing	-10475
▁centers	-10476
▁chasing	-10477
▁checked	-10478
▁clinton	-10479
▁compels	-10480
▁condemn	-10481
▁condoms	-10482
▁congrad	-10483
▁congreg	-10484
▁cookies	-10485
▁cooking	-10486
▁cousins	-10487
▁crooked	-10488
▁crossed	-10489
▁darkest	-10490
▁decoded	-10491
▁defiant	-10492
▁deliber	-10493
▁denotes	-10494
▁descrim	-10495
▁desired	-10496
▁dialing	-10497
▁discrep	-10498
▁disrupt	-10499
1.)	-10500
ANI	-10501
ECK	-10502
▁9-	-10503
▁97	-10504
▁99	-10505
GANI	-10506
chah	-10507
nels	-10508
▁(99	-10509
▁HAN	-10510
▁IRS	-10511
▁MAN	-10512
▁Ott	-10513
▁SAN	-10514
▁juv	-10515
▁nah	-10516
..1.)	-10517
Color	-10518
Sorry	-10519
lined	-10520
sucks	-10521
▁9-11	-10522
▁HECK	-10523
▁SANE	-10524
▁calc	-10525
ORGANI	-10526
annels	-10527
chahal	-10528
outube	-10529
suffer	-10530
uslims	-10531
▁1980,	-10532
▁Allah	-10533
▁Claim	-10534
▁booze	-10535
▁juvin	-10536
▁sicko	-10537
▁unita	-10538
Youtube	-10539
acebook	-10540
address	-10541
assault	-10542
evances	-10543
muslims	-10544
▁Arabia	-10545
▁Claims	-10546
▁Grease	-10547
▁Pledge	-10548
▁agency	-10549
▁calend	-10550
▁circum	-10551
▁divide	-10552
▁flying	-10553
▁lifere	-10554
▁scenes	-10555
Colorado	-10556
Facebook	-10557
andering	-10558
▁HANDING	-10559
▁Hitting	-10560
▁Ottoman	-10561
▁amended	-10562
▁coverup	-10563
▁dissent	-10564
▁donkeys	-10565
▁dumbass	-10566
▁earners	-10567
▁enhance	-10568
▁enlight	-10569
▁entails	-10570
▁essence	-10571
▁eternal	-10572
▁eugenic	-10573
▁experim	-10574
▁explode	-10575
▁exportP	-10576
▁extream	-10577
▁fingers	-10578
▁flashes	-10579
▁flavors	-10580
▁fooling	-10581
▁forgive	-10582
▁gaining	-10583
▁gasping	-10584
▁glutiny	-10585
▁grabbed	-10586
▁grandpa	-10587
▁idiotic	-10588
▁imitate	-10589
▁inadmis	-10590
▁irrecon	-10591
▁islands	-10592
▁jumping	-10593
▁largely	-10594
▁layered	-10595
▁letters	-10596
▁lunches	-10597
▁mandort	-10598
▁masterp	-10599
ITH	-10600
Inc	-10601
PIT	-10602
▁6.	-10603
PITE	-10604
▁Blv	-10605
ITHOU	-10606
elery	-10607
engen	-10608
hands	-10609
wires	-10610
▁Blvd	-10611
▁Jedi	-10612
▁Laci	-10613
▁Orle	-10614
▁Term	-10615
▁iron	-10616
▁kins	-10617
▁pedi	-10618
▁sins	-10619
ITHOUT	-10620
amentI	-10621
ashion	-10622
office	-10623
placed	-10624
urring	-10625
▁Terma	-10626
▁chrom	-10627
▁cooks	-10628
▁exhib	-10629
▁homes	-10630
▁hosts	-10631
▁limew	-10632
▁misin	-10633
▁tires	-10634
▁trash	-10635
▁twins	-10636
borhood	-10637
leading	-10638
▁9/112.	-10639
▁Bleach	-10640
▁Tengen	-10641
▁accomp	-10642
▁celery	-10643
▁cleanl	-10644
▁execut	-10645
▁ironed	-10646
▁joking	-10647
▁mistak	-10648
▁pediat	-10649
▁urging	-10650
Incident	-10651
accident	-10652
handsome	-10653
▁DESPITE	-10654
▁Orleans	-10655
▁WITHOUT	-10656
▁athiest	-10657
▁bullets	-10658
▁chromos	-10659
▁cleaner	-10660
▁cleanse	-10661
▁demands	-10662
▁fashion	-10663
▁forgets	-10664
▁kinship	-10665
▁mongrel	-10666
▁mounted	-10667
▁museums	-10668
▁nowaday	-10669
▁nuclear	-10670
▁nuitsen	-10671
▁obliged	-10672
▁obviuos	-10673
▁organiz	-10674
▁orginal	-10675
▁outlive	-10676
▁overtax	-10677
▁perpetr	-10678
▁picking	-10679
▁pockets	-10680
▁poisons	-10681
▁pollute	-10682
▁poluted	-10683
▁predict	-10684
▁prepost	-10685
▁presupp	-10686
▁pretext	-10687
▁princip	-10688
▁quantum	-10689
▁reached	-10690
▁rebirth	-10691
▁recieve	-10692
▁recruit	-10693
▁reduces	-10694
▁reeling	-10695
▁removes	-10696
▁replied	-10697
▁revenoo	-10698
▁rivaled	-10699
?',	-10700
CAT	-10701
UCAT	-10702
drop	-10703
irds	-10704
ropy	-10705
umbo	-10706
▁PEI	-10707
,000'	-10708
,000,	-10709
6,000	-10710
Court	-10711
ffirm	-10712
hairs	-10713
isked	-10714
▁NOTH	-10715
▁Teav	-10716
▁mumb	-10717
▁vari	-10718
46,000	-10719
ederal	-10720
simply	-10721
umbent	-10722
umbing	-10723
▁Field	-10724
▁appel	-10725
▁birds	-10726
▁burns	-10727
▁doggy	-10728
▁ethic	-10729
▁jumbo	-10730
20,000,	-10731
UCATION	-10732
abiding	-10733
eaffirm	-10734
liances	-10735
▁1,000'	-10736
▁Server	-10737
▁custod	-10738
▁grader	-10739
▁illust	-10740
▁shield	-10741
▁todays	-10742
▁variab	-10743
Theology	-10744
avesdrop	-10745
▁Federal	-10746
▁NOTHING	-10747
▁Teavana	-10748
▁comeupp	-10749
▁confirm	-10750
▁distort	-10751
▁distric	-10752
▁entropy	-10753
▁frisked	-10754
▁frontal	-10755
▁glasses	-10756
▁guessed	-10757
▁monthly	-10758
▁mumbles	-10759
▁roadway	-10760
▁roughly	-10761
▁rubbery	-10762
▁satisfy	-10763
▁savings	-10764
▁scoring	-10765
▁seafood	-10766
▁secured	-10767
▁sensory	-10768
▁sexWhat	-10769
▁sickens	-10770
▁sincere	-10771
▁sinking	-10772
▁skaters	-10773
▁skipped	-10774
▁soldier	-10775
▁someday	-10776
▁somkers	-10777
▁sorting	-10778
▁spewing	-10779
▁spilled	-10780
▁splurge	-10781
▁sprouts	-10782
▁staging	-10783
▁starter	-10784
▁stemmed	-10785
▁sterile	-10786
▁stimual	-10787
▁stomach	-10788
▁storage	-10789
▁styling	-10790
▁stylish	-10791
▁sublime	-10792
▁swapped	-10793
▁tablets	-10794
▁teenage	-10795
▁thisNot	-10796
▁throngs	-10797
▁tonight	-10798
▁topping	-10799
Edd	-10800
▁7,	-10801
▁78	-10802
Kurt	-10803
elev	-10804
otte	-10805
sama	-10806
uana	-10807
▁Atl	-10808
▁GET	-10809
Eddie	-10810
agrap	-10811
dding	-10812
eleve	-10813
juana	-10814
nitch	-10815
raped	-10816
sized	-10817
▁Lenn	-10818
▁craz	-10819
▁maln	-10820
▁rama	-10821
▁turt	-10822
Snitch	-10823
agraph	-10824
likely	-10825
osling	-10826
ributr	-10827
▁7....	-10828
▁Atlas	-10829
▁barre	-10830
▁chime	-10831
▁falls	-10832
▁hotel	-10833
▁osama	-10834
▁pasta	-10835
▁pitch	-10836
▁scrap	-10837
ardized	-10838
indling	-10839
▁Lennon	-10840
▁builds	-10841
▁futher	-10842
▁futile	-10843
▁invite	-10844
▁jurors	-10845
▁neglig	-10846
▁outlet	-10847
▁peopel	-10848
▁regime	-10849
▁squeez	-10850
▁turtle	-10851
▁varies	-10852
▁widely	-10853
elevated	-10854
istribut	-10855
unlikely	-10856
uspected	-10857
windling	-10858
▁Chances	-10859
▁Gosling	-10860
▁Vietnam	-10861
▁barrels	-10862
▁barrist	-10863
▁crazies	-10864
▁destiny	-10865
▁falling	-10866
▁hateful	-10867
▁nodding	-10868
▁persist	-10869
▁pitched	-10870
▁promiss	-10871
▁reevalu	-10872
▁scrapes	-10873
▁sniffer	-10874
▁touched	-10875
▁touches	-10876
▁tourism	-10877
▁trained	-10878
▁traitor	-10879
▁tricked	-10880
▁tweleve	-10881
▁uinterb	-10882
▁unaware	-10883
▁unclear	-10884
▁undeser	-10885
▁undiscl	-10886
▁unheard	-10887
▁unified	-10888
▁unloved	-10889
▁upscale	-10890
▁utility	-10891
▁vanilla	-10892
▁venting	-10893
▁vishvam	-10894
▁visible	-10895
▁warning	-10896
▁weakens	-10897
▁weighed	-10898
▁whining	-10899
**.	-10900
**:	-10901
.**	-10902
10/	-10903
DON	-10904
ONG	-10905
eek	-10906
iji	-10907
shr	-10908
RONG	-10909
Seek	-10910
shad	-10911
▁Lee	-10912
▁MED	-10913
Desec	-10914
dging	-10915
ijack	-10916
panic	-10917
▁Atom	-10918
▁FIFA	-10919
▁Fiji	-10920
▁Impr	-10921
▁Lock	-10922
▁MEDC	-10923
▁Rock	-10924
▁bugs	-10925
church	-10926
create	-10927
ealing	-10928
murder	-10929
odging	-10930
orized	-10931
should	-10932
uckoos	-10933
▁Citiz	-10934
▁Until	-10935
▁WRONG	-10936
▁chats	-10937
▁enshr	-10938
▁panic	-10939
anction	-10940
college	-10941
ensitiz	-10942
ijacked	-10943
ilfully	-10944
inguine	-10945
ridging	-10946
sequent	-10947
shadows	-10948
unistic	-10949
veryman	-10950
▁During	-10951
▁Living	-10952
▁excuss	-10953
▁perman	-10954
▁seeped	-10955
▁stalls	-10956
▁treaty	-10957
acefully	-10958
everyman	-10959
ironment	-10960
issistic	-10961
spanking	-10962
therwise	-10963
▁Citizen	-10964
▁Cuckoos	-10965
▁Dealing	-10966
▁designs	-10967
▁lodging	-10968
▁painful	-10969
▁refutes	-10970
▁richier	-10971
▁wingers	-10972
▁zealots	-10973
Canadians	-10974
Comparing	-10975
Democrats	-10976
Generally	-10977
Otherwise	-10978
Religions	-10979
Suffering	-10980
UTHANASIA	-10981
according	-10982
actresses	-10983
afflement	-10984
anctioned	-10985
anitation	-10986
arguments	-10987
arization	-10988
atography	-10989
auranteed	-10990
automatic	-10991
awareness	-10992
bringback	-10993
cinations	-10994
classical	-10995
cological	-10996
developed	-10997
eductions	-10998
egardless	-10999
EST	-11000
UNG	-11001
Vpr	-11002
LVpr	-11003
oobs	-11004
pris	-11005
prom	-11006
▁MTV	-11007
▁esc	-11008
▁gym	-11009
▁lbs	-11010
UNGER	-11011
boobs	-11012
osses	-11013
senal	-11014
ulses	-11015
▁BEST	-11016
▁dads	-11017
▁espe	-11018
▁gaps	-11019
▁gunk	-11020
▁laps	-11021
▁lows	-11022
▁naut	-11023
▁occa	-11024
▁park	-11025
▁pets	-11026
▁roof	-11027
▁swap	-11028
▁veto	-11029
LVprin	-11030
Sounds	-11031
ishers	-11032
ophers	-11033
urpris	-11034
▁encod	-11035
▁herbs	-11036
▁lowas	-11037
▁meets	-11038
▁occas	-11039
▁swell	-11040
balance	-11041
grounds	-11042
olistic	-11043
▁Border	-11044
▁Cannot	-11045
▁HUNGER	-11046
▁Mathem	-11047
▁Within	-11048
▁affair	-11049
▁bosses	-11050
▁chased	-11051
▁copied	-11052
▁escort	-11053
▁especi	-11054
▁excers	-11055
▁filing	-11056
▁headed	-11057
▁headqu	-11058
▁housew	-11059
▁transm	-11060
▁unconf	-11061
OOOOOOOO	-11062
pression	-11063
promotes	-11064
terblume	-11065
▁Arsenal	-11066
▁Surpris	-11067
▁actualy	-11068
▁prolong	-11069
▁refered	-11070
▁speaker	-11071
▁suffice	-11072
elligence	-11073
employers	-11074
eological	-11075
ervitives	-11076
generally	-11077
hopefully	-11078
hrushchev	-11079
icipating	-11080
ictimless	-11081
inflation	-11082
inspiring	-11083
intensive	-11084
interpret	-11085
isputable	-11086
itigation	-11087
jectively	-11088
kepticism	-11089
lusionary	-11090
ominantly	-11091
orization	-11092
protected	-11093
reatening	-11094
rehensive	-11095
ributable	-11096
ritishers	-11097
rocketing	-11098
ropolitan	-11099
25.	-11100
exc	-11101
▁??	-11102
OMOT	-11103
cube	-11104
echn	-11105
ueso	-11106
▁10,	-11107
▁109	-11108
▁Phy	-11109
▁Sec	-11110
IGHTS	-11111
Techn	-11112
anned	-11113
drink	-11114
ecces	-11115
enned	-11116
excus	-11117
isket	-11118
ouned	-11119
value	-11120
▁2011	-11121
▁Work	-11122
▁damp	-11123
▁eats	-11124
▁pean	-11125
0,000,	-11126
earned	-11127
ecided	-11128
ennedy	-11129
necces	-11130
▁Apart	-11131
▁bites	-11132
▁fines	-11133
▁godly	-11134
▁merci	-11135
▁pricy	-11136
▁retal	-11137
▁spicy	-11138
▁vener	-11139
50,000,	-11140
OMOTING	-11141
brother	-11142
planned	-11143
▁FELONI	-11144
▁RIGHTS	-11145
▁Walter	-11146
▁camera	-11147
▁empire	-11148
▁lieing	-11149
▁misery	-11150
▁patent	-11151
▁peices	-11152
▁retali	-11153
▁singed	-11154
▁sugest	-11155
250,000,	-11156
assisted	-11157
drinking	-11158
essional	-11159
ominican	-11160
▁College	-11161
▁Kennedy	-11162
▁Workers	-11163
▁arouned	-11164
▁artists	-11165
▁brisket	-11166
▁damning	-11167
▁divides	-11168
▁environ	-11169
▁failing	-11170
▁genetic	-11171
▁inexcus	-11172
▁leveled	-11173
▁peanuts	-11174
mandering	-11175
neccesary	-11176
skeletton	-11177
socialist	-11178
sociation	-11179
sometimes	-11180
supported	-11181
suspected	-11182
tolerance	-11183
uroscient	-11184
validates	-11185
voluntary	-11186
▁Apparent	-11187
▁Business	-11188
▁CarCraze	-11189
▁Channels	-11190
▁Churches	-11191
▁Circumst	-11192
▁Commerce	-11193
▁Computer	-11194
▁Conquist	-11195
▁DESERVES	-11196
▁Disagree	-11197
▁Doctrine	-11198
▁Dolphins	-11199
BER	-11200
BERT	-11201
WMDs	-11202
ioph	-11203
onym	-11204
▁Dec	-11205
▁HOT	-11206
▁MOT	-11207
▁Rec	-11208
▁TVs	-11209
BERTY	-11210
ORPGs	-11211
ansex	-11212
bying	-11213
fying	-11214
oints	-11215
otony	-11216
ronym	-11217
uteSo	-11218
▁Sony	-11219
▁VOTE	-11220
▁husk	-11221
IBERTY	-11222
nature	-11223
ooping	-11224
riends	-11225
uinely	-11226
versey	-11227
▁3,800	-11228
▁Dying	-11229
▁Point	-11230
▁harms	-11231
▁hping	-11232
▁tends	-11233
Similar	-11234
friends	-11235
iophile	-11236
volping	-11237
▁Giving	-11238
▁MOTHER	-11239
▁Marily	-11240
▁Parlim	-11241
▁amends	-11242
▁clothe	-11243
▁cultiv	-11244
▁demons	-11245
▁dozens	-11246
▁holder	-11247
▁honors	-11248
▁joints	-11249
▁pansex	-11250
▁pilfer	-11251
▁spends	-11252
▁static	-11253
▁sticks	-11254
friendsj	-11255
ilifying	-11256
iterally	-11257
sanctity	-11258
▁COUNTRY	-11259
▁Decades	-11260
▁LIBERTY	-11261
▁MMORPGs	-11262
▁Marilyn	-11263
▁acronym	-11264
▁airways	-11265
▁cultist	-11266
▁languag	-11267
▁offends	-11268
▁spinach	-11269
.........	-11270
therefore	-11271
▁Eighteen	-11272
▁Engineer	-11273
▁Fidelity	-11274
▁Football	-11275
▁HESITATE	-11276
▁Hinduism	-11277
▁ILLEAGAL	-11278
▁Islander	-11279
▁Japanese	-11280
▁Justices	-11281
▁Lobbying	-11282
▁Messinis	-11283
▁Mountain	-11284
▁Mozillia	-11285
▁Nazarene	-11286
▁Netscape	-11287
▁Nintendo	-11288
▁Peterson	-11289
▁Pilgrims	-11290
▁Popsicle	-11291
▁Powermat	-11292
▁Recently	-11293
▁Relaxing	-11294
▁Subpoena	-11295
▁Swelling	-11296
▁Teenager	-11297
▁Termaion	-11298
▁Terrible	-11299
New	-11300
URT	-11301
new	-11302
etto	-11303
ewel	-11304
ioen	-11305
izio	-11306
▁DHS	-11307
▁ITS	-11308
▁Ved	-11309
▁glo	-11310
Maybe	-11311
hetto	-11312
ioeng	-11313
urban	-11314
▁Dock	-11315
▁GONE	-11316
▁HURT	-11317
▁Pric	-11318
▁Smoe	-11319
▁Unit	-11320
▁Vers	-11321
▁Vish	-11322
▁begs	-11323
▁diox	-11324
▁glam	-11325
ewelry	-11326
histor	-11327
ricide	-11328
▁Versa	-11329
▁Vishn	-11330
▁aided	-11331
▁beats	-11332
▁demac	-11333
▁irony	-11334
▁meats	-11335
▁munch	-11336
▁sells	-11337
ierarch	-11338
ilments	-11339
ricting	-11340
▁Docket	-11341
▁Inizio	-11342
▁Lioeng	-11343
▁Mostly	-11344
▁Unions	-11345
▁Vedder	-11346
▁Vishnu	-11347
▁behave	-11348
▁brunch	-11349
▁config	-11350
▁confis	-11351
▁demacr	-11352
▁ghetto	-11353
▁gloves	-11354
▁terman	-11355
ishments	-11356
ractical	-11357
▁Pricing	-11358
▁Slander	-11359
▁arrests	-11360
▁confess	-11361
▁confide	-11362
▁dioxide	-11363
▁fallacy	-11364
▁fearing	-11365
▁jewelry	-11366
▁lenient	-11367
▁popping	-11368
▁posture	-11369
▁suscept	-11370
askhistor	-11371
▁Ultimate	-11372
▁Versaill	-11373
▁Whatsapp	-11374
▁actively	-11375
▁advanced	-11376
▁advocate	-11377
▁agencies	-11378
▁ailments	-11379
▁alchahal	-11380
▁algorith	-11381
▁allusion	-11382
▁alphabet	-11383
▁annivers	-11384
▁appalled	-11385
▁appeared	-11386
▁approval	-11387
▁approves	-11388
▁arguably	-11389
▁armchair	-11390
▁assigned	-11391
▁astronom	-11392
▁attached	-11393
▁avoiding	-11394
▁awaiting	-11395
▁bacteria	-11396
▁beacause	-11397
▁bearable	-11398
▁beauties	-11399
-70	-11400
fix	-11401
▁47	-11402
▁48	-11403
▁49	-11404
▁4:	-11405
Cops	-11406
cann	-11407
gins	-11408
ltly	-11409
pute	-11410
wife	-11411
▁494	-11412
▁4:5	-11413
▁Ann	-11414
▁Rib	-11415
aises	-11416
arbar	-11417
iblic	-11418
putee	-11419
▁4949	-11420
▁4:59	-11421
▁Ange	-11422
▁Glen	-11423
▁Pont	-11424
▁Ribs	-11425
▁cute	-11426
▁delt	-11427
▁irks	-11428
▁melt	-11429
▁warf	-11430
600.00	-11431
achute	-11432
arbara	-11433
ascent	-11434
luding	-11435
oultly	-11436
raises	-11437
wesome	-11438
▁60-70	-11439
▁Angel	-11440
▁Blair	-11441
▁bodys	-11442
▁delus	-11443
▁deont	-11444
▁immor	-11445
▁nones	-11446
calates	-11447
clusion	-11448
formers	-11449
freedom	-11450
hearing	-11451
rossing	-11452
▁Biblic	-11453
▁approx	-11454
▁funded	-11455
▁grants	-11456
▁simili	-11457
▁smoken	-11458
▁smooth	-11459
▁territ	-11460
national	-11461
rentices	-11462
▁Awesome	-11463
▁Barbara	-11464
▁Pontias	-11465
▁accross	-11466
▁amputee	-11467
▁appease	-11468
▁assumes	-11469
▁disrect	-11470
▁margins	-11471
▁nascent	-11472
▁praises	-11473
▁rearing	-11474
▁stupied	-11475
▁uncared	-11476
▁warfare	-11477
inational	-11478
▁Brussels	-11479
▁biblical	-11480
▁bisexual	-11481
▁blinding	-11482
▁blowback	-11483
▁blurring	-11484
▁brighter	-11485
▁browsing	-11486
▁bulldogs	-11487
▁canidate	-11488
▁centiped	-11489
▁chickens	-11490
▁chipotle	-11491
▁chopping	-11492
▁chugging	-11493
▁civility	-11494
▁cleaning	-11495
▁clearing	-11496
▁colonial	-11497
▁colonies	-11498
▁comforts	-11499
ASE	-11500
ucy	-11501
▁71	-11502
azar	-11503
azon	-11504
ilia	-11505
ldde	-11506
lets	-11507
ruff	-11508
alyst	-11509
aracy	-11510
ilily	-11511
lddeb	-11512
mazon	-11513
onize	-11514
ruffy	-11515
speci	-11516
▁Lucy	-11517
▁Soup	-11518
▁arts	-11519
▁bake	-11520
▁grey	-11521
347180	-11522
Amazon	-11523
PLEASE	-11524
abokov	-11525
almost	-11526
alysts	-11527
ilient	-11528
istake	-11529
pelled	-11530
▁Lazar	-11531
▁Roald	-11532
▁Seems	-11533
▁apath	-11534
▁karma	-11535
▁lasts	-11536
▁medal	-11537
▁shake	-11538
▁stake	-11539
▁wiped	-11540
▁yards	-11541
iconize	-11542
ocaracy	-11543
ourning	-11544
vention	-11545
ventive	-11546
▁apathy	-11547
▁havent	-11548
▁monies	-11549
▁shaped	-11550
▁trends	-11551
Cultural	-11552
ervative	-11553
sibilily	-11554
specific	-11555
▁Mistake	-11556
▁Nabokov	-11557
▁Stanley	-11558
▁Theolog	-11559
▁convent	-11560
▁devised	-11561
▁familly	-11562
▁hanging	-11563
▁outlets	-11564
▁scruffy	-11565
▁thrives	-11566
!!!!!!!!!	-11567
aviconize	-11568
▁Homeland	-11569
▁Majority	-11570
▁analysts	-11571
▁childrem	-11572
▁communes	-11573
▁concentr	-11574
▁condones	-11575
▁confused	-11576
▁constitu	-11577
▁contamin	-11578
▁contempl	-11579
▁convicts	-11580
▁corrupts	-11581
▁covertly	-11582
▁creditor	-11583
▁crinials	-11584
▁crossing	-11585
▁deafness	-11586
▁defeated	-11587
▁defended	-11588
▁degrades	-11589
▁deifying	-11590
▁demeanor	-11591
▁demograp	-11592
▁deprived	-11593
▁devoting	-11594
▁difficul	-11595
▁director	-11596
▁disguise	-11597
▁distance	-11598
▁distract	-11599
?".	-11600
Does	-11601
broy	-11602
buck	-11603
mang	-11604
angas	-11605
bucks	-11606
chang	-11607
icros	-11608
manga	-11609
nicer	-11610
times	-11611
ucked	-11612
▁bang	-11613
▁slag	-11614
▁slaw	-11615
▁slay	-11616
▁tang	-11617
Muslim	-11618
angers	-11619
broyos	-11620
edding	-11621
entral	-11622
forget	-11623
ponsib	-11624
rosion	-11625
▁Asian	-11626
▁Chang	-11627
▁bangs	-11628
▁judis	-11629
▁sland	-11630
▁slayn	-11631
▁slope	-11632
▁trill	-11633
angment	-11634
emtimes	-11635
forgett	-11636
icrosot	-11637
lection	-11638
ponsibl	-11639
▁Native	-11640
▁agreed	-11641
▁extern	-11642
▁hinder	-11643
▁poorer	-11644
▁priori	-11645
▁rebutt	-11646
▁revert	-11647
▁stages	-11648
▁struck	-11649
▁triple	-11650
changing	-11651
election	-11652
everages	-11653
ichangas	-11654
lectures	-11655
perately	-11656
▁Central	-11657
▁THOUSAN	-11658
▁basicly	-11659
▁dangers	-11660
▁extinct	-11661
▁futures	-11662
▁judisum	-11663
▁lesbian	-11664
▁manages	-11665
▁posible	-11666
▁shucked	-11667
▁tangled	-11668
▁wedding	-11669
Beverages	-11670
soemtimes	-11671
▁Aquafina	-11672
▁THOUSAND	-11673
▁analyzed	-11674
▁archbish	-11675
▁declared	-11676
▁diverted	-11677
▁dividend	-11678
▁dividing	-11679
▁divorced	-11680
▁divorces	-11681
▁downside	-11682
▁drowning	-11683
▁dysfunct	-11684
▁earnings	-11685
▁embroyos	-11686
▁emerging	-11687
▁encoding	-11688
▁epidemic	-11689
▁episodic	-11690
▁esteemed	-11691
▁evaluate	-11692
▁evolveto	-11693
▁exhibits	-11694
▁fairness	-11695
▁fallible	-11696
▁fighters	-11697
▁finishes	-11698
▁firearms	-11699
(7.	-11700
ARN	-11701
jee	-11702
(7.6	-11703
auth	-11704
ccis	-11705
gged	-11706
llyw	-11707
ypoc	-11708
zied	-11709
▁PoA	-11710
▁flu	-11711
(7.63	-11712
ilize	-11713
ugged	-11714
unged	-11715
waves	-11716
▁Duck	-11717
▁Mask	-11718
▁Ruth	-11719
▁adds	-11720
▁flat	-11721
▁jeal	-11722
Israel	-11723
Police	-11724
author	-11725
awater	-11726
ccount	-11727
feited	-11728
herjee	-11729
ziness	-11730
▁Eater	-11731
▁Hypoc	-11732
▁LEARN	-11733
▁clunk	-11734
▁footh	-11735
▁runes	-11736
▁surly	-11737
▁votes	-11738
▁waive	-11739
Account	-11740
ccisary	-11741
kawater	-11742
kherjee	-11743
llywood	-11744
renzied	-11745
tenance	-11746
veloper	-11747
▁Effect	-11748
▁Monday	-11749
▁Option	-11750
▁REALLY	-11751
▁Sanger	-11752
▁Stalin	-11753
▁Twelve	-11754
▁clunky	-11755
▁mugged	-11756
▁native	-11757
▁passes	-11758
▁regist	-11759
▁rigged	-11760
▁serval	-11761
▁united	-11762
▁waking	-11763
▁waving	-11764
continue	-11765
isonally	-11766
ormities	-11767
ukherjee	-11768
▁blossom	-11769
▁declare	-11770
▁fluency	-11771
▁instinc	-11772
▁utilize	-11773
nikawater	-11774
▁Hypocric	-11775
▁abundant	-11776
▁airwaves	-11777
▁doubters	-11778
▁expunged	-11779
▁foothold	-11780
▁footwear	-11781
▁forgiven	-11782
▁freeways	-11783
▁freezing	-11784
▁frenzied	-11785
▁frequent	-11786
▁freshmen	-11787
▁garnered	-11788
▁gimmicks	-11789
▁grasping	-11790
▁greatlyI	-11791
▁habitats	-11792
▁handguns	-11793
▁happiest	-11794
▁heartach	-11795
▁hispanic	-11796
▁homeland	-11797
▁horrific	-11798
▁housewif	-11799
box	-11800
▁44	-11801
Bush	-11802
oons	-11803
oung	-11804
thew	-11805
tuse	-11806
ushi	-11807
walk	-11808
▁STE	-11809
apons	-11810
atman	-11811
theft	-11812
uumed	-11813
vited	-11814
▁STEP	-11815
▁cats	-11816
▁corp	-11817
▁diat	-11818
▁draw	-11819
▁nons	-11820
harise	-11821
inians	-11822
onsors	-11823
pecing	-11824
wapons	-11825
▁Burit	-11826
▁Stern	-11827
▁Sushi	-11828
▁curly	-11829
▁equis	-11830
▁farqu	-11831
▁menus	-11832
▁moons	-11833
▁ruden	-11834
▁setup	-11835
everthe	-11836
idences	-11837
imizing	-11838
indians	-11839
invited	-11840
▁Batman	-11841
▁Burito	-11842
▁Motion	-11843
▁amoung	-11844
▁corpus	-11845
▁diatri	-11846
▁equity	-11847
▁fewest	-11848
▁involv	-11849
▁nonsmo	-11850
▁obtuse	-11851
▁presum	-11852
▁wordsG	-11853
harisees	-11854
ravating	-11855
ristians	-11856
▁Forcing	-11857
▁INstead	-11858
▁Matthew	-11859
▁drawing	-11860
▁evryone	-11861
▁ewapons	-11862
▁farquer	-11863
▁happier	-11864
▁involed	-11865
▁italian	-11866
▁notices	-11867
▁policeA	-11868
▁sounded	-11869
▁threats	-11870
▁wordsGo	-11871
anagement	-11872
uninvited	-11873
▁Neverthe	-11874
▁ambition	-11875
▁cartoons	-11876
▁diatribe	-11877
▁disclaim	-11878
▁humblebr	-11879
▁hunkered	-11880
▁hydrogen	-11881
▁imfamous	-11882
▁imploded	-11883
▁impropri	-11884
▁improvis	-11885
▁impulses	-11886
▁inadequa	-11887
▁incharge	-11888
▁incompet	-11889
▁incurred	-11890
▁infringe	-11891
▁injuries	-11892
▁insanely	-11893
▁inspired	-11894
▁inspires	-11895
▁instills	-11896
▁invented	-11897
▁inviting	-11898
▁isolated	-11899
!)3	-11900
coh	-11901
Cold	-11902
Thus	-11903
muse	-11904
note	-11905
olds	-11906
piss	-11907
▁112	-11908
▁Agn	-11909
▁Ign	-11910
AMAST	-11911
These	-11912
Think	-11913
agnos	-11914
ostco	-11915
▁Miss	-11916
▁Stam	-11917
▁benn	-11918
▁ribs	-11919
▁sung	-11920
AMASTE	-11921
cohlic	-11922
gholds	-11923
mymuse	-11924
rasing	-11925
▁Anand	-11926
▁Fireb	-11927
▁Fries	-11928
▁Ignor	-11929
▁Stamf	-11930
▁YOURS	-11931
▁asker	-11932
▁benif	-11933
▁brute	-11934
▁hatch	-11935
▁kilos	-11936
▁unedu	-11937
agnosis	-11938
▁Agnost	-11939
▁Costco	-11940
▁artist	-11941
▁biting	-11942
▁busted	-11943
▁caters	-11944
▁deadly	-11945
▁drives	-11946
▁rounds	-11947
▁senior	-11948
▁talent	-11949
▁uneduc	-11950
distance	-11951
evitable	-11952
ongholds	-11953
oxically	-11954
pasadena	-11955
▁112,000	-11956
▁Firebug	-11957
▁Missile	-11958
▁NAMASTE	-11959
▁Private	-11960
▁benifit	-11961
▁bennies	-11962
▁dressed	-11963
▁empires	-11964
▁fleshed	-11965
▁homeown	-11966
▁resorts	-11967
▁worries	-11968
aphrasing	-11969
▁Agnostic	-11970
▁Ignorant	-11971
▁Stamford	-11972
▁Williams	-11973
▁YOURSELF	-11974
▁alcohlic	-11975
▁consoles	-11976
▁contrace	-11977
▁footnote	-11978
▁israelis	-11979
▁jokingly	-11980
▁juvenile	-11981
▁juvinile	-11982
▁keyboard	-11983
▁knocking	-11984
▁laughing	-11985
▁limewire	-11986
▁lobotomy	-11987
▁luckiest	-11988
▁lukewarm	-11989
▁manScott	-11990
▁managers	-11991
▁mandates	-11992
▁manpower	-11993
▁marginal	-11994
▁massacre	-11995
▁measured	-11996
▁measures	-11997
▁meddling	-11998
▁mediocre	-11999
eye	-12000
Both	-12001
Nope	-12002
aval	-12003
both	-12004
eney	-12005
▁17.	-12006
▁nav	-12007
avily	-12008
chata	-12009
oldly	-12010
▁Dope	-12011
▁Jang	-12012
▁burg	-12013
▁expi	-12014
▁gyro	-12015
▁lapt	-12016
▁orph	-12017
▁subj	-12018
anyway	-12019
aycare	-12020
heaval	-12021
invent	-12022
lleges	-12023
quered	-12024
▁Jango	-12025
▁Organ	-12026
▁Paris	-12027
▁alley	-12028
▁clams	-12029
▁enter	-12030
▁entre	-12031
▁expan	-12032
▁insct	-12033
▁insin	-12034
▁moron	-12035
▁subpe	-12036
anistan	-12037
ausible	-12038
efiting	-12039
ficient	-12040
healthy	-12041
idering	-12042
▁Cheney	-12043
▁Marine	-12044
▁boldly	-12045
▁curses	-12046
▁devout	-12047
▁entree	-12048
▁expiri	-12049
▁hailed	-12050
▁insinu	-12051
▁navies	-12052
▁orphan	-12053
▁prophe	-12054
▁repent	-12055
▁repost	-12056
▁subjug	-12057
▁Daycare	-12058
▁FireFox	-12059
▁Obesity	-12060
▁bestial	-12061
▁burgess	-12062
▁discret	-12063
▁expanse	-12064
▁healthi	-12065
▁heavily	-12066
▁laptops	-12067
▁opposes	-12068
▁partial	-12069
▁sandals	-12070
▁subpeon	-12071
enefiting	-12072
ghanistan	-12073
▁Biblical	-12074
▁Horchata	-12075
▁colleges	-12076
▁consumed	-12077
▁illegaly	-12078
▁insctinc	-12079
▁mentions	-12080
▁mistaken	-12081
▁modeling	-12082
▁monotony	-12083
▁moraless	-12084
▁moreover	-12085
▁mourning	-12086
▁mudsling	-12087
▁narrowly	-12088
▁neoliber	-12089
▁normally	-12090
▁nowadayz	-12091
▁obscured	-12092
▁observed	-12093
▁offenses	-12094
▁offsides	-12095
▁operates	-12096
▁ordinary	-12097
▁organism	-12098
▁outdoors	-12099
PEG	-12100
JPEG	-12101
Read	-12102
atng	-12103
bars	-12104
harm	-12105
imba	-12106
loan	-12107
redo	-12108
weed	-12109
fredo	-12110
▁DOES	-12111
▁bred	-12112
▁crab	-12113
▁cram	-12114
▁infu	-12115
▁pair	-12116
▁priz	-12117
eograp	-12118
thouse	-12119
▁DOESN	-12120
▁Kimba	-12121
▁Linds	-12122
▁chair	-12123
▁crank	-12124
▁crown	-12125
▁debit	-12126
▁idoli	-12127
▁prett	-12128
▁scars	-12129
▁shred	-12130
arsight	-12131
harmony	-12132
obvious	-12133
raction	-12134
through	-12135
▁advers	-12136
▁blouse	-12137
▁crying	-12138
▁extend	-12139
▁idoliz	-12140
▁infest	-12141
▁infuri	-12142
▁lovers	-12143
▁prizes	-12144
▁selfes	-12145
▁senses	-12146
▁undead	-12147
OTENTIAL	-12148
▁Lindsay	-12149
▁Sandyto	-12150
▁alfredo	-12151
▁baffles	-12152
▁craving	-12153
▁debatng	-12154
▁definet	-12155
▁geograp	-12156
▁hangers	-12157
▁pretend	-12158
arsighted	-12159
▁agreeing	-12160
▁cyclical	-12161
▁debating	-12162
▁failures	-12163
▁infested	-12164
▁outlined	-12165
▁outsider	-12166
▁overhaul	-12167
▁overturn	-12168
▁oxymoron	-12169
▁painfree	-12170
▁painless	-12171
▁paranoia	-12172
▁patented	-12173
▁pathetic	-12174
▁patience	-12175
▁peppered	-12176
▁perished	-12177
▁pilgrims	-12178
▁pirating	-12179
▁playable	-12180
▁plugging	-12181
▁plumbing	-12182
▁politely	-12183
▁pollutes	-12184
▁potatoes	-12185
▁premedit	-12186
▁pressing	-12187
▁prettier	-12188
▁prolongs	-12189
▁ptential	-12190
▁puzzling	-12191
▁randomly	-12192
▁realizes	-12193
▁reckless	-12194
▁reliance	-12195
▁reminder	-12196
▁repeated	-12197
▁reposted	-12198
▁reptiles	-12199
').	-12200
.).	-12201
BTW	-12202
▁31	-12203
Have	-12204
ankl	-12205
doll	-12206
have	-12207
isey	-12208
save	-12209
vise	-12210
▁Kor	-12211
▁USS	-12212
▁phr	-12213
▁phy	-12214
▁roy	-12215
IVILI	-12216
aveat	-12217
ccess	-12218
ghbor	-12219
lfare	-12220
raise	-12221
swers	-12222
vator	-12223
▁Alas	-12224
▁USSR	-12225
▁rank	-12226
▁tuna	-12227
▁vise	-12228
jected	-12229
▁Craig	-12230
▁Frequ	-12231
▁Koran	-12232
▁asser	-12233
▁borne	-12234
▁brave	-12235
▁cheif	-12236
▁hurst	-12237
▁phase	-12238
▁roast	-12239
▁royal	-12240
dollars	-12241
ieghbor	-12242
ostered	-12243
secuted	-12244
success	-12245
▁Andrew	-12246
▁CIVILI	-12247
▁Priest	-12248
▁argued	-12249
▁assort	-12250
▁caveat	-12251
▁dreams	-12252
▁excess	-12253
▁frankl	-12254
▁genome	-12255
▁noisey	-12256
▁phrase	-12257
▁refers	-12258
▁relate	-12259
mentThis	-12260
▁Answers	-12261
▁Contact	-12262
▁cheated	-12263
▁curries	-12264
▁nuerons	-12265
▁pierced	-12266
▁protest	-12267
▁welfare	-12268
otherwise	-12269
▁Frequent	-12270
▁cheating	-12271
▁elevator	-12272
▁fostered	-12273
▁nieghbor	-12274
▁payraise	-12275
▁prisoner	-12276
▁probable	-12277
▁rejected	-12278
▁reserved	-12279
▁reviewed	-12280
▁revolved	-12281
▁rudeness	-12282
▁salvaged	-12283
▁sanctity	-12284
▁sciences	-12285
▁scolding	-12286
▁screamed	-12287
▁scrubbed	-12288
▁security	-12289
▁semester	-12290
▁senators	-12291
▁sencless	-12292
▁servants	-12293
▁shameful	-12294
▁shawarma	-12295
▁shopping	-12296
▁sickness	-12297
▁similiar	-12298
▁singling	-12299
eys	-12300
yss	-12301
Mell	-12302
chup	-12303
evol	-12304
ledg	-12305
upac	-12306
vola	-12307
▁2:1	-12308
▁Cup	-12309
▁Var	-12310
ETHER	-12311
Melli	-12312
Power	-12313
Third	-12314
hower	-12315
irits	-12316
▁Park	-12317
▁buys	-12318
▁fits	-12319
▁frys	-12320
▁omit	-12321
▁pugs	-12322
▁toys	-12323
Public	-12324
estors	-12325
etchup	-12326
herita	-12327
iavola	-12328
ornell	-12329
orneys	-12330
▁Lunch	-12331
▁Third	-12332
▁Tupac	-12333
▁abyss	-12334
▁bumps	-12335
▁buyer	-12336
▁crisp	-12337
▁famed	-12338
▁finds	-12339
▁soooo	-12340
▁wrist	-12341
Battery	-12342
cestors	-12343
destroy	-12344
enhower	-12345
gherita	-12346
problem	-12347
▁Minion	-12348
▁Public	-12349
▁Social	-12350
▁appall	-12351
▁callad	-12352
▁influx	-12353
▁inject	-12354
▁lessen	-12355
▁meddle	-12356
▁opinon	-12357
▁oppose	-12358
Melliare	-12359
distinct	-12360
ledgable	-12361
problems	-12362
standard	-12363
ultimate	-12364
▁160,000	-12365
▁Cornell	-12366
▁Spirits	-12367
▁Various	-12368
▁WHETHER	-12369
▁diavola	-12370
▁instant	-12371
▁ketchup	-12372
▁nomadic	-12373
▁pursued	-12374
▁reports	-12375
▁superst	-12376
▁viewers	-12377
▁whereby	-12378
isenhower	-12379
▁childits	-12380
▁leverage	-12381
▁manChris	-12382
▁overtime	-12383
▁slanders	-12384
▁sleeping	-12385
▁slightly	-12386
▁slippery	-12387
▁smacking	-12388
▁smelling	-12389
▁smoothly	-12390
▁specials	-12391
▁speeches	-12392
▁speeding	-12393
▁spinoffs	-12394
▁sponosrs	-12395
▁staffing	-12396
▁statuses	-12397
▁stomping	-12398
▁stooping	-12399
ogs	-12400
Lord	-12401
asks	-12402
aven	-12403
dull	-12404
erog	-12405
isps	-12406
mery	-12407
ogus	-12408
▁Ref	-12409
▁aug	-12410
▁gee	-12411
achio	-12412
croll	-12413
luded	-12414
ordon	-12415
venir	-12416
venue	-12417
▁Dogs	-12418
▁Mush	-12419
▁bigI	-12420
▁bigg	-12421
▁desn	-12422
▁lord	-12423
▁pike	-12424
▁scab	-12425
▁scam	-12426
▁smug	-12427
aptain	-12428
nachos	-12429
rients	-12430
scroll	-12431
▁Emery	-12432
▁WOULD	-12433
▁bases	-12434
▁bogus	-12435
▁cents	-12436
▁opens	-12437
▁regul	-12438
▁remed	-12439
▁tipha	-12440
Captain	-12441
dullted	-12442
inating	-12443
legally	-12444
righted	-12445
▁Avenue	-12446
▁Gordon	-12447
▁Reform	-12448
▁crisps	-12449
▁dought	-12450
▁fought	-12451
▁gamble	-12452
▁heaven	-12453
▁horror	-12454
▁infant	-12455
▁prerog	-12456
▁remand	-12457
gerating	-12458
istachio	-12459
orically	-12460
wrighted	-12461
▁Thought	-12462
▁article	-12463
▁augment	-12464
▁bashing	-12465
▁biggots	-12466
▁credits	-12467
▁demonst	-12468
▁muslims	-12469
▁quietly	-12470
▁seating	-12471
▁smokers	-12472
scrollers	-12473
ywrighted	-12474
▁Advocate	-12475
▁Mushroom	-12476
▁bombings	-12477
▁donating	-12478
▁doughter	-12479
▁excluded	-12480
▁initiate	-12481
▁offended	-12482
▁regulars	-12483
▁remanded	-12484
▁remedies	-12485
▁sexually	-12486
▁souvenir	-12487
▁strapped	-12488
▁strategy	-12489
▁stuffing	-12490
▁suburban	-12491
▁suffered	-12492
▁supplied	-12493
▁survived	-12494
▁sweating	-12495
▁swimming	-12496
▁swingers	-12497
▁sympathy	-12498
▁systemic	-12499
".*	-12500
cup	-12501
oca	-12502
athu	-12503
eign	-12504
ocol	-12505
rica	-12506
sign	-12507
▁07,	-12508
iscal	-12509
occup	-12510
rince	-12511
since	-12512
▁Coca	-12513
▁coat	-12514
▁cock	-12515
▁coll	-12516
▁cove	-12517
▁dign	-12518
▁iced	-12519
▁nowA	-12520
▁obli	-12521
Prince	-12522
ghtful	-12523
parent	-12524
versed	-12525
▁Lousy	-12526
▁Shias	-12527
▁Throw	-12528
▁assem	-12529
▁belly	-12530
▁coach	-12531
▁coath	-12532
▁cockf	-12533
▁cousc	-12534
▁covet	-12535
▁cycle	-12536
▁dathu	-12537
▁divis	-12538
▁downh	-12539
▁jaded	-12540
▁posed	-12541
▁premi	-12542
▁simpl	-12543
▁undoc	-12544
ightful	-12545
loading	-12546
ocolate	-12547
vereign	-12548
▁africa	-12549
▁clones	-12550
▁collap	-12551
▁crappy	-12552
▁fiscal	-12553
▁marvel	-12554
▁measly	-12555
▁visual	-12556
▁Baiting	-12557
▁blaring	-12558
▁diction	-12559
▁dignity	-12560
▁moronic	-12561
▁simpler	-12562
▁themIts	-12563
occupying	-12564
parenting	-12565
▁assemble	-12566
▁collapse	-12567
▁couscous	-12568
▁divisive	-12569
▁downhill	-12570
▁fourmost	-12571
▁languags	-12572
▁narrator	-12573
▁policies	-12574
▁polluted	-12575
▁premiere	-12576
▁spelling	-12577
▁talented	-12578
▁teamwork	-12579
▁tempting	-12580
▁terminal	-12581
▁textures	-12582
▁theaters	-12583
▁threaten	-12584
▁throughs	-12585
▁tolerant	-12586
▁travolta	-12587
▁tribunal	-12588
▁underdog	-12589
▁underpay	-12590
▁unearned	-12591
▁unionism	-12592
▁unjustly	-12593
▁unreason	-12594
▁unveiled	-12595
▁upheaval	-12596
▁validate	-12597
▁validity	-12598
▁versions	-12599
."-	-12600
iiy	-12601
▁2-	-12602
▁2.	-12603
▁22	-12604
▁23	-12605
▁27	-12606
?---	-12607
View	-12608
arne	-12609
iiyt	-12610
▁BOM	-12611
▁dna	-12612
3,000	-12613
iiytg	-12614
print	-12615
▁dime	-12616
▁idol	-12617
▁loos	-12618
before	-12619
cepted	-12620
icular	-12621
jiiytg	-12622
prints	-12623
uition	-12624
▁16-18	-12625
▁BOMBS	-12626
▁Carne	-12627
▁Media	-12628
▁badly	-12629
▁brung	-12630
▁heads	-12631
▁hopel	-12632
▁incom	-12633
▁petul	-12634
▁poker	-12635
▁potty	-12636
▁smith	-12637
Viewers	-12638
ception	-12639
ceptive	-12640
fjiiytg	-12641
inition	-12642
oherent	-12643
unition	-12644
▁53,000	-12645
▁Animal	-12646
▁Korean	-12647
▁infect	-12648
▁intake	-12649
▁loosen	-12650
▁partly	-12651
▁retard	-12652
▁sauces	-12653
▁zealot	-12654
esbefore	-12655
icularly	-12656
munition	-12657
stations	-12658
▁bitrate	-12659
▁combine	-12660
▁factual	-12661
▁inspire	-12662
▁intends	-12663
▁polling	-12664
▁reenter	-12665
▁riskier	-12666
▁tuition	-12667
▁unpetty	-12668
ffinition	-12669
▁Conquest	-12670
▁Gamecube	-12671
▁answerer	-12672
▁hopeless	-12673
▁incoming	-12674
▁loosened	-12675
▁petulant	-12676
▁sfjiiytg	-12677
▁vishvgur	-12678
▁visiting	-12679
▁visually	-12680
▁vitality	-12681
▁volation	-12682
▁wanderer	-12683
▁wasteful	-12684
▁weekends	-12685
▁welcomes	-12686
▁whouldnt	-12687
▁wilfully	-12688
▁winnable	-12689
▁worrying	-12690
▁writings	-12691
!!!!!!!!!!	-12692
..........	-12693
LVprincess	-12694
OOOOOOOOOD	-12695
Television	-12696
Throughout	-12697
__________	-12698
aedophiles	-12699
200	-12700
300	-12701
500	-12702
bey	-12703
bps	-12704
▁JF	-12705
▁Jo	-12706
▁Ka	-12707
,500	-12708
beas	-12709
ianc	-12710
iane	-12711
robe	-12712
▁JFK	-12713
▁Jim	-12714
▁Joe	-12715
▁STP	-12716
1000)	-12717
2005)	-12718
Check	-12719
Tried	-12720
ishna	-12721
never	-12722
ravel	-12723
sians	-12724
suage	-12725
urren	-12726
▁Jade	-12727
▁Kafe	-12728
▁Kill	-12729
▁Parm	-12730
▁cath	-12731
▁ditt	-12732
▁kbps	-12733
▁kidd	-12734
▁mism	-12735
▁obey	-12736
Surely	-12737
ardian	-12738
erates	-12739
imates	-12740
inates	-12741
ittles	-12742
lizard	-12743
rishna	-12744
▁2,500	-12745
▁Diane	-12746
▁attun	-12747
▁cheat	-12748
▁ditto	-12749
▁fianc	-12750
▁guest	-12751
▁guide	-12752
▁maker	-12753
▁shitt	-12754
ardrobe	-12755
ointing	-12756
ussians	-12757
▁(2005)	-12758
▁Gurren	-12759
▁Kafein	-12760
▁Parmes	-12761
▁habeas	-12762
▁issueI	-12763
▁kiddos	-12764
▁length	-12765
▁theseg	-12766
guardian	-12767
oderates	-12768
▁Chicken	-12769
▁assuage	-12770
▁attuned	-12771
▁firstly	-12772
▁krishna	-12773
▁unravel	-12774
▁wrongly	-12775
Moderates	-12776
hospitals	-12777
▁Parmesan	-12778
▁climates	-12779
▁preceded	-12780
▁religous	-12781
▁russians	-12782
▁sizeable	-12783
▁spankage	-12784
▁wardrobe	-12785
aggerating	-12786
alestinian	-12787
artnership	-12788
aternities	-12789
christians	-12790
cognizable	-12791
commercial	-12792
conclusion	-12793
convenient	-12794
convinceme	-12795
corrective	-12796
denialists	-12797
developing	-12798
distracted	-12799
,,,	-12800
Mix	-12801
OMS	-12802
bra	-12803
yea	-12804
DOMS	-12805
abye	-12806
brah	-12807
eaut	-12808
fits	-12809
iana	-12810
into	-12811
xism	-12812
▁Boy	-12813
▁Doy	-12814
▁Toy	-12815
abMix	-12816
eauty	-12817
lance	-12818
opath	-12819
unint	-12820
usual	-12821
▁Boyz	-12822
▁cunt	-12823
▁fade	-12824
▁pail	-12825
ailure	-12826
ammals	-12827
braham	-12828
isiana	-12829
omosex	-12830
velope	-12831
▁Doyle	-12832
▁Mabye	-12833
▁Toyot	-12834
▁cunts	-12835
▁effin	-12836
▁email	-12837
▁marra	-12838
failure	-12839
ijkjdrk	-12840
▁Beauty	-12841
▁Canadi	-12842
▁Little	-12843
▁Shinto	-12844
▁TabMix	-12845
▁Toyota	-12846
▁adjust	-12847
▁colors	-12848
▁comped	-12849
▁marrai	-12850
▁neverm	-12851
contrary	-12852
ordinary	-12853
ouisiana	-12854
unintent	-12855
▁Abraham	-12856
▁Anybody	-12857
▁CONDOMS	-12858
▁Homosex	-12859
▁KILLING	-12860
▁Rebecca	-12861
▁aborted	-12862
▁compost	-12863
▁disastr	-12864
▁dumbest	-12865
▁mammals	-12866
▁marxism	-12867
▁outfits	-12868
▁refuses	-12869
▁unusual	-12870
▁Horrible	-12871
▁accusing	-12872
▁arguable	-12873
▁bastards	-12874
▁compound	-12875
▁develope	-12876
▁imperson	-12877
▁intimate	-12878
▁jealousy	-12879
▁manually	-12880
▁marraige	-12881
▁tijkjdrk	-12882
government	-12883
ierarchies	-12884
imichangas	-12885
impressing	-12886
impressive	-12887
incomplete	-12888
istinguish	-12889
liferation	-12890
oppression	-12891
ournalists	-12892
peacefully	-12893
ponsiblity	-12894
recklessly	-12895
reinforced	-12896
resightful	-12897
responding	-12898
ruitiating	-12899
iav	-12900
via	-12901
iavo	-12902
lons	-12903
onde	-12904
oppa	-12905
▁---	-12906
▁58.	-12907
▁ACT	-12908
Share	-12909
drass	-12910
icked	-12911
licit	-12912
▁58.6	-12913
▁Dick	-12914
▁Goal	-12915
▁SHOW	-12916
▁Stud	-12917
▁eman	-12918
▁rave	-12919
▁tick	-12920
!!!!!!	-12921
chiavo	-12922
ctance	-12923
erelic	-12924
felons	-12925
gdrass	-12926
unless	-12927
▁Caffe	-12928
▁Toppa	-12929
▁bowls	-12930
▁decom	-12931
▁decre	-12932
▁difer	-12933
▁hybri	-12934
▁seedy	-12935
▁worng	-12936
astised	-12937
ireless	-12938
spastic	-12939
uctance	-12940
▁blonde	-12941
▁elicit	-12942
▁emanci	-12943
▁hybrid	-12944
▁wicked	-12945
erelicts	-12946
gdrassil	-12947
irculate	-12948
multisex	-12949
watching	-12950
▁Schiavo	-12951
▁Student	-12952
▁charger	-12953
▁donates	-12954
▁emancip	-12955
▁hybrids	-12956
▁tickets	-12957
▁tipping	-12958
▁ACTUALLY	-12959
▁Adoption	-12960
▁Contrary	-12961
▁diferent	-12962
▁folklore	-12963
▁microbes	-12964
▁nobheads	-12965
▁producer	-12966
▁thereIts	-12967
▁wireless	-12968
stantiated	-12969
stimulated	-12970
ucinations	-12971
ulesbefore	-12972
utstanding	-12973
▁10/20/201	-12974
▁Addictive	-12975
▁Algorithm	-12976
▁Anecdotal	-12977
▁Believing	-12978
▁Bollywood	-12979
▁CONVICTED	-12980
▁Canadiens	-12981
▁Certainly	-12982
▁Champions	-12983
▁Character	-12984
▁Christmas	-12985
▁Classical	-12986
▁Companies	-12987
▁Conquests	-12988
▁Countries	-12989
▁Darwinism	-12990
▁Dichotomy	-12991
▁Distribut	-12992
▁Dominican	-12993
▁EDUCATION	-12994
▁Economics	-12995
▁Expensive	-12996
▁Healthier	-12997
▁Hopefully	-12998
▁Humankind	-12999
cost	-13000
mary	-13001
mile	-13002
mory	-13003
okes	-13004
remo	-13005
▁INS	-13006
▁RAM	-13007
▁WAT	-13008
▁WWE	-13009
▁joy	-13010
▁mto	-13011
agile	-13012
asary	-13013
athon	-13014
dress	-13015
heavy	-13016
money	-13017
smell	-13018
uated	-13019
unkie	-13020
▁ANAL	-13021
▁Dead	-13022
▁joys	-13023
▁mile	-13024
▁perv	-13025
▁vile	-13026
Whites	-13027
always	-13028
istory	-13029
number	-13030
ummary	-13031
▁1968,	-13032
▁Beast	-13033
▁Brill	-13034
▁Heart	-13035
▁WATER	-13036
▁argum	-13037
▁brush	-13038
▁dated	-13039
▁deals	-13040
▁label	-13041
▁mouse	-13042
▁recre	-13043
umental	-13044
umented	-13045
▁Armory	-13046
▁Brilli	-13047
▁Choice	-13048
▁Junkie	-13049
▁evokes	-13050
▁noodle	-13051
▁steady	-13052
▁trials	-13053
▁yearly	-13054
dressing	-13055
essasary	-13056
removing	-13057
rumental	-13058
▁Summary	-13059
▁argumnt	-13060
▁donated	-13061
▁episode	-13062
▁factory	-13063
▁fragile	-13064
▁mileage	-13065
▁twisted	-13066
▁Alliance	-13067
▁beverage	-13068
▁condemns	-13069
▁dragging	-13070
▁marathon	-13071
▁recreate	-13072
▁retarted	-13073
▁successf	-13074
treatments	-13075
uppression	-13076
▁Achieving	-13077
▁Deadlines	-13078
▁Hypocricy	-13079
▁Isrealian	-13080
▁Judgement	-13081
▁Knowledge	-13082
▁Literally	-13083
▁Louisiana	-13084
▁Marijuana	-13085
▁Mukherjee	-13086
▁Notmymuse	-13087
▁PROMOTING	-13088
▁Parliment	-13089
▁Pharisees	-13090
▁Polyamory	-13091
▁Porpoises	-13092
▁Realistic	-13093
▁Regarding	-13094
▁Reservoir	-13095
▁Resources	-13096
▁SURPRISED	-13097
▁Seriously	-13098
▁Spaghetti	-13099
80)	-13100
Ick	-13101
eck	-13102
tip	-13103
tym	-13104
▁38	-13105
Born	-13106
cked	-13107
corn	-13108
ilty	-13109
norm	-13110
check	-13111
first	-13112
haria	-13113
incip	-13114
iping	-13115
ipist	-13116
lasty	-13117
lting	-13118
perse	-13119
ptown	-13120
thora	-13121
▁Down	-13122
▁cigs	-13123
▁deck	-13124
▁dens	-13125
▁etym	-13126
▁gown	-13127
▁horm	-13128
▁juvy	-13129
▁sake	-13130
▁ship	-13131
corned	-13132
ipment	-13133
liants	-13134
oirity	-13135
xample	-13136
▁FIGHT	-13137
▁Takei	-13138
▁annie	-13139
▁brack	-13140
▁brink	-13141
▁clown	-13142
▁furor	-13143
▁herit	-13144
▁jerks	-13145
▁reper	-13146
Example	-13147
oplasty	-13148
sibilty	-13149
▁60-80)	-13150
▁Sharia	-13151
▁Uptown	-13152
▁addict	-13153
▁locked	-13154
▁offens	-13155
▁piping	-13156
▁statue	-13157
▁subord	-13158
incipals	-13159
valuable	-13160
▁JUSTICE	-13161
▁bailing	-13162
▁bracket	-13163
▁hormone	-13164
▁melting	-13165
▁ourself	-13166
▁tooltip	-13167
....!!!!!	-13168
inoplasty	-13169
permanent	-13170
▁assholeI	-13171
▁dictates	-13172
▁disperse	-13173
▁heritage	-13174
▁paycheck	-13175
▁plethora	-13176
▁provider	-13177
▁socailly	-13178
▁underach	-13179
▁underper	-13180
▁workable	-13181
apointment	-13182
hinoplasty	-13183
nerability	-13184
▁Inventive	-13185
▁Shawshank	-13186
▁Spongebob	-13187
▁Starbucks	-13188
▁THOUSANDS	-13189
▁Teenagers	-13190
▁Terrorism	-13191
▁VOLUNTARY	-13192
▁Wondering	-13193
▁Ygdrassil	-13194
▁abilities	-13195
▁abridging	-13196
▁absoultly	-13197
▁accompany	-13198
▁accounted	-13199
15)	-13200
Mob	-13201
dub	-13202
obe	-13203
rub	-13204
20!!	-13205
achy	-13206
cles	-13207
cont	-13208
mass	-13209
obly	-13210
▁Rob	-13211
▁dub	-13212
5.15)	-13213
Mobil	-13214
arass	-13215
legal	-13216
▁1995	-13217
▁2014	-13218
▁6000	-13219
▁Live	-13220
▁Lous	-13221
▁Pear	-13222
▁avid	-13223
▁bits	-13224
▁club	-13225
▁knob	-13226
▁mars	-13227
▁wats	-13228
(5.15)	-13229
appear	-13230
contro	-13231
illary	-13232
losing	-13233
orious	-13234
others	-13235
▁Adobe	-13236
▁Lions	-13237
▁Pearl	-13238
▁Shrub	-13239
▁beach	-13240
▁faces	-13241
▁overd	-13242
▁overl	-13243
▁overs	-13244
Hillary	-13245
Keeping	-13246
arassal	-13247
atering	-13248
control	-13249
duboard	-13250
entious	-13251
▁Babies	-13252
▁Lousis	-13253
▁Staley	-13254
▁embell	-13255
▁overhe	-13256
▁worlds	-13257
▁Violent	-13258
▁cleaned	-13259
▁dubious	-13260
▁heretic	-13261
▁muscles	-13262
▁overloo	-13263
▁preachy	-13264
disappear	-13265
offenders	-13266
▁Sarassal	-13267
▁caffeine	-13268
▁catering	-13269
▁executes	-13270
▁fiddling	-13271
▁overdose	-13272
▁overhead	-13273
▁overheat	-13274
▁probobly	-13275
▁reconfig	-13276
▁storages	-13277
▁tendency	-13278
rehensible	-13279
▁Basically	-13280
▁Lousisana	-13281
▁addictive	-13282
▁admitting	-13283
▁adulterer	-13284
▁affiliate	-13285
▁afternoon	-13286
▁aggressor	-13287
▁agonizing	-13288
▁agressive	-13289
▁ancestors	-13290
▁animosity	-13291
▁answerers	-13292
▁appalling	-13293
▁appetizer	-13294
▁assaulted	-13295
▁asserting	-13296
▁assessing	-13297
▁assurance	-13298
▁athiestic	-13299
bad	-13300
ffs	-13301
▁LB	-13302
▁LP	-13303
▁LS	-13304
PECT	-13305
chas	-13306
deal	-13307
jedy	-13308
olid	-13309
▁Due	-13310
▁LBG	-13311
▁LSD	-13312
▁Lab	-13313
▁Led	-13314
▁Lif	-13315
arcon	-13316
atine	-13317
icine	-13318
▁Cash	-13319
▁Fuck	-13320
▁LBGT	-13321
▁Land	-13322
▁Last	-13323
▁Lies	-13324
▁Weil	-13325
▁disd	-13326
▁enab	-13327
▁heat	-13328
▁pled	-13329
▁sine	-13330
▁vine	-13331
▁whip	-13332
School	-13333
chaser	-13334
iliffs	-13335
inting	-13336
patine	-13337
▁Cance	-13338
▁Lifer	-13339
▁apple	-13340
▁flies	-13341
▁holid	-13342
▁landf	-13343
▁petty	-13344
▁reser	-13345
▁ticks	-13346
ailiffs	-13347
arconon	-13348
express	-13349
whether	-13350
▁Cancel	-13351
▁Issues	-13352
▁adhere	-13353
▁assure	-13354
▁incite	-13355
▁models	-13356
▁ordeal	-13357
▁picker	-13358
▁reside	-13359
▁slower	-13360
▁spaces	-13361
▁stream	-13362
▁sucker	-13363
▁tender	-13364
▁Kingdom	-13365
▁RESPECT	-13366
▁Weiland	-13367
▁disdain	-13368
▁flyable	-13369
▁pledged	-13370
▁sayWhat	-13371
▁suckerp	-13372
▁trajedy	-13373
▁willful	-13374
▁Narconon	-13375
▁Reaffirm	-13376
▁appelate	-13377
▁bailiffs	-13378
▁blocking	-13379
▁enabling	-13380
▁engaging	-13381
▁holidays	-13382
▁medicine	-13383
▁passable	-13384
▁pointing	-13385
▁reserves	-13386
▁returned	-13387
▁roomates	-13388
▁Palpatine	-13389
▁attempted	-13390
▁attorneys	-13391
▁attourney	-13392
▁balancing	-13393
▁bartender	-13394
▁beleivers	-13395
▁belittles	-13396
▁belonging	-13397
▁blatantly	-13398
▁bloodline	-13399
BI	-13400
Cue	-13401
ido	-13402
irh	-13403
▁''	-13404
▁Fi	-13405
▁ie	-13406
allu	-13407
ampa	-13408
bout	-13409
imed	-13410
mers	-13411
trap	-13412
▁FBI	-13413
▁awe	-13414
▁dim	-13415
▁mol	-13416
About	-13417
apted	-13418
cuits	-13419
insan	-13420
uming	-13421
years	-13422
▁aare	-13423
▁bite	-13424
▁doom	-13425
▁fate	-13426
▁merg	-13427
▁sits	-13428
▁wirh	-13429
iapted	-13430
ibrate	-13431
insane	-13432
omenal	-13433
▁Sallu	-13434
▁Tampa	-13435
▁Times	-13436
▁WORLD	-13437
▁Where	-13438
▁aimed	-13439
▁binge	-13440
▁dimin	-13441
▁flake	-13442
▁flush	-13443
▁prise	-13444
▁reads	-13445
iscuits	-13446
vibrate	-13447
▁Clevel	-13448
▁allien	-13449
▁centry	-13450
▁flakey	-13451
▁molest	-13452
▁remark	-13453
▁rudely	-13454
▁snakes	-13455
▁suited	-13456
assuming	-13457
▁Serbian	-13458
▁fitting	-13459
▁fundido	-13460
▁isolate	-13461
▁justise	-13462
▁mergers	-13463
▁moments	-13464
▁organic	-13465
▁prisons	-13466
▁rounded	-13467
▁section	-13468
▁shortly	-13469
▁summers	-13470
ansiapted	-13471
▁biscuits	-13472
▁blasting	-13473
▁cheerful	-13474
▁demonize	-13475
▁spirited	-13476
▁Cleveland	-13477
▁breakdown	-13478
▁breakneck	-13479
▁broadband	-13480
▁brutality	-13481
▁burgesses	-13482
▁buzzwords	-13483
▁calculate	-13484
▁calendars	-13485
▁campaigns	-13486
▁candidate	-13487
▁cardboard	-13488
▁catholics	-13489
▁certainty	-13490
▁chastised	-13491
▁chocolate	-13492
▁cigarette	-13493
▁circulate	-13494
▁citizenry	-13495
▁civilised	-13496
▁coattails	-13497
▁cockfight	-13498
▁cognitely	-13499
19	-13500
"--	-13501
19)	-13502
NBA	-13503
adv	-13504
doo	-13505
fin	-13506
hyd	-13507
ius	-13508
lad	-13509
lew	-13510
▁AC	-13511
▁TJ	-13512
▁TY	-13513
▁Te	-13514
▁Tj	-13515
bors	-13516
hear	-13517
mani	-13518
ooch	-13519
oofy	-13520
open	-13521
urar	-13522
▁ACL	-13523
▁Tin	-13524
▁soo	-13525
▁tid	-13526
▁vic	-13527
forms	-13528
ladim	-13529
llite	-13530
oping	-13531
urarb	-13532
▁(19)	-13533
▁ACLU	-13534
▁Bott	-13535
▁Flew	-13536
▁THEI	-13537
▁TYPE	-13538
▁WNBA	-13539
▁apoc	-13540
▁blim	-13541
▁sooo	-13542
▁tidy	-13543
HICKEN	-13544
eating	-13545
encour	-13546
finish	-13547
urarbb	-13548
▁Imani	-13549
▁Recca	-13550
▁Sound	-13551
▁THEIR	-13552
▁Teens	-13553
▁bikes	-13554
▁dehyd	-13555
▁dodgy	-13556
▁goofy	-13557
▁gramm	-13558
▁pooch	-13559
▁spoke	-13560
▁trigg	-13561
athcare	-13562
getable	-13563
ladimir	-13564
urarbbi	-13565
▁Beware	-13566
▁Bottle	-13567
▁awared	-13568
▁blimem	-13569
▁genius	-13570
▁insist	-13571
▁nuking	-13572
▁whants	-13573
atellite	-13574
encourge	-13575
▁CHICKEN	-13576
▁athlete	-13577
▁grammat	-13578
▁profits	-13579
▁reconno	-13580
▁tending	-13581
▁torrent	-13582
▁violate	-13583
advancing	-13584
▁Buddhism	-13585
▁Vladimir	-13586
▁commuter	-13587
▁dedicate	-13588
▁paranoid	-13589
▁triggers	-13590
▁vehicles	-13591
▁wrestles	-13592
britishers	-13593
▁canfinish	-13594
▁cognitive	-13595
▁commision	-13596
▁committee	-13597
▁complains	-13598
▁conquered	-13599
FY	-13600
wr	-13601
CON	-13602
FYI	-13603
got	-13604
▁SW	-13605
CONS	-13606
Much	-13607
ambs	-13608
hely	-13609
obah	-13610
odor	-13611
ooey	-13612
rill	-13613
trad	-13614
▁Sad	-13615
▁Tap	-13616
helyt	-13617
heres	-13618
icher	-13619
obahn	-13620
odoro	-13621
throp	-13622
▁FOUN	-13623
▁GLBT	-13624
▁Gods	-13625
▁NATO	-13626
▁egot	-13627
▁hips	-13628
▁mout	-13629
▁notm	-13630
ouglas	-13631
▁Chose	-13632
▁Nobel	-13633
▁euros	-13634
▁gooey	-13635
▁juice	-13636
▁lambs	-13637
defined	-13638
esimony	-13639
instead	-13640
omodoro	-13641
rounder	-13642
sthelyt	-13643
utobahn	-13644
▁Sadism	-13645
▁Youtub	-13646
▁closes	-13647
▁pricey	-13648
▁raving	-13649
▁relive	-13650
▁richer	-13651
▁thrill	-13652
▁wrongs	-13653
▁Douglas	-13654
▁Phoenix	-13655
▁Physics	-13656
▁adheres	-13657
▁anthrop	-13658
▁arsenal	-13659
▁customs	-13660
▁disease	-13661
▁egotist	-13662
▁notmove	-13663
▁resolve	-13664
▁sliding	-13665
Increased	-13666
emenggong	-13667
▁Autobahn	-13668
▁Basinets	-13669
▁FOUNDING	-13670
▁Pomodoro	-13671
▁adapting	-13672
▁courtesy	-13673
▁mouthing	-13674
▁relieved	-13675
▁seminary	-13676
▁tesimony	-13677
propaganda	-13678
sthelytize	-13679
▁Youtubers	-13680
▁constants	-13681
▁contained	-13682
▁cooperate	-13683
▁corrected	-13684
▁corrosion	-13685
▁custodial	-13686
▁decreases	-13687
▁dedicated	-13688
▁definetly	-13689
▁demanding	-13690
▁democrats	-13691
▁dependent	-13692
▁derelicts	-13693
▁desecrate	-13694
▁designing	-13695
▁desisions	-13696
▁desperate	-13697
▁destroyed	-13698
▁differnce	-13699
dp	-13700
102	-13701
OLD	-13702
Sem	-13703
bly	-13704
jas	-13705
jdp	-13706
owl	-13707
▁TW	-13708
102"	-13709
ayer	-13710
itas	-13711
mild	-13712
ngus	-13713
none	-13714
only	-13715
roit	-13716
▁Lef	-13717
▁TWO	-13718
▁nin	-13719
▁sow	-13720
Tejas	-13721
adult	-13722
cibly	-13723
dirty	-13724
tress	-13725
unism	-13726
▁Bowl	-13727
▁Left	-13728
▁arab	-13729
▁outc	-13730
▁pubs	-13731
▁resc	-13732
▁thay	-13733
Semper	-13734
etroit	-13735
▁Angus	-13736
▁Going	-13737
▁SHOLD	-13738
▁debun	-13739
▁dozen	-13740
▁ninja	-13741
discrim	-13742
iomatic	-13743
itering	-13744
▁Enable	-13745
▁Player	-13746
▁adapts	-13747
▁arabic	-13748
▁arrive	-13749
▁attach	-13750
▁misdem	-13751
▁outcry	-13752
▁plains	-13753
▁rescue	-13754
▁tribal	-13755
artening	-13756
lemental	-13757
majority	-13758
notation	-13759
xiomatic	-13760
▁Detroit	-13761
▁avoided	-13762
▁chooses	-13763
▁heading	-13764
▁interra	-13765
▁outster	-13766
▁probaly	-13767
▁Atheists	-13768
▁Medicaid	-13769
▁bodiesIt	-13770
▁debunked	-13771
▁forcibly	-13772
▁mattress	-13773
▁spacious	-13774
▁symbolic	-13775
essionally	-13776
fatherless	-13777
heartening	-13778
▁Communism	-13779
▁axiomatic	-13780
▁bettering	-13781
▁decompose	-13782
▁disallows	-13783
▁disappear	-13784
▁discourse	-13785
▁disgusted	-13786
▁disintegr	-13787
▁displayed	-13788
▁disputing	-13789
▁disregard	-13790
▁districts	-13791
▁dominance	-13792
▁downright	-13793
▁dwindling	-13794
▁eavesdrop	-13795
▁economyHe	-13796
▁embryonic	-13797
▁emissions	-13798
▁empirical	-13799
CJ	-13800
ho	-13801
.--	-13802
Add	-13803
BOR	-13804
CJA	-13805
Was	-13806
asi	-13807
ett	-13808
xia	-13809
.--"	-13810
bush	-13811
cion	-13812
enis	-13813
reen	-13814
▁Arv	-13815
▁Pap	-13816
▁hav	-13817
▁maj	-13818
Added	-13819
BORTI	-13820
green	-13821
inent	-13822
ionic	-13823
issol	-13824
▁1990	-13825
▁Fett	-13826
▁Papa	-13827
▁YCJA	-13828
▁boot	-13829
▁clin	-13830
▁flip	-13831
▁havn	-13832
Playst	-13833
actals	-13834
astard	-13835
awking	-13836
chigan	-13837
orexia	-13838
oulder	-13839
reakin	-13840
sionic	-13841
ungies	-13842
▁Arvay	-13843
▁Glory	-13844
▁honey	-13845
▁mores	-13846
▁penis	-13847
▁picks	-13848
▁quasi	-13849
▁succe	-13850
BORTION	-13851
Ichigan	-13852
▁Arvayo	-13853
▁Dissol	-13854
▁Serbia	-13855
▁majest	-13856
▁morsel	-13857
▁partys	-13858
▁reborn	-13859
▁resurg	-13860
▁rubber	-13861
▁runner	-13862
▁smoked	-13863
illusion	-13864
▁Bastard	-13865
▁Boulder	-13866
▁Bungies	-13867
▁GNOCCHI	-13868
▁Hawking	-13869
▁Weather	-13870
▁chemist	-13871
▁clearer	-13872
▁dipping	-13873
▁freakin	-13874
▁majesty	-13875
▁needing	-13876
▁ooooooo	-13877
▁psionic	-13878
▁ABORTION	-13879
▁MIchigan	-13880
▁Scottish	-13881
▁anorexia	-13882
▁childish	-13883
▁clinical	-13884
▁coercion	-13885
▁consular	-13886
▁fractals	-13887
▁holdinds	-13888
▁magicaly	-13889
▁offering	-13890
▁potheads	-13891
▁rebutted	-13892
▁succeful	-13893
andardized	-13894
illusioned	-13895
▁centuries	-13896
▁chemistry	-13897
▁empowered	-13898
▁emulating	-13899
";	-13900
14	-13901
?2.	-13902
beh	-13903
sle	-13904
▁NC	-13905
▁ft	-13906
▁ov	-13907
apen	-13908
aryy	-13909
ille	-13910
▁NCO	-13911
▁itI	-13912
!....	-13913
acism	-13914
afted	-13915
mokes	-13916
nyder	-13917
rower	-13918
▁IMHO	-13919
▁itin	-13920
▁mock	-13921
▁tips	-13922
alapen	-13923
orpion	-13924
ortals	-13925
smokes	-13926
▁LOLTV	-13927
▁fades	-13928
▁ought	-13929
▁ovens	-13930
▁scans	-13931
▁twist	-13932
▁wills	-13933
Culture	-13934
accines	-13935
brainer	-13936
illegal	-13937
iltered	-13938
orrower	-13939
▁League	-13940
▁Racism	-13941
▁SHOULD	-13942
▁Snyder	-13943
▁hassle	-13944
▁mascul	-13945
▁misbeh	-13946
▁plants	-13947
alapenos	-13948
ortation	-13949
pastrami	-13950
▁Charter	-13951
▁anarcho	-13952
▁gorilla	-13953
▁mortals	-13954
▁shafted	-13955
▁Filtered	-13956
▁Pakistan	-13957
▁Scorpion	-13958
▁Vaccines	-13959
▁borrower	-13960
▁receipts	-13961
▁retarded	-13962
▁shutting	-13963
▁enforcers	-13964
▁equipment	-13965
▁escalates	-13966
▁especialy	-13967
▁ethically	-13968
▁etymology	-13969
▁everytime	-13970
▁exception	-13971
▁excersise	-13972
▁excessive	-13973
▁executing	-13974
▁expirence	-13975
▁exploited	-13976
▁expressed	-13977
▁extreamly	-13978
▁favourite	-13979
▁feminists	-13980
▁finishing	-13981
▁fireworks	-13982
▁flavorful	-13983
▁forfeited	-13984
▁forgiving	-13985
▁fortitude	-13986
▁franchise	-13987
▁frustrate	-13988
▁garnished	-13989
▁gatherers	-13990
▁generated	-13991
▁generates	-13992
▁genuinely	-13993
▁graduated	-13994
▁gravitate	-13995
▁grounding	-13996
▁guacamole	-13997
▁hardships	-13998
▁haveboobs	-13999
Get	-14000
aus	-14001
ron	-14002
xic	-14003
▁eh	-14004
King	-14005
cass	-14006
idow	-14007
ptor	-14008
sens	-14009
shed	-14010
xico	-14011
▁256	-14012
▁600	-14013
▁BIG	-14014
▁Wii	-14015
▁uno	-14016
Those	-14017
ereby	-14018
ingle	-14019
isten	-14020
▁Iron	-14021
▁cows	-14022
▁hers	-14023
▁mall	-14024
▁meth	-14025
▁toli	-14026
▁triv	-14027
Single	-14028
unatic	-14029
▁Still	-14030
▁affin	-14031
▁arsen	-14032
▁asian	-14033
▁comic	-14034
▁disob	-14035
▁guise	-14036
▁nicer	-14037
▁staus	-14038
▁urges	-14039
▁widow	-14040
cassary	-14041
▁Amidal	-14042
▁Listen	-14043
▁feared	-14044
▁makeup	-14045
▁mexico	-14046
▁nereby	-14047
▁safely	-14048
▁safest	-14049
▁salads	-14050
▁toliet	-14051
Internet	-14052
Nintendo	-14053
whomever	-14054
▁Amidala	-14055
▁Smoking	-14056
▁arsenic	-14057
▁blindly	-14058
▁disobey	-14059
▁entered	-14060
▁guilted	-14061
▁lunatic	-14062
▁maximum	-14063
▁meeting	-14064
▁mussels	-14065
▁nobodys	-14066
▁populum	-14067
▁recycle	-14068
▁trivial	-14069
▁worsens	-14070
▁affinity	-14071
▁beleives	-14072
▁billiona	-14073
▁differnt	-14074
▁dripping	-14075
▁incarcer	-14076
▁invading	-14077
▁referred	-14078
▁snobbish	-14079
▁thingies	-14080
etributive	-14081
▁Operation	-14082
▁arresting	-14083
▁bloodshed	-14084
▁enjoyment	-14085
▁headquart	-14086
▁healthier	-14087
▁heartache	-14088
▁heartbeat	-14089
▁heartedly	-14090
▁heathcare	-14091
▁household	-14092
▁iincurred	-14093
▁impartial	-14094
▁impending	-14095
▁impounded	-14096
▁improving	-14097
▁incentive	-14098
▁inception	-14099
Wr	-14100
?).	-14101
aad	-14102
hom	-14103
lum	-14104
mom	-14105
sta	-14106
vei	-14107
▁CD	-14108
ALso	-14109
anim	-14110
odge	-14111
odka	-14112
omas	-14113
rack	-14114
stre	-14115
veiw	-14116
ylum	-14117
▁5.3	-14118
▁kud	-14119
▁ski	-14120
Books	-14121
INESS	-14122
Wrong	-14123
aping	-14124
dodge	-14125
epent	-14126
erted	-14127
homos	-14128
odity	-14129
ophic	-14130
rille	-14131
▁Fits	-14132
▁Hear	-14133
▁LAST	-14134
▁Mand	-14135
▁Step	-14136
▁fame	-14137
▁wint	-14138
Repent	-14139
aaders	-14140
direct	-14141
street	-14142
▁Crazy	-14143
▁Eagle	-14144
▁Fatal	-14145
▁IETab	-14146
▁Steph	-14147
▁bouts	-14148
▁intim	-14149
▁kudos	-14150
▁seeks	-14151
▁stain	-14152
▁vodka	-14153
▁wound	-14154
animity	-14155
homosap	-14156
lawyers	-14157
reating	-14158
▁Grille	-14159
▁Mandal	-14160
▁Thomas	-14161
▁asylum	-14162
▁edible	-14163
▁flight	-14164
▁infall	-14165
▁kennel	-14166
▁lifeRe	-14167
▁shoots	-14168
▁skiing	-14169
▁surviv	-14170
chrmosom	-14171
▁Hearing	-14172
▁Married	-14173
▁Stephen	-14174
▁contend	-14175
▁dieases	-14176
▁examine	-14177
▁gangsta	-14178
▁intimid	-14179
▁reaping	-14180
▁sagging	-14181
▁supoena	-14182
▁winters	-14183
dodgeball	-14184
standings	-14185
▁Treating	-14186
▁inserted	-14187
▁laziness	-14188
▁leaaders	-14189
▁undercap	-14190
chrmosomes	-14191
homosapien	-14192
▁HAPPINESS	-14193
▁commodity	-14194
▁dependant	-14195
▁honorable	-14196
▁incidents	-14197
▁inclusion	-14198
▁inconsist	-14199
Co	-14200
dy	-14201
bdy	-14202
moe	-14203
pes	-14204
yet	-14205
▁NK	-14206
▁nw	-14207
Apes	-14208
athe	-14209
ingy	-14210
inst	-14211
orst	-14212
pant	-14213
than	-14214
▁16,	-14215
▁Eld	-14216
▁NKR	-14217
▁Nat	-14218
▁eve	-14219
▁iit	-14220
▁inm	-14221
▁nes	-14222
▁rox	-14223
Worst	-14224
alist	-14225
ental	-14226
ileve	-14227
inste	-14228
lousy	-14229
plain	-14230
shmoe	-14231
▁Boom	-14232
▁Come	-14233
▁Ster	-14234
▁Whos	-14235
▁fare	-14236
▁loCo	-14237
▁tong	-14238
▁wits	-14239
Health	-14240
ointed	-14241
quence	-14242
▁Elder	-14243
▁cried	-14244
▁gloom	-14245
▁hound	-14246
▁roxas	-14247
instein	-14248
issable	-14249
venties	-14250
▁Mental	-14251
▁bullet	-14252
▁chatng	-14253
▁deliri	-14254
▁exotic	-14255
▁inmate	-14256
▁landsl	-14257
▁loathe	-14258
▁ruling	-14259
▁stingy	-14260
▁tongue	-14261
▁beileve	-14262
▁deposit	-14263
▁evident	-14264
▁evrybdy	-14265
▁hounded	-14266
▁Complain	-14267
▁Einstein	-14268
▁Security	-14269
▁Sterling	-14270
▁assisted	-14271
▁delirium	-14272
▁sequence	-14273
capitalism	-14274
▁Naturally	-14275
▁appointed	-14276
▁committer	-14277
▁forwarded	-14278
▁hopefully	-14279
▁incubator	-14280
▁incumbent	-14281
▁indicates	-14282
▁indicator	-14283
▁infection	-14284
▁inflation	-14285
▁informing	-14286
▁instances	-14287
▁integrate	-14288
▁intensive	-14289
▁intention	-14290
▁interveiw	-14291
▁intrested	-14292
▁inventive	-14293
▁investors	-14294
▁irreconci	-14295
▁iteration	-14296
▁jalapenos	-14297
▁justifies	-14298
▁juxtapost	-14299
7'	-14300
AG	-14301
AK	-14302
BC	-14303
SA	-14304
AKE	-14305
fej	-14306
lld	-14307
sem	-14308
tim	-14309
yer	-14310
▁BN	-14311
▁Bi	-14312
▁IV	-14313
Best	-14314
FLAG	-14315
Such	-14316
TAKE	-14317
eple	-14318
fool	-14319
hfej	-14320
itum	-14321
ldom	-14322
odes	-14323
oost	-14324
soon	-14325
twox	-14326
▁BBC	-14327
▁BNP	-14328
▁LOW	-14329
▁NSA	-14330
Order	-14331
agann	-14332
▁Call	-14333
▁Maul	-14334
▁nose	-14335
▁oral	-14336
Lagann	-14337
arsely	-14338
erodes	-14339
ieving	-14340
lawyer	-14341
riages	-14342
timers	-14343
▁15-20	-14344
▁Biker	-14345
▁PFLAG	-14346
▁acual	-14347
▁ihfej	-14348
▁noted	-14349
▁river	-14350
▁roost	-14351
Ordered	-14352
foolish	-14353
▁Poeple	-14354
▁Sheria	-14355
▁afflic	-14356
▁commer	-14357
▁confus	-14358
▁dissem	-14359
▁erodes	-14360
▁ethics	-14361
▁seldom	-14362
▁unused	-14363
▁woulld	-14364
▁Meaning	-14365
▁bailout	-14366
▁careers	-14367
▁jerseys	-14368
▁manners	-14369
▁muddles	-14370
▁plagued	-14371
ensitized	-14372
▁Humanity	-14373
▁Simultan	-14374
▁commerce	-14375
▁disputes	-14376
▁frittata	-14377
▁nautical	-14378
▁produces	-14379
▁sparsely	-14380
scientific	-14381
▁Marriages	-14382
▁Schooling	-14383
▁afflicted	-14384
▁confusing	-14385
▁infinitum	-14386
▁inspected	-14387
▁landslide	-14388
▁laughable	-14389
▁lawmakers	-14390
▁legendary	-14391
▁legislate	-14392
▁lessening	-14393
▁licensees	-14394
▁liklihood	-14395
▁machinery	-14396
▁makingwhy	-14397
▁manditory	-14398
▁marketers	-14399
70	-14400
GB	-14401
IM	-14402
SC	-14403
[]	-14404
cd	-14405
uo	-14406
GBs	-14407
IMO	-14408
[];	-14409
cdc	-14410
fan	-14411
lut	-14412
-47'	-14413
medi	-14414
▁16.	-14415
▁21'	-14416
▁Ate	-14417
▁FSC	-14418
▁Son	-14419
saves	-14420
▁Took	-14421
▁West	-14422
▁gass	-14423
▁hall	-14424
▁loot	-14425
▁Brian	-14426
▁Peach	-14427
▁Write	-14428
▁facto	-14429
▁miser	-14430
▁pleed	-14431
▁somke	-14432
▁unite	-14433
amation	-14434
awesome	-14435
▁Lately	-14436
▁Tookie	-14437
▁append	-14438
▁critic	-14439
▁fondly	-14440
▁gassed	-14441
▁namely	-14442
▁vastly	-14443
mediated	-14444
▁affairs	-14445
▁airship	-14446
▁archaic	-14447
▁quoting	-14448
▁wronged	-14449
▁Imprison	-14450
▁balanced	-14451
▁contries	-14452
▁driveand	-14453
▁feminism	-14454
▁irritate	-14455
▁noticing	-14456
▁pleeding	-14457
▁reasoned	-14458
▁sections	-14459
▁tectonic	-14460
▁Guantanam	-14461
▁appendage	-14462
▁charities	-14463
▁criticize	-14464
▁economize	-14465
▁graduates	-14466
▁masculine	-14467
▁massacred	-14468
▁masterpie	-14469
▁materials	-14470
▁matricide	-14471
▁miserable	-14472
▁moderator	-14473
▁moremaybe	-14474
▁mountains	-14475
▁multitude	-14476
▁murderers	-14477
▁musically	-14478
▁nationals	-14479
▁necassary	-14480
▁neccisary	-14481
▁neglected	-14482
▁nevermind	-14483
▁nominated	-14484
▁nonesense	-14485
▁notorious	-14486
▁obligated	-14487
▁ooooooooh	-14488
▁operation	-14489
▁organized	-14490
▁otherside	-14491
▁outsource	-14492
▁overblown	-14493
▁overboard	-14494
▁oversight	-14495
▁overtaxed	-14496
▁palistina	-14497
▁pansexual	-14498
▁parachute	-14499
''	-14500
.1	-14501
6)	-14502
75	-14503
Af	-14504
EO	-14505
Oh	-14506
ky	-14507
").	-14508
Who	-14509
did	-14510
nis	-14511
too	-14512
▁iy	-14513
▁yu	-14514
bart	-14515
cand	-14516
test	-14517
▁(6)	-14518
▁(75	-14519
▁SEO	-14520
▁Sky	-14521
▁Sti	-14522
▁VER	-14523
▁bat	-14524
▁hay	-14525
After	-14526
arity	-14527
clean	-14528
ethod	-14529
indus	-14530
irsty	-14531
rimer	-14532
unnis	-14533
▁Asus	-14534
▁Cran	-14535
▁Much	-14536
▁UNIT	-14537
▁VERY	-14538
▁apps	-14539
▁buck	-14540
▁cann	-14541
▁lamp	-14542
etbart	-14543
giving	-14544
method	-14545
vering	-14546
▁LEAST	-14547
▁Malay	-14548
▁Short	-14549
▁Stipe	-14550
▁gover	-14551
▁probl	-14552
▁wring	-14553
Meaning	-14554
quility	-14555
▁Cranst	-14556
▁Hindus	-14557
▁Hiring	-14558
▁Primer	-14559
▁Sunnis	-14560
▁batter	-14561
▁berate	-14562
▁cannon	-14563
▁dearly	-14564
▁gained	-14565
▁hayday	-14566
▁hearty	-14567
▁pacify	-14568
▁rarity	-14569
▁sinful	-14570
▁sloths	-14571
▁subtly	-14572
ouvering	-14573
riencing	-14574
symmetry	-14575
▁ILLEGAL	-14576
▁Shortly	-14577
▁fastest	-14578
▁kidding	-14579
▁thirsty	-14580
anquility	-14581
particles	-14582
▁Cranston	-14583
▁commence	-14584
▁covering	-14585
▁microsot	-14586
▁mislaced	-14587
▁openings	-14588
▁passport	-14589
▁recourse	-14590
▁resulted	-14591
candidates	-14592
▁Brietbart	-14593
▁Charlotte	-14594
▁Vilifying	-14595
▁battering	-14596
▁goverment	-14597
▁hindering	-14598
▁innocents	-14599
4,	-14600
Ad	-14601
Hu	-14602
Lu	-14603
fa	-14604
fi	-14605
sa	-14606
Bye	-14607
Luv	-14608
ani	-14609
rox	-14610
ssa	-14611
▁07	-14612
Adam	-14613
Huge	-14614
anny	-14615
cher	-14616
iger	-14617
lave	-14618
qaed	-14619
▁07:	-14620
▁50.	-14621
▁btw	-14622
▁itt	-14623
▁rim	-14624
Would	-14625
asani	-14626
faith	-14627
lyssa	-14628
qaeda	-14629
slave	-14630
viets	-14631
▁Asia	-14632
▁bean	-14633
▁dele	-14634
▁neat	-14635
▁pink	-14636
▁undo	-14637
▁07:09	-14638
▁1984,	-14639
▁Hsien	-14640
▁Tiger	-14641
▁aprox	-14642
▁corny	-14643
▁deleg	-14644
▁dorms	-14645
▁nanny	-14646
▁patch	-14647
▁pinko	-14648
▁provo	-14649
▁qaeda	-14650
▁robes	-14651
▁shirt	-14652
▁shots	-14653
▁swoon	-14654
▁thick	-14655
estinal	-14656
▁50/50.	-14657
▁Alyssa	-14658
▁Dasani	-14659
▁Indies	-14660
▁Inside	-14661
▁Ronald	-14662
▁forums	-14663
▁shades	-14664
supposed	-14665
▁Gravity	-14666
▁Soviets	-14667
▁journey	-14668
▁perfrom	-14669
▁Thatcher	-14670
▁basinets	-14671
▁brothels	-14672
▁delusion	-14673
▁energies	-14674
▁findings	-14675
▁improved	-14676
▁momentum	-14677
▁piercing	-14678
▁summoned	-14679
▁switched	-14680
▁delegated	-14681
▁negatives	-14682
▁networked	-14683
▁paragraph	-14684
▁partially	-14685
▁peaceably	-14686
▁pediatric	-14687
▁pedophile	-14688
▁perfected	-14689
▁persuaded	-14690
▁phenomena	-14691
▁pilfering	-14692
▁pistachio	-14693
▁pituitary	-14694
▁polluting	-14695
▁pondering	-14696
▁portrayed	-14697
▁positions	-14698
▁possessed	-14699
40	-14700
WN	-14701
Ws	-14702
Did	-14703
JWs	-14704
ONT	-14705
iat	-14706
kee	-14707
nor	-14708
rej	-14709
▁;)	-14710
wage	-14711
yson	-14712
▁.40	-14713
▁1/3	-14714
▁EAT	-14715
▁OWN	-14716
▁lip	-14717
abrej	-14718
ankee	-14719
lived	-14720
trust	-14721
▁NEAR	-14722
▁NEED	-14723
▁SJWs	-14724
▁WONT	-14725
▁east	-14726
▁eben	-14727
▁fiat	-14728
▁furi	-14729
▁gent	-14730
▁meek	-14731
▁yoga	-14732
▁Based	-14733
▁Crisp	-14734
▁Tyson	-14735
▁diegn	-14736
▁flops	-14737
▁pride	-14738
othered	-14739
umbents	-14740
▁Alumni	-14741
▁Crispy	-14742
▁Yankee	-14743
▁adding	-14744
▁greedy	-14745
▁sabrej	-14746
▁sector	-14747
friendly	-14748
▁CMVEdit	-14749
▁Madison	-14750
▁Senator	-14751
▁furious	-14752
▁horrors	-14753
▁invited	-14754
▁remakes	-14755
▁shooter	-14756
▁targets	-14757
▁trilogy	-14758
▁counties	-14759
▁hijacked	-14760
▁infinite	-14761
▁outlived	-14762
▁speaches	-14763
dinosauria	-14764
victimless	-14765
▁abundance	-14766
▁depravity	-14767
▁downplays	-14768
▁gentlemen	-14769
▁heterosex	-14770
[...]
