<unk>	0
<s>	0
</s>	0
▁t	-0
▁a	-1
he	-2
in	-3
▁w	-4
▁the	-5
re	-6
ou	-7
▁s	-8
on	-9
▁b	-10
ha	-11
er	-12
▁i	-13
▁c	-14
▁o	-15
nd	-16
▁m	-17
▁to	-18
▁f	-19
▁p	-20
ing	-21
▁I	-22
es	-23
▁d	-24
or	-25
en	-26
▁be	-27
▁l	-28
al	-29
it	-30
▁and	-31
at	-32
an	-33
ed	-34
▁y	-35
▁n	-36
▁in	-37
▁of	-38
st	-39
hat	-40
▁g	-41
ve	-42
▁you	-43
om	-44
▁is	-45
le	-46
ot	-47
▁ha	-48
ly	-49
ld	-50
hi	-51
pp	-52
se	-53
▁e	-54
ll	-55
ar	-56
▁that	-57
▁it	-58
ic	-59
ion	-60
▁re	-61
app	-62
ould	-63
▁[	-64
as	-65
ent	-66
ut	-67
▁on	-68
et	-69
her	-70
ow	-71
ay	-72
ver	-73
ri	-74
▁u	-75
▁for	-76
oo	-77
ac	-78
▁not	-79
▁an	-80
▁T	-81
▁have	-82
▁th	-83
id	-84
gh	-85
ith	-86
ke	-87
▁st	-88
▁he	-89
ch	-90
▁are	-91
op	-92
▁with	-93
▁we	-94
▁as	-95
his	-96
▁li	-97
out	-98
ill	-99
▁would	-100
ct	-101
▁do	-102
ur	-103
ce	-104
is	-105
ers	-106
▁or	-107
ro	-108
ir	-109
▁h	-110
me	-111
ad	-112
▁de	-113
▁can	-114
▁was	-115
▁but	-116
ome	-117
▁se	-118
▁they	-119
▁mo	-120
▁so	-121
▁your	-122
ter	-123
au	-124
ood	-125
▁The	-126
ust	-127
one	-128
▁me	-129
ally	-130
li	-131
ght	-132
▁ab	-133
ation	-134
▁k	-135
▁S	-136
▁ne	-137
▁sh	-138
▁if	-139
▁j	-140
▁my	-141
▁A	-142
0]	-143
fe	-144
▁con	-145
ant	-146
our	-147
▁this	-148
ess	-149
ol	-150
han	-151
ain	-152
▁al	-153
eop	-154
▁ex	-155
eople	-156
▁su	-157
▁bec	-158
▁at	-159
ment	-160
▁com	-161
ho	-162
ink	-163
▁all	-164
20]	-165
▁people	-166
ause	-167
est	-168
▁will	-169
▁go	-170
ul	-171
nt	-172
ble	-173
▁there	-174
▁pro	-175
ge	-176
pe	-177
il	-178
▁W	-179
▁should	-180
▁them	-181
ci	-182
qu	-183
and	-184
▁some	-185
▁because	-186
am	-187
▁le	-188
▁think	-189
▁wor	-190
very	-191
▁get	-192
th	-193
ther	-194
ather	-195
▁C	-196
ate	-197
ous	-198
▁fr	-199
▁what	-200
▁like	-201
us	-202
▁good	-203
▁just	-204
▁M	-205
▁ma	-206
erson	-207
▁r	-208
▁F	-209
▁any	-210
ity	-211
un	-212
▁hi	-213
▁more	-214
▁person	-215
▁tr	-216
▁than	-217
▁about	-218
▁their	-219
▁B	-220
▁v	-221
▁It	-222
▁who	-223
im	-224
▁(	-225
▁whe	-226
ice	-227
▁If	-228
▁don	-229
ive	-230
▁from	-231
now	-232
if	-233
▁by	-234
▁has	-235
▁other	-236
ort	-237
em	-238
ong	-239
▁know	-240
ven	-241
▁no	-242
▁la	-243
▁pl	-244
▁ri	-245
▁father	-246
▁one	-247
▁out	-248
▁ta	-249
▁bet	-250
um	-251
▁P	-252
ig	-253
▁us	-254
ore	-255
▁fe	-256
lie	-257
▁un	-258
are	-259
▁up	-260
▁whi	-261
▁better	-262
so	-263
▁lo	-264
▁were	-265
lf	-266
▁H	-267
▁ti	-268
ough	-269
▁then	-270
art	-271
res	-272
▁Y	-273
▁belie	-274
ook	-275
ays	-276
ving	-277
os	-278
all	-279
pt	-280
▁want	-281
el	-282
▁"	-283
ud	-284
▁ag	-285
▁te	-286
act	-287
ist	-288
hing	-289
▁our	-290
▁time	-291
ap	-292
ies	-293
▁had	-294
ast	-295
▁ad	-296
▁pr	-297
ack	-298
▁ar	-299
▁law	-300
▁only	-301
ound	-302
▁int	-303
▁life	-304
▁believe	-305
▁chi	-306
▁does	-307
▁could	-308
red	-309
▁right	-310
lp	-311
▁N	-312
ence	-313
▁every	-314
▁help	-315
▁need	-316
ame	-317
der	-318
▁when	-319
ie	-320
▁R	-321
ind	-322
▁ac	-323
▁en	-324
ions	-325
king	-326
▁him	-327
pl	-328
▁E	-329
▁O	-330
ase	-331
▁am	-332
od	-333
able	-334
▁off	-335
▁thing	-336
uch	-337
▁act	-338
ace	-339
ck	-340
▁did	-341
▁may	-342
▁also	-343
ide	-344
ight	-345
omet	-346
▁see	-347
▁much	-348
ab	-349
iv	-350
▁sp	-351
▁spe	-352
▁way	-353
▁even	-354
▁really	-355
..	-356
ard	-357
ure	-358
▁gr	-359
per	-360
▁how	-361
▁man	-362
▁cont	-363
▁which	-364
ool	-365
▁make	-366
ff	-367
▁im	-368
▁wr	-369
self	-370
▁dis	-371
▁comm	-372
▁child	-373
de	-374
▁1	-375
reat	-376
▁most	-377
hy	-378
ue	-379
les	-380
▁We	-381
▁cl	-382
ount	-383
▁someone	-384
ry	-385
ine	-386
ite	-387
▁po	-388
▁been	-389
▁feel	-390
ep	-391
ved	-392
ious	-393
▁pre	-394
▁say	-395
age	-396
nder	-397
▁bot	-398
▁comp	-399
▁being	-400
ag	-401
▁qu	-402
▁her	-403
▁his	-404
▁ser	-405
▁soci	-406
▁again	-407
ass	-408
ose	-409
irst	-410
ways	-411
ire	-412
▁over	-413
▁work	-414
▁somet	-415
▁U	-416
har	-417
orm	-418
▁You	-419
▁always	-420
wn	-421
ever	-422
▁look	-423
iz	-424
ach	-425
▁wat	-426
ory	-427
ason	-428
▁res	-429
int	-430
ated	-431
less	-432
▁cri	-433
▁under	-434
ru	-435
▁G	-436
ear	-437
ful	-438
ree	-439
ousy	-440
chool	-441
thing	-442
1]	-443
ub	-444
▁pol	-445
ty	-446
ect	-447
ves	-448
▁br	-449
other	-450
▁cons	-451
▁happ	-452
▁lousy	-453
▁reason	-454
▁L	-455
ost	-456
▁So	-457
▁she	-458
2]	-459
▁D	-460
ens	-461
▁In	-462
ical	-463
ting	-464
▁dec	-465
▁its	-466
▁own	-467
▁This	-468
▁cour	-469
▁very	-470
▁never	-471
▁school	-472
ren	-473
oney	-474
▁money	-475
▁having	-476
ak	-477
als	-478
ish	-479
▁food	-480
▁going	-481
ade	-482
▁op	-483
▁dif	-484
▁use	-485
▁mean	-486
▁count	-487
▁world	-488
▁something	-489
oy	-490
su	-491
ia	-492
...	-493
con	-494
end	-495
ress	-496
▁att	-497
▁pay	-498
▁seem	-499
▁first	-500
▁place	-501
ail	-502
lic	-503
tle	-504
ult	-505
▁em	-506
vern	-507
▁mar	-508
▁back	-509
▁best	-510
▁part	-511
▁-	-512
ary	-513
gal	-514
orn	-515
ple	-516
vol	-517
ance	-518
rent	-519
▁rec	-520
▁stud	-521
▁year	-522
ations	-523
▁govern	-524
ber	-525
iew	-526
pect	-527
▁per	-528
▁They	-529
▁here	-530
▁take	-531
▁great	-532
5]	-533
ety	-534
ents	-535
fect	-536
▁def	-537
▁har	-538
▁why	-539
ition	-540
▁many	-541
▁where	-542
▁2	-543
kes	-544
ual	-545
▁af	-546
fore	-547
▁too	-548
▁into	-549
▁diffe	-550
▁personal	-551
ob	-552
ons	-553
▁But	-554
▁chan	-555
3]	-556
ian	-557
lig	-558
ates	-559
imes	-560
tain	-561
▁bas	-562
▁fri	-563
▁inc	-564
▁mur	-565
ually	-566
▁less	-567
▁wrong	-568
4]	-569
ra	-570
ign	-571
own	-572
▁ke	-573
▁app	-574
▁che	-575
▁case	-576
▁government	-577
og	-578
The	-579
min	-580
▁sa	-581
▁acc	-582
▁imp	-583
▁lit	-584
▁lot	-585
▁put	-586
▁able	-587
▁kill	-588
▁long	-589
▁such	-590
▁supp	-591
▁these	-592
__	-593
ft	-594
ody	-595
▁gu	-596
▁sy	-597
▁new	-598
▁well	-599
6]	-600
gu	-601
arn	-602
▁Al	-603
▁aw	-604
▁How	-605
▁won	-606
▁still	-607
▁others	-608
▁things	-609
▁underst	-610
▁anything	-611
8]	-612
uc	-613
hed	-614
ick	-615
blem	-616
▁big	-617
▁got	-618
▁pur	-619
▁sim	-620
▁find	-621
▁court	-622
▁another	-623
▁without	-624
▁yourself	-625
7]	-626
aff	-627
▁fo	-628
▁sm	-629
uman	-630
▁min	-631
▁made	-632
▁allow	-633
▁order	-634
▁quest	-635
▁water	-636
▁little	-637
▁wouldn	-638
▁problem	-639
be	-640
ict	-641
▁pos	-642
▁try	-643
apore	-644
▁Sing	-645
▁give	-646
▁same	-647
▁those	-648
▁while	-649
▁common	-650
▁Singapore	-651
hip	-652
led	-653
▁bu	-654
▁dr	-655
▁ob	-656
cept	-657
ible	-658
ince	-659
▁bad	-660
▁inf	-661
inion	-662
▁both	-663
▁rest	-664
▁There	-665
▁society	-666
9]	-667
ef	-668
ces	-669
ably	-670
▁des	-671
▁ext	-672
▁ide	-673
▁kid	-674
▁rel	-675
▁sit	-676
▁thr	-677
▁fact	-678
▁keep	-679
▁view	-680
▁after	-681
▁legal	-682
▁might	-683
▁opinion	-684
tc	-685
▁J	-686
ave	-687
ger	-688
ily	-689
ors	-690
▁bl	-691
▁sc	-692
stem	-693
▁etc	-694
arent	-695
ating	-696
ought	-697
▁inst	-698
▁used	-699
affles	-700
ertain	-701
ically	-702
▁doesn	-703
▁found	-704
▁relig	-705
▁system	-706
▁country	-707
▁different	-708
▁understand	-709
MV	-710
▁My	-711
alth	-712
arqu	-713
peri	-714
vers	-715
▁isn	-716
ution	-717
▁love	-718
▁real	-719
▁sure	-720
▁human	-721
▁makes	-722
▁rights	-723
av	-724
hes	-725
ial	-726
ense	-727
ular	-728
▁And	-729
▁mat	-730
ither	-731
ments	-732
▁come	-733
▁didn	-734
▁high	-735
▁requ	-736
▁learn	-737
▁point	-738
▁before	-739
▁friend	-740
▁However	-741
▁against	-742
).	-743
00	-744
vel	-745
ener	-746
▁bus	-747
▁ind	-748
ublic	-749
▁defin	-750
▁doing	-751
▁invol	-752
▁seems	-753
▁rather	-754
▁Raffles	-755
▁everyone	-756
ord	-757
urn	-758
▁No	-759
▁ev	-760
▁col	-761
▁each	-762
▁must	-763
▁Farqu	-764
▁speci	-765
▁around	-766
▁certain	-767
▁through	-768
sw	-769
ait	-770
any	-771
ath	-772
get	-773
rug	-774
ute	-775
▁co	-776
▁fu	-777
here	-778
▁add	-779
▁ter	-780
bably	-781
iness	-782
▁argu	-783
▁call	-784
▁char	-785
▁done	-786
▁self	-787
▁show	-788
▁tell	-789
though	-790
▁crime	-791
▁least	-792
▁experi	-793
▁police	-794
▁children	-795
cc	-796
ks	-797
▁3	-798
its	-799
nds	-800
sel	-801
▁US	-802
▁tw	-803
ouse	-804
▁cho	-805
▁eas	-806
▁end	-807
▁job	-808
conom	-809
iform	-810
otect	-811
▁answ	-812
▁inte	-813
▁kids	-814
uation	-815
▁enough	-816
▁murder	-817
▁nothing	-818
▁protect	-819
▁support	-820
If	-821
gr	-822
ss	-823
te	-824
▁'	-825
ced	-826
ise	-827
iss	-828
lse	-829
mer	-830
tty	-831
read	-832
vice	-833
▁cur	-834
▁fam	-835
▁fin	-836
▁now	-837
▁pri	-838
ample	-839
▁care	-840
▁down	-841
▁ever	-842
▁whole	-843
ucation	-844
▁happen	-845
▁parent	-846
▁thought	-847
▁Farquhar	-848
▁students	-849
▁experience	-850
!!	-851
ey	-852
ib	-853
oc	-854
ism	-855
▁He	-856
▁fl	-857
ings	-858
ploy	-859
tern	-860
▁For	-861
▁day	-862
▁rep	-863
▁set	-864
▁sub	-865
▁tri	-866
▁bott	-867
▁else	-868
▁hard	-869
▁laws	-870
▁since	-871
▁start	-872
▁become	-873
▁social	-874
▁uniform	-875
▁probably	-876
▁question	-877
ox	-878
ead	-879
ked	-880
▁ed	-881
ider	-882
▁ref	-883
▁str	-884
▁wom	-885
▁yes	-886
itely	-887
▁home	-888
▁idea	-889
▁span	-890
▁wait	-891
▁class	-892
▁state	-893
▁public	-894
▁example	-895
▁actually	-896
xt	-897
hen	-898
rit	-899
uck	-900
▁Ch	-901
▁gi	-902
▁ty	-903
ames	-904
ides	-905
ject	-906
ness	-907
ower	-908
▁CMV	-909
▁adv	-910
▁ent	-911
▁loc	-912
▁mor	-913
▁opt	-914
▁sal	-915
▁sex	-916
▁sur	-917
▁two	-918
ident	-919
lease	-920
▁away	-921
▁kind	-922
selves	-923
▁accept	-924
▁change	-925
▁crimin	-926
▁econom	-927
▁either	-928
▁health	-929
▁pretty	-930
▁business	-931
12]	-932
aw	-933
ne	-934
we	-935
▁5	-936
day	-937
gin	-938
ove	-939
▁Be	-940
▁di	-941
ater	-942
cess	-943
ross	-944
▁bur	-945
▁cle	-946
▁fun	-947
▁nat	-948
▁reg	-949
▁rem	-950
ility	-951
iting	-952
meric	-953
vious	-954
▁That	-955
▁disc	-956
▁prop	-957
▁sign	-958
▁exist	-959
▁marri	-960
▁times	-961
▁years	-962
▁employ	-963
▁expect	-964
▁likely	-965
▁though	-966
▁involved	-967
▁situation	-968
▁fatherless	-969
lt	-970
▁.	-971
air	-972
fic	-973
ich	-974
jor	-975
not	-976
use	-977
▁ch	-978
ball	-979
ices	-980
oint	-981
rest	-982
▁car	-983
▁cas	-984
▁cor	-985
▁ins	-986
▁let	-987
ities	-988
▁drug	-989
▁lead	-990
▁live	-991
▁resp	-992
▁said	-993
▁turn	-994
▁drink	-995
▁gener	-996
▁happy	-997
▁needs	-998
▁pursu	-999
▁stand	-1000
▁contin	-1001
▁family	-1002
▁getting	-1003
ationship	-1004
▁relationship	-1005
11]	-1006
ake	-1007
ics	-1008
ope	-1009
ten	-1010
▁To	-1011
▁ef	-1012
▁ho	-1013
▁ro	-1014
____	-1015
ages	-1016
cing	-1017
enef	-1018
ries	-1019
▁Ind	-1020
▁Yes	-1021
▁deb	-1022
▁dri	-1023
▁old	-1024
ction	-1025
velop	-1026
▁based	-1027
▁colle	-1028
▁death	-1029
▁means	-1030
▁small	-1031
▁Americ	-1032
▁anyone	-1033
▁effect	-1034
▁matter	-1035
▁consider	-1036
▁education	-1037
ms	-1038
ng	-1039
ese	-1040
mon	-1041
ont	-1042
ivid	-1043
land	-1044
mend	-1045
ning	-1046
olog	-1047
▁far	-1048
▁mal	-1049
▁pun	-1050
▁run	-1051
▁sha	-1052
▁ste	-1053
▁top	-1054
▁win	-1055
aught	-1056
orney	-1057
▁book	-1058
▁poss	-1059
▁agree	-1060
▁benef	-1061
▁major	-1062
▁answer	-1063
▁proper	-1064
▁saying	-1065
▁develop	-1066
▁instead	-1067
▁parents	-1068
▁definitely	-1069
▁themselves	-1070
du	-1071
ps	-1072
▁*	-1073
14]	-1074
16]	-1075
ans	-1076
ket	-1077
▁As	-1078
▁St	-1079
▁TV	-1080
body	-1081
ific	-1082
mber	-1083
utes	-1084
▁ass	-1085
▁bre	-1086
▁dep	-1087
▁equ	-1088
▁exp	-1089
▁fil	-1090
▁num	-1091
▁pat	-1092
▁tal	-1093
ately	-1094
cient	-1095
▁body	-1096
▁free	-1097
▁full	-1098
▁grow	-1099
▁lawy	-1100
▁pass	-1101
▁play	-1102
▁pres	-1103
▁prov	-1104
▁side	-1105
▁took	-1106
▁night	-1107
▁making	-1108
▁individ	-1109
▁argument	-1110
▁attorney	-1111
▁problems	-1112
),	-1113
cy	-1114
ds	-1115
up	-1116
15]	-1117
bor	-1118
for	-1119
fox	-1120
iol	-1121
ize	-1122
joy	-1123
lud	-1124
med	-1125
ork	-1126
ards	-1127
arly	-1128
band	-1129
rect	-1130
ures	-1131
vent	-1132
▁ask	-1133
▁cou	-1134
▁det	-1135
▁few	-1136
▁pot	-1137
▁war	-1138
ading	-1139
▁cust	-1140
▁last	-1141
▁open	-1142
irefox	-1143
ortion	-1144
▁cause	-1145
▁const	-1146
▁enjoy	-1147
▁games	-1148
▁local	-1149
▁moral	-1150
▁watch	-1151
▁commun	-1152
▁course	-1153
▁service	-1154
▁criminal	-1155
▁personally	-1156
It	-1157
az	-1158
▁4	-1159
▁K	-1160
aur	-1161
ici	-1162
ply	-1163
▁IE	-1164
▁Re	-1165
▁av	-1166
▁wi	-1167
cken	-1168
ided	-1169
ives	-1170
llow	-1171
most	-1172
peci	-1173
side	-1174
ware	-1175
ying	-1176
▁She	-1177
▁abs	-1178
▁cre	-1179
▁est	-1180
▁hus	-1181
▁med	-1182
▁mon	-1183
▁mov	-1184
▁pop	-1185
▁tax	-1186
▁uni	-1187
astic	-1188
dered	-1189
ently	-1190
ively	-1191
▁When	-1192
▁depe	-1193
▁game	-1194
▁hear	-1195
▁left	-1196
▁stop	-1197
▁teac	-1198
▁went	-1199
aurant	-1200
gether	-1201
▁bring	-1202
▁comes	-1203
▁decis	-1204
▁sport	-1205
▁super	-1206
▁choice	-1207
▁follow	-1208
▁inform	-1209
▁simply	-1210
▁pursuit	-1211
▁respons	-1212
▁Although	-1213
▁religion	-1214
▁together	-1215
▁everything	-1216
17]	-1217
19]	-1218
gg	-1219
gn	-1220
ix	-1221
13]	-1222
18]	-1223
You	-1224
ari	-1225
icy	-1226
ier	-1227
lle	-1228
rib	-1229
ris	-1230
ted	-1231
the	-1232
▁Un	-1233
arch	-1234
fort	-1235
ited	-1236
reme	-1237
unch	-1238
ural	-1239
▁eat	-1240
▁gun	-1241
▁sol	-1242
▁val	-1243
ering	-1244
onest	-1245
pping	-1246
where	-1247
▁Also	-1248
▁Well	-1249
▁bill	-1250
▁conv	-1251
▁dire	-1252
▁dont	-1253
▁expl	-1254
▁fast	-1255
▁guil	-1256
▁hold	-1257
▁move	-1258
▁next	-1259
▁true	-1260
▁viol	-1261
ancing	-1262
▁First	-1263
▁given	-1264
▁maybe	-1265
▁offic	-1266
▁polit	-1267
▁price	-1268
▁using	-1269
▁woman	-1270
▁cannot	-1271
▁coming	-1272
▁comple	-1273
▁debate	-1274
▁includ	-1275
▁itself	-1276
▁killed	-1277
▁longer	-1278
▁market	-1279
▁strong	-1280
▁trying	-1281
▁bottles	-1282
▁chicken	-1283
▁college	-1284
▁correct	-1285
▁friends	-1286
▁husband	-1287
▁looking	-1288
▁perfect	-1289
▁schools	-1290
▁interest	-1291
▁countries	-1292
▁restaurant	-1293
co	-1294
cu	-1295
▁,	-1296
▁V	-1297
ars	-1298
erv	-1299
ili	-1300
ina	-1301
ner	-1302
oot	-1303
oup	-1304
uly	-1305
urt	-1306
uss	-1307
▁10	-1308
▁An	-1309
▁ce	-1310
▁sl	-1311
ased	-1312
cond	-1313
empt	-1314
ists	-1315
ital	-1316
▁aut	-1317
▁bit	-1318
▁fig	-1319
▁guy	-1320
▁inn	-1321
▁lar	-1322
▁leg	-1323
▁lic	-1324
▁mus	-1325
▁non	-1326
▁tea	-1327
ished	-1328
ready	-1329
▁Many	-1330
▁Most	-1331
▁With	-1332
▁came	-1333
▁cost	-1334
▁cult	-1335
▁deal	-1336
▁hand	-1337
▁hour	-1338
▁ille	-1339
▁issu	-1340
▁land	-1341
▁main	-1342
▁pain	-1343
▁says	-1344
▁type	-1345
▁vide	-1346
▁wear	-1347
idence	-1348
ortant	-1349
▁India	-1350
▁adult	-1351
▁brain	-1352
▁cases	-1353
▁compl	-1354
▁fight	-1355
▁inter	-1356
▁leave	-1357
▁prove	-1358
▁sound	-1359
▁speak	-1360
▁three	-1361
ational	-1362
▁charge	-1363
▁design	-1364
▁myself	-1365
▁office	-1366
▁taking	-1367
▁allowed	-1368
▁contact	-1369
▁economy	-1370
▁minutes	-1371
▁serious	-1372
▁shouldn	-1373
▁student	-1374
▁important	-1375
▁sometimes	-1376
",	-1377
".	-1378
ec	-1379
lu	-1380
sk	-1381
ams	-1382
fer	-1383
ged	-1384
hic	-1385
hil	-1386
hys	-1387
ify	-1388
ile	-1389
mit	-1390
osp	-1391
sue	-1392
uge	-1393
▁sk	-1394
ared	-1395
avor	-1396
hile	-1397
ines	-1398
ivil	-1399
like	-1400
ring	-1401
▁cap	-1402
▁ele	-1403
▁jud	-1404
▁vis	-1405
ional	-1406
nding	-1407
olute	-1408
▁Just	-1409
▁Will	-1410
▁anim	-1411
▁clot	-1412
▁conc	-1413
▁gave	-1414
▁gets	-1415
▁harm	-1416
▁ment	-1417
▁name	-1418
▁poor	-1419
▁seen	-1420
▁sing	-1421
▁tast	-1422
▁Every	-1423
▁break	-1424
▁equal	-1425
▁heart	-1426
▁produ	-1427
▁requi	-1428
▁truly	-1429
ression	-1430
▁People	-1431
▁almost	-1432
▁figure	-1433
▁number	-1434
▁punish	-1435
▁spouse	-1436
▁theory	-1437
▁unless	-1438
▁already	-1439
▁company	-1440
▁illegal	-1441
▁married	-1442
▁require	-1443
▁respect	-1444
▁working	-1445
▁differen	-1446
▁specific	-1447
▁certainly	-1448
▁individual	-1449
bs	-1450
ls	-1451
ts	-1452
acc	-1453
acy	-1454
ark	-1455
dit	-1456
hol	-1457
iam	-1458
ied	-1459
ild	-1460
ric	-1461
ses	-1462
son	-1463
wit	-1464
▁19	-1465
▁Is	-1466
▁PE	-1467
aces	-1468
andw	-1469
ians	-1470
ield	-1471
ilar	-1472
rist	-1473
view	-1474
▁Can	-1475
▁Not	-1476
▁buy	-1477
▁die	-1478
▁din	-1479
▁exc	-1480
▁inv	-1481
▁low	-1482
▁red	-1483
▁unt	-1484
▁wal	-1485
fully	-1486
rible	-1487
story	-1488
▁Some	-1489
▁What	-1490
▁aren	-1491
▁conf	-1492
▁deli	-1493
▁grad	-1494
▁line	-1495
▁once	-1496
▁plan	-1497
▁step	-1498
▁wife	-1499
ftware	-1500
▁creat	-1501
▁final	-1502
▁knows	-1503
▁progr	-1504
▁recom	-1505
▁sandw	-1506
▁spend	-1507
▁story	-1508
▁trust	-1509
▁worth	-1510
▁custom	-1511
▁living	-1512
▁states	-1513
▁wanted	-1514
▁William	-1515
▁employe	-1516
▁healthy	-1517
▁knowing	-1518
▁outside	-1519
▁reasons	-1520
▁subject	-1521
▁evidence	-1522
▁position	-1523
▁thinking	-1524
▁whatever	-1525
▁community	-1526
▁questions	-1527
▁responsible	-1528
20	-1529
In	-1530
OT	-1531
ju	-1532
vy	-1533
zy	-1534
!!!	-1535
000	-1536
aid	-1537
com	-1538
cri	-1539
cum	-1540
ges	-1541
gle	-1542
ime	-1543
ken	-1544
man	-1545
oid	-1546
omp	-1547
oof	-1548
ows	-1549
rat	-1550
ths	-1551
ube	-1552
ues	-1553
▁Ob	-1554
▁Pl	-1555
▁ra	-1556
▁ve	-1557
fend	-1558
itiz	-1559
ized	-1560
ling	-1561
llig	-1562
oose	-1563
osed	-1564
sequ	-1565
▁All	-1566
▁Ire	-1567
▁aff	-1568
▁art	-1569
▁bel	-1570
▁cra	-1571
▁div	-1572
▁dog	-1573
▁due	-1574
▁eff	-1575
▁fit	-1576
▁fre	-1577
▁mil	-1578
▁occ	-1579
▁opp	-1580
▁ori	-1581
▁sat	-1582
anies	-1583
anted	-1584
ative	-1585
atory	-1586
ouble	-1587
uring	-1588
▁comb	-1589
▁evol	-1590
▁film	-1591
▁foot	-1592
▁fore	-1593
▁form	-1594
▁huge	-1595
▁jail	-1596
▁lack	-1597
▁lose	-1598
▁mind	-1599
▁mist	-1600
▁nice	-1601
▁past	-1602
▁phil	-1603
▁phys	-1604
▁read	-1605
▁rich	-1606
▁risk	-1607
▁sell	-1608
▁sent	-1609
▁stay	-1610
ential	-1611
member	-1612
ternet	-1613
▁Somet	-1614
▁books	-1615
▁cheap	-1616
▁early	-1617
▁helps	-1618
▁innoc	-1619
▁issue	-1620
▁judge	-1621
▁large	-1622
▁lives	-1623
▁movie	-1624
▁music	-1625
▁often	-1626
▁power	-1627
▁proof	-1628
▁until	-1629
▁worse	-1630
ibility	-1631
itution	-1632
licious	-1633
olutely	-1634
▁across	-1635
▁action	-1636
▁called	-1637
▁chance	-1638
▁cheese	-1639
▁compet	-1640
▁direct	-1641
▁disapp	-1642
▁easily	-1643
▁guilty	-1644
▁honest	-1645
▁issues	-1646
▁lawyer	-1647
▁nature	-1648
▁origin	-1649
▁please	-1650
▁result	-1651
▁review	-1652
▁wonder	-1653
▁Ireland	-1654
▁animals	-1655
▁decided	-1656
▁extreme	-1657
▁helping	-1658
▁however	-1659
▁plastic	-1660
▁process	-1661
▁similar	-1662
▁special	-1663
▁univers	-1664
▁writing	-1665
▁abortion	-1666
▁accident	-1667
▁complete	-1668
▁continue	-1669
▁expected	-1670
▁friendly	-1671
▁sandwich	-1672
▁political	-1673
▁recommend	-1674
▁therefore	-1675
--	-1676
He	-1677
So	-1678
10]	-1679
But	-1680
aim	-1681
ana	-1682
cus	-1683
ech	-1684
gan	-1685
igh	-1686
lls	-1687
mes	-1688
ogn	-1689
oke	-1690
ony	-1691
oth	-1692
oub	-1693
que	-1694
rom	-1695
rop	-1696
umb	-1697
▁--	-1698
▁Cl	-1699
▁Li	-1700
▁Ne	-1701
▁pe	-1702
This	-1703
ault	-1704
ched	-1705
ency	-1706
form	-1707
ient	-1708
imum	-1709
lish	-1710
ruct	-1711
▁bar	-1712
▁boo	-1713
▁cir	-1714
▁cop	-1715
▁enc	-1716
▁eng	-1717
▁gre	-1718
▁hot	-1719
▁men	-1720
▁met	-1721
▁tac	-1722
▁tow	-1723
▁typ	-1724
▁wee	-1725
▁yet	-1726
aking	-1727
ances	-1728
itary	-1729
ology	-1730
right	-1731
▁Even	-1732
▁Your	-1733
▁area	-1734
▁beha	-1735
▁city	-1736
▁dead	-1737
▁dist	-1738
▁emot	-1739
▁fail	-1740
▁fant	-1741
▁hope	-1742
▁host	-1743
▁hurt	-1744
▁male	-1745
▁mass	-1746
▁mill	-1747
▁miss	-1748
▁news	-1749
▁post	-1750
▁prof	-1751
▁purp	-1752
▁qual	-1753
▁rent	-1754
▁rese	-1755
▁rout	-1756
▁serv	-1757
▁sour	-1758
▁stat	-1759
▁trad	-1760
▁wasn	-1761
cience	-1762
▁Canad	-1763
▁China	-1764
▁appro	-1765
▁begin	-1766
▁citiz	-1767
▁clear	-1768
▁close	-1769
▁cross	-1770
▁exact	-1771
▁focus	-1772
▁fries	-1773
▁group	-1774
▁house	-1775
▁keeps	-1776
▁labor	-1777
▁later	-1778
▁level	-1779
▁media	-1780
▁shows	-1781
▁teach	-1782
▁thats	-1783
▁women	-1784
▁works	-1785
▁write	-1786
cessary	-1787
itional	-1788
▁Christ	-1789
▁attent	-1790
▁burger	-1791
▁choose	-1792
▁circum	-1793
▁contro	-1794
▁invest	-1795
▁option	-1796
▁policy	-1797
▁record	-1798
▁scient	-1799
▁second	-1800
▁simple	-1801
▁single	-1802
▁taught	-1803
pecially	-1804
▁America	-1805
▁actions	-1806
▁capital	-1807
▁classes	-1808
▁consequ	-1809
▁current	-1810
▁history	-1811
▁learned	-1812
▁meaning	-1813
▁obvious	-1814
▁regular	-1815
▁talking	-1816
▁teacher	-1817
▁marriage	-1818
▁recently	-1819
▁somebody	-1820
▁advancing	-1821
▁arguments	-1822
▁companies	-1823
▁delicious	-1824
▁extremely	-1825
▁religious	-1826
▁completely	-1827
▁disappoint	-1828
▁punishment	-1829
ER	-1830
vi	-1831
▁7	-1832
amp	-1833
ank	-1834
cks	-1835
ets	-1836
hib	-1837
hie	-1838
hor	-1839
ird	-1840
irm	-1841
ode	-1842
pis	-1843
rap	-1844
sec	-1845
ush	-1846
way	-1847
▁30	-1848
▁ID	-1849
▁On	-1850
▁Sp	-1851
▁Th	-1852
▁id	-1853
▁wh	-1854
atic	-1855
cial	-1856
enal	-1857
fact	-1858
gers	-1859
gest	-1860
ging	-1861
miss	-1862
more	-1863
mosp	-1864
nect	-1865
oved	-1866
ract	-1867
rate	-1868
rive	-1869
room	-1870
▁Don	-1871
▁age	-1872
▁cal	-1873
▁cha	-1874
▁dan	-1875
▁dem	-1876
▁fat	-1877
▁ful	-1878
▁gir	-1879
▁mom	-1880
▁ple	-1881
▁rac	-1882
▁ret	-1883
▁rid	-1884
▁tip	-1885
There	-1886
illed	-1887
ledge	-1888
ooked	-1889
riend	-1890
rimin	-1891
witch	-1892
▁Than	-1893
▁alco	-1894
▁days	-1895
▁dish	-1896
▁docu	-1897
▁easy	-1898
▁fine	-1899
▁imag	-1900
▁list	-1901
▁paid	-1902
▁porn	-1903
▁rece	-1904
▁scen	-1905
▁seek	-1906
▁suff	-1907
▁surv	-1908
▁team	-1909
▁tech	-1910
▁tend	-1911
▁test	-1912
▁wage	-1913
▁ways	-1914
▁word	-1915
icular	-1916
urance	-1917
urther	-1918
verage	-1919
▁above	-1920
▁accom	-1921
▁admit	-1922
▁avail	-1923
▁boost	-1924
▁brows	-1925
▁build	-1926
▁civil	-1927
▁crazy	-1928
▁front	-1929
▁impro	-1930
▁incre	-1931
▁lunch	-1932
▁minor	-1933
▁quick	-1934
▁quite	-1935
▁sense	-1936
▁shoot	-1937
▁table	-1938
▁takes	-1939
▁topic	-1940
▁train	-1941
▁tried	-1942
▁video	-1943
stances	-1944
▁Please	-1945
▁actual	-1946
▁affect	-1947
▁amount	-1948
▁atmosp	-1949
▁belief	-1950
▁couldn	-1951
▁danger	-1952
▁defend	-1953
▁during	-1954
▁easier	-1955
▁entire	-1956
▁extens	-1957
▁indust	-1958
▁months	-1959
▁mother	-1960
▁places	-1961
▁prohib	-1962
▁sexual	-1963
▁sports	-1964
▁within	-1965
mendment	-1966
▁Firefox	-1967
▁Without	-1968
▁address	-1969
▁attempt	-1970
▁bottled	-1971
▁clothes	-1972
▁contain	-1973
▁convict	-1974
▁defense	-1975
▁drivers	-1976
▁founder	-1977
▁general	-1978
▁happens	-1979
▁natural	-1980
▁popular	-1981
▁product	-1982
▁reality	-1983
▁spanked	-1984
▁trouble	-1985
▁whether	-1986
▁willing	-1987
▁American	-1988
▁although	-1989
▁decision	-1990
▁football	-1991
▁function	-1992
▁innocent	-1993
▁intellig	-1994
▁military	-1995
▁property	-1996
▁services	-1997
▁software	-1998
▁spanking	-1999
▁teachers	-2000
▁uniforms	-2001
▁watching	-2002
▁employees	-2003
▁happening	-2004
▁absolutely	-2005
▁atmosphere	-2006
▁difference	-2007
▁particular	-2008
▁scientific	-2009
▁information	-2010
.*	-2011
.5	-2012
OO	-2013
go	-2014
ny	-2015
to	-2016
▁6	-2017
▁9	-2018
asy	-2019
aut	-2020
cha	-2021
duc	-2022
ffe	-2023
gue	-2024
idd	-2025
iju	-2026
lev	-2027
ned	-2028
new	-2029
ott	-2030
ran	-2031
rer	-2032
row	-2033
▁Af	-2034
▁Ex	-2035
▁FF	-2036
▁Of	-2037
▁UK	-2038
▁es	-2039
▁ge	-2040
▁gl	-2041
▁ok	-2042
▁ru	-2043
....	-2044
arth	-2045
cipl	-2046
cise	-2047
edom	-2048
eral	-2049
haps	-2050
hood	-2051
icul	-2052
ined	-2053
line	-2054
medi	-2055
nter	-2056
ones	-2057
orce	-2058
osop	-2059
oubt	-2060
over	-2061
rant	-2062
real	-2063
ream	-2064
rely	-2065
rito	-2066
rupt	-2067
uted	-2068
uter	-2069
work	-2070
▁Eng	-2071
▁God	-2072
▁Mac	-2073
▁NOT	-2074
▁Our	-2075
▁USA	-2076
▁dad	-2077
▁dam	-2078
▁dut	-2079
▁ign	-2080
▁log	-2081
▁mag	-2082
▁par	-2083
▁sle	-2084
▁sto	-2085
▁thi	-2086
accin	-2087
cribe	-2088
ially	-2089
icide	-2090
ivity	-2091
urons	-2092
▁Yout	-2093
▁cant	-2094
▁deep	-2095
▁epis	-2096
▁exer	-2097
▁face	-2098
▁fair	-2099
▁felt	-2100
▁goes	-2101
▁held	-2102
▁jobs	-2103
▁mand	-2104
▁nood	-2105
▁norm	-2106
▁prep	-2107
▁priv	-2108
▁safe	-2109
▁sort	-2110
▁surp	-2111
▁thus	-2112
▁town	-2113
▁wish	-2114
▁writ	-2115
atives	-2116
ijuana	-2117
onment	-2118
ration	-2119
▁Gener	-2120
▁Other	-2121
▁Since	-2122
▁These	-2123
▁abuse	-2124
▁alone	-2125
▁along	-2126
▁argue	-2127
▁becom	-2128
▁black	-2129
▁carry	-2130
▁clean	-2131
▁doubt	-2132
▁estab	-2133
▁field	-2134
▁influ	-2135
▁loved	-2136
▁lower	-2137
▁metho	-2138
▁neigh	-2139
▁offer	-2140
▁refer	-2141
▁salad	-2142
▁sever	-2143
▁share	-2144
▁smart	-2145
▁steak	-2146
▁taken	-2147
▁techn	-2148
▁trans	-2149
▁treat	-2150
▁weird	-2151
iculous	-2152
▁asking	-2153
▁belong	-2154
▁caught	-2155
▁commit	-2156
▁consum	-2157
▁courts	-2158
▁create	-2159
▁crimes	-2160
▁detail	-2161
▁dinner	-2162
▁events	-2163
▁faster	-2164
▁giving	-2165
▁immedi	-2166
▁member	-2167
▁notice	-2168
▁object	-2169
▁prefer	-2170
▁prison	-2171
▁regard	-2172
▁resour	-2173
▁series	-2174
▁speech	-2175
▁vaccin	-2176
________	-2177
▁alcohol	-2178
▁benefit	-2179
▁burrito	-2180
▁connect	-2181
▁continu	-2182
▁depends	-2183
▁firefox	-2184
▁freedom	-2185
▁imagine	-2186
▁killing	-2187
▁lawyers	-2188
▁license	-2189
▁million	-2190
▁missing	-2191
▁persons	-2192
▁playing	-2193
▁present	-2194
▁purpose	-2195
▁quality	-2196
▁realize	-2197
▁survive	-2198
▁usually	-2199
▁Canadian	-2200
▁citizens	-2201
▁complain	-2202
▁drinking	-2203
▁exercise	-2204
▁internet	-2205
▁majority	-2206
▁murdered	-2207
▁philosop	-2208
▁remember	-2209
▁requires	-2210
▁terrible	-2211
▁Sometimes	-2212
▁available	-2213
▁decisions	-2214
▁knowledge	-2215
▁marijuana	-2216
▁potential	-2217
▁religions	-2218
▁ridiculous	-2219
▁immediately	-2220
▁circumstances	-2221
."	-2222
.2	-2223
1.	-2224
Al	-2225
ED	-2226
IT	-2227
MA	-2228
My	-2229
cl	-2230
dd	-2231
io	-2232
ip	-2233
no	-2234
tt	-2235
za	-2236
▁8	-2237
CMV	-2238
How	-2239
ato	-2240
aus	-2241
cul	-2242
dem	-2243
erm	-2244
ilt	-2245
iod	-2246
ote	-2247
oud	-2248
ral	-2249
ror	-2250
ury	-2251
vir	-2252
zon	-2253
▁12	-2254
▁50	-2255
▁DA	-2256
▁Ed	-2257
▁ap	-2258
▁hy	-2259
Edit	-2260
abet	-2261
airs	-2262
ario	-2263
asia	-2264
atch	-2265
ceed	-2266
cket	-2267
ders	-2268
etus	-2269
hich	-2270
hone	-2271
ibly	-2272
ouch	-2273
pera	-2274
pped	-2275
resh	-2276
rict	-2277
sing	-2278
sume	-2279
ters	-2280
that	-2281
▁Let	-2282
▁Man	-2283
▁Now	-2284
▁One	-2285
▁Pro	-2286
▁Rep	-2287
▁Who	-2288
▁Why	-2289
▁dat	-2290
▁dom	-2291
▁fac	-2292
▁gas	-2293
▁hat	-2294
▁hit	-2295
▁hor	-2296
▁ill	-2297
▁lat	-2298
▁lea	-2299
▁mem	-2300
▁mis	-2301
▁mod	-2302
▁neg	-2303
▁pap	-2304
▁piz	-2305
▁sec	-2306
▁sus	-2307
▁ten	-2308
▁tot	-2309
▁unc	-2310
▁wit	-2311
aches	-2312
acter	-2313
aging	-2314
andid	-2315
antly	-2316
apped	-2317
arely	-2318
ature	-2319
azing	-2320
derer	-2321
ences	-2322
ening	-2323
ictim	-2324
ingly	-2325
light	-2326
ories	-2327
ribut	-2328
urity	-2329
uthan	-2330
verse	-2331
▁Both	-2332
▁Then	-2333
▁appe	-2334
▁card	-2335
▁dest	-2336
▁fall	-2337
▁flaw	-2338
▁fund	-2339
▁gain	-2340
▁gone	-2341
▁half	-2342
▁hire	-2343
▁inde	-2344
▁jack	-2345
▁knew	-2346
▁lost	-2347
▁luck	-2348
▁mach	-2349
▁meal	-2350
▁ones	-2351
▁port	-2352
▁prom	-2353
▁sale	-2354
▁seat	-2355
▁seve	-2356
▁slow	-2357
▁talk	-2358
▁tick	-2359
▁user	-2360
▁wont	-2361
arents	-2362
ensive	-2363
idered	-2364
ording	-2365
ottled	-2366
resent	-2367
ternal	-2368
▁After	-2369
▁Being	-2370
▁While	-2371
▁Would	-2372
▁achie	-2373
▁among	-2374
▁asked	-2375
▁basis	-2376
▁bread	-2377
▁built	-2378
▁claim	-2379
▁envir	-2380
▁extra	-2381
▁fresh	-2382
▁guess	-2383
▁heard	-2384
▁ident	-2385
▁liber	-2386
▁light	-2387
▁looks	-2388
▁posit	-2389
▁raise	-2390
▁reven	-2391
▁scene	-2392
▁serve	-2393
▁spank	-2394
▁strug	-2395
▁stuck	-2396
▁trade	-2397
▁value	-2398
▁wages	-2399
▁worry	-2400
agement	-2401
ionally	-2402
ization	-2403
tlement	-2404
▁Scient	-2405
▁access	-2406
▁advant	-2407
▁allows	-2408
▁aspect	-2409
▁author	-2410
▁behavi	-2411
▁couple	-2412
▁diabet	-2413
▁diffic	-2414
▁drinks	-2415
▁effort	-2416
▁episod	-2417
▁forced	-2418
▁forget	-2419
▁intent	-2420
▁mistak	-2421
▁nation	-2422
▁normal	-2423
▁paying	-2424
▁period	-2425
▁prices	-2426
▁prosec	-2427
▁racist	-2428
▁served	-2429
▁tenant	-2430
▁unlike	-2431
entially	-2432
fortable	-2433
▁Youtube	-2434
▁amazing	-2435
▁answers	-2436
▁complic	-2437
▁content	-2438
▁culture	-2439
▁discipl	-2440
▁discuss	-2441
▁divorce	-2442
▁fantasy	-2443
▁feeling	-2444
▁growing	-2445
▁helpful	-2446
▁justice	-2447
▁methods	-2448
▁neurons	-2449
▁noodles	-2450
▁officer	-2451
▁ordered	-2452
▁prevent	-2453
▁putting	-2454
▁receive	-2455
▁request	-2456
▁selfish	-2457
▁several	-2458
▁started	-2459
▁towards	-2460
▁watched	-2461
▁witness	-2462
uthanasia	-2463
▁approach	-2464
▁customer	-2465
▁describe	-2466
▁economic	-2467
▁exciting	-2468
▁greatest	-2469
▁instance	-2470
▁learning	-2471
▁murderer	-2472
▁national	-2473
▁physical	-2474
▁possible	-2475
▁previous	-2476
▁programs	-2477
▁properly	-2478
▁provides	-2479
▁research	-2480
▁restrict	-2481
▁standard	-2482
▁Christian	-2483
▁Education	-2484
▁basically	-2485
▁criminals	-2486
▁employers	-2487
▁influence	-2488
▁insurance	-2489
▁mandatory	-2490
▁necessary	-2491
▁represent	-2492
▁somewhere	-2493
▁suffering	-2494
▁acceptable	-2495
▁considered	-2496
▁reasonable	-2497
▁settlement	-2498
▁understood	-2499
▁development	-2500
▁differently	-2501
▁intelligence	-2502
.3	-2503
CE	-2504
EN	-2505
IA	-2506
ex	-2507
hn	-2508
ma	-2509
mp	-2510
pi	-2511
ys	-2512
ze	-2513
Don	-2514
For	-2515
Yes	-2516
ale	-2517
ash	-2518
erg	-2519
gor	-2520
how	-2521
ien	-2522
ium	-2523
ker	-2524
law	-2525
leb	-2526
let	-2527
ley	-2528
obb	-2529
ock	-2530
ond	-2531
oss	-2532
por	-2533
pre	-2534
put	-2535
tar	-2536
ton	-2537
ude	-2538
ump	-2539
ung	-2540
unk	-2541
yes	-2542
▁**	-2543
▁1/	-2544
▁20	-2545
▁AI	-2546
▁At	-2547
▁Or	-2548
▁cr	-2549
▁ir	-2550
▁ju	-2551
▁pu	-2552
▁sw	-2553
▁ur	-2554
acks	-2555
aged	-2556
ants	-2557
augh	-2558
bers	-2559
book	-2560
ccer	-2561
cell	-2562
dern	-2563
duce	-2564
enty	-2565
ered	-2566
gree	-2567
hose	-2568
irth	-2569
itle	-2570
ixed	-2571
know	-2572
lect	-2573
lled	-2574
mony	-2575
oard	-2576
olit	-2577
ongs	-2578
ooks	-2579
osex	-2580
rain	-2581
redi	-2582
soci	-2583
ster	-2584
upid	-2585
used	-2586
ward	-2587
ween	-2588
wise	-2589
zona	-2590
▁...	-2591
▁200	-2592
▁Act	-2593
▁App	-2594
▁Che	-2595
▁Com	-2596
▁Eur	-2597
▁Fri	-2598
▁Ham	-2599
▁Its	-2600
▁Nor	-2601
▁bab	-2602
▁bro	-2603
▁bul	-2604
▁cli	-2605
▁cut	-2606
▁ess	-2607
▁fem	-2608
▁fut	-2609
▁gen	-2610
▁gri	-2611
▁hig	-2612
▁hom	-2613
▁imm	-2614
▁ing	-2615
▁lim	-2616
▁lob	-2617
▁mot	-2618
▁obs	-2619
▁oil	-2620
▁sac	-2621
▁saf	-2622
▁sau	-2623
▁smo	-2624
▁son	-2625
▁tab	-2626
▁tem	-2627
▁unf	-2628
▁var	-2629
▁yog	-2630
alist	-2631
alled	-2632
asing	-2633
ccess	-2634
enses	-2635
force	-2636
hange	-2637
hical	-2638
iddle	-2639
ience	-2640
ified	-2641
lling	-2642
ortun	-2643
oting	-2644
ounds	-2645
owing	-2646
riate	-2647
ufact	-2648
which	-2649
▁Beef	-2650
▁Brit	-2651
▁Comp	-2652
▁Food	-2653
▁Good	-2654
▁Plus	-2655
▁alot	-2656
▁band	-2657
▁base	-2658
▁born	-2659
▁busy	-2660
▁cold	-2661
▁cool	-2662
▁corn	-2663
▁crit	-2664
▁date	-2665
▁dram	-2666
▁exec	-2667
▁fill	-2668
▁firm	-2669
▁glob	-2670
▁hate	-2671
▁kept	-2672
▁load	-2673
▁lots	-2674
▁mess	-2675
▁mine	-2676
▁none	-2677
▁pers	-2678
▁pick	-2679
▁pool	-2680
▁rate	-2681
▁rely	-2682
▁role	-2683
▁sick	-2684
▁sole	-2685
▁star	-2686
▁taco	-2687
▁told	-2688
▁vari	-2689
▁walk	-2690
▁warm	-2691
action	-2692
alance	-2693
ancial	-2694
ederal	-2695
enalty	-2696
esides	-2697
fortun	-2698
hesive	-2699
ishing	-2700
orship	-2701
overed	-2702
pecial	-2703
ressed	-2704
rizona	-2705
▁Count	-2706
▁Mario	-2707
▁Opera	-2708
▁advis	-2709
▁apply	-2710
▁assum	-2711
▁basic	-2712
▁beaut	-2713
▁bland	-2714
▁bookm	-2715
▁cards	-2716
▁celeb	-2717
▁chain	-2718
▁check	-2719
▁chose	-2720
▁cream	-2721
▁curvy	-2722
▁drugs	-2723
▁earth	-2724
▁elect	-2725
▁gives	-2726
▁grand	-2727
▁hours	-2728
▁lawsu	-2729
▁model	-2730
▁names	-2731
▁organ	-2732
▁owner	-2733
▁paper	-2734
▁party	-2735
▁patio	-2736
▁pizza	-2737
▁polic	-2738
▁pract	-2739
▁pregn	-2740
▁prost	-2741
▁satis	-2742
▁sides	-2743
▁sleep	-2744
▁space	-2745
▁stars	-2746
▁stick	-2747
▁taxes	-2748
▁title	-2749
▁today	-2750
▁touch	-2751
▁views	-2752
▁young	-2753
However	-2754
ability	-2755
artment	-2756
cellent	-2757
osexual	-2758
venient	-2759
viously	-2760
▁Europe	-2761
▁Friday	-2762
▁assume	-2763
▁candid	-2764
▁career	-2765
▁concer	-2766
▁cooked	-2767
▁degree	-2768
▁demand	-2769
▁device	-2770
▁estate	-2771
▁exists	-2772
▁extent	-2773
▁flavor	-2774
▁gender	-2775
▁grades	-2776
▁helped	-2777
▁incred	-2778
▁liable	-2779
▁listen	-2780
▁looked	-2781
▁middle	-2782
▁modern	-2783
▁movies	-2784
▁plenty	-2785
▁pocket	-2786
▁produc	-2787
▁purcha	-2788
▁recogn	-2789
▁reduce	-2790
▁remove	-2791
▁return	-2792
▁search	-2793
▁senten	-2794
▁status	-2795
▁stupid	-2796
▁terror	-2797
▁ticket	-2798
▁useful	-2799
▁victim	-2800
▁videos	-2801
▁waiter	-2802
redients	-2803
ropriate	-2804
volution	-2805
▁English	-2806
▁Parents	-2807
▁achieve	-2808
▁becomes	-2809
▁beliefs	-2810
▁between	-2811
▁biggest	-2812
▁brought	-2813
▁driving	-2814
▁exactly	-2815
▁explain	-2816
▁foreign	-2817
▁granted	-2818
▁greatly	-2819
▁include	-2820
▁legally	-2821
▁letting	-2822
▁minimum	-2823
▁options	-2824
▁passing	-2825
▁penalty	-2826
▁portion	-2827
▁profess	-2828
▁program	-2829
▁quickly	-2830
▁reading	-2831
▁records	-2832
▁removed	-2833
▁reviews	-2834
▁running	-2835
▁science	-2836
▁suicide	-2837
▁surpris	-2838
▁systems	-2839
▁telling	-2840
▁trading	-2841
▁turning	-2842
▁various	-2843
▁warrant	-2844
▁wearing	-2845
ervatives	-2846
▁Republic	-2847
▁behavior	-2848
▁benefits	-2849
▁cohesive	-2850
▁controll	-2851
▁delivery	-2852
▁directly	-2853
▁document	-2854
▁episodes	-2855
▁founding	-2856
▁happened	-2857
▁manufact	-2858
▁mistakes	-2859
▁morality	-2860
▁neighbor	-2861
▁officers	-2862
▁opportun	-2863
▁original	-2864
▁required	-2865
▁severely	-2866
▁socially	-2867
▁stopping	-2868
▁supposed	-2869
▁thoughts	-2870
▁Obviously	-2871
▁amendment	-2872
▁authority	-2873
▁character	-2874
▁construct	-2875
▁container	-2876
▁correctly	-2877
▁dangerous	-2878
▁depending	-2879
▁difficult	-2880
▁effective	-2881
▁evolution	-2882
▁excellent	-2883
▁financial	-2884
▁generally	-2885
▁including	-2886
▁interests	-2887
▁objective	-2888
▁president	-2889
▁resources	-2890
▁socialism	-2891
▁typically	-2892
▁wonderful	-2893
▁convenient	-2894
▁definition	-2895
▁developing	-2896
▁discipline	-2897
▁especially	-2898
▁generation	-2899
▁graduation	-2900
▁consequence	-2901
▁effectively	-2902
▁environment	-2903
▁interesting	-2904
▁traditional	-2905
▁disappointed	-2906
▁relationships	-2907
**	-2908
.)	-2909
.-	-2910
.0	-2911
//	-2912
47	-2913
AS	-2914
As	-2915
GH	-2916
LE	-2917
RA	-2918
To	-2919
UT	-2920
We	-2921
af	-2922
ea	-2923
gs	-2924
hr	-2925
lo	-2926
mb	-2927
ni	-2928
oT	-2929
ww	-2930
▁:	-2931
-20	-2932
.00	-2933
://	-2934
:1.	-2935
And	-2936
GHT	-2937
add	-2938
aes	-2939
ald	-2940
arr	-2941
but	-2942
car	-2943
chi	-2944
def	-2945
dom	-2946
hab	-2947
hai	-2948
hio	-2949
hos	-2950
ino	-2951
ita	-2952
jud	-2953
ler	-2954
lus	-2955
mat	-2956
ohn	-2957
old	-2958
oon	-2959
org	-2960
ots	-2961
pet	-2962
rav	-2963
top	-2964
ttp	-2965
uff	-2966
uth	-2967
www	-2968
you	-2969
▁18	-2970
▁Ad	-2971
▁Am	-2972
▁Ar	-2973
▁Bl	-2974
▁Fr	-2975
▁Gu	-2976
▁Le	-2977
▁PC	-2978
▁Ro	-2979
▁Se	-2980
▁TH	-2981
▁WW	-2982
▁bi	-2983
▁iP	-2984
▁sn	-2985
Good	-2986
IGHT	-2987
With	-2988
ache	-2989
ager	-2990
aked	-2991
angu	-2992
arks	-2993
ateg	-2994
care	-2995
efin	-2996
ffee	-2997
fice	-2998
icer	-2999
icip	-3000
iful	-3001
ills	-3002
ired	-3003
ison	-3004
lies	-3005
llar	-3006
lord	-3007
ltim	-3008
mary	-3009
omin	-3010
orry	-3011
oses	-3012
oted	-3013
oups	-3014
ourn	-3015
plom	-3016
reci	-3017
reng	-3018
rial	-3019
tery	-3020
ties	-3021
time	-3022
uals	-3023
urch	-3024
▁100	-3025
▁Any	-3026
▁IRA	-3027
▁Mal	-3028
▁Mus	-3029
▁OoT	-3030
▁Ser	-3031
▁air	-3032
▁aud	-3033
▁box	-3034
▁cau	-3035
▁civ	-3036
▁cow	-3037
▁fru	-3038
▁hab	-3039
▁hur	-3040
▁lay	-3041
▁nor	-3042
▁pet	-3043
▁rib	-3044
▁rul	-3045
▁saw	-3046
▁sil	-3047
▁sue	-3048
▁swe	-3049
▁tar	-3050
▁und	-3051
Point	-3052
_____	-3053
abase	-3054
ached	-3055
aesar	-3056
alism	-3057
aries	-3058
aring	-3059
avors	-3060
cious	-3061
cured	-3062
esome	-3063
feren	-3064
icles	-3065
iding	-3066
iliar	-3067
ister	-3068
izing	-3069
lieve	-3070
llars	-3071
ocrat	-3072
ograp	-3073
onent	-3074
oogle	-3075
oring	-3076
rived	-3077
stand	-3078
tered	-3079
thern	-3080
urred	-3081
ussia	-3082
vered	-3083
▁Cont	-3084
▁Face	-3085
▁From	-3086
▁John	-3087
▁Like	-3088
▁Luck	-3089
▁Mont	-3090
▁More	-3091
▁Take	-3092
▁Thai	-3093
▁ages	-3094
▁bail	-3095
▁butt	-3096
▁code	-3097
▁copy	-3098
▁dark	-3099
▁dumb	-3100
▁duty	-3101
▁empt	-3102
▁ende	-3103
▁fish	-3104
▁four	-3105
▁fulf	-3106
▁gall	-3107
▁goal	-3108
▁grav	-3109
▁hair	-3110
▁hobb	-3111
▁hosp	-3112
▁inhe	-3113
▁intr	-3114
▁late	-3115
▁loan	-3116
▁meas	-3117
▁meet	-3118
▁note	-3119
▁oper	-3120
▁pack	-3121
▁plus	-3122
▁poll	-3123
▁prog	-3124
▁race	-3125
▁shop	-3126
▁site	-3127
▁size	-3128
▁soon	-3129
▁stre	-3130
▁suit	-3131
▁term	-3132
▁tons	-3133
▁wind	-3134
Please	-3135
atures	-3136
engers	-3137
friend	-3138
gorith	-3139
icient	-3140
illing	-3141
ington	-3142
itions	-3143
orning	-3144
resses	-3145
▁Defin	-3146
▁Hamas	-3147
▁Liber	-3148
▁Thank	-3149
▁Those	-3150
▁accur	-3151
▁areas	-3152
▁aside	-3153
▁autom	-3154
▁avoid	-3155
▁aware	-3156
▁bills	-3157
▁birth	-3158
▁contr	-3159
▁cover	-3160
▁decor	-3161
▁ended	-3162
▁event	-3163
▁exper	-3164
▁facts	-3165
▁favor	-3166
▁feels	-3167
▁films	-3168
▁force	-3169
▁fully	-3170
▁goods	-3171
▁grade	-3172
▁hands	-3173
▁haven	-3174
▁insan	-3175
▁known	-3176
▁langu	-3177
▁lived	-3178
▁meant	-3179
▁naked	-3180
▁notic	-3181
▁oblig	-3182
▁regul	-3183
▁rehab	-3184
▁relat	-3185
▁sauce	-3186
▁songs	-3187
▁study	-3188
▁subst	-3189
▁sucks	-3190
▁tacos	-3191
▁taste	-3192
▁tests	-3193
▁toler	-3194
▁total	-3195
▁trial	-3196
▁ultim	-3197
▁visit	-3198
▁weeks	-3199
▁worst	-3200
ception	-3201
ication	-3202
mission	-3203
riminal	-3204
vancing	-3205
▁Change	-3206
▁County	-3207
▁Econom	-3208
▁Indian	-3209
▁Person	-3210
▁Russia	-3211
▁Thanks	-3212
▁Twitch	-3213
▁Unless	-3214
▁adults	-3215
▁afford	-3216
▁arrest	-3217
▁associ	-3218
▁attend	-3219
▁barely	-3220
▁bigger	-3221
▁bother	-3222
▁bottle	-3223
▁casual	-3224
▁causes	-3225
▁coffee	-3226
▁colour	-3227
▁condem	-3228
▁cowork	-3229
▁criter	-3230
▁decent	-3231
▁decide	-3232
▁destro	-3233
▁diplom	-3234
▁domain	-3235
▁driver	-3236
▁encour	-3237
▁ending	-3238
▁facing	-3239
▁future	-3240
▁gather	-3241
▁global	-3242
▁gotten	-3243
▁groups	-3244
▁hearts	-3245
▁highly	-3246
▁ignore	-3247
▁integr	-3248
▁memory	-3249
▁mental	-3250
▁moment	-3251
▁mostly	-3252
▁moving	-3253
▁needed	-3254
▁offers	-3255
▁plates	-3256
▁played	-3257
▁poorly	-3258
▁potato	-3259
▁profit	-3260
▁report	-3261
▁retain	-3262
▁router	-3263
▁safety	-3264
▁server	-3265
▁soccer	-3266
▁source	-3267
▁streng	-3268
▁strict	-3269
▁superi	-3270
▁switch	-3271
▁tasted	-3272
▁threat	-3273
▁voting	-3274
▁walked	-3275
▁yogurt	-3276
▁British	-3277
▁Special	-3278
▁ability	-3279
▁absence	-3280
▁accompl	-3281
▁anymore	-3282
▁appreci	-3283
▁aspects	-3284
▁attract	-3285
▁average	-3286
▁balance	-3287
▁brother	-3288
▁browser	-3289
▁careful	-3290
▁changed	-3291
▁charged	-3292
▁cheaper	-3293
▁choices	-3294
▁clearly	-3295
▁collect	-3296
▁consent	-3297
▁control	-3298
▁convers	-3299
▁corrupt	-3300
▁counter	-3301
▁created	-3302
▁custody	-3303
▁debates	-3304
▁details	-3305
▁enforce	-3306
▁fathers	-3307
▁federal	-3308
▁further	-3309
▁himself	-3310
▁hobbies	-3311
▁hurting	-3312
▁improve	-3313
▁justify	-3314
▁leaving	-3315
▁matters	-3316
▁mention	-3317
▁mistake	-3318
▁mustard	-3319
▁pattern	-3320
▁perform	-3321
▁perhaps	-3322
▁primary	-3323
▁proceed	-3324
▁project	-3325
▁repairs	-3326
▁setting	-3327
▁showing	-3328
▁skilled	-3329
▁smaller	-3330
▁success	-3331
▁treated	-3332
▁variety	-3333
▁violent	-3334
▁written	-3335
ensorship	-3336
ification	-3337
▁Everyone	-3338
▁Facebook	-3339
▁Montreal	-3340
▁Northern	-3341
▁activity	-3342
▁allowing	-3343
▁audience	-3344
▁believed	-3345
▁benefici	-3346
▁building	-3347
▁computer	-3348
▁contempt	-3349
▁cultural	-3350
▁database	-3351
▁designed	-3352
▁hardware	-3353
▁honestly	-3354
▁humanity	-3355
▁informed	-3356
▁inherent	-3357
▁interpre	-3358
▁landlord	-3359
▁language	-3360
▁portions	-3361
▁possibly	-3362
▁pregnant	-3363
▁prepared	-3364
▁products	-3365
▁provided	-3366
▁punished	-3367
▁purchase	-3368
▁pursuing	-3369
▁relation	-3370
▁shooting	-3371
▁signific	-3372
▁solution	-3373
▁speaking	-3374
▁struggle	-3375
▁studying	-3376
▁teaching	-3377
rimination	-3378
▁advantage	-3379
▁agreement	-3380
▁attention	-3381
▁beautiful	-3382
▁beginning	-3383
▁complaint	-3384
▁component	-3385
▁conscious	-3386
▁convicted	-3387
▁copyright	-3388
▁currently	-3389
▁diabetics	-3390
▁direction	-3391
▁emotional	-3392
▁establish	-3393
▁existence	-3394
▁expensive	-3395
▁extension	-3396
▁following	-3397
▁installed	-3398
▁ourselves	-3399
▁presented	-3400
▁protected	-3401
▁referring	-3402
▁sentenced	-3403
▁standards	-3404
▁surprised	-3405
▁universal	-3406
▁violation	-3407
▁wondering	-3408
fortunately	-3409
▁Wellington	-3410
▁additional	-3411
▁candidates	-3412
▁capitalism	-3413
▁discovered	-3414
▁discussion	-3415
▁everywhere	-3416
▁homosexual	-3417
▁industrial	-3418
▁university	-3419
▁vaccinated	-3420
▁appropriate	-3421
▁comfortable	-3422
▁differences	-3423
▁ingredients	-3424
▁possibility	-3425
▁prohibition	-3426
▁Christianity	-3427
▁constitution	-3428
▁conversation	-3429
▁prostitution	-3430
▁understanding	-3431
▁discrimination	-3432
!"	-3433
.(	-3434
30	-3435
6,	-3436
7.	-3437
?"	-3438
FL	-3439
Gs	-3440
MM	-3441
MO	-3442
ON	-3443
PI	-3444
PS	-3445
SI	-3446
TM	-3447
Te	-3448
ax	-3449
bl	-3450
by	-3451
eg	-3452
ga	-3453
ok	-3454
ov	-3455
ti	-3456
tr	-3457
tu	-3458
uz	-3459
ws	-3460
ye	-3461
.2.	-3462
.3.	-3463
.50	-3464
Any	-3465
Bay	-3466
ENT	-3467
ERY	-3468
Its	-3469
Let	-3470
PGs	-3471
abb	-3472
ama	-3473
apt	-3474
arm	-3475
ask	-3476
ats	-3477
avy	-3478
bal	-3479
bec	-3480
bel	-3481
bur	-3482
can	-3483
cho	-3484
cip	-3485
cre	-3486
den	-3487
enc	-3488
ery	-3489
gar	-3490
gen	-3491
ggy	-3492
ibl	-3493
ift	-3494
irt	-3495
lay	-3496
lim	-3497
nel	-3498
oca	-3499
odi	-3500
off	-3501
oms	-3502
oop	-3503
oun	-3504
ped	-3505
pow	-3506
ppy	-3507
ron	-3508
rup	-3509
tun	-3510
und	-3511
upp	-3512
urb	-3513
val	-3514
vis	-3515
ycl	-3516
▁1)	-3517
▁14	-3518
▁15	-3519
▁16	-3520
▁28	-3521
▁De	-3522
▁Do	-3523
▁Es	-3524
▁Go	-3525
▁IS	-3526
▁Im	-3527
▁Mc	-3528
▁NO	-3529
▁OK	-3530
▁Ok	-3531
▁Po	-3532
▁SO	-3533
▁Te	-3534
▁Uk	-3535
▁ph	-3536
,000	-3537
1000	-3538
Also	-3539
EDIT	-3540
PICE	-3541
Sure	-3542
Your	-3543
acca	-3544
aced	-3545
ancy	-3546
anth	-3547
arri	-3548
aste	-3549
athe	-3550
aybe	-3551
born	-3552
coin	-3553
cons	-3554
ding	-3555
fied	-3556
ften	-3557
gain	-3558
gust	-3559
head	-3560
hent	-3561
hind	-3562
http	-3563
ican	-3564
icro	-3565
idal	-3566
idel	-3567
illa	-3568
inis	-3569
izes	-3570
jury	-3571
lime	-3572
look	-3573
mpat	-3574
omen	-3575
orer	-3576
ourt	-3577
outh	-3578
part	-3579
pend	-3580
ping	-3581
pite	-3582
port	-3583
ptop	-3584
quee	-3585
quor	-3586
raid	-3587
ried	-3588
sher	-3589
stic	-3590
stor	-3591
sure	-3592
teen	-3593
they	-3594
tise	-3595
uban	-3596
ulin	-3597
ysis	-3598
▁1/2	-3599
▁197	-3600
▁198	-3601
▁Acc	-3602
▁BUT	-3603
▁Bet	-3604
▁Bit	-3605
▁Bri	-3606
▁Bur	-3607
▁DMV	-3608
▁Had	-3609
▁Ill	-3610
▁Min	-3611
▁New	-3612
▁PMA	-3613
▁Pal	-3614
▁Per	-3615
▁Pho	-3616
▁Run	-3617
▁Wor	-3618
▁Wow	-3619
▁agg	-3620
▁ago	-3621
▁bow	-3622
▁boy	-3623
▁bri	-3624
▁cup	-3625
▁cuz	-3626
▁den	-3627
▁dev	-3628
▁emb	-3629
▁fal	-3630
▁fee	-3631
▁gar	-3632
▁god	-3633
▁hum	-3634
▁key	-3635
▁lid	-3636
▁lie	-3637
▁lif	-3638
▁mer	-3639
▁nac	-3640
▁nut	-3641
▁pad	-3642
▁ped	-3643
▁rap	-3644
▁sad	-3645
▁sep	-3646
▁shi	-3647
▁spl	-3648
▁sum	-3649
▁upd	-3650
!!!!!	-3651
Every	-3652
While	-3653
adict	-3654
affic	-3655
agers	-3656
althy	-3657
ament	-3658
ankly	-3659
arify	-3660
avour	-3661
azine	-3662
burse	-3663
ching	-3664
ctose	-3665
eding	-3666
ensed	-3667
enter	-3668
erate	-3669
eroid	-3670
erves	-3671
estic	-3672
estin	-3673
ggest	-3674
group	-3675
happy	-3676
hicle	-3677
human	-3678
icial	-3679
iders	-3680
inced	-3681
inois	-3682
inton	-3683
irect	-3684
iring	-3685
ision	-3686
istic	-3687
itals	-3688
itled	-3689
liers	-3690
mical	-3691
onder	-3692
oolen	-3693
orant	-3694
osite	-3695
ourse	-3696
ously	-3697
point	-3698
ption	-3699
raine	-3700
rated	-3701
rency	-3702
retty	-3703
ropic	-3704
round	-3705
sides	-3706
uable	-3707
uting	-3708
water	-3709
▁Base	-3710
▁Benc	-3711
▁Char	-3712
▁Chin	-3713
▁Cons	-3714
▁Foot	-3715
▁Germ	-3716
▁Hall	-3717
▁Iran	-3718
▁King	-3719
▁Look	-3720
▁Make	-3721
▁Modi	-3722
▁Ohio	-3723
▁Only	-3724
▁York	-3725
▁abol	-3726
▁acid	-3727
▁acts	-3728
▁adop	-3729
▁adul	-3730
▁anal	-3731
▁asse	-3732
▁ball	-3733
▁bank	-3734
▁beat	-3735
▁bout	-3736
▁cart	-3737
▁cash	-3738
▁cere	-3739
▁chow	-3740
▁cogn	-3741
▁cops	-3742
▁cred	-3743
▁deaf	-3744
▁dies	-3745
▁disp	-3746
▁dogs	-3747
▁eBay	-3748
▁earn	-3749
▁eyes	-3750
▁fear	-3751
▁feed	-3752
▁fees	-3753
▁feet	-3754
▁file	-3755
▁fire	-3756
▁five	-3757
▁flag	-3758
▁gays	-3759
▁gift	-3760
▁guns	-3761
▁guys	-3762
▁head	-3763
▁holy	-3764
▁hung	-3765
▁impe	-3766
▁inju	-3767
▁item	-3768
▁jury	-3769
▁kick	-3770
▁link	-3771
▁lust	-3772
▁near	-3773
▁onto	-3774
▁outs	-3775
▁pict	-3776
▁pita	-3777
▁plat	-3778
▁pred	-3779
▁puts	-3780
▁rare	-3781
▁reim	-3782
▁road	-3783
▁rule	-3784
▁scar	-3785
▁scre	-3786
▁send	-3787
▁sens	-3788
▁situ	-3789
▁slap	-3790
▁stra	-3791
▁tabs	-3792
▁text	-3793
▁thir	-3794
▁thru	-3795
▁tool	-3796
▁unem	-3797
▁unne	-3798
▁urge	-3799
▁uses	-3800
▁vegg	-3801
▁vers	-3802
▁weak	-3803
▁week	-3804
▁whom	-3805
▁winn	-3806
cooked	-3807
ermine	-3808
etting	-3809
hentic	-3810
hether	-3811
icious	-3812
inding	-3813
ission	-3814
levant	-3815
ligion	-3816
lished	-3817
lusion	-3818
manent	-3819
ounter	-3820
petrat	-3821
porary	-3822
ravity	-3823
wanted	-3824
▁2006,	-3825
▁Apple	-3826
▁Class	-3827
▁Maybe	-3828
▁Obama	-3829
▁Often	-3830
▁Polit	-3831
▁RIGHT	-3832
▁Right	-3833
▁SPICE	-3834
▁Think	-3835
▁Watch	-3836
▁actor	-3837
▁adapt	-3838
▁adver	-3839
▁agent	-3840
▁armed	-3841
▁award	-3842
▁bever	-3843
▁block	-3844
▁bunch	-3845
▁catch	-3846
▁cheer	-3847
▁color	-3848
▁couch	-3849
▁decoy	-3850
▁deter	-3851
▁drunk	-3852
▁emerg	-3853
▁empty	-3854
▁fails	-3855
▁farqu	-3856
▁fault	-3857
▁fence	-3858
▁fetus	-3859
▁flaws	-3860
▁frust	-3861
▁girlf	-3862
▁girls	-3863
▁grant	-3864
▁grown	-3865
▁guilt	-3866
▁immig	-3867
▁innov	-3868
▁intim	-3869
▁jackp	-3870
▁laugh	-3871
▁leads	-3872
▁logic	-3873
▁meals	-3874
▁mixed	-3875
▁motiv	-3876
▁moved	-3877
▁newly	-3878
▁occas	-3879
▁occur	-3880
▁older	-3881
▁owned	-3882
▁peace	-3883
▁peers	-3884
▁persu	-3885
▁plays	-3886
▁popul	-3887
▁press	-3888
▁prime	-3889
▁rated	-3890
▁reach	-3891
▁realm	-3892
▁route	-3893
▁sacri	-3894
▁scrat	-3895
▁sends	-3896
▁shell	-3897
▁short	-3898
▁signs	-3899
▁sites	-3900
▁smoke	-3901
▁solve	-3902
▁spect	-3903
▁squee	-3904
▁steal	-3905
▁steps	-3906
▁stuff	-3907
▁sweet	-3908
▁syrup	-3909
▁terms	-3910
▁thank	-3911
▁towns	-3912
▁trail	-3913
▁trave	-3914
▁truck	-3915
▁truth	-3916
▁union	-3917
▁users	-3918
▁vegan	-3919
▁wants	-3920
▁weren	-3921
▁whose	-3922
▁words	-3923
arriage	-3924
bottled	-3925
defense	-3926
getting	-3927
gusting	-3928
igation	-3929
ination	-3930
ologies	-3931
onestly	-3932
ountain	-3933
plement	-3934
rapment	-3935
ressive	-3936
ruction	-3937
tarians	-3938
▁Better	-3939
▁Either	-3940
▁France	-3941
▁Muslim	-3942
▁Really	-3943
▁School	-3944
▁Second	-3945
▁Spring	-3946
▁States	-3947
▁actors	-3948
▁affirm	-3949
▁afraid	-3950
▁anarch	-3951
▁anyway	-3952
▁appeal	-3953
▁appear	-3954
▁assist	-3955
▁attack	-3956
▁behind	-3957
▁brains	-3958
▁burden	-3959
▁buying	-3960
▁calcul	-3961
▁caring	-3962
▁civili	-3963
▁claims	-3964
▁client	-3965
▁combat	-3966
▁county	-3967
▁damage	-3968
▁deaths	-3969
▁depend	-3970
▁dining	-3971
▁disast	-3972
▁duties	-3973
▁eating	-3974
▁engine	-3975
▁enjoys	-3976
▁female	-3977
▁fights	-3978
▁filled	-3979
▁fortun	-3980
▁ground	-3981
▁habits	-3982
▁higher	-3983
▁impact	-3984
▁impris	-3985
▁income	-3986
▁indeed	-3987
▁intrud	-3988
▁invent	-3989
▁island	-3990
▁issued	-3991
▁laptop	-3992
▁latest	-3993
▁legacy	-3994
▁lesson	-3995
▁liquor	-3996
▁losing	-3997
▁mature	-3998
▁medium	-3999
▁minors	-4000
▁morals	-4001
▁nachos	-4002
▁nobody	-4003
▁observ	-4004
▁obtain	-4005
▁orders	-4006
▁owners	-4007
▁passed	-4008
▁phones	-4009
▁prejud	-4010
▁proven	-4011
▁rating	-4012
▁recent	-4013
▁reform	-4014
▁refuse	-4015
▁remain	-4016
▁reward	-4017
▁seated	-4018
▁seeing	-4019
▁seemed	-4020
▁signed	-4021
▁silent	-4022
▁skills	-4023
▁specul	-4024
▁spread	-4025
▁starts	-4026
▁steaks	-4027
▁street	-4028
▁stress	-4029
▁strive	-4030
▁struct	-4031
▁supply	-4032
▁surger	-4033
▁sympat	-4034
▁tables	-4035
▁termin	-4036
▁toward	-4037
▁values	-4038
▁waited	-4039
▁window	-4040
Everyone	-4041
atically	-4042
gorithms	-4043
levision	-4044
ological	-4045
ribution	-4046
standing	-4047
▁Another	-4048
▁Arizona	-4049
▁Besides	-4050
▁Bitcoin	-4051
▁Bottled	-4052
▁Clinton	-4053
▁Contact	-4054
▁Farquar	-4055
▁Further	-4056
▁General	-4057
▁Malacca	-4058
▁Manager	-4059
▁Perhaps	-4060
▁Ukraine	-4061
▁account	-4062
▁arrived	-4063
▁beating	-4064
▁changes	-4065
▁charges	-4066
▁clarify	-4067
▁concent	-4068
▁concept	-4069
▁constit	-4070
▁consult	-4071
▁decides	-4072
▁decline	-4073
▁default	-4074
▁destroy	-4075
▁disturb	-4076
▁dollars	-4077
▁enjoyed	-4078
▁expense	-4079
▁factors	-4080
▁finally	-4081
▁fitness	-4082
▁follows	-4083
▁forever	-4084
▁gravity	-4085
▁greater	-4086
▁harmony	-4087
▁harsher	-4088
▁hearing	-4089
▁hostess	-4090
▁insulin	-4091
▁involve	-4092
▁keeping	-4093
▁lawsuit	-4094
▁logical	-4095
▁magical	-4096
▁massive	-4097
▁medical	-4098
▁morning	-4099
▁murders	-4100
▁noticed	-4101
▁numbers	-4102
▁partner	-4103
▁patient	-4104
▁planned	-4105
▁possess	-4106
▁prepare	-4107
▁privacy	-4108
▁private	-4109
▁produce	-4110
▁provide	-4111
▁referen	-4112
▁related	-4113
▁revenue	-4114
▁selling	-4115
▁servers	-4116
▁somehow	-4117
▁stating	-4118
▁statute	-4119
▁staying	-4120
▁stepson	-4121
▁steroid	-4122
▁stories	-4123
▁suggest	-4124
▁suppose	-4125
▁suspect	-4126
▁theater	-4127
▁traffic	-4128
▁unhappy	-4129
▁useless	-4130
▁vehicle	-4131
▁waiting	-4132
▁wanting	-4133
▁whereas	-4134
▁winning	-4135
▁workers	-4136
anthropic	-4137
bursement	-4138
▁Baseball	-4139
▁Football	-4140
▁Honestly	-4141
▁Illinois	-4142
▁Personal	-4143
▁Probably	-4144
▁Software	-4145
▁accepted	-4146
▁accurate	-4147
▁arrested	-4148
▁articles	-4149
▁bringing	-4150
▁comments	-4151
▁commited	-4152
▁compared	-4153
▁contract	-4154
▁convince	-4155
▁coworker	-4156
▁creation	-4157
▁cultures	-4158
▁currency	-4159
▁dramatic	-4160
▁employer	-4161
▁endeavor	-4162
▁entitled	-4163
▁executed	-4164
▁external	-4165
▁familiar	-4166
▁farquhar	-4167
▁favorite	-4168
▁features	-4169
▁fighting	-4170
▁followed	-4171
▁fructose	-4172
▁horrible	-4173
▁identity	-4174
▁increase	-4175
▁industry	-4176
▁insanity	-4177
▁internal	-4178
▁licensed	-4179
▁machines	-4180
▁magazine	-4181
▁maintain	-4182
▁mentally	-4183
▁negative	-4184
▁official	-4185
▁opposite	-4186
▁optional	-4187
▁patterns	-4188
▁politics	-4189
▁positive	-4190
▁powerful	-4191
▁rational	-4192
▁security	-4193
▁standing	-4194
▁stronger	-4195
▁strongly	-4196
▁substant	-4197
▁supervis	-4198
▁supports	-4199
▁unemploy	-4200
▁universe	-4201
▁According	-4202
▁Advancing	-4203
▁Amendment	-4204
▁Bencoolen	-4205
▁Something	-4206
▁according	-4207
▁attempted	-4208
▁attentive	-4209
▁authentic	-4210
▁beverages	-4211
▁bookmarks	-4212
▁childhood	-4213
▁committed	-4214
▁consumers	-4215
▁continues	-4216
▁convinced	-4217
▁courtroom	-4218
▁crossings	-4219
▁decorated	-4220
▁determine	-4221
▁developed	-4222
▁diplomacy	-4223
▁documents	-4224
▁emergency	-4225
▁encounter	-4226
▁enjoyable	-4227
▁expecting	-4228
▁fantastic	-4229
▁finishing	-4230
▁fundament	-4231
▁hospitals	-4232
▁impressed	-4233
▁justified	-4234
▁malicious	-4235
▁obviously	-4236
▁otherwise	-4237
▁perpetrat	-4238
▁respected	-4239
▁seriously	-4240
▁statement	-4241
▁suppliers	-4242
▁temporary	-4243
▁transport	-4244
▁Definitely	-4245
▁Especially	-4246
▁Euthanasia	-4247
▁Everything	-4248
▁Scientolog	-4249
▁accidental	-4250
▁accomplish	-4251
▁addressing	-4252
▁attractive	-4253
▁casualties	-4254
▁commission	-4255
▁connection	-4256
▁conscience	-4257
▁constructs	-4258
▁contradict	-4259
▁controller	-4260
▁depression	-4261
▁disgusting	-4262
▁entrapment	-4263
▁euthanasia	-4264
▁eventually	-4265
▁extensions	-4266
▁girlfriend	-4267
▁incredible	-4268
▁liberalism	-4269
▁meaningful	-4270
▁passengers	-4271
▁philosophy	-4272
▁population	-4273
▁protecting	-4274
▁protection	-4275
▁relatively	-4276
▁respecting	-4277
▁situations	-4278
▁terrorists	-4279
▁throughout	-4280
▁ultimately	-4281
▁visitation	-4282
▁Scientology	-4283
▁competition	-4284
▁complicated	-4285
▁emotionally	-4286
▁essentially	-4287
▁established	-4288
▁individuals	-4289
▁opportunity	-4290
▁potentially	-4291
▁practically	-4292
▁recommended	-4293
▁restaurants	-4294
▁significant	-4295
▁unnecessary	-4296
▁consequences	-4297
▁neighborhood	-4298
▁restrictions	-4299
▁Conservatives	-4300
▁Unfortunately	-4301
▁consciousness	-4302
▁philanthropic	-4303
▁reimbursement	-4304
________________	-4305
-7	-4306
AC	-4307
OD	-4308
UN	-4309
oz	-4310
tw	-4311
---	-4312
-47	-4313
.3)	-4314
/20	-4315
:30	-4316
AST	-4317
CES	-4318
OOD	-4319
Why	-4320
agn	-4321
ais	-4322
alt	-4323
ang	-4324
att	-4325
cca	-4326
cle	-4327
dds	-4328
ded	-4329
don	-4330
dro	-4331
eah	-4332
eds	-4333
eks	-4334
eld	-4335
enn	-4336
eps	-4337
ext	-4338
fty	-4339
iat	-4340
iet	-4341
ilg	-4342
iti	-4343
men	-4344
nic	-4345
nly	-4346
nox	-4347
oby	-4348
ogs	-4349
omy	-4350
oti	-4351
pap	-4352
pic	-4353
poc	-4354
raq	-4355
ubs	-4356
ule	-4357
▁!!	-4358
▁,,	-4359
▁2.	-4360
▁24	-4361
▁27	-4362
▁2:	-4363
▁:)	-4364
▁DN	-4365
▁Ga	-4366
▁Ge	-4367
▁LO	-4368
▁Ma	-4369
▁UN	-4370
▁nu	-4371
!!!!	-4372
CESS	-4373
From	-4374
OOOO	-4375
Only	-4376
TENT	-4377
Tell	-4378
Tube	-4379
VERY	-4380
affe	-4381
ague	-4382
aism	-4383
akin	-4384
aled	-4385
ales	-4386
argu	-4387
arma	-4388
aves	-4389
bear	-4390
bery	-4391
beye	-4392
ches	-4393
cuss	-4394
dden	-4395
depe	-4396
dict	-4397
egas	-4398
elda	-4399
"?	-4400
.4	-4401
18	-4402
3,	-4403
An	-4404
By	-4405
CH	-4406
EA	-4407
HY	-4408
PE	-4409
aj	-4410
xi	-4411
xx	-4412
▁)	-4413
All	-4414
agu	-4415
din	-4416
esa	-4417
etc	-4418
inc	-4419
ins	-4420
ser	-4421
sub	-4422
tic	-4423
ume	-4424
xxx	-4425
▁CO	-4426
▁Fi	-4427
▁IT	-4428
▁gy	-4429
▁yr	-4430
adem	-4431
anks	-4432
arat	-4433
epsi	-4434
ergy	-4435
esec	-4436
fail	-4437
fait	-4438
gant	-4439
gins	-4440
hier	-4441
hips	-4442
hize	-4443
ilet	-4444
ique	-4445
itor	-4446
izer	-4447
laws	-4448
lawy	-4449
ldon	-4450
lear	-4451
lets	-4452
lict	-4453
load	-4454
lons	-4455
lues	-4456
made	-4457
mire	-4458
ndra	-4459
nger	-4460
obil	-4461
ocks	-4462
oken	-4463
oler	-4464
onym	-4465
opey	-4466
oret	-4467
otes	-4468
pric	-4469
rass	-4470
rees	-4471
ruck	-4472
sels	-4473
skin	-4474
soft	-4475
such	-4476
tuce	-4477
urvy	-4478
viol	-4479
well	-4480
what	-4481
with	-4482
▁1.5	-4483
▁2.0	-4484
▁ATM	-4485
▁CIA	-4486
▁CMM	-4487
▁Chi	-4488
▁DNA	-4489
▁Exp	-4490
▁FMA	-4491
▁FPS	-4492
▁Fin	-4493
▁Guj	-4494
▁Jar	-4495
▁Jud	-4496
▁Law	-4497
▁Mex	-4498
▁Moz	-4499
!)	-4500
10	-4501
2)	-4502
3.	-4503
5)	-4504
NO	-4505
Or	-4506
RO	-4507
do	-4508
ee	-4509
na	-4510
ug	-4511
▁z	-4512
TER	-4513
esy	-4514
fin	-4515
got	-4516
ifi	-4517
rae	-4518
rel	-4519
rip	-4520
she	-4521
vey	-4522
win	-4523
▁40	-4524
▁bb	-4525
Than	-4526
They	-4527
ases	-4528
eker	-4529
imer	-4530
ised	-4531
lcom	-4532
otry	-4533
tion	-4534
vate	-4535
▁Bas	-4536
▁Obi	-4537
▁PRO	-4538
▁Par	-4539
▁Reg	-4540
▁Sec	-4541
▁Sup	-4542
▁THE	-4543
▁Try	-4544
▁WWI	-4545
▁ann	-4546
▁bag	-4547
▁bbq	-4548
▁ded	-4549
▁dip	-4550
▁dra	-4551
▁emp	-4552
▁fan	-4553
▁fas	-4554
▁fix	-4555
▁hes	-4556
▁hon	-4557
▁lad	-4558
▁liv	-4559
▁mad	-4560
▁mid	-4561
▁net	-4562
▁odd	-4563
▁oli	-4564
▁ons	-4565
▁quo	-4566
▁rob	-4567
▁rub	-4568
▁ske	-4569
▁sli	-4570
▁sne	-4571
▁spr	-4572
▁tom	-4573
▁tre	-4574
▁wes	-4575
Aside	-4576
Civil	-4577
Could	-4578
First	-4579
Where	-4580
acial	-4581
adays	-4582
alien	-4583
amant	-4584
ampus	-4585
arass	-4586
arate	-4587
arden	-4588
aried	-4589
atern	-4590
attle	-4591
aused	-4592
aware	-4593
aying	-4594
based	-4595
board	-4596
chite	-4597
ciety	-4598
ckets	-4599
'-	-4600
-1	-4601
5.	-4602
50	-4603
AN	-4604
IF	-4605
LY	-4606
fl	-4607
of	-4608
wh	-4609
▁/	-4610
Spe	-4611
azz	-4612
lex	-4613
ole	-4614
▁Fl	-4615
▁Ha	-4616
Some	-4617
What	-4618
atur	-4619
hang	-4620
lves	-4621
omed	-4622
pper	-4623
rink	-4624
▁Abs	-4625
▁Add	-4626
▁gay	-4627
▁ine	-4628
▁pal	-4629
▁tor	-4630
astly	-4631
claim	-4632
conds	-4633
earls	-4634
ellig	-4635
erged	-4636
erial	-4637
erous	-4638
exist	-4639
field	-4640
fying	-4641
guish	-4642
hance	-4643
holes	-4644
holly	-4645
iance	-4646
iforn	-4647
ilgri	-4648
incip	-4649
inded	-4650
infor	-4651
inter	-4652
ipped	-4653
ishes	-4654
isted	-4655
itude	-4656
kends	-4657
known	-4658
leach	-4659
learn	-4660
limin	-4661
lined	-4662
lines	-4663
lying	-4664
mends	-4665
ntary	-4666
ocide	-4667
odate	-4668
order	-4669
orrow	-4670
otism	-4671
pends	-4672
phone	-4673
pioca	-4674
pires	-4675
posed	-4676
quest	-4677
raeli	-4678
ribed	-4679
rical	-4680
ricul	-4681
ringe	-4682
rives	-4683
roduc	-4684
senal	-4685
track	-4686
ubble	-4687
ugins	-4688
umans	-4689
ureau	-4690
urned	-4691
utral	-4692
weeks	-4693
▁CMMI	-4694
▁Coke	-4695
▁Cris	-4696
▁Expl	-4697
▁Game	-4698
▁IDEA	-4699
'.	-4700
Re	-4701
].	-4702
pm	-4703
col	-4704
eri	-4705
key	-4706
wer	-4707
yle	-4708
▁EU	-4709
▁En	-4710
▁Id	-4711
▁Tw	-4712
▁vo	-4713
hand	-4714
hest	-4715
hold	-4716
ived	-4717
oral	-4718
rong	-4719
▁Web	-4720
▁dig	-4721
▁max	-4722
▁rif	-4723
▁sou	-4724
▁ver	-4725
addin	-4726
erior	-4727
stead	-4728
ushed	-4729
▁Bush	-4730
▁Iraq	-4731
▁Jazz	-4732
▁Kore	-4733
▁Lion	-4734
▁Macs	-4735
▁Mark	-4736
▁Mesa	-4737
▁Ocar	-4738
▁Once	-4739
▁Over	-4740
▁Phys	-4741
▁Poke	-4742
▁Pres	-4743
▁RPGs	-4744
▁Serb	-4745
▁Span	-4746
▁Star	-4747
▁Stra	-4748
▁Supp	-4749
▁Sure	-4750
▁Thus	-4751
▁Very	-4752
▁abus	-4753
▁anni	-4754
▁baby	-4755
▁bear	-4756
▁bele	-4757
▁bone	-4758
▁boss	-4759
▁cell	-4760
▁clap	-4761
▁cook	-4762
▁coun	-4763
▁crow	-4764
▁degr	-4765
▁dess	-4766
▁dial	-4767
▁dick	-4768
▁diss	-4769
▁doct	-4770
▁drop	-4771
▁evil	-4772
▁exam	-4773
▁exon	-4774
▁fals	-4775
▁fidd	-4776
▁fuel	-4777
▁hang	-4778
▁hund	-4779
▁iPod	-4780
▁ills	-4781
▁impl	-4782
▁infl	-4783
▁jump	-4784
▁lady	-4785
▁lazy	-4786
▁loop	-4787
▁loud	-4788
▁mult	-4789
▁odds	-4790
▁olds	-4791
▁peer	-4792
▁phen	-4793
▁plea	-4794
▁pork	-4795
▁prem	-4796
▁push	-4797
▁rage	-4798
▁ramp	-4799
afe	-4800
dis	-4801
ert	-4802
eur	-4803
isl	-4804
nam	-4805
oct	-4806
oli	-4807
uli	-4808
▁NY	-4809
▁Oh	-4810
Even	-4811
Just	-4812
abin	-4813
also	-4814
anct	-4815
come	-4816
cust	-4817
each	-4818
endo	-4819
from	-4820
good	-4821
just	-4822
lief	-4823
lter	-4824
lyam	-4825
roat	-4826
▁Fat	-4827
▁Wan	-4828
▁bum	-4829
▁hop	-4830
▁vol	-4831
acted	-4832
arter	-4833
aumat	-4834
imuli	-4835
onely	-4836
ordin	-4837
orter	-4838
quent	-4839
▁1984	-4840
▁Aust	-4841
▁Home	-4842
▁blow	-4843
▁king	-4844
▁mein	-4845
▁oath	-4846
▁reac	-4847
▁reck	-4848
▁rele	-4849
▁remo	-4850
▁roll	-4851
▁room	-4852
▁ruin	-4853
▁runs	-4854
▁salv	-4855
▁skin	-4856
▁soft	-4857
▁sold	-4858
▁suic	-4859
▁sust	-4860
▁tone	-4861
▁trig	-4862
▁trip	-4863
▁unhe	-4864
▁upon	-4865
▁vary	-4866
▁vent	-4867
▁virt	-4868
▁void	-4869
▁vote	-4870
▁wars	-4871
▁weap	-4872
▁webs	-4873
▁wild	-4874
▁wins	-4875
!_____	-4876
Americ	-4877
Donald	-4878
People	-4879
Thanks	-4880
acular	-4881
ademic	-4882
agging	-4883
aiting	-4884
amages	-4885
apoint	-4886
arrass	-4887
astard	-4888
astics	-4889
ateful	-4890
course	-4891
cribed	-4892
ellect	-4893
erally	-4894
estyle	-4895
formed	-4896
ground	-4897
hedule	-4898
iforms	-4899
?'	-4900
Of	-4901
PM	-4902
sp	-4903
.2)	-4904
amm	-4905
che	-4906
▁AK	-4907
▁ST	-4908
▁jo	-4909
Well	-4910
aded	-4911
down	-4912
icit	-4913
lied	-4914
rium	-4915
▁Cal	-4916
▁Con	-4917
▁Cop	-4918
▁Int	-4919
▁Mad	-4920
▁Mis	-4921
▁Nap	-4922
▁PCs	-4923
▁WHY	-4924
▁gam	-4925
▁mix	-4926
▁sem	-4927
▁suc	-4928
alian	-4929
blown	-4930
eties	-4931
gally	-4932
lible	-4933
mined	-4934
overy	-4935
polit	-4936
▁Gael	-4937
▁Know	-4938
▁Stud	-4939
▁Went	-4940
▁anti	-4941
▁asks	-4942
▁data	-4943
▁defe	-4944
▁girl	-4945
▁neat	-4946
▁pros	-4947
▁repe	-4948
▁repl	-4949
▁rise	-4950
▁semi	-4951
▁shit	-4952
▁shot	-4953
▁slip	-4954
▁stor	-4955
▁unet	-4956
father	-4957
ifying	-4958
igated	-4959
illary	-4960
imated	-4961
ingent	-4962
lessly	-4963
liment	-4964
monies	-4965
obiles	-4966
omatic	-4967
oolish	-4968
orrect	-4969
ournal	-4970
ourney	-4971
ousand	-4972
papers	-4973
perate	-4974
priced	-4975
rafice	-4976
rained	-4977
rating	-4978
redits	-4979
ribute	-4980
riment	-4981
secure	-4982
skinny	-4983
tation	-4984
udding	-4985
uesday	-4986
untary	-4987
urally	-4988
utting	-4989
veness	-4990
weight	-4991
▁30.00	-4992
▁Bever	-4993
▁Bible	-4994
▁Black	-4995
▁Civil	-4996
▁Court	-4997
▁Croat	-4998
▁Cuban	-4999
LL	-5000
OP	-5001
UD	-5002
bus	-5003
eem	-5004
mod	-5005
sed	-5006
una	-5007
uns	-5008
▁25	-5009
▁By	-5010
▁Fe	-5011
▁MI	-5012
▁MM	-5013
▁vs	-5014
aith	-5015
amel	-5016
asty	-5017
enix	-5018
eted	-5019
iled	-5020
leum	-5021
orts	-5022
pted	-5023
rete	-5024
ured	-5025
▁Her	-5026
▁Hor	-5027
▁cig	-5028
▁tap	-5029
ifies	-5030
ining	-5031
itate	-5032
itive	-5033
itors	-5034
orate	-5035
orous	-5036
osing	-5037
using	-5038
▁City	-5039
▁Fame	-5040
▁Nare	-5041
▁dude	-5042
▁envy	-5043
▁fell	-5044
▁rice	-5045
▁snif	-5046
▁vice	-5047
iously	-5048
omever	-5049
pected	-5050
roleum	-5051
▁Blues	-5052
▁Curvy	-5053
▁Drive	-5054
▁Event	-5055
▁House	-5056
▁Loved	-5057
▁Major	-5058
▁Micro	-5059
▁Plame	-5060
▁Power	-5061
▁Rolls	-5062
▁Runes	-5063
▁Satur	-5064
▁South	-5065
▁State	-5066
▁Thats	-5067
▁Union	-5068
▁Vegas	-5069
▁Whats	-5070
▁World	-5071
▁_____	-5072
▁activ	-5073
▁adage	-5074
▁agony	-5075
▁ahead	-5076
▁anger	-5077
▁anime	-5078
▁appet	-5079
▁awful	-5080
▁backs	-5081
▁basil	-5082
▁below	-5083
▁bible	-5084
▁blank	-5085
▁blind	-5086
▁board	-5087
▁bound	-5088
▁brace	-5089
▁brand	-5090
▁breat	-5091
▁brief	-5092
▁broad	-5093
▁cache	-5094
▁calor	-5095
▁categ	-5096
▁chill	-5097
▁chron	-5098
▁cloud	-5099
AR	-5100
pler	-5101
ples	-5102
race	-5103
somet	-5104
▁mayo	-5105
▁Books	-5106
▁compe	-5107
▁costs	-5108
▁curry	-5109
▁dates	-5110
▁daugh	-5111
▁decre	-5112
▁depos	-5113
▁didnt	-5114
▁dream	-5115
▁drown	-5116
▁eaten	-5117
▁faced	-5118
▁false	-5119
▁fixed	-5120
▁flash	-5121
▁forms	-5122
▁fried	-5123
▁funds	-5124
▁genre	-5125
▁goals	-5126
▁green	-5127
▁hards	-5128
▁heavy	-5129
▁holds	-5130
▁hyper	-5131
▁ideal	-5132
▁ideas	-5133
▁infin	-5134
▁initi	-5135
▁input	-5136
▁irrit	-5137
▁kills	-5138
▁kinda	-5139
▁kinds	-5140
▁lemon	-5141
▁libel	-5142
▁limbs	-5143
▁limit	-5144
▁lines	-5145
▁loads	-5146
▁loves	-5147
▁males	-5148
▁manga	-5149
▁marry	-5150
▁mopey	-5151
▁motor	-5152
▁notch	-5153
▁obese	-5154
▁obnox	-5155
▁occup	-5156
▁olive	-5157
▁overs	-5158
▁paran	-5159
▁parts	-5160
▁patri	-5161
▁phone	-5162
▁plain	-5163
▁posts	-5164
▁prest	-5165
▁prior	-5166
▁proud	-5167
▁raped	-5168
▁reduc	-5169
▁refus	-5170
▁resol	-5171
▁reuse	-5172
▁round	-5173
▁ruled	-5174
▁sales	-5175
▁shade	-5176
▁shame	-5177
▁sneak	-5178
▁soggy	-5179
▁solid	-5180
▁sorry	-5181
▁speed	-5182
▁spice	-5183
▁split	-5184
▁stain	-5185
▁stood	-5186
▁stops	-5187
▁store	-5188
▁sugar	-5189
▁sushi	-5190
▁tasty	-5191
▁taxed	-5192
▁tells	-5193
▁theat	-5194
▁thier	-5195
▁throw	-5196
▁thumb	-5197
▁tough	-5198
▁track	-5199
▁trick	-5200
▁tries	-5201
▁trump	-5202
▁twice	-5203
▁types	-5204
▁uncom	-5205
▁upper	-5206
▁usual	-5207
▁versa	-5208
▁vital	-5209
▁waste	-5210
▁whats	-5211
▁white	-5212
▁wings	-5213
▁wrote	-5214
▁yield	-5215
▁youth	-5216
Arizona	-5217
Without	-5218
alistic	-5219
althier	-5220
amantha	-5221
anation	-5222
anctity	-5223
asoning	-5224
because	-5225
chitect	-5226
choicer	-5227
ditions	-5228
emocrat	-5229
eration	-5230
essinis	-5231
faction	-5232
fically	-5233
history	-5234
hopping	-5235
icapped	-5236
iciency	-5237
icipate	-5238
ifornia	-5239
ilgrims	-5240
intendo	-5241
isoning	-5242
isposed	-5243
iveness	-5244
knowled	-5245
looking	-5246
ography	-5247
ongress	-5248
ossible	-5249
ouncing	-5250
pective	-5251
perfect	-5252
powered	-5253
reaming	-5254
related	-5255
riculum	-5256
versity	-5257
violent	-5258
▁Almost	-5259
▁Anakin	-5260
▁Caesar	-5261
▁Coming	-5262
▁Engine	-5263
▁Except	-5264
▁Father	-5265
▁Gaelic	-5266
▁Google	-5267
▁Health	-5268
▁Isreal	-5269
▁Pretty	-5270
▁Regard	-5271
▁Rights	-5272
▁Rowing	-5273
▁Taking	-5274
▁Though	-5275
▁United	-5276
▁abused	-5277
▁accomp	-5278
▁acting	-5279
▁active	-5280
▁addict	-5281
▁admire	-5282
▁advice	-5283
▁altern	-5284
▁anonym	-5285
▁applic	-5286
▁assess	-5287
▁assets	-5288
▁assign	-5289
▁babies	-5290
▁backed	-5291
▁basket	-5292
▁became	-5293
▁bottom	-5294
▁breaks	-5295
▁bubble	-5296
▁butter	-5297
▁caesar	-5298
▁campus	-5299
▁caused	-5300
▁childs	-5301
▁church	-5302
▁closed	-5303
▁commen	-5304
▁copies	-5305
▁corner	-5306
▁corpor	-5307
▁cracks	-5308
▁crises	-5309
▁daught	-5310
▁deform	-5311
▁denied	-5312
▁devast	-5313
▁diesel	-5314
▁disall	-5315
▁divide	-5316
▁double	-5317
▁elimin	-5318
▁energy	-5319
▁ensure	-5320
▁evolve	-5321
▁except	-5322
▁extend	-5323
▁factor	-5324
▁failed	-5325
▁fairly	-5326
▁foetus	-5327
▁forces	-5328
▁garden	-5329
▁garlic	-5330
▁google	-5331
▁grease	-5332
▁histor	-5333
▁humble	-5334
▁hungry	-5335
▁iPhone	-5336
▁impair	-5337
▁incent	-5338
▁judges	-5339
▁latter	-5340
▁leader	-5341
▁leaves	-5342
▁legisl	-5343
▁linear	-5344
▁lonely	-5345
▁lously	-5346
▁mainly	-5347
▁massac	-5348
▁master	-5349
▁merely	-5350
▁muscle	-5351
▁nearly	-5352
▁negoti	-5353
▁neighb	-5354
▁nicely	-5355
▁notary	-5356
▁notify	-5357
▁offend	-5358
▁online	-5359
▁opened	-5360
▁owning	-5361
▁packed	-5362
▁palist	-5363
▁patent	-5364
▁pearls	-5365
▁ponder	-5366
▁posted	-5367
▁proced	-5368
▁proved	-5369
▁pulled	-5370
▁pursue	-5371
▁racing	-5372
▁rarely	-5373
▁recall	-5374
▁recycl	-5375
▁reddit	-5376
▁redone	-5377
▁rental	-5378
▁repair	-5379
▁resemb	-5380
▁reserv	-5381
▁respon	-5382
▁ribeye	-5383
▁rooted	-5384
▁ruined	-5385
▁scream	-5386
▁select	-5387
▁selves	-5388
▁serves	-5389
▁showed	-5390
▁smokes	-5391
▁sounds	-5392
▁speaks	-5393
▁spoken	-5394
▁sprout	-5395
▁stable	-5396
▁stance	-5397
▁stings	-5398
▁strugg	-5399
▁sudden	-5400
▁summer	-5401
▁surely	-5402
▁target	-5403
▁taxing	-5404
▁territ	-5405
▁thanks	-5406
▁tracks	-5407
▁travel	-5408
▁unique	-5409
▁valley	-5410
▁visits	-5411
▁wealth	-5412
▁weight	-5413
▁welcom	-5414
▁wholly	-5415
▁worked	-5416
Although	-5417
American	-5418
idelines	-5419
modating	-5420
oretical	-5421
ributing	-5422
ributive	-5423
rounding	-5424
▁100,000	-5425
▁Aladdin	-5426
▁Austral	-5427
▁Believe	-5428
▁Chinese	-5429
▁Depends	-5430
▁Germans	-5431
▁Gravity	-5432
▁Gujarat	-5433
▁Israeli	-5434
▁Judaism	-5435
▁Killing	-5436
▁Mexican	-5437
▁Mozilla	-5438
▁Neither	-5439
▁Ocarina	-5440
▁PROCESS	-5441
▁Plastic	-5442
▁Pokemon	-5443
▁Service	-5444
▁Sheldon	-5445
▁Society	-5446
▁Someone	-5447
▁Straits	-5448
▁Student	-5449
▁Support	-5450
▁Supreme	-5451
▁Tuesday	-5452
▁Whether	-5453
▁YouTube	-5454
▁advance	-5455
▁advised	-5456
▁advisor	-5457
▁affects	-5458
▁anarchy	-5459
▁anguish	-5460
▁anybody	-5461
▁anyways	-5462
▁appeals	-5463
▁assault	-5464
▁assumes	-5465
▁awesome	-5466
▁bargain	-5467
▁beleive	-5468
▁besides	-5469
▁bigotry	-5470
▁billing	-5471
▁burgers	-5472
▁buttons	-5473
▁capable	-5474
▁caramel	-5475
▁citizen	-5476
▁closely	-5477
▁colours	-5478
▁comfort	-5479
▁commits	-5480
▁compete	-5481
▁concern	-5482
▁confuse	-5483
▁consume	-5484
▁covered	-5485
▁crowded	-5486
▁damages	-5487
▁dealers	-5488
▁defined	-5489
▁deprive	-5490
▁despite	-5491
▁dessert	-5492
▁dismiss	-5493
▁dispute	-5494
▁elevate	-5495
▁emerged	-5496
▁enacted	-5497
▁enhance	-5498
▁entrees	-5499
▁evening	-5500
▁evolved	-5501
▁excited	-5502
▁experts	-5503
▁explore	-5504
▁express	-5505
▁falsify	-5506
▁feature	-5507
▁females	-5508
▁finding	-5509
▁flavors	-5510
▁flavour	-5511
▁focused	-5512
▁forward	-5513
▁founded	-5514
▁frankly	-5515
▁fulfill	-5516
▁funeral	-5517
▁gallons	-5518
▁governs	-5519
▁greeted	-5520
▁grilled	-5521
▁grounds	-5522
▁harmful	-5523
▁highest	-5524
▁holding	-5525
▁hostile	-5526
▁hundred	-5527
▁immoral	-5528
▁inalien	-5529
▁injured	-5530
▁kingdom	-5531
▁lacking	-5532
▁largest	-5533
▁leaders	-5534
▁leading	-5535
▁lettuce	-5536
▁lobster	-5537
▁located	-5538
▁machine	-5539
▁monitor	-5540
▁morally	-5541
▁nations	-5542
▁neither	-5543
▁neutral	-5544
▁notions	-5545
▁opening	-5546
▁optimum	-5547
▁organis	-5548
▁outcome	-5549
▁overall	-5550
▁parfait	-5551
▁parties	-5552
▁passion	-5553
▁pastime	-5554
▁payment	-5555
▁perjury	-5556
▁persuit	-5557
▁picture	-5558
▁platter	-5559
▁pleased	-5560
▁plugins	-5561
▁pointed	-5562
▁promote	-5563
▁pudding	-5564
▁raffles	-5565
▁rampant	-5566
▁ratings	-5567
▁reached	-5568
▁reaches	-5569
▁realise	-5570
▁recover	-5571
▁rehabil	-5572
▁replies	-5573
▁respond	-5574
▁revenge	-5575
▁reverse	-5576
▁routine	-5577
▁scratch	-5578
▁seconds	-5579
▁secular	-5580
▁secured	-5581
▁sending	-5582
▁shipped	-5583
▁shorter	-5584
▁simpler	-5585
▁sleeker	-5586
▁sourced	-5587
▁squeeze	-5588
▁station	-5589
▁stellar	-5590
▁stimuli	-5591
▁strateg	-5592
▁surgery	-5593
▁sustain	-5594
▁tapioca	-5595
▁tenders	-5596
▁traumat	-5597
▁trusted	-5598
▁typical	-5599
▁unknown	-5600
▁updates	-5601
▁veggies	-5602
▁visited	-5603
▁warming	-5604
▁watches	-5605
▁website	-5606
▁western	-5607
▁wouldnt	-5608
▁wrapped	-5609
▁writers	-5610
▁wronged	-5611
▁younger	-5612
Evolution	-5613
Therefore	-5614
arrassing	-5615
depending	-5616
ellectual	-5617
itionally	-5618
political	-5619
▁Actually	-5620
▁Anything	-5621
▁Beverage	-5622
▁Computer	-5623
▁Criminal	-5624
▁Explorer	-5625
▁Generals	-5626
▁Internet	-5627
▁Liberals	-5628
▁Marriage	-5629
▁McDonald	-5630
▁Minister	-5631
▁Moreover	-5632
▁Narendra	-5633
▁National	-5634
▁Physical	-5635
▁Politics	-5636
▁Remember	-5637
▁Samantha	-5638
▁Saturday	-5639
▁Security	-5640
▁Spanking	-5641
▁Uniforms	-5642
▁Watching	-5643
▁absolute	-5644
▁academic	-5645
▁addition	-5646
▁admitted	-5647
▁adultery	-5648
▁affected	-5649
▁analysis	-5650
▁anywhere	-5651
▁bankrupt	-5652
▁baseball	-5653
▁becoming	-5654
▁believes	-5655
▁boneless	-5656
▁bookmark	-5657
▁boosting	-5658
▁boutique	-5659
▁breeding	-5660
▁browsers	-5661
▁browsing	-5662
▁calories	-5663
▁category	-5664
▁changing	-5665
▁cheering	-5666
▁chemical	-5667
▁civilian	-5668
▁concrete	-5669
▁conflict	-5670
▁consumer	-5671
▁contacts	-5672
▁counties	-5673
▁coverage	-5674
▁creative	-5675
▁criteria	-5676
▁daughter	-5677
▁defining	-5678
▁deprives	-5679
▁deserves	-5680
▁designer	-5681
▁detailed	-5682
▁diabetic	-5683
▁domestic	-5684
▁download	-5685
▁downside	-5686
▁elements	-5687
▁employee	-5688
▁entirely	-5689
▁everyday	-5690
▁expenses	-5691
▁feelings	-5692
▁filtered	-5693
▁fountain	-5694
▁genocide	-5695
▁homemade	-5696
▁ideology	-5697
▁ignorant	-5698
▁incident	-5699
▁included	-5700
▁includes	-5701
▁independ	-5702
▁inferior	-5703
▁insecure	-5704
▁interact	-5705
▁intruder	-5706
▁invested	-5707
▁jackpots	-5708
▁lawsuits	-5709
▁licenses	-5710
▁location	-5711
▁managing	-5712
▁material	-5713
▁millions	-5714
▁minister	-5715
▁motivate	-5716
▁nowadays	-5717
▁occasion	-5718
▁plastics	-5719
▁pleasing	-5720
▁policies	-5721
▁policing	-5722
▁presents	-5723
▁pressure	-5724
▁purposes	-5725
▁reaching	-5726
▁reaction	-5727
▁referral	-5728
▁released	-5729
▁relevant	-5730
▁remained	-5731
▁reminded	-5732
▁resource	-5733
▁rightful	-5734
▁salaried	-5735
▁schedule	-5736
▁separate	-5737
▁shouldnt	-5738
▁somewhat	-5739
▁speakers	-5740
▁starting	-5741
▁starving	-5742
▁stepping	-5743
▁steroids	-5744
▁straight	-5745
▁strength	-5746
▁strictly	-5747
▁subjects	-5748
▁suicidal	-5749
▁superior	-5750
▁themself	-5751
▁thirteen	-5752
▁thousand	-5753
▁transfer	-5754
▁turnover	-5755
▁unlikely	-5756
▁unwanted	-5757
▁valuable	-5758
▁violated	-5759
▁violence	-5760
▁waitress	-5761
▁weekends	-5762
targetting	-5763
▁Americans	-5764
▁Basically	-5765
▁Economist	-5766
▁Everybody	-5767
▁Microsoft	-5768
▁President	-5769
▁abolished	-5770
▁acknowled	-5771
▁advertise	-5772
▁answering	-5773
▁apartment	-5774
▁architect	-5775
▁boyfriend	-5776
▁carefully	-5777
▁celebrate	-5778
▁classroom	-5779
▁comparing	-5780
▁competent	-5781
▁completed	-5782
▁condemned	-5783
▁confusing	-5784
▁connected	-5785
▁continued	-5786
▁criterium	-5787
▁customers	-5788
▁daughters	-5789
▁degrading	-5790
▁delivered	-5791
▁depressed	-5792
▁depresses	-5793
▁detriment	-5794
▁diversity	-5795
▁downsides	-5796
▁economics	-5797
▁efficient	-5798
▁elections	-5799
▁elsewhere	-5800
▁encourage	-5801
▁entertain	-5802
▁essential	-5803
▁estimated	-5804
▁exonerate	-5805
▁fortunate	-5806
▁gathering	-5807
▁governing	-5808
▁highlight	-5809
▁identical	-5810
▁immigrant	-5811
▁implement	-5812
▁improving	-5813
▁increased	-5814
▁investing	-5815
▁involving	-5816
▁lifestyle	-5817
▁literally	-5818
▁loopholes	-5819
▁naturally	-5820
▁outsiders	-5821
▁overrated	-5822
▁ownership	-5823
▁perfectly	-5824
▁permanent	-5825
▁personnel	-5826
▁petroleum	-5827
▁poisoning	-5828
▁pollution	-5829
▁prejudice	-5830
▁processes	-5831
▁producers	-5832
▁prosecute	-5833
▁providing	-5834
▁publicity	-5835
▁qualities	-5836
▁regarding	-5837
▁regularly	-5838
▁regulated	-5839
▁sacrafice	-5840
▁sacrifice	-5841
▁satisfied	-5842
▁screening	-5843
▁seasoning	-5844
▁seemingly	-5845
▁societies	-5846
▁streaming	-5847
▁suggested	-5848
▁superiors	-5849
▁supported	-5850
▁terrorist	-5851
▁unethical	-5852
▁virtually	-5853
▁witnesses	-5854
volutionary	-5855
▁Absolutely	-5856
▁California	-5857
▁Eventually	-5858
▁Healthcare	-5859
▁Management	-5860
▁Republican	-5861
▁accomodate	-5862
▁activities	-5863
▁advantages	-5864
▁aggression	-5865
▁algorithms	-5866
▁appreciate	-5867
▁assumption	-5868
▁attempting	-5869
▁beneficial	-5870
▁censorship	-5871
▁ceremonies	-5872
▁conclusion	-5873
▁conditions	-5874
▁confidence	-5875
▁constantly	-5876
▁continuing	-5877
▁continuous	-5878
▁curriculum	-5879
▁decriminal	-5880
▁department	-5881
▁discredits	-5882
▁discussing	-5883
▁disturbing	-5884
▁efficiency	-5885
▁electrical	-5886
▁engagement	-5887
▁healthcare	-5888
▁heartaches	-5889
▁impossible	-5890
▁increasing	-5891
▁incredibly	-5892
▁inherently	-5893
▁litigation	-5894
▁newspapers	-5895
▁obligatory	-5896
▁observable	-5897
▁occupation	-5898
▁originally	-5899
▁overcooked	-5900
▁overpriced	-5901
▁overweight	-5902
▁patriotism	-5903
▁performing	-5904
▁permission	-5905
▁popularity	-5906
▁positively	-5907
▁programmed	-5908
▁prohibited	-5909
▁prosecuted	-5910
▁questioned	-5911
▁references	-5912
▁regardless	-5913
▁respectful	-5914
▁smartphone	-5915
▁soundtrack	-5916
▁structures	-5917
▁sufficient	-5918
▁supervisor	-5919
▁sympathize	-5920
▁technology	-5921
▁television	-5922
▁traditions	-5923
▁victimless	-5924
▁Furthermore	-5925
▁affirmation	-5926
▁alternative	-5927
▁application	-5928
▁association	-5929
▁automobiles	-5930
▁communities	-5931
▁competitors	-5932
▁compression	-5933
▁concentrate	-5934
▁considering	-5935
▁controllers	-5936
▁definitions	-5937
▁directional	-5938
▁enforcement	-5939
▁expectation	-5940
▁experiences	-5941
▁explanation	-5942
▁fundamental	-5943
▁governments	-5944
▁handicapped	-5945
▁importantly	-5946
▁inalienable	-5947
▁integration	-5948
▁interaction	-5949
▁involvement	-5950
▁manufacture	-5951
▁outstanding	-5952
▁participate	-5953
▁performance	-5954
▁perspective	-5955
▁predisposed	-5956
▁proceedings	-5957
▁progressive	-5958
▁protectable	-5959
▁recognition	-5960
▁requirement	-5961
▁reservation	-5962
▁retribution	-5963
▁spectacular	-5964
▁substantial	-5965
▁surrounding	-5966
▁technically	-5967
▁theoretical	-5968
▁traumatized	-5969
▁Additionally	-5970
▁Libertarians	-5971
▁accidentally	-5972
▁construction	-5973
▁embarrassing	-5974
▁expectations	-5975
▁imprisonment	-5976
▁intellectual	-5977
▁investigated	-5978
▁particularly	-5979
▁perpetrators	-5980
▁professional	-5981
▁requirements	-5982
▁satisfaction	-5983
▁specifically	-5984
▁successfully	-5985
▁unemployment	-5986
▁universities	-5987
▁vaccinations	-5988
▁accommodating	-5989
▁automatically	-5990
▁beneficiaries	-5991
▁communication	-5992
▁conservatives	-5993
▁establishment	-5994
▁homosexuality	-5995
▁individuality	-5996
▁justification	-5997
▁opportunities	-5998
▁philosophical	-5999
▁revolutionary	-6000
▁uncomfortable	-6001
▁Scientologists	-6002
▁disappointment	-6003
▁interpretation	-6004
▁responsibility	-6005
▁representatives	-6006
(7.	-6007
**.	-6008
.4)	-6009
/50	-6010
103	-6011
13,	-6012
15)	-6013
18,	-6014
347	-6015
ARY	-6016
ASE	-6017
CHI	-6018
ELY	-6019
FLA	-6020
HAN	-6021
IAL	-6022
IFA	-6023
IFO	-6024
KEN	-6025
LEG	-6026
LLI	-6027
PLE	-6028
SID	-6029
SIS	-6030
TML	-6031
UNT	-6032
YPE	-6033
axy	-6034
ews	-6035
mok	-6036
nik	-6037
shr	-6038
two	-6039
(7.6	-6040
-47'	-6041
/50.	-6042
8.50	-6043
Anim	-6044
CCHI	-6045
CKEN	-6046
Coca	-6047
EDIA	-6048
FLAG	-6049
IFOR	-6050
LEAR	-6051
LEGA	-6052
LUNT	-6053
OAST	-6054
Supp	-6055
TELY	-6056
Toby	-6057
addy	-6058
aisy	-6059
ajun	-6060
angs	-6061
baly	-6062
belt	-6063
dale	-6064
door	-6065
elax	-6066
flow	-6067
huff	-6068
iene	-6069
infl	-6070
kley	-6071
mbol	-6072
mbre	-6073
offs	-6074
okay	-6075
pret	-6076
scar	-6077
scre	-6078
warr	-6079
yond	-6080
ypoc	-6081
▁,,,	-6082
▁1/3	-6083
▁160	-6084
▁3-7	-6085
▁40,	-6086
▁7.0	-6087
▁Arm	-6088
▁CAN	-6089
▁CPS	-6090
▁GNO	-6091
▁HUD	-6092
▁IMO	-6093
▁Khr	-6094
▁LOB	-6095
▁MMO	-6096
▁NFL	-6097
▁Raj	-6098
▁SCH	-6099
4.2	-6100
ITH	-6101
PEG	-6102
oza	-6103
34.2	-6104
AITH	-6105
JPEG	-6106
caus	-6107
clos	-6108
izio	-6109
▁50.	-6110
▁See	-6111
▁Two	-6112
▁WWW	-6113
▁Yea	-6114
▁apo	-6115
▁btw	-6116
▁eye	-6117
▁juv	-6118
▁oun	-6119
▁pip	-6120
▁yrs	-6121
▁zer	-6122
(7.63	-6123
34.24	-6124
34718	-6125
5.15)	-6126
?"...	-6127
Books	-6128
Court	-6129
Donne	-6130
LEGAL	-6131
LLISI	-6132
NTENT	-6133
OTENT	-6134
Pepsi	-6135
Speed	-6136
UTHAN	-6137
VERYB	-6138
afein	-6139
afood	-6140
agnos	-6141
alaxy	-6142
amole	-6143
apien	-6144
attoo	-6145
becca	-6146
cabin	-6147
chies	-6148
daddy	-6149
domen	-6150
elato	-6151
engen	-6152
euros	-6153
eyond	-6154
faith	-6155
handr	-6156
harma	-6157
hetic	-6158
idala	-6159
ietly	-6160
lacks	-6161
nikaw	-6162
oaded	-6163
ockey	-6164
octor	-6165
oetus	-6166
oleon	-6167
omena	-6168
onald	-6169
orgia	-6170
ossil	-6171
otomy	-6172
pired	-6173
shell	-6174
sorry	-6175
taste	-6176
topia	-6177
truck	-6178
tured	-6179
undan	-6180
unsav	-6181
urkey	-6182
uscan	-6183
white	-6184
women	-6185
ypocr	-6186
▁...)	-6187
▁1976	-6188
▁7:30	-6189
▁Arab	-6190
▁Argu	-6191
▁Comm	-6192
▁Dogs	-6193
▁Flay	-6194
▁LOBS	-6195
▁Lenn	-6196
▁Lobb	-6197
▁Mask	-6198
▁Moon	-6199
.5.	-6200
.52	-6201
gov	-6202
▁60	-6203
.52,	-6204
Play	-6205
ango	-6206
▁LOV	-6207
▁gee	-6208
▁glo	-6209
▁hyb	-6210
arran	-6211
nyder	-6212
pairs	-6213
ranst	-6214
unned	-6215
▁60-7	-6216
▁6000	-6217
▁Grow	-6218
▁LOVE	-6219
▁Pran	-6220
▁Punk	-6221
▁Ruth	-6222
▁STOP	-6223
▁THEN	-6224
▁THER	-6225
▁Toby	-6226
▁Tuna	-6227
▁Twel	-6228
▁UNIT	-6229
▁Yeah	-6230
▁amok	-6231
▁anxi	-6232
▁batt	-6233
▁bias	-6234
▁bowl	-6235
▁boys	-6236
▁bugs	-6237
▁clip	-6238
▁crab	-6239
▁cycl	-6240
▁fasc	-6241
▁fond	-6242
▁gang	-6243
▁garb	-6244
▁grie	-6245
▁grip	-6246
▁irks	-6247
▁juvy	-6248
▁mamm	-6249
▁netw	-6250
▁nude	-6251
▁nuer	-6252
▁nutr	-6253
▁palm	-6254
▁phos	-6255
▁pubs	-6256
▁pugs	-6257
▁sibl	-6258
▁tang	-6259
▁tuna	-6260
▁undo	-6261
▁uplo	-6262
▁veto	-6263
▁whlo	-6264
▁yeah	-6265
▁zone	-6266
!!!!!)	-6267
(5.15)	-6268
20,000	-6269
34.24"	-6270
Anyway	-6271
LEARLY	-6272
LLEGAL	-6273
Lastly	-6274
MMEDIA	-6275
OOOOOD	-6276
Playst	-6277
Pretty	-6278
Voting	-6279
aguire	-6280
attley	-6281
attoos	-6282
belief	-6283
biance	-6284
causal	-6285
chaser	-6286
chigan	-6287
church	-6288
claims	-6289
direct	-6290
elping	-6291
esired	-6292
felons	-6293
gotist	-6294
hangas	-6295
heimer	-6296
histic	-6297
histor	-6298
hoenix	-6299
GER	-6300
▁7,	-6301
▁7:	-6302
phor	-6303
UNGER	-6304
droom	-6305
matic	-6306
▁7:00	-6307
▁Code	-6308
▁Mush	-6309
▁cali	-6310
▁envi	-6311
▁rush	-6312
▁shie	-6313
ecrate	-6314
etwork	-6315
huffle	-6316
iantly	-6317
iapted	-6318
ietnam	-6319
incipl	-6320
includ	-6321
irthed	-6322
iscons	-6323
kewise	-6324
lawyer	-6325
matics	-6326
onsibl	-6327
onsmok	-6328
ottery	-6329
phoric	-6330
piring	-6331
pisode	-6332
pocrit	-6333
points	-6334
pushed	-6335
puting	-6336
quests	-6337
rassil	-6338
rincip	-6339
rolled	-6340
social	-6341
tching	-6342
tsdale	-6343
ublime	-6344
ugment	-6345
ushche	-6346
ussels	-6347
ussien	-6348
veiled	-6349
winner	-6350
zoning	-6351
▁10.00	-6352
▁12-20	-6353
▁15-20	-6354
▁1973,	-6355
▁1977.	-6356
▁Again	-6357
▁Apart	-6358
▁Brian	-6359
▁Briet	-6360
▁Cajun	-6361
▁Charl	-6362
▁Cheen	-6363
▁Compl	-6364
▁Const	-6365
▁Contr	-6366
▁Crisp	-6367
▁FAITH	-6368
▁FIGHT	-6369
▁Faith	-6370
▁Flame	-6371
▁Going	-6372
▁Guant	-6373
▁HomeN	-6374
▁Jango	-6375
▁Korea	-6376
▁LOVES	-6377
▁Looks	-6378
▁Lucky	-6379
▁Madag	-6380
▁Manip	-6381
▁Order	-6382
▁Paris	-6383
▁Recca	-6384
▁Relax	-6385
▁Roast	-6386
▁SCHOO	-6387
▁Spend	-6388
▁Starb	-6389
▁THERE	-6390
▁Teens	-6391
▁Women	-6392
▁Worth	-6393
▁ahold	-6394
▁alarm	-6395
▁alcoh	-6396
▁algor	-6397
▁analy	-6398
▁assem	-6399
?',	-6400
ACT	-6401
Coke	-6402
Tech	-6403
cogn	-6404
lony	-6405
roth	-6406
umbo	-6407
▁---	-6408
OLUNT	-6409
Techn	-6410
avana	-6411
dging	-6412
forms	-6413
imony	-6414
lects	-6415
mells	-6416
oldly	-6417
otony	-6418
uency	-6419
▁Clan	-6420
▁Copy	-6421
▁Geor	-6422
▁High	-6423
▁Tony	-6424
▁mumb	-6425
Health	-6426
astrop	-6427
hiroth	-6428
ipment	-6429
ostrom	-6430
ouched	-6431
recogn	-6432
vances	-6433
▁Brill	-6434
▁Claim	-6435
▁Copyw	-6436
▁Neigh	-6437
▁balls	-6438
▁banks	-6439
▁barre	-6440
▁boobs	-6441
▁brigh	-6442
▁bulld	-6443
▁bully	-6444
▁caffe	-6445
▁chaos	-6446
▁civic	-6447
▁clock	-6448
▁clubs	-6449
▁clung	-6450
▁cooks	-6451
▁counc	-6452
▁craze	-6453
▁deeds	-6454
▁demol	-6455
▁diarr	-6456
▁dogma	-6457
▁dooms	-6458
▁drama	-6459
▁empha	-6460
▁encod	-6461
▁fancy	-6462
▁fired	-6463
▁fuels	-6464
▁gangs	-6465
▁glass	-6466
▁globe	-6467
▁gloom	-6468
▁grabb	-6469
▁habit	-6470
▁hates	-6471
▁honor	-6472
▁hopes	-6473
▁hosts	-6474
▁hotel	-6475
▁hydro	-6476
▁ignor	-6477
▁items	-6478
▁jaded	-6479
▁juice	-6480
▁jumbo	-6481
▁lobby	-6482
▁mango	-6483
▁meets	-6484
▁messy	-6485
▁misbe	-6486
▁modif	-6487
▁mouth	-6488
▁multi	-6489
▁nomin	-6490
▁nukes	-6491
▁paral	-6492
▁pepsi	-6493
▁plaus	-6494
▁probl	-6495
▁ranks	-6496
▁riots	-6497
▁rules	-6498
▁scarc	-6499
VER	-6500
/201	-6501
20!!	-6502
comm	-6503
dows	-6504
said	-6505
ueso	-6506
/2013	-6507
cript	-6508
ompat	-6509
zling	-6510
▁Crow	-6511
▁EVER	-6512
▁Play	-6513
Assume	-6514
commer	-6515
hadows	-6516
mepted	-6517
osling	-6518
outube	-6519
ranted	-6520
zzling	-6521
▁Flash	-6522
▁affin	-6523
▁artic	-6524
▁divis	-6525
▁divor	-6526
▁drawn	-6527
▁frequ	-6528
▁loose	-6529
▁miles	-6530
▁minds	-6531
▁oncom	-6532
▁ready	-6533
▁scold	-6534
▁semes	-6535
▁sewer	-6536
▁ships	-6537
▁shops	-6538
▁silly	-6539
▁sizes	-6540
▁skept	-6541
▁skews	-6542
▁sniff	-6543
▁socks	-6544
▁souls	-6545
▁spino	-6546
▁stagn	-6547
▁stomp	-6548
▁straw	-6549
▁thief	-6550
▁tipha	-6551
▁tools	-6552
▁toolt	-6553
▁trend	-6554
▁troub	-6555
▁umbre	-6556
▁unsub	-6557
▁urges	-6558
▁vague	-6559
▁windy	-6560
▁wiped	-6561
20,000,	-6562
Animals	-6563
Another	-6564
Hillary	-6565
Ordered	-6566
SISTENT	-6567
UTHANAS	-6568
Youtube	-6569
abbings	-6570
acamole	-6571
agnosis	-6572
allible	-6573
antaged	-6574
arassal	-6575
ardized	-6576
aringly	-6577
athroom	-6578
awesome	-6579
balance	-6580
bearing	-6581
believe	-6582
borhood	-6583
cabinet	-6584
commits	-6585
creased	-6586
criptor	-6587
custody	-6588
customs	-6589
damages	-6590
dollars	-6591
emepted	-6592
enagers	-6593
esecake	-6594
esimony	-6595
estones	-6596
estrong	-6597
failing	-6598
failure	-6599
▁90	-6600
hels	-6601
uild	-6602
▁Isl	-6603
build	-6604
deeds	-6605
eddit	-6606
faces	-6607
imacy	-6608
osses	-6609
touch	-6610
▁GOOD	-6611
▁Issu	-6612
▁Vacc	-6613
▁irre	-6614
▁ribs	-6615
Bleach	-6616
ackson	-6617
icians	-6618
imilar	-6619
othels	-6620
witter	-6621
▁Islam	-6622
▁cloth	-6623
▁diner	-6624
▁loses	-6625
Similar	-6626
estream	-6627
ference	-6628
friends	-6629
handray	-6630
harmony	-6631
healthy	-6632
hiestic	-6633
hington	-6634
iblical	-6635
iloring	-6636
incipal	-6637
inishes	-6638
irectly	-6639
isional	-6640
itching	-6641
itimacy	-6642
itivity	-6643
leasing	-6644
levated	-6645
lexible	-6646
linging	-6647
manager	-6648
olistic	-6649
orderly	-6650
parents	-6651
pecialy	-6652
percuss	-6653
perform	-6654
putable	-6655
quiring	-6656
ranston	-6657
repairs	-6658
requent	-6659
request	-6660
ricting	-6661
rifying	-6662
ringing	-6663
rinking	-6664
roduced	-6665
russels	-6666
secured	-6667
suicide	-6668
trained	-6669
ttorney	-6670
unlight	-6671
welling	-6672
zheimer	-6673
▁50/50.	-6674
▁Anyway	-6675
▁Armory	-6676
▁Beyond	-6677
▁Blairs	-6678
▁Bleach	-6679
▁Border	-6680
▁Bureau	-6681
▁Canada	-6682
▁Canadi	-6683
▁Cannot	-6684
▁Carter	-6685
▁Church	-6686
▁Claims	-6687
▁Clause	-6688
▁Commer	-6689
▁Dollar	-6690
▁EVERYB	-6691
▁Enable	-6692
▁Expose	-6693
▁Galaxy	-6694
▁HUNGER	-6695
▁Hammon	-6696
▁Hiring	-6697
▁Hypocr	-6698
▁INTENT	-6699
".*	-6700
.4.	-6701
EED	-6702
Plu	-6703
Bush	-6704
Plug	-6705
hics	-6706
Cuban	-6707
chise	-6708
eches	-6709
fernt	-6710
hilad	-6711
lifer	-6712
reams	-6713
▁Fein	-6714
▁NEED	-6715
▁Rams	-6716
▁chug	-6717
▁horr	-6718
▁humm	-6719
▁mile	-6720
▁omit	-6721
aphics	-6722
condly	-6723
harged	-6724
issile	-6725
likely	-6726
ophile	-6727
▁Peach	-6728
▁bites	-6729
▁combo	-6730
▁handg	-6731
▁juicy	-6732
▁lands	-6733
▁plead	-6734
▁prais	-6735
▁seams	-6736
▁skill	-6737
▁tempt	-6738
anchise	-6739
assault	-6740
econdly	-6741
hiladas	-6742
▁Inizio	-6743
▁Johnny	-6744
▁League	-6745
▁Listed	-6746
▁Living	-6747
▁Loaded	-6748
▁Majora	-6749
▁Misjud	-6750
▁Misuse	-6751
▁Palest	-6752
▁Player	-6753
▁Polyam	-6754
▁Pranab	-6755
▁Racial	-6756
▁Rajast	-6757
▁Ramsay	-6758
▁Saying	-6759
▁Seeing	-6760
▁Serbia	-6761
▁Snyder	-6762
▁Soccer	-6763
▁Sounds	-6764
▁Tengen	-6765
▁Twelve	-6766
▁UNIFOR	-6767
▁Utopia	-6768
▁VOLUNT	-6769
▁Winter	-6770
▁abuser	-6771
▁adulth	-6772
▁advert	-6773
▁afflic	-6774
▁agency	-6775
▁aiding	-6776
▁analyz	-6777
▁animal	-6778
▁animos	-6779
▁apolig	-6780
▁artist	-6781
▁awared	-6782
▁awhile	-6783
▁ballot	-6784
▁battle	-6785
▁beauty	-6786
▁behalf	-6787
▁behave	-6788
▁berate	-6789
▁biomet	-6790
▁blocks	-6791
▁boldly	-6792
▁bosses	-6793
▁breakf	-6794
▁breath	-6795
▁bucket	-6796
▁bullet	-6797
▁bumper	-6798
▁bureau	-6799
asco	-6800
engg	-6801
iliz	-6802
iscu	-6803
ooth	-6804
rina	-6805
thew	-6806
▁10,	-6807
▁Six	-6808
▁eco	-6809
▁pix	-6810
erted	-6811
heavy	-6812
iasco	-6813
ibili	-6814
rille	-6815
▁Ange	-6816
▁Vers	-6817
▁View	-6818
▁bars	-6819
▁cuts	-6820
abiliz	-6821
atrina	-6822
atthew	-6823
candid	-6824
emengg	-6825
herita	-6826
inians	-6827
oothly	-6828
picion	-6829
▁10-20	-6830
▁Anand	-6831
▁Angel	-6832
▁Based	-6833
▁Versa	-6834
▁biscu	-6835
▁munch	-6836
▁pricy	-6837
▁shift	-6838
▁shock	-6839
▁slide	-6840
▁solar	-6841
▁taboo	-6842
▁trigg	-6843
gherita	-6844
ibilily	-6845
▁Cheeny	-6846
▁Grille	-6847
▁burned	-6848
▁busier	-6849
▁chains	-6850
▁checks	-6851
▁cheesy	-6852
▁cheque	-6853
▁cigars	-6854
▁clones	-6855
▁closes	-6856
▁cloths	-6857
▁cognit	-6858
▁conque	-6859
▁cringe	-6860
▁darker	-6861
▁dealer	-6862
▁decoys	-6863
▁doctor	-6864
▁doomed	-6865
▁dreams	-6866
▁emphas	-6867
▁equili	-6868
▁exceed	-6869
▁excers	-6870
▁exclud	-6871
▁explic	-6872
▁explos	-6873
▁famili	-6874
▁fascin	-6875
▁faults	-6876
▁felony	-6877
▁fiasco	-6878
▁filler	-6879
▁firmly	-6880
▁flawed	-6881
▁flight	-6882
▁fondly	-6883
▁fossil	-6884
▁funded	-6885
▁futile	-6886
▁gPepsi	-6887
▁gallop	-6888
▁gaming	-6889
▁gelato	-6890
▁grandm	-6891
▁greasy	-6892
▁hockey	-6893
▁holder	-6894
▁honors	-6895
▁horror	-6896
▁illust	-6897
▁imagin	-6898
▁implic	-6899
azi	-6900
▁47	-6901
7.50	-6902
Huge	-6903
chup	-6904
rids	-6905
upac	-6906
▁AID	-6907
▁Cup	-6908
▁Kid	-6909
▁LIT	-6910
▁ava	-6911
ghbor	-6912
hamed	-6913
lared	-6914
speci	-6915
▁AIDS	-6916
▁Kart	-6917
▁Kids	-6918
▁LITT	-6919
▁Leag	-6920
▁Nazi	-6921
▁avoc	-6922
▁bris	-6923
almost	-6924
etchup	-6925
forced	-6926
invent	-6927
monize	-6928
oubted	-6929
racial	-6930
vented	-6931
▁9.52,	-6932
▁Dying	-6933
▁Tupac	-6934
▁boxes	-6935
▁homop	-6936
▁maker	-6937
▁misin	-6938
Firefox	-6939
atively	-6940
bortion	-6941
ensives	-6942
ieghbor	-6943
leading	-6944
success	-6945
▁Crisis	-6946
▁Donald	-6947
▁Invent	-6948
▁LITTLE	-6949
▁Leagle	-6950
▁absent	-6951
▁avocad	-6952
▁awards	-6953
▁custod	-6954
▁fewest	-6955
▁incons	-6956
▁incumb	-6957
▁injury	-6958
▁insane	-6959
▁isjust	-6960
▁jacket	-6961
▁joking	-6962
▁layman	-6963
▁limits	-6964
▁loaded	-6965
▁loathe	-6966
▁machin	-6967
▁manner	-6968
▁masses	-6969
▁missed	-6970
▁noodle	-6971
▁output	-6972
▁paperc	-6973
▁papers	-6974
▁pedest	-6975
▁picker	-6976
▁piping	-6977
▁planet	-6978
▁popped	-6979
▁premie	-6980
▁presti	-6981
▁preval	-6982
▁raised	-6983
▁reborn	-6984
▁refuge	-6985
▁remark	-6986
▁repeat	-6987
▁rounds	-6988
▁rubber	-6989
▁runner	-6990
▁rushed	-6991
▁safest	-6992
▁scarce	-6993
▁scared	-6994
▁screen	-6995
▁sealed	-6996
▁serval	-6997
▁sheets	-6998
▁shitti	-6999
Ing	-7000
ups	-7001
ervo	-7002
lips	-7003
eself	-7004
▁Asus	-7005
▁Left	-7006
▁Stal	-7007
▁Stan	-7008
▁apes	-7009
▁brew	-7010
▁fans	-7011
▁gIng	-7012
▁hips	-7013
▁punn	-7014
▁shap	-7015
▁shaw	-7016
Speech	-7017
anning	-7018
cently	-7019
ervoir	-7020
island	-7021
itutes	-7022
lander	-7023
▁Stand	-7024
▁amans	-7025
▁bodys	-7026
▁chips	-7027
▁harms	-7028
▁loans	-7029
▁malay	-7030
▁numer	-7031
▁painf	-7032
▁runes	-7033
▁shall	-7034
▁soldi	-7035
▁steer	-7036
▁trips	-7037
▁worng	-7038
landers	-7039
ourning	-7040
▁Spider	-7041
▁Stalin	-7042
▁breach	-7043
▁brewed	-7044
▁depart	-7045
▁expose	-7046
▁filing	-7047
▁growth	-7048
▁phenom	-7049
▁sauces	-7050
▁shapes	-7051
▁shares	-7052
▁slaves	-7053
▁slower	-7054
▁slowly	-7055
▁smells	-7056
▁smoker	-7057
▁sniffs	-7058
▁solely	-7059
▁solved	-7060
▁solves	-7061
▁sorrow	-7062
▁souven	-7063
▁spectr	-7064
▁sticks	-7065
▁submit	-7066
▁summon	-7067
▁surpri	-7068
▁surviv	-7069
▁symbol	-7070
▁tarter	-7071
▁tastes	-7072
▁temple	-7073
▁therip	-7074
▁toilet	-7075
▁tolerl	-7076
▁tomato	-7077
▁tricky	-7078
▁trigge	-7079
▁turkey	-7080
▁tuscan	-7081
▁undead	-7082
▁united	-7083
▁unsure	-7084
▁variab	-7085
▁veggie	-7086
▁versus	-7087
▁voided	-7088
▁volley	-7089
▁weapon	-7090
▁wishes	-7091
▁writer	-7092
/20/2013	-7093
Donnells	-7094
Internet	-7095
Religion	-7096
Remember	-7097
Secondly	-7098
aception	-7099
▁.4	-7100
hope	-7101
▁.40	-7102
Desec	-7103
airly	-7104
ficed	-7105
grabb	-7106
▁Hair	-7107
▁Hope	-7108
▁Nope	-7109
▁SSID	-7110
▁Topp	-7111
▁arms	-7112
▁choo	-7113
▁gods	-7114
▁hole	-7115
▁muse	-7116
actics	-7117
arison	-7118
colate	-7119
geball	-7120
imizer	-7121
istake	-7122
istics	-7123
ointed	-7124
ungies	-7125
▁Benef	-7126
▁Fries	-7127
▁Point	-7128
▁Toppa	-7129
▁buyer	-7130
▁crisp	-7131
▁debit	-7132
▁drive	-7133
▁flake	-7134
▁hover	-7135
▁lices	-7136
▁roast	-7137
▁stake	-7138
▁unlaw	-7139
alities	-7140
restles	-7141
witched	-7142
▁Fairly	-7143
▁Yester	-7144
▁accuse	-7145
▁discre	-7146
▁flakey	-7147
▁intake	-7148
▁letter	-7149
▁licesn	-7150
▁museum	-7151
▁propag	-7152
▁stands	-7153
▁unborn	-7154
▁vastly	-7155
andering	-7156
antantly	-7157
apointed	-7158
arnished	-7159
avourite	-7160
bersSupp	-7161
business	-7162
chemical	-7163
chipping	-7164
cklessly	-7165
closures	-7166
democrat	-7167
drinking	-7168
elevated	-7169
emocrats	-7170
ervative	-7171
eservoir	-7172
everages	-7173
existent	-7174
friendsj	-7175
grabbing	-7176
grateful	-7177
handraya	-7178
hilating	-7179
incurred	-7180
indirect	-7181
inforced	-7182
intellig	-7183
isconsin	-7184
ividuals	-7185
marriage	-7186
messinis	-7187
missable	-7188
national	-7189
nections	-7190
notation	-7191
odgeball	-7192
ographic	-7193
ominican	-7194
ontology	-7195
ooperate	-7196
ordinary	-7197
ordinate	-7198
ottsdale	-7199
▁5.	-7200
▁xt	-7201
away	-7202
hens	-7203
move	-7204
nees	-7205
then	-7206
ucks	-7207
weed	-7208
yday	-7209
▁Bec	-7210
▁Haw	-7211
▁Ign	-7212
▁jaw	-7213
▁owe	-7214
power	-7215
▁Beat	-7216
▁Duck	-7217
▁Orwe	-7218
▁Palp	-7219
▁died	-7220
▁diet	-7221
▁dife	-7222
▁dime	-7223
▁xtra	-7224
rehens	-7225
ristle	-7226
▁PCsIf	-7227
▁Water	-7228
▁cater	-7229
▁karma	-7230
▁knees	-7231
▁remod	-7232
▁remor	-7233
▁scott	-7234
▁succe	-7235
quility	-7236
ributed	-7237
rossing	-7238
thening	-7239
ushchev	-7240
▁Palpat	-7241
▁entail	-7242
▁flames	-7243
▁forego	-7244
▁hayday	-7245
▁native	-7246
▁region	-7247
▁secure	-7248
▁treaty	-7249
▁tribal	-7250
oubtedly	-7251
particip	-7252
perature	-7253
ravating	-7254
religion	-7255
rination	-7256
ringment	-7257
risingly	-7258
sanctity	-7259
stration	-7260
unlikely	-7261
uspected	-7262
vantaged	-7263
whomever	-7264
▁(!!!!!)	-7265
▁Actions	-7266
▁Arsenal	-7267
▁Beatles	-7268
▁Because	-7269
▁Bostrom	-7270
▁Bungies	-7271
▁Burgers	-7272
▁COLLISI	-7273
▁Charlot	-7274
▁Charter	-7275
▁Chicken	-7276
▁Classic	-7277
▁Damages	-7278
▁Episode	-7279
▁Federal	-7280
▁Firstly	-7281
▁Forcing	-7282
▁Frankly	-7283
▁GNOCCHI	-7284
▁Germany	-7285
▁Gosling	-7286
▁Granted	-7287
▁Growing	-7288
▁Guantan	-7289
▁Hawking	-7290
▁Hussien	-7291
▁Iranian	-7292
▁Jackson	-7293
▁Katrina	-7294
▁Kingdom	-7295
▁Lottery	-7296
▁Madagas	-7297
▁Madison	-7298
▁Minimum	-7299
box	-7300
vib	-7301
Read	-7302
ibel	-7303
ibil	-7304
lete	-7305
nwer	-7306
ooey	-7307
sked	-7308
ssum	-7309
vise	-7310
▁21.	-7311
▁3.0	-7312
▁Ate	-7313
▁axi	-7314
anced	-7315
isman	-7316
issed	-7317
issol	-7318
orked	-7319
raise	-7320
reads	-7321
unism	-7322
▁Sony	-7323
▁bloc	-7324
▁educ	-7325
▁flas	-7326
▁iced	-7327
▁sett	-7328
▁tril	-7329
▁vise	-7330
xample	-7331
▁Assum	-7332
▁Libel	-7333
▁answe	-7334
▁bouts	-7335
▁curly	-7336
▁gooey	-7337
▁lifet	-7338
▁noise	-7339
▁texts	-7340
▁wider	-7341
Example	-7342
arnings	-7343
issions	-7344
vibrate	-7345
whether	-7346
▁Dissol	-7347
▁Forced	-7348
▁Others	-7349
▁SCHOOL	-7350
▁asnwer	-7351
▁assort	-7352
▁cities	-7353
▁delete	-7354
▁downpl	-7355
▁hardly	-7356
▁kissed	-7357
▁merger	-7358
▁misman	-7359
▁noisey	-7360
▁refute	-7361
▁repost	-7362
▁trilog	-7363
▁unbear	-7364
▁wished	-7365
OTENTIAL	-7366
balanced	-7367
▁Baiting	-7368
▁Hammond	-7369
▁Misjudg	-7370
▁Missile	-7371
▁Network	-7372
▁Phoenix	-7373
▁Princip	-7374
▁Problem	-7375
▁Putting	-7376
▁Realist	-7377
▁Rebecca	-7378
▁Setting	-7379
▁Slander	-7380
▁Takings	-7381
▁Temengg	-7382
▁Thanksg	-7383
▁Twitter	-7384
▁Vietnam	-7385
▁abdomen	-7386
▁abusive	-7387
▁accused	-7388
▁adopter	-7389
▁adverse	-7390
▁afterno	-7391
▁airflow	-7392
▁alright	-7393
▁andused	-7394
▁appease	-7395
▁applies	-7396
▁article	-7397
▁ashamed	-7398
▁augment	-7399
ibs	-7400
▁3,	-7401
▁3.	-7402
ford	-7403
gets	-7404
ords	-7405
urns	-7406
▁3,8	-7407
▁Fij	-7408
▁USD	-7409
▁evo	-7410
▁twe	-7411
athom	-7412
bandw	-7413
hands	-7414
herer	-7415
party	-7416
sized	-7417
those	-7418
viets	-7419
words	-7420
▁Fiji	-7421
▁Fits	-7422
▁Gord	-7423
▁Iced	-7424
▁Note	-7425
▁Ribs	-7426
▁addu	-7427
▁bits	-7428
▁cock	-7429
▁cute	-7430
▁eats	-7431
▁edge	-7432
▁evry	-7433
▁fits	-7434
▁path	-7435
adgets	-7436
amford	-7437
herers	-7438
thouse	-7439
▁3,800	-7440
▁burns	-7441
▁calls	-7442
▁coach	-7443
▁cockf	-7444
▁colon	-7445
▁illus	-7446
▁indic	-7447
▁marks	-7448
▁mouse	-7449
▁seeks	-7450
▁tends	-7451
▁toolb	-7452
▁twele	-7453
bandwag	-7454
ifiable	-7455
italism	-7456
ublican	-7457
usiness	-7458
▁Gordon	-7459
▁Reddit	-7460
▁addull	-7461
▁crimeb	-7462
▁edible	-7463
▁evokes	-7464
▁marath	-7465
▁minute	-7466
▁talent	-7467
atherers	-7468
handsome	-7469
slinging	-7470
▁Instead	-7471
▁Soviets	-7472
▁avaible	-7473
▁birthed	-7474
▁blaring	-7475
▁blowing	-7476
▁breadth	-7477
▁buckets	-7478
▁bullets	-7479
▁bussing	-7480
▁calling	-7481
▁cartoon	-7482
▁channel	-7483
▁charity	-7484
▁checked	-7485
▁chronic	-7486
▁cleaner	-7487
▁clothed	-7488
▁combine	-7489
▁combust	-7490
▁compels	-7491
▁complex	-7492
▁concert	-7493
▁condemn	-7494
▁context	-7495
▁counsel	-7496
▁craving	-7497
▁creates	-7498
▁customs	-7499
-20'	-7500
aval	-7501
chae	-7502
lors	-7503
save	-7504
▁Jun	-7505
▁MIR	-7506
▁Ott	-7507
Gener	-7508
demon	-7509
iches	-7510
orial	-7511
▁Jade	-7512
▁June	-7513
▁MIRI	-7514
▁MMOR	-7515
▁cave	-7516
▁kidd	-7517
▁misl	-7518
▁rave	-7519
▁sche	-7520
▁scri	-7521
▁scru	-7522
▁slaw	-7523
▁wave	-7524
heaval	-7525
▁Andre	-7526
▁Ottom	-7527
▁Sorry	-7528
▁blast	-7529
▁brute	-7530
▁comeb	-7531
▁funct	-7532
▁match	-7533
▁revel	-7534
▁scary	-7535
▁schem	-7536
▁scrub	-7537
▁swoon	-7538
▁vener	-7539
arently	-7540
gements	-7541
igating	-7542
onments	-7543
versary	-7544
▁Andrew	-7545
▁adhere	-7546
▁archae	-7547
▁caveat	-7548
▁deeply	-7549
▁ideals	-7550
▁kiddos	-7551
▁lovely	-7552
▁points	-7553
▁reflex	-7554
▁script	-7555
▁scrubb	-7556
▁thrown	-7557
▁unfail	-7558
achelors	-7559
although	-7560
ishments	-7561
▁MMORPGs	-7562
▁Ottoman	-7563
▁amounts	-7564
▁cutting	-7565
▁darkest	-7566
▁debateI	-7567
▁decency	-7568
▁denotes	-7569
▁deposit	-7570
▁designs	-7571
▁desired	-7572
▁devoted	-7573
▁diarrhe	-7574
▁dipping	-7575
▁disastr	-7576
▁dislike	-7577
▁disrupt	-7578
▁dissent	-7579
▁distort	-7580
▁doctors	-7581
▁dreamed	-7582
▁dresses	-7583
▁earthly	-7584
▁educate	-7585
▁effects	-7586
▁egotist	-7587
▁elegant	-7588
▁emotion	-7589
▁empires	-7590
▁employs	-7591
▁endings	-7592
▁endless	-7593
▁engaged	-7594
▁equates	-7595
▁equilib	-7596
▁evryone	-7597
▁existed	-7598
▁expired	-7599
rgu	-7600
ucy	-7601
Argu	-7602
arne	-7603
butt	-7604
ledg	-7605
oliz	-7606
robe	-7607
▁12-	-7608
▁awe	-7609
▁nuc	-7610
ashed	-7611
guard	-7612
ighed	-7613
stick	-7614
swers	-7615
▁2000	-7616
▁Alas	-7617
▁Alum	-7618
▁Love	-7619
▁Lucy	-7620
▁Soup	-7621
▁WWII	-7622
▁beef	-7623
▁buck	-7624
▁desi	-7625
▁extr	-7626
▁mins	-7627
▁obed	-7628
▁rais	-7629
▁rape	-7630
affing	-7631
buttal	-7632
create	-7633
ivorce	-7634
losing	-7635
months	-7636
ricing	-7637
sticks	-7638
▁Carne	-7639
▁arran	-7640
▁badge	-7641
▁deser	-7642
▁desir	-7643
▁finds	-7644
▁gradu	-7645
▁lofty	-7646
▁solut	-7647
Arguing	-7648
answers	-7649
ardrobe	-7650
risdict	-7651
▁Alumni	-7652
▁desire	-7653
▁extras	-7654
▁idoliz	-7655
▁mashed	-7656
▁raises	-7657
▁salmon	-7658
bringing	-7659
guardian	-7660
ledgable	-7661
manently	-7662
olerance	-7663
▁Divorce	-7664
▁Pricing	-7665
▁Rolling	-7666
▁chances	-7667
▁desires	-7668
▁enlight	-7669
▁explode	-7670
▁exposed	-7671
▁fastest	-7672
▁fiddles	-7673
▁figured	-7674
▁firearm	-7675
▁flashes	-7676
▁fortune	-7677
▁fratern	-7678
▁frisked	-7679
▁gadgets	-7680
▁gasping	-7681
▁generic	-7682
▁geograp	-7683
▁grabbed	-7684
▁grandma	-7685
▁guilted	-7686
▁handled	-7687
▁happier	-7688
▁harrass	-7689
▁holdind	-7690
▁homeown	-7691
▁homopho	-7692
▁hybrids	-7693
▁ideally	-7694
▁infidel	-7695
▁inflamm	-7696
▁inflate	-7697
▁inhuman	-7698
▁intrins	-7699
lux	-7700
tog	-7701
ianc	-7702
iane	-7703
lift	-7704
luxe	-7705
rape	-7706
▁Agn	-7707
These	-7708
garit	-7709
medit	-7710
toget	-7711
▁Neur	-7712
▁chec	-7713
▁chee	-7714
▁chef	-7715
▁elig	-7716
▁gown	-7717
▁guar	-7718
▁legs	-7719
▁save	-7720
▁tips	-7721
foetus	-7722
lifted	-7723
mining	-7724
minist	-7725
▁Diane	-7726
▁accid	-7727
▁accus	-7728
▁cheek	-7729
▁cheif	-7730
▁clown	-7731
▁drain	-7732
▁fianc	-7733
▁imply	-7734
▁impul	-7735
▁liked	-7736
▁picks	-7737
▁saves	-7738
▁sorts	-7739
▁theft	-7740
Already	-7741
garitas	-7742
iltered	-7743
▁Agnost	-7744
▁Butter	-7745
▁Minion	-7746
▁Neuros	-7747
▁append	-7748
▁basing	-7749
▁brings	-7750
▁deluxe	-7751
▁incite	-7752
▁openly	-7753
▁saving	-7754
▁scrape	-7755
together	-7756
▁Butterb	-7757
▁donates	-7758
▁fluency	-7759
▁guarant	-7760
▁islands	-7761
▁italian	-7762
▁jackpot	-7763
▁ketchup	-7764
▁laptops	-7765
▁largely	-7766
▁letters	-7767
▁lightly	-7768
▁limited	-7769
▁livable	-7770
▁mainten	-7771
▁mammals	-7772
▁managed	-7773
▁mandort	-7774
▁maximum	-7775
▁measure	-7776
▁meeting	-7777
▁mergers	-7778
▁message	-7779
▁monster	-7780
▁mumbles	-7781
▁needier	-7782
▁network	-7783
▁nobodys	-7784
▁nuclear	-7785
▁nuerons	-7786
▁objects	-7787
▁offense	-7788
▁oneself	-7789
▁outsour	-7790
▁package	-7791
▁painful	-7792
▁paralle	-7793
▁percept	-7794
▁perfrom	-7795
▁physics	-7796
▁politic	-7797
▁popping	-7798
▁posting	-7799
obe	-7800
▁2)	-7801
▁2,	-7802
▁2-	-7803
▁2/	-7804
TTER	-7805
corn	-7806
porn	-7807
vola	-7808
▁180	-7809
▁2,5	-7810
▁2/3	-7811
ETTER	-7812
ancel	-7813
asary	-7814
asual	-7815
bents	-7816
berry	-7817
etary	-7818
ilber	-7819
namic	-7820
pleas	-7821
rikes	-7822
uents	-7823
ungle	-7824
utual	-7825
while	-7826
▁duly	-7827
Doctor	-7828
assary	-7829
berrys	-7830
casual	-7831
corned	-7832
dition	-7833
iavola	-7834
idance	-7835
ilbert	-7836
itance	-7837
liance	-7838
stance	-7839
uition	-7840
wesome	-7841
ynamic	-7842
▁2,500	-7843
▁Adobe	-7844
▁defam	-7845
▁meted	-7846
▁revol	-7847
cassary	-7848
fection	-7849
mentary	-7850
▁BETTER	-7851
▁Cancel	-7852
▁RIGHTS	-7853
▁Youtub	-7854
▁assure	-7855
▁handle	-7856
▁impecc	-7857
▁jungle	-7858
▁likley	-7859
▁mutual	-7860
▁pediat	-7861
▁recess	-7862
▁shifts	-7863
▁spaces	-7864
cumbents	-7865
essasary	-7866
izations	-7867
pleasant	-7868
▁Awesome	-7869
▁Gilbert	-7870
▁breakne	-7871
▁calorie	-7872
▁diavola	-7873
▁dynamic	-7874
▁equally	-7875
▁praises	-7876
▁prestig	-7877
▁probaly	-7878
▁promise	-7879
▁promiss	-7880
▁prostit	-7881
▁rapists	-7882
▁readily	-7883
▁rearran	-7884
▁recentl	-7885
▁recreat	-7886
▁reduced	-7887
▁reduces	-7888
▁reenter	-7889
▁refusal	-7890
▁refused	-7891
▁refuses	-7892
▁reinfor	-7893
▁remarks	-7894
▁remorse	-7895
▁removes	-7896
▁resolve	-7897
▁resorts	-7898
▁robbery	-7899
.'-	-7900
gia	-7901
msy	-7902
oia	-7903
"...	-7904
..."	-7905
cail	-7906
conf	-7907
oyed	-7908
vals	-7909
▁50'	-7910
▁Boy	-7911
▁Doy	-7912
▁GOP	-7913
▁via	-7914
..."*	-7915
algia	-7916
alsas	-7917
conon	-7918
inile	-7919
lands	-7920
limsy	-7921
press	-7922
yling	-7923
▁Boyz	-7924
▁insu	-7925
▁rail	-7926
▁soak	-7927
actals	-7928
ailing	-7929
aulter	-7930
cailly	-7931
config	-7932
sually	-7933
▁*"...	-7934
▁Doyle	-7935
▁opens	-7936
▁payer	-7937
arconon	-7938
impress	-7939
stalgia	-7940
vailing	-7941
vencing	-7942
▁backgr	-7943
▁credit	-7944
▁decade	-7945
▁flimsy	-7946
▁railro	-7947
▁rivals	-7948
▁salsas	-7949
▁worlds	-7950
atastrop	-7951
existing	-7952
vernment	-7953
▁Usually	-7954
▁annoyed	-7955
▁assumpt	-7956
▁contend	-7957
▁insured	-7958
▁intoler	-7959
▁savings	-7960
▁scenari	-7961
▁seafood	-7962
▁sensory	-7963
▁settled	-7964
▁shelter	-7965
▁shocked	-7966
▁shunned	-7967
▁signing	-7968
▁skeptic	-7969
▁skipped	-7970
▁smarter	-7971
▁smoking	-7972
▁sniffer	-7973
▁sorting	-7974
▁speaker	-7975
▁species	-7976
▁spinoff	-7977
▁spurred	-7978
▁stipped	-7979
▁storage	-7980
▁strikes	-7981
▁styling	-7982
▁sublime	-7983
▁succeed	-7984
▁surpass	-7985
▁swapped	-7986
▁symbols	-7987
▁tablets	-7988
▁tasting	-7989
▁tattoos	-7990
▁teached	-7991
▁teaches	-7992
▁terrace	-7993
▁themIts	-7994
▁thereby	-7995
▁threads	-7996
▁tickets	-7997
▁tooltip	-7998
▁touched	-7999
uba	-8000
▁DD	-8001
▁LB	-8002
Here	-8003
lume	-8004
▁CON	-8005
▁DDR	-8006
▁Dep	-8007
▁Due	-8008
▁LBG	-8009
▁dub	-8010
ensus	-8011
orize	-8012
rence	-8013
rench	-8014
umber	-8015
▁Cuba	-8016
▁Jews	-8017
▁LBGT	-8018
▁Land	-8019
▁Less	-8020
▁Lies	-8021
▁Lous	-8022
▁stub	-8023
▁tens	-8024
School	-8025
alousy	-8026
infect	-8027
inical	-8028
itting	-8029
number	-8030
▁Eater	-8031
▁genes	-8032
▁hurts	-8033
▁itson	-8034
▁rates	-8035
▁recei	-8036
▁waits	-8037
Gravity	-8038
aturely	-8039
ealousy	-8040
foolish	-8041
ostable	-8042
▁French	-8043
▁Lousis	-8044
▁amends	-8045
▁consol	-8046
▁drives	-8047
▁polite	-8048
▁pricey	-8049
▁relief	-8050
Nintendo	-8051
llengers	-8052
▁Arabian	-8053
▁Hitting	-8054
▁Journal	-8055
▁distric	-8056
▁dubious	-8057
▁gristle	-8058
▁impeach	-8059
▁itsonly	-8060
▁members	-8061
▁mileage	-8062
▁receipt	-8063
▁remains	-8064
▁schoolg	-8065
▁tension	-8066
▁touchst	-8067
▁traders	-8068
▁transpl	-8069
▁trigger	-8070
▁trilogy	-8071
▁twisted	-8072
▁unaware	-8073
▁uncared	-8074
▁unclear	-8075
▁undergo	-8076
▁unheard	-8077
▁unified	-8078
▁updated	-8079
▁venture	-8080
▁verdict	-8081
▁viewers	-8082
▁visions	-8083
▁wealthy	-8084
▁weapons	-8085
▁weighed	-8086
▁whining	-8087
▁winners	-8088
▁worried	-8089
Beverages	-8090
Democrats	-8091
Generally	-8092
Increased	-8093
actresses	-8094
advancing	-8095
amination	-8096
anquility	-8097
arguments	-8098
ashington	-8099
aft	-8100
gru	-8101
lsea	-8102
orms	-8103
oyot	-8104
ruel	-8105
rule	-8106
sory	-8107
wire	-8108
▁Gon	-8109
▁Gur	-8110
▁Upt	-8111
agued	-8112
almon	-8113
cated	-8114
dated	-8115
early	-8116
grunt	-8117
irely	-8118
never	-8119
nless	-8120
oyota	-8121
▁Cath	-8122
▁Park	-8123
▁daft	-8124
▁infr	-8125
▁surf	-8126
▁wire	-8127
Unless	-8128
actory	-8129
earing	-8130
icated	-8131
mewire	-8132
onated	-8133
ruelty	-8134
soever	-8135
ulsory	-8136
undane	-8137
victim	-8138
▁Under	-8139
▁blame	-8140
▁dorms	-8141
▁monop	-8142
▁nutri	-8143
▁overt	-8144
▁print	-8145
▁resul	-8146
▁turns	-8147
▁valid	-8148
▁voice	-8149
athetic	-8150
bonated	-8151
iscated	-8152
▁Cathol	-8153
▁Gurren	-8154
▁Salmon	-8155
▁Toyota	-8156
▁Uptown	-8157
▁overha	-8158
▁resent	-8159
▁resist	-8160
▁resort	-8161
▁underm	-8162
▁underp	-8163
▁undert	-8164
▁workpl	-8165
entirely	-8166
roducing	-8167
▁Chelsea	-8168
▁Factory	-8169
▁Hearing	-8170
▁Matthew	-8171
▁altered	-8172
▁blocked	-8173
▁classic	-8174
▁cruelty	-8175
▁humbleb	-8176
▁infrast	-8177
▁licence	-8178
▁mundane	-8179
▁mussels	-8180
▁nowhere	-8181
▁plagued	-8182
askhistor	-8183
astration	-8184
atography	-8185
automatic	-8186
awareness	-8187
bandwagon	-8188
cessities	-8189
cientific	-8190
elligence	-8191
emocratic	-8192
heritance	-8193
hopefully	-8194
identally	-8195
implement	-8196
including	-8197
infectant	-8198
inflation	-8199
eep	-8200
Keep	-8201
Next	-8202
agan	-8203
cont	-8204
eple	-8205
keep	-8206
mass	-8207
rite	-8208
uine	-8209
▁1/4	-8210
▁Dec	-8211
▁Sub	-8212
▁fag	-8213
▁rox	-8214
Lagan	-8215
handy	-8216
lasty	-8217
loved	-8218
under	-8219
▁1/4)	-8220
▁Lawy	-8221
▁bite	-8222
▁gass	-8223
▁hers	-8224
▁lids	-8225
▁poet	-8226
▁pole	-8227
▁quit	-8228
▁redo	-8229
▁saus	-8230
▁wine	-8231
Lagann	-8232
▁Decad	-8233
▁Write	-8234
▁fewer	-8235
▁herit	-8236
▁image	-8237
▁roxas	-8238
▁stage	-8239
Keeping	-8240
content	-8241
icunder	-8242
inguine	-8243
oplasty	-8244
vention	-8245
▁Brietb	-8246
▁Plameg	-8247
▁Poeple	-8248
▁Subway	-8249
▁buried	-8250
▁comped	-8251
▁expand	-8252
▁gassed	-8253
▁manage	-8254
▁poetry	-8255
▁sociop	-8256
▁steams	-8257
▁talked	-8258
▁tender	-8259
▁upkeep	-8260
ationale	-8261
▁Decades	-8262
▁Lawyers	-8263
▁Serbian	-8264
▁herself	-8265
▁implies	-8266
▁replied	-8267
▁sausage	-8268
▁unloved	-8269
inoplasty	-8270
intensive	-8271
interpret	-8272
itigating	-8273
ivestrong	-8274
lyamorous	-8275
nikawater	-8276
onsmokers	-8277
operation	-8278
permanent	-8279
prisingly	-8280
rationale	-8281
ributable	-8282
ributions	-8283
sociation	-8284
something	-8285
sometimes	-8286
suspected	-8287
tolerance	-8288
velopment	-8289
voluntary	-8290
warranted	-8291
▁Abortion	-8292
▁Algorith	-8293
▁Assuming	-8294
▁Attorney	-8295
▁Brussels	-8296
▁Business	-8297
▁Catholic	-8298
▁Commerce	-8299
Cue	-8300
rym	-8301
ryo	-8302
▁13	-8303
▁80	-8304
9.50	-8305
View	-8306
bryo	-8307
gles	-8308
▁Amd	-8309
▁Off	-8310
▁PoA	-8311
▁dry	-8312
(9.50	-8313
amper	-8314
ancip	-8315
bians	-8316
errym	-8317
petty	-8318
venue	-8319
▁1000	-8320
▁Cool	-8321
▁Were	-8322
▁bump	-8323
▁cite	-8324
▁cler	-8325
▁damn	-8326
▁disd	-8327
▁disk	-8328
▁mank	-8329
▁mann	-8330
▁mode	-8331
embryo	-8332
ilient	-8333
nicity	-8334
▁Caffe	-8335
▁Wrong	-8336
▁clapp	-8337
▁clerk	-8338
▁manou	-8339
▁spark	-8340
▁wring	-8341
Viewers	-8342
esbians	-8343
herself	-8344
istance	-8345
▁Avenue	-8346
▁Issues	-8347
▁angles	-8348
▁clocks	-8349
▁commie	-8350
▁commod	-8351
▁disper	-8352
▁gerrym	-8353
▁giants	-8354
▁ruiner	-8355
▁tamper	-8356
▁waters	-8357
distance	-8358
thnicity	-8359
▁Officer	-8360
▁childre	-8361
▁defeats	-8362
▁disdain	-8363
▁emancip	-8364
▁mankind	-8365
▁manners	-8366
▁ourself	-8367
▁subsequ	-8368
▁unpetty	-8369
▁weakens	-8370
cientists	-8371
configure	-8372
▁Complain	-8373
▁Contrary	-8374
▁Cranston	-8375
▁Croatian	-8376
▁EUTHANAS	-8377
▁EVERYBOD	-8378
▁Engineer	-8379
▁European	-8380
▁Filtered	-8381
▁Homeland	-8382
▁Horrible	-8383
▁Ignorant	-8384
▁Lobbying	-8385
▁MIchigan	-8386
▁Messinis	-8387
▁Mountain	-8388
▁Mushroom	-8389
▁Nintendo	-8390
▁Ofcourse	-8391
▁Pilgrims	-8392
▁Powermat	-8393
▁Recently	-8394
▁Religion	-8395
▁Sarassal	-8396
▁Stamford	-8397
▁Swelling	-8398
▁Vaccines	-8399
abe	-8400
kew	-8401
lab	-8402
rab	-8403
▁..	-8404
▁21	-8405
▁51	-8406
▁Sc	-8407
Comp	-8408
crab	-8409
cube	-8410
irty	-8411
ukew	-8412
▁aid	-8413
▁arc	-8414
▁tid	-8415
abhat	-8416
ardly	-8417
asure	-8418
colle	-8419
emper	-8420
glect	-8421
izers	-8422
preme	-8423
urely	-8424
▁Babe	-8425
▁Mars	-8426
▁cure	-8427
▁doom	-8428
▁elab	-8429
▁grab	-8430
▁hell	-8431
▁jure	-8432
▁mild	-8433
▁pard	-8434
▁spin	-8435
▁spir	-8436
▁spot	-8437
▁stab	-8438
▁stom	-8439
▁tidy	-8440
Semper	-8441
abhatt	-8442
bility	-8443
eopard	-8444
inally	-8445
rogant	-8446
▁Citiz	-8447
▁badly	-8448
▁blown	-8449
▁bothe	-8450
▁broth	-8451
▁dirty	-8452
▁lukew	-8453
▁spicy	-8454
▁sting	-8455
▁thick	-8456
Finally	-8457
abhatta	-8458
college	-8459
eopardy	-8460
glected	-8461
orities	-8462
supreme	-8463
▁Hardly	-8464
▁Korean	-8465
▁Marsha	-8466
▁Ronald	-8467
▁cigare	-8468
▁mildly	-8469
▁monies	-8470
▁pardon	-8471
▁puking	-8472
▁purely	-8473
▁spirit	-8474
▁stingy	-8475
▁stomac	-8476
building	-8477
encement	-8478
yabhatta	-8479
▁Citizen	-8480
▁Enforce	-8481
▁Marshal	-8482
▁cigaret	-8483
▁opposes	-8484
▁partial	-8485
▁spinach	-8486
cological	-8487
ororities	-8488
▁Gamecube	-8489
▁Versaill	-8490
▁Whatsapp	-8491
▁abetting	-8492
▁accompal	-8493
▁achieved	-8494
▁administ	-8495
▁adopters	-8496
▁advertis	-8497
▁affinity	-8498
▁agreeing	-8499
CT	-8500
-15	-8501
DCT	-8502
des	-8503
hoo	-8504
mic	-8505
tly	-8506
▁8-	-8507
▁RA	-8508
▁ug	-8509
-15'	-8510
acle	-8511
ahoo	-8512
omas	-8513
▁RAM	-8514
▁pac	-8515
▁poo	-8516
▁wow	-8517
asted	-8518
mates	-8519
▁STUD	-8520
▁bagg	-8521
▁clos	-8522
▁deme	-8523
▁lets	-8524
▁ugly	-8525
▁whil	-8526
ansion	-8527
around	-8528
ghtful	-8529
iracle	-8530
vering	-8531
▁Burit	-8532
▁Darth	-8533
▁Mathe	-8534
▁STUDY	-8535
▁Yahoo	-8536
▁forth	-8537
▁pooch	-8538
▁relie	-8539
▁seven	-8540
▁teams	-8541
tential	-8542
▁Burito	-8543
▁Chimic	-8544
▁Thomas	-8545
▁demean	-8546
▁locals	-8547
▁notion	-8548
▁pacify	-8549
▁shades	-8550
▁whilst	-8551
▁Certain	-8552
▁Croatia	-8553
▁amongst	-8554
▁approve	-8555
▁baggage	-8556
▁battles	-8557
▁binding	-8558
▁closest	-8559
▁illicit	-8560
▁miracle	-8561
▁toasted	-8562
▁alcohlic	-8563
▁ambiance	-8564
▁analyzed	-8565
▁artistic	-8566
▁assemble	-8567
▁assigned	-8568
▁attempts	-8569
▁attended	-8570
▁attitude	-8571
▁avoiding	-8572
▁awaiting	-8573
▁bathroom	-8574
▁behaving	-8575
▁belonged	-8576
▁beverage	-8577
▁birthday	-8578
▁blocking	-8579
▁bothered	-8580
▁bouncing	-8581
▁bracelet	-8582
▁brighter	-8583
▁caffeine	-8584
▁ceremony	-8585
▁checking	-8586
▁cheerful	-8587
▁childish	-8588
▁childrem	-8589
▁clapping	-8590
▁classifi	-8591
▁clearing	-8592
▁climates	-8593
▁clinical	-8594
▁clothing	-8595
▁colleges	-8596
▁colonies	-8597
▁combined	-8598
▁commuter	-8599
:'	-8600
??	-8601
uk	-8602
ahn	-8603
eta	-8604
hit	-8605
jas	-8606
oes	-8607
ora	-8608
uts	-8609
via	-8610
wls	-8611
yss	-8612
▁75	-8613
▁??	-8614
▁Up	-8615
...)	-8616
Both	-8617
idea	-8618
otic	-8619
▁199	-8620
▁Bad	-8621
▁Jed	-8622
▁Muk	-8623
▁Tea	-8624
Tejas	-8625
anuts	-8626
contr	-8627
drock	-8628
obahn	-8629
quare	-8630
spare	-8631
▁Jedi	-8632
▁Odin	-8633
▁Okay	-8634
▁bere	-8635
▁okay	-8636
▁owls	-8637
▁reve	-8638
▁skip	-8639
▁thri	-8640
▁whan	-8641
andora	-8642
llshit	-8643
oulder	-8644
▁1993.	-8645
▁Eight	-8646
▁Expun	-8647
▁abyss	-8648
▁cells	-8649
▁hourg	-8650
▁shoes	-8651
utobahn	-8652
▁Eighth	-8653
▁Mukher	-8654
▁biased	-8655
▁exotic	-8656
▁hourgl	-8657
▁indoct	-8658
▁messed	-8659
▁refres	-8660
▁shaped	-8661
▁square	-8662
▁thrill	-8663
▁totals	-8664
▁whants	-8665
Shopping	-8666
contrary	-8667
▁Boulder	-8668
▁Expunge	-8669
▁Mukherj	-8670
▁Pandora	-8671
▁algorit	-8672
▁barrels	-8673
▁bedrock	-8674
▁caliber	-8675
▁caloric	-8676
▁garbage	-8677
▁peanuts	-8678
▁pockets	-8679
▁scoring	-8680
▁sprouts	-8681
▁Autobahn	-8682
▁arrogant	-8683
▁bullshit	-8684
▁competed	-8685
▁consents	-8686
▁consoles	-8687
▁consumes	-8688
▁contains	-8689
▁convicts	-8690
▁courtesy	-8691
▁creating	-8692
▁credible	-8693
▁crimebod	-8694
▁critical	-8695
▁crossing	-8696
▁deafness	-8697
▁deifying	-8698
▁delirium	-8699
Mo	-8700
00.	-8701
Get	-8702
hom	-8703
sen	-8704
sex	-8705
▁DH	-8706
100.	-8707
ayed	-8708
cous	-8709
enly	-8710
hear	-8711
hion	-8712
imed	-8713
inch	-8714
llen	-8715
utal	-8716
▁Afg	-8717
▁DHS	-8718
▁Sin	-8719
Moder	-8720
achio	-8721
homos	-8722
icate	-8723
▁Sinn	-8724
▁THEM	-8725
▁bash	-8726
▁cort	-8727
▁desp	-8728
▁lear	-8729
▁shri	-8730
▁sung	-8731
▁wood	-8732
ffered	-8733
haring	-8734
llenge	-8735
played	-8736
▁GOOOO	-8737
▁Legal	-8738
▁aimed	-8739
▁lying	-8740
▁steam	-8741
▁stran	-8742
comfort	-8743
obvious	-8744
ouscous	-8745
▁Afghan	-8746
▁HomeNo	-8747
▁affili	-8748
▁broker	-8749
▁brutal	-8750
▁chosen	-8751
▁convey	-8752
▁cortex	-8753
▁extort	-8754
▁learnt	-8755
▁measly	-8756
▁refers	-8757
▁shrimp	-8758
▁shrink	-8759
▁wooden	-8760
hionable	-8761
istachio	-8762
standard	-8763
▁Finance	-8764
▁belongs	-8765
▁despise	-8766
▁phoenix	-8767
▁riskier	-8768
▁sharing	-8769
▁strange	-8770
Moderates	-8771
▁Frequent	-8772
▁bearable	-8773
▁couscous	-8774
▁dedicate	-8775
▁delusion	-8776
▁demeanor	-8777
▁demonize	-8778
▁deserved	-8779
▁dialysis	-8780
▁diarrhea	-8781
▁diferent	-8782
▁differnt	-8783
▁difficul	-8784
▁disaster	-8785
▁discover	-8786
▁disperse	-8787
▁disputes	-8788
▁dividend	-8789
▁divisive	-8790
▁dogmatic	-8791
▁dragging	-8792
▁election	-8793
▁embarass	-8794
▁emotions	-8795
▁encoding	-8796
▁enforced	-8797
▁enjoying	-8798
▁enrolled	-8799
''	-8800
TS	-8801
UK	-8802
nk	-8803
200	-8804
Mac	-8805
alu	-8806
lyw	-8807
mom	-8808
▁Ph	-8809
alot	-8810
eled	-8811
joke	-8812
ldom	-8813
lyss	-8814
onic	-8815
onna	-8816
uper	-8817
urge	-8818
▁16.	-8819
▁Dis	-8820
▁PhD	-8821
▁RTS	-8822
▁Tal	-8823
▁ban	-8824
▁hun	-8825
▁hyg	-8826
2005)	-8827
aning	-8828
lyssa	-8829
ollyw	-8830
▁Talk	-8831
▁husk	-8832
▁isnt	-8833
▁obsc	-8834
▁sunk	-8835
▁tree	-8836
▁zero	-8837
acters	-8838
aluate	-8839
eaning	-8840
▁2018,	-8841
▁Disag	-8842
▁Super	-8843
▁dress	-8844
▁eight	-8845
▁gonna	-8846
▁ounce	-8847
▁reput	-8848
▁seats	-8849
▁yours	-8850
Meaning	-8851
oodline	-8852
ructure	-8853
▁(2005)	-8854
▁Alyssa	-8855
▁Bollyw	-8856
▁Sports	-8857
▁builds	-8858
▁cleanl	-8859
▁ironic	-8860
▁malice	-8861
▁salary	-8862
▁seldom	-8863
▁smoked	-8864
▁themes	-8865
learning	-8866
▁Schools	-8867
▁hygiene	-8868
▁notices	-8869
▁notmove	-8870
▁obscure	-8871
▁splurge	-8872
▁walking	-8873
▁Disagree	-8874
▁deprived	-8875
▁eighties	-8876
▁entering	-8877
▁enviable	-8878
▁episodic	-8879
▁evaluate	-8880
▁examples	-8881
▁exchange	-8882
▁excluded	-8883
▁executes	-8884
▁existing	-8885
▁explicit	-8886
▁fallible	-8887
▁fiddling	-8888
▁findings	-8889
▁footings	-8890
▁fraction	-8891
▁frequent	-8892
▁freshmen	-8893
▁grandeur	-8894
▁graphics	-8895
▁grateful	-8896
▁grinding	-8897
▁hardship	-8898
▁heritage	-8899
.--	-8900
ban	-8901
cro	-8902
nou	-8903
yed	-8904
yst	-8905
▁ak	-8906
▁gp	-8907
▁na	-8908
▁vi	-8909
▁yo	-8910
apen	-8911
chat	-8912
reed	-8913
scro	-8914
▁121	-8915
▁Ang	-8916
▁COM	-8917
▁Isn	-8918
▁aka	-8919
▁ast	-8920
▁gal	-8921
▁led	-8922
▁nar	-8923
chata	-8924
idely	-8925
ouses	-8926
▁COMP	-8927
▁Ment	-8928
▁TYPE	-8929
▁curb	-8930
▁gate	-8931
▁hood	-8932
▁menu	-8933
▁oyst	-8934
▁teet	-8935
alapen	-8936
nouris	-8937
scroll	-8938
▁Angus	-8939
▁famed	-8940
▁naive	-8941
▁potty	-8942
▁snack	-8943
▁teeth	-8944
▁tires	-8945
▁urban	-8946
▁wound	-8947
estures	-8948
instead	-8949
▁Houses	-8950
▁Mental	-8951
▁agreed	-8952
▁astron	-8953
▁hoodie	-8954
▁narrow	-8955
▁nerves	-8956
▁pagers	-8957
▁preyed	-8958
▁purple	-8959
▁unfair	-8960
▁viable	-8961
▁widely	-8962
Gestures	-8963
alapenos	-8964
▁oysters	-8965
▁singing	-8966
▁theatre	-8967
▁thescre	-8968
estinians	-8969
isputable	-8970
nourished	-8971
scrollers	-8972
▁Horchata	-8973
▁Narconon	-8974
▁bulldogs	-8975
▁drowning	-8976
▁hesitate	-8977
▁homeless	-8978
▁homophob	-8979
▁humblebr	-8980
▁hypocrit	-8981
▁imperson	-8982
▁implying	-8983
▁improved	-8984
▁impulses	-8985
▁incentiv	-8986
▁inclined	-8987
▁incompat	-8988
▁incurred	-8989
▁infringe	-8990
▁inhumane	-8991
▁injuries	-8992
▁inserted	-8993
▁inspired	-8994
▁inspires	-8995
▁intestin	-8996
▁intimate	-8997
▁invading	-8998
▁invented	-8999
AT	-9000
gy	-9001
300	-9002
dgy	-9003
dig	-9004
irl	-9005
itc	-9006
itt	-9007
lla	-9008
lld	-9009
nat	-9010
vit	-9011
Most	-9012
chie	-9013
gged	-9014
ites	-9015
mall	-9016
otle	-9017
when	-9018
ynic	-9019
▁EAT	-9020
▁Met	-9021
▁Sur	-9022
▁cit	-9023
digit	-9024
ittat	-9025
lousy	-9026
manga	-9027
oulld	-9028
potle	-9029
saves	-9030
▁Inde	-9031
▁chin	-9032
▁imit	-9033
▁kitc	-9034
▁oral	-9035
▁pris	-9036
▁prob	-9037
▁seal	-9038
▁sits	-9039
espite	-9040
ittata	-9041
oustic	-9042
▁60-70	-9043
▁Achie	-9044
▁Small	-9045
▁ashes	-9046
▁cynic	-9047
▁dodgy	-9048
▁hping	-9049
▁inequ	-9050
▁meats	-9051
▁score	-9052
▁stall	-9053
▁unnat	-9054
alestin	-9055
becouse	-9056
ridging	-9057
vitable	-9058
▁Indeed	-9059
▁citric	-9060
▁comply	-9061
▁felons	-9062
▁gained	-9063
▁itwhen	-9064
▁rigged	-9065
▁selfes	-9066
▁stalls	-9067
▁woulld	-9068
Congress	-9069
Palestin	-9070
aternity	-9071
▁Despite	-9072
▁Weather	-9073
▁incites	-9074
▁inequal	-9075
▁involed	-9076
▁kitchen	-9077
▁prisons	-9078
onsiblity	-9079
▁acoustic	-9080
▁chipotle	-9081
▁frittata	-9082
▁instills	-9083
▁involves	-9084
▁jeopardy	-9085
▁jokingly	-9086
▁lesbians	-9087
▁leverage	-9088
▁liberals	-9089
▁lifetime	-9090
▁limewire	-9091
▁limiting	-9092
▁linguine	-9093
▁lobotomy	-9094
▁lukewarm	-9095
▁magicaly	-9096
▁majoring	-9097
▁managers	-9098
▁marathon	-9099
BI	-9100
LF	-9101
vn	-9102
ELF	-9103
ecd	-9104
eng	-9105
ido	-9106
▁35	-9107
▁JF	-9108
SELF	-9109
Take	-9110
That	-9111
cent	-9112
leng	-9113
main	-9114
▁FBI	-9115
▁JFK	-9116
▁alf	-9117
▁ben	-9118
▁bom	-9119
▁wen	-9120
RSELF	-9121
avily	-9122
ceded	-9123
ecdot	-9124
▁LAST	-9125
▁Unit	-9126
▁aver	-9127
▁blue	-9128
▁dens	-9129
▁havn	-9130
▁http	-9131
▁mort	-9132
▁thee	-9133
▁toes	-9134
▁whip	-9135
URSELF	-9136
center	-9137
having	-9138
length	-9139
▁benif	-9140
▁facto	-9141
▁saved	-9142
▁uncle	-9143
▁youre	-9144
OURSELF	-9145
correct	-9146
defined	-9147
ecdotal	-9148
▁alfred	-9149
▁firsts	-9150
▁insens	-9151
▁morsel	-9152
▁rifles	-9153
eriously	-9154
specific	-9155
▁Teavana	-9156
▁alfredo	-9157
▁arsenal	-9158
▁averted	-9159
▁benifit	-9160
▁diploma	-9161
▁fundido	-9162
▁heavily	-9163
▁intimid	-9164
▁mortals	-9165
▁percent	-9166
▁replace	-9167
▁tweleve	-9168
Seriously	-9169
▁Relaxing	-9170
▁YOURSELF	-9171
▁approval	-9172
▁biblical	-9173
▁evolveto	-9174
▁integral	-9175
▁marrying	-9176
▁massacre	-9177
▁maturity	-9178
▁measures	-9179
▁minoring	-9180
▁minority	-9181
▁misdeeds	-9182
▁mislaced	-9183
▁modeling	-9184
▁modifier	-9185
▁monetary	-9186
▁monotony	-9187
▁moraless	-9188
▁mourning	-9189
▁multiple	-9190
▁nieghbor	-9191
▁nobility	-9192
▁normally	-9193
▁nutshell	-9194
▁obedient	-9195
▁offering	-9196
▁oncoming	-9197
▁ordering	-9198
▁outlined	-9199
):	-9200
35	-9201
9)	-9202
NE	-9203
Oh	-9204
19)	-9205
Are	-9206
IMO	-9207
NEW	-9208
aze	-9209
oro	-9210
owl	-9211
set	-9212
▁HR	-9213
acil	-9214
cies	-9215
erve	-9216
some	-9217
unno	-9218
▁nes	-9219
▁ris	-9220
▁wan	-9221
odoro	-9222
▁(19)	-9223
▁Bowl	-9224
▁Haha	-9225
▁Prov	-9226
▁begs	-9227
▁fake	-9228
▁gaze	-9229
▁obes	-9230
▁sele	-9231
▁till	-9232
▁tort	-9233
acilly	-9234
encies	-9235
leging	-9236
▁beile	-9237
▁cabin	-9238
▁cares	-9239
▁cease	-9240
▁cheat	-9241
▁discl	-9242
▁dunno	-9243
▁incom	-9244
▁nerve	-9245
▁onset	-9246
▁risks	-9247
▁wanna	-9248
igorous	-9249
iseases	-9250
omodoro	-9251
▁fulfil	-9252
▁intend	-9253
▁ventil	-9254
argument	-9255
peacilly	-9256
▁Finally	-9257
▁Provide	-9258
▁beileve	-9259
▁cheated	-9260
▁dumbest	-9261
▁foolish	-9262
▁fulfils	-9263
▁lottery	-9264
▁obesity	-9265
▁sounded	-9266
▁Agnostic	-9267
▁Pomodoro	-9268
▁alleging	-9269
▁brothers	-9270
▁catering	-9271
▁concepts	-9272
▁disclose	-9273
▁diseases	-9274
▁incoming	-9275
▁intimacy	-9276
▁irritate	-9277
▁overhaul	-9278
▁overhead	-9279
▁overlook	-9280
▁overtime	-9281
▁painfree	-9282
▁painless	-9283
▁parallel	-9284
▁paranoia	-9285
▁paranoid	-9286
▁parental	-9287
▁passable	-9288
▁patience	-9289
▁pedestal	-9290
▁perished	-9291
▁persuade	-9292
▁petition	-9293
▁planning	-9294
▁platform	-9295
▁pleasure	-9296
▁politely	-9297
▁pollutes	-9298
▁possibil	-9299
)*	-9300
Af	-9301
Li	-9302
lk	-9303
oh	-9304
ph	-9305
ett	-9306
php	-9307
sle	-9308
▁Tj	-9309
aler	-9310
erar	-9311
ifth	-9312
wers	-9313
▁PEI	-9314
▁fly	-9315
▁itt	-9316
▁kin	-9317
▁mud	-9318
.....	-9319
After	-9320
urder	-9321
▁Down	-9322
▁Each	-9323
▁Fett	-9324
▁Hind	-9325
▁Part	-9326
▁hide	-9327
▁loss	-9328
▁opin	-9329
▁subs	-9330
▁yoga	-9331
alerie	-9332
arched	-9333
atedly	-9334
liders	-9335
stract	-9336
uicide	-9337
verall	-9338
▁Hindu	-9339
▁chalk	-9340
▁confr	-9341
▁fifth	-9342
▁grams	-9343
▁unfit	-9344
▁whloe	-9345
Raffles	-9346
Suicide	-9347
legally	-9348
▁Murder	-9349
▁bright	-9350
▁define	-9351
▁favors	-9352
▁hassle	-9353
▁hierar	-9354
▁kinder	-9355
▁sewers	-9356
▁sogood	-9357
▁squeez	-9358
▁vision	-9359
Likewise	-9360
Sunlight	-9361
hoverall	-9362
▁Sliders	-9363
▁Valerie	-9364
▁flyable	-9365
▁invited	-9366
▁kinderg	-9367
▁tactics	-9368
▁Congress	-9369
▁abstract	-9370
▁breaking	-9371
▁confront	-9372
▁corrupts	-9373
▁develops	-9374
▁freedoms	-9375
▁historic	-9376
▁manpower	-9377
▁motorway	-9378
▁numerous	-9379
▁opinions	-9380
▁potatoes	-9381
▁practice	-9382
▁predomin	-9383
▁premedit	-9384
▁premiere	-9385
▁presence	-9386
▁prestige	-9387
▁principl	-9388
▁produced	-9389
▁producer	-9390
▁progress	-9391
▁projects	-9392
▁promotes	-9393
▁provider	-9394
▁ptential	-9395
▁pursuits	-9396
▁puzzling	-9397
▁railroad	-9398
▁realizes	-9399
di	-9400
oa	-9401
Did	-9402
pie	-9403
pol	-9404
zas	-9405
▁5)	-9406
Much	-9407
audi	-9408
bird	-9409
list	-9410
star	-9411
▁Boa	-9412
▁End	-9413
▁Hun	-9414
▁Jes	-9415
▁McC	-9416
▁tin	-9417
andom	-9418
bying	-9419
emant	-9420
piece	-9421
ucked	-9422
▁1920	-9423
▁HTML	-9424
▁crap	-9425
▁gyro	-9426
▁hack	-9427
▁myri	-9428
▁tack	-9429
▁tiny	-9430
Humans	-9431
alable	-9432
omeday	-9433
police	-9434
▁1920'	-9435
▁Daisy	-9436
▁Jesus	-9437
▁Saudi	-9438
▁abort	-9439
▁horse	-9440
▁shape	-9441
emantic	-9442
idering	-9443
riendly	-9444
righted	-9445
rounder	-9446
▁Hunter	-9447
▁McCain	-9448
▁donors	-9449
▁enlist	-9450
▁forgot	-9451
▁gallon	-9452
▁hiking	-9453
▁myriad	-9454
▁pizzas	-9455
▁random	-9456
▁severe	-9457
▁shoots	-9458
▁termed	-9459
▁unable	-9460
cealable	-9461
ongering	-9462
▁Getting	-9463
▁Hillary	-9464
▁Orwells	-9465
▁episode	-9466
▁loading	-9467
▁section	-9468
▁shucked	-9469
▁someday	-9470
▁studied	-9471
▁treason	-9472
mongering	-9473
▁Compared	-9474
▁Semantic	-9475
▁Thanksgi	-9476
▁billions	-9477
▁distance	-9478
▁guidance	-9479
▁lobbying	-9480
▁outright	-9481
▁rebuttal	-9482
▁received	-9483
▁recourse	-9484
▁recovery	-9485
▁reflects	-9486
▁reformed	-9487
▁removing	-9488
▁replaced	-9489
▁reported	-9490
▁reposted	-9491
▁requests	-9492
▁responds	-9493
▁response	-9494
▁revenues	-9495
▁revolved	-9496
▁salaries	-9497
▁salvaged	-9498
▁sanctity	-9499
:-	-9500
my	-9501
ui	-9502
Che	-9503
OTE	-9504
maz	-9505
see	-9506
sme	-9507
uty	-9508
▁EE	-9509
Amaz	-9510
duty	-9511
ummy	-9512
▁EEE	-9513
▁Hip	-9514
▁Mic	-9515
▁arm	-9516
▁cil	-9517
▁inm	-9518
▁pus	-9519
▁reb	-9520
Check	-9521
ICKEN	-9522
ilman	-9523
smell	-9524
▁Cops	-9525
▁Next	-9526
▁VOTE	-9527
▁cafe	-9528
▁cann	-9529
▁fame	-9530
Amazon	-9531
HICKEN	-9532
PLEASE	-9533
Surely	-9534
istent	-9535
unicip	-9536
▁Micha	-9537
▁fruit	-9538
▁lifel	-9539
▁micro	-9540
▁yummy	-9541
shrined	-9542
▁30.00,	-9543
▁Cheese	-9544
▁arrive	-9545
▁cannon	-9546
▁cilant	-9547
▁curses	-9548
▁dishes	-9549
▁handed	-9550
▁inmate	-9551
▁layout	-9552
▁lessen	-9553
▁lieing	-9554
▁method	-9555
▁refill	-9556
▁repent	-9557
▁waking	-9558
shopping	-9559
unicipal	-9560
▁CHICKEN	-9561
▁CMVEdit	-9562
▁LOBSTER	-9563
▁Michael	-9564
▁Neurons	-9565
▁anarcho	-9566
▁basicly	-9567
▁brisket	-9568
▁lessons	-9569
▁manages	-9570
▁pushing	-9571
▁rebirth	-9572
abilizing	-9573
apitalism	-9574
▁answered	-9575
▁cilantro	-9576
▁emphasis	-9577
▁keyboard	-9578
▁lifelong	-9579
▁momentum	-9580
▁relieved	-9581
▁scenario	-9582
▁scheming	-9583
▁scrubbed	-9584
▁seatbelt	-9585
▁semester	-9586
▁sensible	-9587
▁sexually	-9588
▁shameful	-9589
▁shawarma	-9590
▁shutting	-9591
▁sickness	-9592
▁similiar	-9593
▁singling	-9594
▁sizeable	-9595
▁slanders	-9596
▁sleeping	-9597
▁smoothly	-9598
▁socailly	-9599
.9	-9600
/)	-9601
1)	-9602
SA	-9603
fi	-9604
.99	-9605
:1)	-9606
FMA	-9607
▁1:	-9608
Will	-9609
hies	-9610
lide	-9611
oday	-9612
rage	-9613
▁1:4	-9614
▁42)	-9615
▁ALL	-9616
▁Blv	-9617
▁NSA	-9618
▁NYC	-9619
▁dro	-9620
▁sci	-9621
▁toe	-9622
Tried	-9623
arten	-9624
ators	-9625
fends	-9626
idate	-9627
legal	-9628
timer	-9629
ulate	-9630
uters	-9631
▁1:45	-9632
▁Blvd	-9633
▁FOOD	-9634
▁Lets	-9635
▁acqu	-9636
▁adds	-9637
▁arts	-9638
▁bing	-9639
▁coma	-9640
▁cope	-9641
▁lamp	-9642
▁sine	-9643
▁untr	-9644
acious	-9645
called	-9646
▁Takei	-9647
▁Today	-9648
▁binge	-9649
▁drove	-9650
▁staus	-9651
Sublime	-9652
sublime	-9653
▁Having	-9654
▁Humans	-9655
▁Reason	-9656
▁acquis	-9657
▁begins	-9658
▁canfin	-9659
▁colore	-9660
▁engage	-9661
▁hailed	-9662
▁harder	-9663
▁robots	-9664
▁sugest	-9665
▁untrue	-9666
▁wrongs	-9667
missions	-9668
▁Ordered	-9669
▁appears	-9670
▁colored	-9671
▁offends	-9672
▁outrage	-9673
▁results	-9674
▁canidate	-9675
▁choosing	-9676
▁donating	-9677
▁operates	-9678
▁patented	-9679
▁payraise	-9680
▁soldiers	-9681
▁solitary	-9682
▁souvenir	-9683
▁spacious	-9684
▁speaches	-9685
▁specials	-9686
▁specimen	-9687
▁speedier	-9688
▁speeding	-9689
▁spending	-9690
▁spinoffs	-9691
▁staffing	-9692
▁statuses	-9693
▁stealing	-9694
▁stomping	-9695
▁storages	-9696
▁strapped	-9697
▁strategy	-9698
▁stubborn	-9699
,,	-9700
1,	-9701
HO	-9702
Th	-9703
sh	-9704
,,,	-9705
Inc	-9706
MHO	-9707
emy	-9708
hel	-9709
▁Pc	-9710
▁TJ	-9711
▁Ty	-9712
▁Wi	-9713
Thus	-9714
edit	-9715
helm	-9716
help	-9717
hims	-9718
itum	-9719
mild	-9720
olen	-9721
▁5).	-9722
▁Pcs	-9723
▁Wii	-9724
▁hey	-9725
Light	-9726
ander	-9727
helps	-9728
isian	-9729
▁IMHO	-9730
▁Type	-9731
▁bulk	-9732
▁deck	-9733
▁task	-9734
▁vast	-9735
author	-9736
dinary	-9737
ecause	-9738
ilhelm	-9739
isiana	-9740
should	-9741
▁Chang	-9742
▁PFLAG	-9743
▁apple	-9744
▁enemy	-9745
▁evict	-9746
▁nicer	-9747
▁petty	-9748
Because	-9749
itation	-9750
ligence	-9751
▁Crispy	-9752
▁Firsts	-9753
▁Phelps	-9754
▁Rather	-9755
▁detest	-9756
▁pander	-9757
▁proves	-9758
▁spends	-9759
▁stolen	-9760
ouisiana	-9761
unsavory	-9762
▁Manipur	-9763
▁Wilhelm	-9764
▁bedroom	-9765
▁crossed	-9766
▁liberal	-9767
▁lowered	-9768
▁tangled	-9769
▁vaulter	-9770
rehensive	-9771
▁brothels	-9772
▁cyclical	-9773
▁darkness	-9774
▁holdinds	-9775
▁hydrogen	-9776
▁ordinary	-9777
▁pilgrims	-9778
▁religous	-9779
▁severity	-9780
▁speeches	-9781
▁stations	-9782
▁succeful	-9783
▁suddenly	-9784
▁suffered	-9785
▁suitable	-9786
▁summoned	-9787
▁superpow	-9788
▁surprise	-9789
▁suspects	-9790
▁sweating	-9791
▁switched	-9792
▁takeaway	-9793
▁teamwork	-9794
▁tendency	-9795
▁terminal	-9796
▁tesimony	-9797
▁textures	-9798
▁theaters	-9799
!,	-9800
-(	-9801
.,	-9802
7'	-9803
:*	-9804
DP	-9805
EO	-9806
Is	-9807
PU	-9808
cd	-9809
Ret	-9810
cdc	-9811
ini	-9812
lon	-9813
uiz	-9814
▁wa	-9815
oned	-9816
uror	-9817
ushi	-9818
▁2:1	-9819
▁2:2	-9820
▁CPU	-9821
▁GDP	-9822
▁Gay	-9823
▁ITT	-9824
▁Nos	-9825
▁SEO	-9826
▁bor	-9827
▁dim	-9828
▁ect	-9829
▁pic	-9830
▁vow	-9831
acing	-9832
armed	-9833
uizno	-9834
▁Elon	-9835
▁bags	-9836
▁borr	-9837
▁isol	-9838
▁noth	-9839
▁pays	-9840
▁riot	-9841
▁thin	-9842
OASTED	-9843
artini	-9844
▁Lunch	-9845
▁Still	-9846
▁Sushi	-9847
▁disad	-9848
▁furor	-9849
▁stole	-9850
discuss	-9851
oughout	-9852
▁Anyone	-9853
▁boring	-9854
▁prompt	-9855
▁struck	-9856
▁waived	-9857
▁worthy	-9858
▁ROASTED	-9859
▁horrors	-9860
▁martini	-9861
▁needing	-9862
▁nothong	-9863
▁picking	-9864
▁starter	-9865
▁tending	-9866
▁tracing	-9867
▁tuition	-9868
▁unarmed	-9869
hroughout	-9870
▁Napoleon	-9871
▁blinding	-9872
▁borrower	-9873
▁comeback	-9874
▁hundreds	-9875
▁isolated	-9876
▁offenses	-9877
▁outdated	-9878
▁regarded	-9879
▁theorize	-9880
▁throught	-9881
▁tolerant	-9882
▁tomorrow	-9883
▁tortured	-9884
▁touching	-9885
▁training	-9886
▁treating	-9887
▁triggers	-9888
▁troubles	-9889
▁ultimate	-9890
▁umbrella	-9891
▁uncaring	-9892
▁unlawful	-9893
▁unsubtly	-9894
▁upheaval	-9895
▁uplifted	-9896
▁vigorous	-9897
▁violates	-9898
▁volation	-9899
!'	-9900
!?	-9901
,"	-9902
26	-9903
4.	-9904
BA	-9905
CJ	-9906
!?!	-9907
30'	-9908
ACK	-9909
CJA	-9910
NFL	-9911
Not	-9912
eat	-9913
pla	-9914
▁PI	-9915
▁VW	-9916
▁tv	-9917
6000	-9918
Hate	-9919
anta	-9920
▁Gam	-9921
▁NBA	-9922
▁chu	-9923
▁vac	-9924
arted	-9925
oopla	-9926
▁Asad	-9927
▁BACK	-9928
▁Cold	-9929
▁YCJA	-9930
▁hill	-9931
▁lied	-9932
▁priz	-9933
▁sets	-9934
▁1930'	-9935
▁Asada	-9936
▁Santa	-9937
▁chugg	-9938
▁doest	-9939
▁doggy	-9940
▁intro	-9941
▁lease	-9942
6000.00	-9943
address	-9944
hearted	-9945
▁Gaming	-9946
▁Sharma	-9947
▁bought	-9948
▁hoopla	-9949
▁larger	-9950
▁outlet	-9951
▁prizes	-9952
▁stated	-9953
▁zoning	-9954
friendly	-9955
orically	-9956
▁Mistake	-9957
▁claimed	-9958
▁operate	-9959
▁outdoor	-9960
▁seating	-9961
▁thereof	-9962
▁throngs	-9963
▁tipping	-9964
▁answerer	-9965
▁chugging	-9966
▁declared	-9967
▁divorced	-9968
▁doomsday	-9969
▁engaging	-9970
▁fillings	-9971
▁hospital	-9972
▁infinite	-9973
▁noticing	-9974
▁produces	-9975
▁vacation	-9976
▁visually	-9977
▁wardrobe	-9978
▁warnings	-9979
▁welcomes	-9980
▁whenever	-9981
▁whomever	-9982
▁winnable	-9983
▁winnings	-9984
▁wireless	-9985
MMEDIATELY	-9986
Throughout	-9987
__________	-9988
apointment	-9989
candidates	-9990
commercial	-9991
corrective	-9992
entionally	-9993
especially	-9994
fatherless	-9995
hallengers	-9996
hinoplasty	-9997
histicated	-9998
homosapien	-9999
gd	-10000
Man	-10001
won	-10002
▁mm	-10003
have	-10004
ndia	-10005
past	-10006
rime	-10007
▁Pan	-10008
▁War	-10009
▁Yet	-10010
▁Ygd	-10011
▁bun	-10012
▁fad	-10013
▁ran	-10014
▁rot	-10015
▁wre	-10016
India	-10017
emove	-10018
pastr	-10019
▁,,!!	-10020
▁Bill	-10021
▁Cash	-10022
▁Drug	-10023
▁Gats	-10024
▁Read	-10025
▁gove	-10026
▁ours	-10027
▁quid	-10028
▁toil	-10029
▁Cheap	-10030
▁Crime	-10031
▁Thing	-10032
▁crash	-10033
▁dealt	-10034
▁minim	-10035
▁moves	-10036
▁pants	-10037
▁tally	-10038
▁teens	-10039
▁third	-10040
abiding	-10041
hically	-10042
pastram	-10043
▁Gatsby	-10044
▁Remove	-10045
▁Things	-10046
▁cereal	-10047
▁drowns	-10048
▁trusty	-10049
▁washed	-10050
pastrami	-10051
▁Example	-10052
▁Maguire	-10053
▁garlicy	-10054
▁indefin	-10055
▁minimal	-10056
▁totally	-10057
athomable	-10058
orization	-10059
▁Alliance	-10060
▁declines	-10061
▁fractals	-10062
▁mmorning	-10063
▁revealed	-10064
capitalism	-10065
handrayaan	-10066
impressing	-10067
inventions	-10068
ominations	-10069
performing	-10070
reinforced	-10071
restaurant	-10072
scientific	-10073
utstanding	-10074
victimless	-10075
▁Achieving	-10076
▁Afghanist	-10077
▁Algorithm	-10078
▁Alzheimer	-10079
▁Arguments	-10080
▁Australia	-10081
▁Brietbart	-10082
▁COLLISION	-10083
▁Canadiens	-10084
▁Character	-10085
▁Charlotte	-10086
▁Classical	-10087
▁Communism	-10088
▁Companies	-10089
▁Computers	-10090
▁Conquests	-10091
▁Countries	-10092
▁Dominican	-10093
▁EVERYBODY	-10094
▁Economics	-10095
▁Generally	-10096
▁Healthier	-10097
▁Hypocricy	-10098
▁Knowledge	-10099
Our	-10100
hop	-10101
itl	-10102
pop	-10103
▁''	-10104
▁11	-10105
▁oh	-10106
Nope	-10107
Plus	-10108
▁Jim	-10109
▁Mom	-10110
▁Sir	-10111
▁doc	-10112
▁ear	-10113
▁jau	-10114
▁web	-10115
ourly	-10116
ultan	-10117
▁Wars	-10118
▁bean	-10119
▁door	-10120
▁lies	-10121
▁pose	-10122
▁swap	-10123
▁whim	-10124
VERYON	-10125
icials	-10126
▁Spicy	-10127
▁Their	-10128
▁beans	-10129
▁frees	-10130
▁gyoza	-10131
▁jaunt	-10132
▁loser	-10133
▁spoon	-10134
▁unitl	-10135
▁unpop	-10136
EVERYON	-10137
▁George	-10138
▁Sultan	-10139
▁adapts	-10140
▁cleare	-10141
▁dollar	-10142
▁hiring	-10143
▁issueI	-10144
▁messes	-10145
▁placed	-10146
▁plight	-10147
▁raving	-10148
▁rowing	-10149
▁ruling	-10150
▁sevent	-10151
▁wallet	-10152
EVERYONE	-10153
omething	-10154
▁Helping	-10155
▁anxiety	-10156
▁clearer	-10157
▁gunning	-10158
▁journey	-10159
▁layered	-10160
Something	-10161
fortunate	-10162
▁consumed	-10163
▁democrat	-10164
▁destroys	-10165
▁finishes	-10166
▁movement	-10167
▁offsides	-10168
▁secondly	-10169
▁siblings	-10170
▁unveiled	-10171
▁Louisiana	-10172
▁Mukherjee	-10173
▁POTENTIAL	-10174
▁Palestine	-10175
▁Palpatine	-10176
▁Parliment	-10177
▁Plamegate	-10178
▁Political	-10179
▁Polyamory	-10180
▁Rajasthan	-10181
▁Regarding	-10182
▁Requiring	-10183
▁Reservoir	-10184
▁Starbucks	-10185
▁Therefore	-10186
▁Unionists	-10187
▁VOLUNTARY	-10188
▁Wisconsin	-10189
▁Yesterday	-10190
▁Ygdrassil	-10191
▁Youtubers	-10192
▁abortions	-10193
▁abridging	-10194
▁accidents	-10195
▁accompany	-10196
▁addiction	-10197
▁addullted	-10198
▁admitting	-10199
Bs	-10200
Ha	-10201
TV	-10202
-11	-10203
GBs	-10204
rox	-10205
roz	-10206
▁58	-10207
▁AN	-10208
▁HS	-10209
Hist	-10210
iser	-10211
▁30,	-10212
▁ANY	-10213
▁Get	-10214
▁egg	-10215
▁tad	-10216
Cause	-10217
adult	-10218
lemon	-10219
rozen	-10220
▁8:30	-10221
▁9-11	-10222
▁Musk	-10223
▁Sall	-10224
▁Time	-10225
▁VERY	-10226
▁boot	-10227
▁deed	-10228
▁sees	-10229
Having	-10230
crimes	-10231
crimin	-10232
either	-10233
enters	-10234
hisers	-10235
ounder	-10236
xtreme	-10237
▁Filet	-10238
▁Oscar	-10239
▁Sallu	-10240
▁Using	-10241
▁aprox	-10242
▁beers	-10243
▁chief	-10244
▁conso	-10245
▁draws	-10246
▁hefty	-10247
▁inapp	-10248
▁menus	-10249
▁scoop	-10250
▁spell	-10251
▁spree	-10252
▁strip	-10253
▁swing	-10254
▁theme	-10255
▁wiser	-10256
ardians	-10257
founder	-10258
witness	-10259
▁Stones	-10260
▁broken	-10261
▁entree	-10262
▁frozen	-10263
▁greets	-10264
▁hummus	-10265
▁plants	-10266
▁visual	-10267
▁Banning	-10268
▁Extreme	-10269
▁Knowing	-10270
▁centers	-10271
▁cleanse	-10272
▁console	-10273
▁couldnt	-10274
▁creator	-10275
▁examine	-10276
▁failure	-10277
discrimin	-10278
▁decrease	-10279
▁proclaim	-10280
▁swingers	-10281
ardianship	-10282
▁advisable	-10283
▁affecting	-10284
▁affection	-10285
▁afflicted	-10286
▁afternoon	-10287
▁alcoholic	-10288
▁anecdotal	-10289
▁animosity	-10290
▁anonymity	-10291
▁apologies	-10292
▁appendage	-10293
▁appetizer	-10294
▁appointed	-10295
▁arresting	-10296
▁assessing	-10297
▁assurance	-10298
▁astronomy	-10299
.**	-10300
Big	-10301
Yet	-10302
▁IV	-10303
▁SW	-10304
▁oz	-10305
hour	-10306
lien	-10307
teak	-10308
term	-10309
▁Are	-10310
▁Oil	-10311
▁cin	-10312
▁sop	-10313
▁tho	-10314
1000)	-10315
bling	-10316
going	-10317
ieces	-10318
▁Call	-10319
▁None	-10320
▁Ster	-10321
▁forg	-10322
▁grim	-10323
▁junk	-10324
▁lake	-10325
▁wake	-10326
ervous	-10327
▁Earth	-10328
▁Steak	-10329
▁Theft	-10330
▁alien	-10331
▁atoms	-10332
▁cinem	-10333
▁dough	-10334
▁helpI	-10335
▁heter	-10336
▁noses	-10337
▁trace	-10338
▁Burger	-10339
▁loving	-10340
▁pieces	-10341
▁reckon	-10342
▁relate	-10343
▁shines	-10344
▁sneaks	-10345
▁theres	-10346
▁Georgia	-10347
▁ILLEGAL	-10348
▁forgive	-10349
▁nervous	-10350
▁staging	-10351
▁topping	-10352
▁Sterling	-10353
▁adoption	-10354
▁director	-10355
▁factions	-10356
▁gambling	-10357
▁jealousy	-10358
▁juvinile	-10359
▁narrowly	-10360
▁occurred	-10361
▁playable	-10362
▁retainer	-10363
▁thingies	-10364
▁Realistic	-10365
▁athiestic	-10366
▁attending	-10367
▁attourney	-10368
▁awareness	-10369
▁axiomatic	-10370
▁bachelors	-10371
▁behaviour	-10372
▁believing	-10373
▁biometric	-10374
▁bloodline	-10375
▁bracelets	-10376
▁breakdown	-10377
▁breakfast	-10378
▁breakneck	-10379
▁breathing	-10380
▁broadband	-10381
▁calculate	-10382
▁catastrop	-10383
▁challenge	-10384
▁chocolate	-10385
▁cigarette	-10386
▁citizenry	-10387
▁civilians	-10388
▁cognitely	-10389
▁cognitive	-10390
▁collected	-10391
▁combining	-10392
▁commodity	-10393
▁complains	-10394
▁concerned	-10395
▁condition	-10396
▁confident	-10397
▁conquered	-10398
▁consensus	-10399
!).	-10400
Col	-10401
dub	-10402
who	-10403
▁17	-10404
▁6.	-10405
▁AR	-10406
▁Eg	-10407
▁Hi	-10408
Cola	-10409
ainf	-10410
aint	-10411
best	-10412
erts	-10413
food	-10414
hole	-10415
iest	-10416
inko	-10417
llap	-10418
olid	-10419
▁18,	-10420
▁Oly	-10421
▁lol	-10422
Opera	-10423
paint	-10424
▁160'	-10425
▁avid	-10426
▁becu	-10427
▁dole	-10428
▁exit	-10429
▁gale	-10430
▁gold	-10431
▁tall	-10432
esteem	-10433
llapse	-10434
▁2013,	-10435
▁Olymp	-10436
▁comic	-10437
▁delay	-10438
▁faces	-10439
▁falls	-10440
▁holid	-10441
▁latte	-10442
▁merit	-10443
▁pasta	-10444
▁pinko	-10445
▁rainf	-10446
▁suing	-10447
▁tight	-10448
cessive	-10449
duboard	-10450
risters	-10451
▁Lennon	-10452
▁Making	-10453
▁Naples	-10454
▁alerts	-10455
▁bitter	-10456
▁misled	-10457
▁salads	-10458
▁yearly	-10459
▁Sixteen	-10460
▁Stanley	-10461
▁arguing	-10462
▁bastard	-10463
▁beaches	-10464
▁becuase	-10465
▁biology	-10466
▁illness	-10467
▁seeking	-10468
▁shooter	-10469
dodgeball	-10470
▁Olympics	-10471
▁applying	-10472
▁collapse	-10473
▁electric	-10474
▁happiest	-10475
▁holidays	-10476
▁obscured	-10477
▁rainfall	-10478
▁someones	-10479
▁wrestles	-10480
▁cockfight	-10481
▁consulate	-10482
▁contained	-10483
▁cooperate	-10484
▁corporate	-10485
▁coworkers	-10486
▁creatures	-10487
▁custodial	-10488
▁decreased	-10489
▁defending	-10490
▁dependant	-10491
▁described	-10492
▁desecrate	-10493
▁designers	-10494
▁designing	-10495
▁desirable	-10496
▁desperate	-10497
▁deterrent	-10498
▁diagnosis	-10499
▁!	-10500
amo	-10501
fam	-10502
run	-10503
▁22	-10504
▁MJ	-10505
▁MP	-10506
▁Me	-10507
▁Wh	-10508
Vine	-10509
rity	-10510
rius	-10511
▁Far	-10512
▁HOT	-10513
▁Has	-10514
▁Mau	-10515
▁Spe	-10516
▁Won	-10517
▁row	-10518
▁wil	-10519
state	-10520
udity	-10521
usion	-10522
▁2002	-10523
▁FIFA	-10524
▁Maul	-10525
▁Penn	-10526
▁____	-10527
▁epic	-10528
▁grey	-10529
▁laid	-10530
▁leve	-10531
▁mere	-10532
▁ring	-10533
▁sequ	-10534
▁ship	-10535
347180	-10536
Person	-10537
choice	-10538
famous	-10539
▁Prius	-10540
▁Speed	-10541
▁Which	-10542
▁White	-10543
▁crack	-10544
▁enter	-10545
▁goodI	-10546
▁relic	-10547
▁rough	-10548
▁Before	-10549
▁Kafein	-10550
▁Palace	-10551
▁Social	-10552
▁finite	-10553
▁nudity	-10554
▁partly	-10555
▁themed	-10556
▁thinks	-10557
▁Italian	-10558
▁bigoted	-10559
▁couples	-10560
▁leveled	-10561
▁rolling	-10562
▁rubbery	-10563
▁stopped	-10564
▁allusion	-10565
▁biscuits	-10566
▁bragging	-10567
▁cracking	-10568
▁defended	-10569
▁foothold	-10570
▁handguns	-10571
▁initiate	-10572
▁pictures	-10573
▁regulars	-10574
▁scarcity	-10575
▁sequence	-10576
Personally	-10577
▁Evolution	-10578
▁Inventive	-10579
▁assaulted	-10580
▁candidate	-10581
▁canfinish	-10582
▁celebrity	-10583
▁disallows	-10584
▁disappear	-10585
▁discovery	-10586
▁dishonest	-10587
▁dismissed	-10588
▁displayed	-10589
▁disputing	-10590
▁downloads	-10591
▁downplays	-10592
▁eachother	-10593
▁economyHe	-10594
▁elaborate	-10595
▁eliminate	-10596
▁emissions	-10597
▁empowered	-10598
▁emptiness	-10599
Now	-10600
Web	-10601
net	-10602
▁(:	-10603
When	-10604
even	-10605
▁24-	-10606
▁Pay	-10607
▁Sue	-10608
▁gem	-10609
▁tag	-10610
▁van	-10611
ntire	-10612
unint	-10613
▁Dist	-10614
▁Main	-10615
▁Rome	-10616
▁atle	-10617
▁core	-10618
▁fare	-10619
▁fiat	-10620
▁leap	-10621
▁nose	-10622
▁reel	-10623
▁wise	-10624
▁wong	-10625
rather	-10626
▁Malay	-10627
▁Tasty	-10628
▁added	-10629
▁bowls	-10630
▁broke	-10631
▁guest	-10632
▁lover	-10633
▁neice	-10634
▁plate	-10635
▁swear	-10636
▁unity	-10637
▁whore	-10638
lawyers	-10639
▁Entire	-10640
▁Filled	-10641
▁bailed	-10642
▁beyond	-10643
▁clothe	-10644
▁hiding	-10645
▁influx	-10646
▁intact	-10647
▁survey	-10648
▁theirs	-10649
▁Amidala	-10650
▁Bastard	-10651
▁Britain	-10652
▁Science	-10653
▁UNIFORM	-10654
▁anytime	-10655
▁atleast	-10656
▁curries	-10657
▁deliver	-10658
▁frontal	-10659
▁install	-10660
▁reeling	-10661
▁sources	-10662
▁threats	-10663
▁toolbar	-10664
▁vanilla	-10665
▁damaging	-10666
▁evolving	-10667
▁explorer	-10668
▁fatherly	-10669
▁probable	-10670
▁spectrum	-10671
▁spilling	-10672
censorship	-10673
▁Bollywood	-10674
▁Lousisana	-10675
▁adulthood	-10676
▁advencing	-10677
▁disbelief	-10678
▁endeavors	-10679
▁engineers	-10680
▁enshrined	-10681
▁equipment	-10682
▁especialy	-10683
▁ethnicity	-10684
▁everybody	-10685
▁everytime	-10686
▁exception	-10687
▁excersise	-10688
▁excessive	-10689
▁executing	-10690
▁expansion	-10691
▁expertise	-10692
▁explosion	-10693
▁expressly	-10694
▁favourite	-10695
▁financing	-10696
▁flavorful	-10697
▁flavoring	-10698
▁followers	-10699
25.	-10700
Ick	-10701
nud	-10702
anda	-10703
udge	-10704
uhar	-10705
ysit	-10706
▁10.	-10707
▁Cap	-10708
▁ads	-10709
▁gap	-10710
▁six	-10711
Based	-10712
Their	-10713
goers	-10714
vened	-10715
▁1985	-10716
▁Aide	-10717
▁Last	-10718
▁Nice	-10719
▁Such	-10720
▁damp	-10721
▁hook	-10722
▁join	-10723
▁leak	-10724
▁loot	-10725
▁mall	-10726
▁mock	-10727
▁neck	-10728
▁sist	-10729
▁suck	-10730
nudist	-10731
▁Apply	-10732
▁Cross	-10733
▁North	-10734
▁belly	-10735
▁budge	-10736
▁chime	-10737
▁lawis	-10738
▁needy	-10739
▁react	-10740
▁relax	-10741
▁rifle	-10742
▁tired	-10743
▁tract	-10744
▁wheel	-10745
Further	-10746
ricians	-10747
▁Report	-10748
▁Wouldn	-10749
▁brunch	-10750
▁doesnt	-10751
▁equate	-10752
▁esteem	-10753
▁expert	-10754
▁height	-10755
▁seeped	-10756
▁shield	-10757
valuable	-10758
▁CLEARLY	-10759
▁applied	-10760
▁avocado	-10761
▁babysit	-10762
▁contest	-10763
▁entails	-10764
▁offence	-10765
▁quietly	-10766
▁redress	-10767
▁relieve	-10768
▁sisters	-10769
!!!!!!!!!	-10770
▁families	-10771
▁openings	-10772
▁preceded	-10773
▁reliance	-10774
▁steering	-10775
risdiction	-10776
▁Isrealian	-10777
▁factories	-10778
▁forwarded	-10779
▁franchise	-10780
▁frustrate	-10781
▁functions	-10782
▁galloping	-10783
▁garnished	-10784
▁gatherers	-10785
▁graduates	-10786
▁gravitate	-10787
▁greatness	-10788
▁grounding	-10789
▁guacamole	-10790
▁guarantee	-10791
▁happiness	-10792
▁hardships	-10793
▁healthier	-10794
▁heartache	-10795
▁heartless	-10796
▁honorably	-10797
▁hourglass	-10798
▁ignorance	-10799
▁iincurred	-10800
▁illegally	-10801
▁illusions	-10802
▁imitating	-10803
▁impeached	-10804
▁imperfect	-10805
▁improvise	-10806
▁inability	-10807
▁inception	-10808
▁incorrect	-10809
▁increases	-10810
▁incumbent	-10811
▁indicates	-10812
▁infection	-10813
▁infinitum	-10814
▁informing	-10815
▁ingrained	-10816
▁innocence	-10817
▁innocents	-10818
▁inspected	-10819
▁inspiring	-10820
▁intensive	-10821
▁intention	-10822
▁intruders	-10823
▁invention	-10824
▁inventive	-10825
▁iteration	-10826
▁jalapenos	-10827
▁justifies	-10828
▁knowingly	-10829
▁landslide	-10830
▁legalized	-10831
▁lessening	-10832
▁liability	-10833
▁licensees	-10834
▁licesnsed	-10835
▁listening	-10836
▁lobbyists	-10837
▁locations	-10838
▁logically	-10839
▁machinery	-10840
▁magically	-10841
▁marketers	-10842
▁marketing	-10843
▁massacred	-10844
▁massively	-10845
▁measuring	-10846
▁motivated	-10847
▁multitude	-10848
▁municipal	-10849
▁murderers	-10850
▁necassary	-10851
▁neglected	-10852
▁neighbors	-10853
▁nessasary	-10854
▁networked	-10855
▁nominated	-10856
▁nostalgia	-10857
▁nutrients	-10858
▁nutrition	-10859
▁obligated	-10860
▁obnoxious	-10861
▁obtaining	-10862
▁occurance	-10863
▁offenders	-10864
▁officials	-10865
▁operating	-10866
▁optimizer	-10867
▁outnumber	-10868
▁outsource	-10869
▁overblown	-10870
▁overboard	-10871
▁oversight	-10872
▁packaging	-10873
▁palistina	-10874
▁paternity	-10875
▁peaceably	-10876
▁pedophile	-10877
▁phenomena	-10878
▁pistachio	-10879
▁placement	-10880
▁plausible	-10881
▁pointless	-10882
▁polluting	-10883
▁pondering	-10884
▁positives	-10885
▁possessed	-10886
▁practical	-10887
▁preferred	-10888
▁pregnancy	-10889
▁prescribe	-10890
▁prevalent	-10891
▁principal	-10892
▁prisoners	-10893
▁privately	-10894
▁problably	-10895
▁procedure	-10896
▁proceeded	-10897
▁procreate	-10898
▁programme	-10899
▁prohibits	-10900
▁prompting	-10901
▁prophetic	-10902
▁proposing	-10903
▁prosocial	-10904
▁publicize	-10905
▁punishing	-10906
▁purchased	-10907
▁realistic	-10908
▁reasoning	-10909
▁recentlly	-10910
▁recession	-10911
▁recreated	-10912
▁recyclers	-10913
▁reference	-10914
▁reforming	-10915
▁regulates	-10916
▁remodeled	-10917
▁repercuss	-10918
▁reporting	-10919
▁requested	-10920
▁resembles	-10921
▁reshuffle	-10922
▁resilient	-10923
▁responder	-10924
▁responses	-10925
▁resulting	-10926
▁retaining	-10927
▁returning	-10928
▁rewarding	-10929
▁salvation	-10930
▁scenarios	-10931
▁schoolers	-10932
▁schooling	-10933
▁scripture	-10934
▁selection	-10935
▁sentences	-10936
▁sephiroth	-10937
▁seventies	-10938
▁shittiest	-10939
▁shootings	-10940
▁signature	-10941
▁signifies	-10942
▁snitching	-10943
▁socialize	-10944
▁sociopath	-10945
▁solutions	-10946
▁spaceship	-10947
▁sparingly	-10948
▁specified	-10949
▁stabbings	-10950
▁stability	-10951
▁standings	-10952
▁standoffs	-10953
▁storyline	-10954
▁strengths	-10955
▁stringent	-10956
▁strongest	-10957
▁structure	-10958
▁struggled	-10959
▁surgeries	-10960
▁suspicion	-10961
▁systemThe	-10962
▁tailoring	-10963
▁technical	-10964
▁teenagers	-10965
▁territory	-10966
▁themselfs	-10967
▁theripist	-10968
▁thescreen	-10969
▁thousands	-10970
▁tolerates	-10971
▁tradition	-10972
▁triggered	-10973
▁uncertain	-10974
▁uncovered	-10975
▁undermine	-10976
▁undertone	-10977
▁undesired	-10978
▁unhealthy	-10979
▁unnatural	-10980
▁unpopular	-10981
▁unrelated	-10982
▁unsecured	-10983
▁uploading	-10984
▁vaccinate	-10985
▁variables	-10986
▁welcoming	-10987
▁witnessed	-10988
▁workplace	-10989
Compression	-10990
Desecration	-10991
Palestinian	-10992
Playstation	-10993
Retributive	-10994
Technically	-10995
connections	-10996
considering	-10997
intelligent	-10998
recognition	-10999
ressionable	-11000
▁10/20/2013	-11001
▁Algorithms	-11002
▁Apparently	-11003
▁Australian	-11004
▁Benefiting	-11005
▁CONSISTENT	-11006
▁Censorship	-11007
▁Cheesecake	-11008
▁Christians	-11009
▁Democratic	-11010
▁Department	-11011
▁Dissolving	-11012
▁EUTHANASIA	-11013
▁Englishman	-11014
▁Exceptions	-11015
▁Fatherless	-11016
▁Generation	-11017
▁Government	-11018
▁Guantanamo	-11019
▁Guidelines	-11020
▁Incumbents	-11021
▁Khrushchev	-11022
▁Livestrong	-11023
▁Madagascar	-11024
▁Personally	-11025
▁Powerpoint	-11026
▁Principals	-11027
▁Regardless	-11028
▁Scottsdale	-11029
▁Television	-11030
▁Temenggong	-11031
▁Thankfully	-11032
▁Versailles	-11033
▁Washington	-11034
▁abolishing	-11035
▁acceptance	-11036
▁accessible	-11037
▁accomplice	-11038
▁accurately	-11039
▁addictions	-11040
▁admissions	-11041
▁alcoholism	-11042
▁alienation	-11043
▁altogether	-11044
▁announcing	-11045
▁appearance	-11046
▁appetizers	-11047
▁approached	-11048
▁aryabhatta	-11049
▁assessable	-11050
▁assignment	-11051
▁assistance	-11052
▁associated	-11053
▁assortment	-11054
▁attemepted	-11055
▁attendance	-11056
▁attentions	-11057
▁background	-11058
▁bankruptcy	-11059
▁barristers	-11060
▁basketball	-11061
▁behavioral	-11062
▁belongings	-11063
▁betterment	-11064
▁blantantly	-11065
▁calculated	-11066
▁carbonated	-11067
▁castration	-11068
▁characters	-11069
▁cheerfully	-11070
▁chronicles	-11071
▁classified	-11072
▁classrooms	-11073
▁collective	-11074
▁combustive	-11075
▁comparison	-11076
▁compelling	-11077
▁completing	-11078
▁complicate	-11079
▁complicity	-11080
▁compliment	-11081
▁compulsory	-11082
▁conception	-11083
▁concerning	-11084
▁condemning	-11085
▁connecting	-11086
▁consenting	-11087
▁constitute	-11088
▁contacting	-11089
▁containers	-11090
▁contingent	-11091
▁contractor	-11092
▁contribute	-11093
▁conviction	-11094
▁corrupting	-11095
▁councilman	-11096
▁coursework	-11097
▁courthouse	-11098
▁creativity	-11099
▁dedication	-11100
▁defamation	-11101
▁defendants	-11102
▁delightful	-11103
▁demolished	-11104
▁deontology	-11105
▁depositing	-11106
▁descriptor	-11107
▁determined	-11108
▁deterrence	-11109
▁difficulty	-11110
▁diminishes	-11111
▁disastrous	-11112
▁discharged	-11113
▁discretion	-11114
▁dissenting	-11115
▁distribute	-11116
▁documented	-11117
▁ecological	-11118
▁economists	-11119
▁elementary	-11120
▁eliminated	-11121
▁empathetic	-11122
▁enchiladas	-11123
▁encouraged	-11124
▁encourages	-11125
▁engrossing	-11126
▁espeacilly	-11127
▁expectancy	-11128
▁explicable	-11129
▁explicitly	-11130
▁expression	-11131
▁fascinated	-11132
▁flavourful	-11133
▁foundation	-11134
▁frequently	-11135
▁fulfilling	-11136
▁granddaddy	-11137
▁grievances	-11138
▁guidelines	-11139
▁historical	-11140
▁homeowners	-11141
▁homophobia	-11142
▁humblebrag	-11143
▁idealistic	-11144
▁ideologies	-11145
▁illustrate	-11146
▁imaginable	-11147
▁impairment	-11148
▁impeccable	-11149
▁imprisoned	-11150
▁incentives	-11151
▁indirectly	-11152
▁individial	-11153
▁industries	-11154
▁inevitable	-11155
▁infallible	-11156
▁infidelity	-11157
▁inflexible	-11158
▁initiative	-11159
▁innovating	-11160
▁innovation	-11161
▁integrated	-11162
▁intentions	-11163
▁interested	-11164
▁interfaces	-11165
▁intervened	-11166
▁intestinal	-11167
▁intolerant	-11168
▁introduced	-11169
▁investment	-11170
▁irrelevant	-11171
▁irritating	-11172
▁legalizing	-11173
▁legitimacy	-11174
▁livestream	-11175
▁maintained	-11176
▁malcontent	-11177
▁management	-11178
▁mandortory	-11179
▁margaritas	-11180
▁margherita	-11181
▁mentorship	-11182
▁milestones	-11183
▁minorities	-11184
▁misleading	-11185
▁mistakenly	-11186
▁mitigating	-11187
▁mostpolice	-11188
▁negligence	-11189
▁negotiated	-11190
▁neutralize	-11191
▁nonsmokers	-11192
▁obligation	-11193
▁occasional	-11194
▁offensives	-11195
▁operations	-11196
▁oppressive	-11197
▁originated	-11198
▁otherwords	-11199
▁overturned	-11200
▁paperclips	-11201
▁passionate	-11202
▁peacefully	-11203
▁perception	-11204
▁perfection	-11205
▁personable	-11206
▁phenomenal	-11207
▁phosphoric	-11208
▁physically	-11209
▁physicians	-11210
▁politician	-11211
▁preference	-11212
▁prescribed	-11213
▁presenting	-11214
▁prevailing	-11215
▁principles	-11216
▁procedures	-11217
▁proceeding	-11218
▁proclaimed	-11219
▁production	-11220
▁productive	-11221
▁professors	-11222
▁projecting	-11223
▁promissory	-11224
▁propaganda	-11225
▁properties	-11226
▁prostitute	-11227
▁protective	-11228
▁reasonably	-11229
▁recklessly	-11230
▁recognised	-11231
▁recognized	-11232
▁recognizes	-11233
▁recommends	-11234
▁recyclable	-11235
▁refreshing	-11236
▁regulating	-11237
▁reinforces	-11238
▁relativity	-11239
▁remorseful	-11240
▁repeatedly	-11241
▁republican	-11242
▁reputation	-11243
▁researched	-11244
▁resembling	-11245
▁resentment	-11246
▁resolution	-11247
▁responding	-11248
▁revelation	-11249
▁rightfully	-11250
▁sacrificed	-11251
▁sandwiches	-11252
▁satisfying	-11253
▁schoolgirl	-11254
▁schoolwork	-11255
▁scientists	-11256
▁scratching	-11257
▁sentencing	-11258
▁signatures	-11259
▁signifying	-11260
▁sororities	-11261
▁speciality	-11262
▁squeezable	-11263
▁stagnation	-11264
▁standpoint	-11265
▁statements	-11266
▁storylines	-11267
▁straighten	-11268
▁stretching	-11269
▁struggling	-11270
▁subjective	-11271
▁submission	-11272
▁subsequent	-11273
▁substances	-11274
▁successful	-11275
▁suggesting	-11276
▁supporters	-11277
▁supporting	-11278
▁surprising	-11279
▁survivable	-11280
▁systematic	-11281
▁targetting	-11282
▁temptation	-11283
▁tendencies	-11284
▁terminated	-11285
▁terrifying	-11286
▁thankfully	-11287
▁thoughtYou	-11288
▁thoughtful	-11289
▁toleration	-11290
▁tolerlance	-11291
▁touchstone	-11292
▁travelling	-11293
▁truthfully	-11294
▁unbalanced	-11295
▁unbearable	-11296
▁undermined	-11297
▁unemployed	-11298
▁unfriendly	-11299
▁unpleasant	-11300
▁upbringing	-11301
▁veneration	-11302
▁verifiable	-11303
▁viewpoints	-11304
▁violations	-11305
▁volleyball	-11306
▁whatsoever	-11307
▁worthwhile	-11308
Historically	-11309
Incidentally	-11310
healthywater	-11311
implementing	-11312
▁Afghanistan	-11313
▁Association	-11314
▁Borderlands	-11315
▁Brilliantly	-11316
▁Butterblume	-11317
▁Catholicism	-11318
▁Challengers	-11319
▁Chandrayaan	-11320
▁Definattley	-11321
▁Development	-11322
▁Enforcement	-11323
▁Engineering	-11324
▁Expungement	-11325
▁GOOOOOOOOOD	-11326
▁IMMEDIATELY	-11327
▁Individuals	-11328
▁Introducing	-11329
▁Journalists	-11330
▁Mathematics	-11331
▁Misjudgment	-11332
▁Nationalist	-11333
▁Nominations	-11334
▁Outstanding	-11335
▁Sarassaland	-11336
▁Springfield	-11337
▁accompalice	-11338
▁accusations	-11339
▁acquisition	-11340
▁advancement	-11341
▁advertising	-11342
▁affiliating	-11343
▁affirmative	-11344
▁aggravating	-11345
▁algorithims	-11346
▁amansiapted	-11347
▁anniversary	-11348
▁anonymously	-11349
▁apoligizing	-11350
▁appeasement	-11351
▁appreciated	-11352
▁assumptions	-11353
▁authorities	-11354
▁backgrounds	-11355
▁battlefield	-11356
▁beautifully	-11357
▁beneficiary	-11358
▁bereleasing	-11359
▁blackberrys	-11360
▁bombersSupp	-11361
▁businessman	-11362
▁capitalists	-11363
▁celebrating	-11364
▁celebration	-11365
▁citizenship	-11366
▁classifiers	-11367
▁cleanliness	-11368
▁cognitively	-11369
▁combination	-11370
▁complaining	-11371
▁compostable	-11372
▁concealable	-11373
▁confiscated	-11374
▁connections	-11375
▁connotation	-11376
▁constituted	-11377
▁contentious	-11378
▁continuance	-11379
▁contradicts	-11380
▁correctness	-11381
▁creationism	-11382
▁credibility	-11383
▁crimebodies	-11384
▁deformation	-11385
▁deformities	-11386
▁demographic	-11387
▁departments	-11388
▁destruction	-11389
▁detrimental	-11390
▁devastating	-11391
▁devastation	-11392
▁disallowing	-11393
▁disasterous	-11394
▁disciplines	-11395
▁discoveries	-11396
▁distributed	-11397
▁educational	-11398
▁egotistical	-11399
▁eligibility	-11400
▁emancipated	-11401
▁equilibrium	-11402
▁extensively	-11403
▁fashionable	-11404
▁foundations	-11405
▁frustrating	-11406
▁frustration	-11407
▁fulfillment	-11408
▁functioning	-11409
▁generalized	-11410
▁generations	-11411
▁grandmother	-11412
▁harrassment	-11413
▁hierarchies	-11414
▁idolization	-11415
▁immigration	-11416
▁impeachment	-11417
▁impersonate	-11418
▁implemented	-11419
▁implication	-11420
▁indefinably	-11421
▁independent	-11422
▁informative	-11423
▁infringment	-11424
▁inheritance	-11425
▁innovations	-11426
▁insensitive	-11427
▁instability	-11428
▁institution	-11429
▁intelligent	-11430
▁intentional	-11431
▁intercourse	-11432
▁interpreted	-11433
▁interracial	-11434
▁involuntary	-11435
▁issuesFirst	-11436
▁legislation	-11437
▁legislature	-11438
▁maintenance	-11439
▁maliciously	-11440
▁manouvering	-11441
▁masterpiece	-11442
▁measurement	-11443
▁misbehaving	-11444
▁misinformed	-11445
▁mudslinging	-11446
▁nationalism	-11447
▁nationality	-11448
▁necessities	-11449
▁negotiation	-11450
▁neighbourly	-11451
▁notAmerican	-11452
▁numerically	-11453
▁objectively	-11454
▁obnoxiously	-11455
▁observation	-11456
▁overlooking	-11457
▁overpowered	-11458
▁overshadows	-11459
▁perceptible	-11460
▁permanently	-11461
▁permissable	-11462
▁perpetrator	-11463
▁personality	-11464
▁polyamorous	-11465
▁pornography	-11466
▁possessions	-11467
▁prejudicial	-11468
▁prematurely	-11469
▁prestigious	-11470
▁problematic	-11471
▁progression	-11472
▁prohibiting	-11473
▁prosecuting	-11474
▁prosecution	-11475
▁protections	-11476
▁provisional	-11477
▁publication	-11478
▁punishments	-11479
▁questioning	-11480
▁rearranging	-11481
▁reconfigure	-11482
▁respectable	-11483
▁restricting	-11484
▁restriction	-11485
▁retributive	-11486
▁rhinoplasty	-11487
▁sensitivity	-11488
▁specialized	-11489
▁speculation	-11490
▁speculative	-11491
▁subordinate	-11492
▁substitutes	-11493
▁superpowers	-11494
▁supervising	-11495
▁temperature	-11496
▁terminating	-11497
▁territorial	-11498
▁threatening	-11499
▁thumbsticks	-11500
▁tranquility	-11501
▁transplants	-11502
▁undermining	-11503
▁underpaying	-11504
▁undoubtedly	-11505
▁unfailingly	-11506
▁unfortunate	-11507
▁ventilators	-11508
▁wrecklessly	-11509
askhistorians	-11510
demonstration	-11511
icunderground	-11512
nationalities	-11513
participating	-11514
skinnylicious	-11515
▁Chimichangas	-11516
▁Constitution	-11517
▁Copywrighted	-11518
▁Distributing	-11519
▁Economically	-11520
▁FoodEveryone	-11521
▁Intelligence	-11522
▁Neighborhood	-11523
▁Presidential	-11524
▁Standardized	-11525
▁Surprisingly	-11526
▁Thanksgiving	-11527
▁achievements	-11528
▁acknowledged	-11529
▁annihilating	-11530
▁appreciating	-11531
▁architecture	-11532
▁arrangements	-11533
▁associations	-11534
▁attributable	-11535
▁augmentation	-11536
▁availability	-11537
▁beneficially	-11538
▁calculations	-11539
▁catastrophic	-11540
▁circumstance	-11541
▁circumvented	-11542
▁cockfighting	-11543
▁commencement	-11544
▁communicated	-11545
▁concentrated	-11546
▁consequently	-11547
▁conservative	-11548
▁considerably	-11549
▁constituents	-11550
▁contribution	-11551
▁corporations	-11552
▁developments	-11553
▁disinfectant	-11554
▁dissapointed	-11555
▁distributing	-11556
▁dramatically	-11557
▁encountering	-11558
▁enhancements	-11559
▁enlightening	-11560
▁environments	-11561
▁foreclosures	-11562
▁fraternities	-11563
▁functionally	-11564
▁gIngredients	-11565
▁geographical	-11566
▁grandparents	-11567
▁guardianship	-11568
▁heterosexual	-11569
▁hypocritical	-11570
▁implications	-11571
▁inconsistent	-11572
▁indisputable	-11573
▁individually	-11574
▁inflammatory	-11575
▁interpreting	-11576
▁intervention	-11577
▁intimidation	-11578
▁jurisdiction	-11579
▁kindergarten	-11580
▁knowledgable	-11581
▁libertarians	-11582
▁malnourished	-11583
▁manufactured	-11584
▁memorization	-11585
▁monopolistic	-11586
▁organisation	-11587
▁organization	-11588
▁palestinians	-11589
▁palistinians	-11590
▁passionately	-11591
▁philosophies	-11592
▁premeditated	-11593
▁presidential	-11594
▁protectorate	-11595
▁punnishments	-11596
▁rehabiliting	-11597
▁reponsiblity	-11598
▁representing	-11599
▁standardized	-11600
▁strategizing	-11601
▁stubbornness	-11602
▁sympathisers	-11603
▁technologies	-11604
▁transmission	-11605
▁unfathomable	-11606
discriminatory	-11607
friendsjournal	-11608
identification	-11609
▁Realistically	-11610
▁Scientologist	-11611
▁acknowledging	-11612
▁architectural	-11613
▁attentiveness	-11614
▁complications	-11615
▁comprehensive	-11616
▁consideration	-11617
▁contamination	-11618
▁contraception	-11619
▁contradictory	-11620
▁contributions	-11621
▁destabilizing	-11622
▁disadvantaged	-11623
▁disapointment	-11624
▁disappointing	-11625
▁documentaries	-11626
▁documentation	-11627
▁embarassingly	-11628
▁entertainment	-11629
▁extendibility	-11630
▁extraordinary	-11631
▁imperfections	-11632
▁inappropriate	-11633
▁incentivizing	-11634
▁independently	-11635
▁intelligently	-11636
▁intentionally	-11637
▁intrinsically	-11638
▁investigation	-11639
▁manufactoring	-11640
▁manufacturing	-11641
▁microchipping	-11642
▁mismanagement	-11643
▁nationalistic	-11644
▁organisations	-11645
▁organizations	-11646
▁pediatricians	-11647
▁possibilities	-11648
▁predominantly	-11649
▁repercussions	-11650
▁significantly	-11651
▁socialization	-11652
▁sophisticated	-11653
▁speculatively	-11654
▁strengthening	-11655
▁substantially	-11656
▁technological	-11657
▁unfortunately	-11658
▁victimization	-11659
interpretations	-11660
unintentionally	-11661
▁administration	-11662
▁archaeological	-11663
▁attractiveness	-11664
▁cinematography	-11665
▁considerations	-11666
▁constitutional	-11667
▁contradictions	-11668
▁decriminalized	-11669
▁fundamentalism	-11670
▁gerrymandering	-11671
▁hyperinflation	-11672
▁identification	-11673
▁illegalization	-11674
▁implementation	-11675
▁impressionable	-11676
▁indoctrination	-11677
▁infrastructure	-11678
▁professionally	-11679
▁rehabilitation	-11680
▁representation	-11681
▁responsibilily	-11682
▁stomachoverall	-11683
▁transportation	-11684
▁understandable	-11685
▁Neuroscientists	-11686
▁anotherguardian	-11687
▁characteristics	-11688
▁functionalities	-11689
▁incompatibility	-11690
▁philosophically	-11691
▁underperforming	-11692
20,	-11693
20/	-11694
471	-11695
5.1	-11696
7.5	-11697
77.	-11698
9.5	-11699
AIT	-11700
EAS	-11701
EDI	-11702
ERE	-11703
HER	-11704
HOO	-11705
ICE	-11706
IGH	-11707
NIT	-11708
OCE	-11709
RLY	-11710
TAR	-11711
TEN	-11712
UTH	-11713
YON	-11714
coh	-11715
ecr	-11716
gaz	-11717
htt	-11718
ngl	-11719
nny	-11720
scu	-11721
tsd	-11722
▁42	-11723
▁7.	-11724
▁8:	-11725
▁9-	-11726
▁VE	-11727
▁VO	-11728
▁Ve	-11729
▁Vi	-11730
000.	-11731
4718	-11732
ANAS	-11733
Dese	-11734
ERYB	-11735
LEAS	-11736
LLEG	-11737
ONSI	-11738
OTEN	-11739
SION	-11740
abys	-11741
alax	-11742
alys	-11743
ansp	-11744
barr	-11745
cake	-11746
ccup	-11747
chas	-11748
ddit	-11749
demn	-11750
elev	-11751
eorg	-11752
exic	-11753
ggie	-11754
grav	-11755
hods	-11756
hrop	-11757
ietn	-11758
joys	-11759
laim	-11760
lash	-11761
lebr	-11762
lerl	-11763
lude	-11764
mark	-11765
mato	-11766
nfor	-11767
noun	-11768
oids	-11769
olls	-11770
onds	-11771
ouls	-11772
pels	-11773
phol	-11774
picy	-11775
rash	-11776
rges	-11777
rowd	-11778
serv	-11779
sics	-11780
sueI	-11781
uicy	-11782
urts	-11783
ushc	-11784
ussi	-11785
veto	-11786
viet	-11787
vior	-11788
xiom	-11789
yway	-11790
▁10-	-11791
▁10/	-11792
▁193	-11793
▁201	-11794
▁30.	-11795
▁50/	-11796
▁Adv	-11797
▁Blu	-11798
▁COL	-11799
aws	-11800
kaw	-11801
loe	-11802
lts	-11803
awat	-11804
cove	-11805
ginn	-11806
ilib	-11807
jora	-11808
onne	-11809
owls	-11810
pair	-11811
sday	-11812
sets	-11813
wich	-11814
▁Caj	-11815
▁FOO	-11816
▁GOO	-11817
▁LAS	-11818
▁Naz	-11819
▁PFL	-11820
▁SPI	-11821
▁SSI	-11822
▁STO	-11823
▁Tup	-11824
▁UNI	-11825
▁Unf	-11826
▁Vac	-11827
▁Veg	-11828
▁Ver	-11829
▁avo	-11830
▁chr	-11831
▁gyo	-11832
▁hyd	-11833
▁kne	-11834
▁pug	-11835
▁ski	-11836
▁sla	-11837
▁swo	-11838
▁ult	-11839
▁umb	-11840
▁wip	-11841
▁yea	-11842
!____	-11843
Donal	-11844
ENTIA	-11845
LLEGA	-11846
Phone	-11847
achos	-11848
aimed	-11849
ajast	-11850
andma	-11851
anoid	-11852
aphic	-11853
apole	-11854
arina	-11855
ategy	-11856
atric	-11857
aults	-11858
ausal	-11859
awful	-11860
ayman	-11861
bersS	-11862
bited	-11863
blets	-11864
bodys	-11865
brate	-11866
bring	-11867
cared	-11868
cines	-11869
clers	-11870
cohol	-11871
creen	-11872
croll	-11873
ctric	-11874
culat	-11875
cused	-11876
dling	-11877
drass	-11878
eavor	-11879
emned	-11880
enari	-11881
enied	-11882
epson	-11883
esday	-11884
etrat	-11885
factu	-11886
ficul	-11887
ganis	-11888
ggong	-11889
ginal	-11890
gling	-11891
gnant	-11892
grams	-11893
habil	-11894
heese	-11895
hieve	-11896
hones	-11897
horic	-11898
hrush	-11899
,!!	-11900
ibi	-11901
moc	-11902
ney	-11903
noc	-11904
ocr	-11905
wee	-11906
buck	-11907
enoc	-11908
ilms	-11909
ocke	-11910
oked	-11911
▁Lib	-11912
▁bib	-11913
▁fla	-11914
▁hoc	-11915
alked	-11916
ammed	-11917
ammon	-11918
axing	-11919
bings	-11920
cutes	-11921
emale	-11922
endib	-11923
hysic	-11924
icien	-11925
ifier	-11926
ilily	-11927
inner	-11928
iolog	-11929
ircum	-11930
isjud	-11931
isuse	-11932
itics	-11933
itted	-11934
ividu	-11935
jarat	-11936
journ	-11937
joyed	-11938
juana	-11939
judic	-11940
kemon	-11941
krain	-11942
ldogs	-11943
lians	-11944
lings	-11945
llino	-11946
loads	-11947
lower	-11948
ludes	-11949
manag	-11950
marri	-11951
mbles	-11952
moniz	-11953
month	-11954
ndoub	-11955
ngine	-11956
ngred	-11957
nings	-11958
nterd	-11959
ntern	-11960
ognis	-11961
ognit	-11962
ogniz	-11963
ogurt	-11964
ohnny	-11965
oicer	-11966
oided	-11967
oints	-11968
okers	-11969
olism	-11970
ompal	-11971
ompan	-11972
omput	-11973
ondly	-11974
ontal	-11975
ontre	-11976
ophic	-11977
orway	-11978
ospit	-11979
owerm	-11980
owork	-11981
pared	-11982
perts	-11983
pital	-11984
ploma	-11985
ploye	-11986
ploys	-11987
queez	-11988
racti	-11989
ralia	-11990
raphy	-11991
ratch	-11992
ratic	-11993
rator	-11994
rehen	-11995
relev	-11996
rengt	-11997
reshm	-11998
resta	-11999
ecc	-12000
rks	-12001
rte	-12002
sIf	-12003
swe	-12004
▁3-	-12005
Amer	-12006
Doct	-12007
becc	-12008
bits	-12009
bute	-12010
ccas	-12011
ccur	-12012
cedu	-12013
cute	-12014
fath	-12015
fute	-12016
grad	-12017
gral	-12018
gram	-12019
grou	-12020
ilds	-12021
ilte	-12022
issi	-12023
lsew	-12024
many	-12025
mits	-12026
mmer	-12027
nsel	-12028
pany	-12029
risp	-12030
roys	-12031
rugs	-12032
tely	-12033
uits	-12034
▁CLE	-12035
▁sib	-12036
HANAS	-12037
aited	-12038
athro	-12039
atute	-12040
hanks	-12041
iseas	-12042
lread	-12043
merce	-12044
omise	-12045
ommer	-12046
ooter	-12047
orced	-12048
rific	-12049
rigin	-12050
ringf	-12051
rised	-12052
riter	-12053
rochi	-12054
rogen	-12055
roken	-12056
rooms	-12057
ropri	-12058
rteen	-12059
ructs	-12060
ships	-12061
ssing	-12062
ssume	-12063
sterp	-12064
suits	-12065
terns	-12066
ungry	-12067
unici	-12068
ussel	-12069
utely	-12070
uthor	-12071
vaged	-12072
vehic	-12073
vices	-12074
vider	-12075
vides	-12076
vited	-12077
wards	-12078
ximum	-12079
yists	-12080
▁100,	-12081
▁2006	-12082
▁2018	-12083
▁9.52	-12084
▁Alli	-12085
▁Amer	-12086
▁Anak	-12087
▁Bait	-12088
▁CMVE	-12089
▁Caes	-12090
▁Chri	-12091
▁Chur	-12092
▁Dais	-12093
▁Depe	-12094
▁Diss	-12095
▁Fair	-12096
▁File	-12097
▁Guid	-12098
▁Heal	-12099
006	-12100
5).	-12101
600	-12102
800	-12103
:00	-12104
eav	-12105
!!!)	-12106
atib	-12107
avan	-12108
evel	-12109
ohes	-12110
pute	-12111
urno	-12112
valu	-12113
word	-12114
▁fav	-12115
avity	-12116
avory	-12117
cific	-12118
fense	-12119
fford	-12120
gency	-12121
gular	-12122
idial	-12123
ncing	-12124
pense	-12125
tiest	-12126
ulars	-12127
versa	-12128
views	-12129
▁1973	-12130
▁Isra	-12131
▁Isre	-12132
▁Kafe	-12133
▁Kill	-12134
▁Miss	-12135
▁PFLA	-12136
▁Pilg	-12137
▁Real	-12138
▁Recc	-12139
▁Reme	-12140
▁Requ	-12141
▁Ston	-12142
▁airf	-12143
▁alte	-12144
▁auth	-12145
▁barg	-12146
▁bath	-12147
▁brea	-12148
▁burn	-12149
▁busi	-12150
▁camp	-12151
▁choc	-12152
▁cove	-12153
▁curr	-12154
▁curs	-12155
▁curv	-12156
▁diab	-12157
▁diag	-12158
▁diar	-12159
▁dipp	-12160
▁egot	-12161
▁eleg	-12162
▁elev	-12163
▁entr	-12164
▁este	-12165
▁foss	-12166
▁gasp	-12167
▁geog	-12168
▁indo	-12169
▁inno	-12170
▁judg	-12171
▁kiss	-12172
▁larg	-12173
▁lett	-12174
▁lowe	-12175
▁matt	-12176
▁midd	-12177
▁mism	-12178
▁musc	-12179
▁pedi	-12180
▁peps	-12181
▁pilg	-12182
▁pull	-12183
▁redu	-12184
▁repa	-12185
▁root	-12186
▁runn	-12187
▁salm	-12188
▁seaf	-12189
▁slee	-12190
▁sque	-12191
▁subj	-12192
▁sudd	-12193
▁sugg	-12194
▁symb	-12195
▁tapi	-12196
▁tatt	-12197
▁terr	-12198
▁trib	-12199
TED	-12200
▁Ja	-12201
avel	-12202
efic	-12203
fuse	-12204
gled	-12205
hief	-12206
icts	-12207
ictu	-12208
iors	-12209
isbe	-12210
otts	-12211
rief	-12212
rors	-12213
tled	-12214
vors	-12215
▁aug	-12216
▁blo	-12217
▁bug	-12218
▁bui	-12219
▁obj	-12220
▁obn	-12221
▁obv	-12222
▁scr	-12223
adily	-12224
althc	-12225
annot	-12226
arger	-12227
asily	-12228
auces	-12229
avell	-12230
cepti	-12231
cepts	-12232
ctors	-12233
ervat	-12234
eship	-12235
feats	-12236
icted	-12237
ilies	-12238
ndled	-12239
onors	-12240
orces	-12241
rizon	-12242
stems	-12243
vince	-12244
▁Amid	-12245
▁blan	-12246
▁blar	-12247
▁buil	-12248
▁bull	-12249
▁desc	-12250
▁drun	-12251
▁easi	-12252
▁scoo	-12253
▁scor	-12254
▁unaw	-12255
▁vacc	-12256
▁whin	-12257
▁whol	-12258
ENTIAL	-12259
______	-12260
abinet	-12261
acelet	-12262
adicts	-12263
adison	-12264
ainten	-12265
alists	-12266
allows	-12267
alsify	-12268
althyw	-12269
amatic	-12270
ammals	-12271
andwic	-12272
angled	-12273
apenos	-12274
arkest	-12275
arthly	-12276
artici	-12277
artoon	-12278
astime	-12279
asures	-12280
ategiz	-12281
atform	-12282
atized	-12283
attles	-12284
aulted	-12285
awater	-12286
ayered	-12287
bertar	-12288
bution	-12289
cessit	-12290
cipals	-12291
citing	-12292
clical	-12293
ctness	-12294
ctural	-12295
ctures	-12296
cument	-12297
demned	-12298
derers	-12299
___	-12300
cog	-12301
ebe	-12302
mog	-12303
oga	-12304
Raff	-12305
ansf	-12306
hedu	-12307
ickn	-12308
noon	-12309
odys	-12310
oget	-12311
ownl	-12312
ribe	-12313
shed	-12314
thed	-12315
▁Alm	-12316
▁Dog	-12317
▁awa	-12318
▁foc	-12319
Human	-12320
alacc	-12321
arned	-12322
balan	-12323
belie	-12324
ermin	-12325
guing	-12326
higan	-12327
minat	-12328
moned	-12329
ogist	-12330
ornog	-12331
othed	-12332
ownpl	-12333
ronic	-12334
tedly	-12335
ucate	-12336
ucers	-12337
ucing	-12338
umane	-12339
yball	-12340
▁Carn	-12341
▁Raff	-12342
▁accu	-12343
▁angu	-12344
▁appo	-12345
▁awes	-12346
▁bigg	-12347
▁cele	-12348
▁foet	-12349
▁foll	-12350
▁impa	-12351
▁smar	-12352
apists	-12353
arning	-12354
blemat	-12355
carina	-12356
culate	-12357
eavors	-12358
ecuted	-12359
ecutes	-12360
edible	-12361
edings	-12362
eeping	-12363
efinat	-12364
emning	-12365
empted	-12366
encing	-12367
enefit	-12368
eneral	-12369
eneric	-12370
enings	-12371
enship	-12372
ensors	-12373
erably	-12374
ercise	-12375
erhaps	-12376
ermany	-12377
erring	-12378
ersise	-12379
ervice	-12380
essors	-12381
estern	-12382
etball	-12383
etizer	-12384
evelop	-12385
exican	-12386
factor	-12387
fended	-12388
ferred	-12389
ficult	-12390
fident	-12391
forces	-12392
gative	-12393
geries	-12394
grated	-12395
gument	-12396
hening	-12397
hfully	-12398
hibits	-12399
002	-12400
OOL	-12401
Tob	-12402
obs	-12403
obv	-12404
raf	-12405
rai	-12406
sra	-12407
tra	-12408
acra	-12409
bian	-12410
blig	-12411
elig	-12412
igns	-12413
ligi	-12414
lown	-12415
okes	-12416
olig	-12417
onsm	-12418
pons	-12419
rait	-12420
raor	-12421
rawn	-12422
tons	-12423
ukes	-12424
xual	-12425
▁(!!	-12426
▁Gra	-12427
▁Lob	-12428
▁Tob	-12429
▁afr	-12430
▁hob	-12431
abian	-12432
anian	-12433
arian	-12434
ctual	-12435
dates	-12436
idual	-12437
ignat	-12438
igner	-12439
ignif	-12440
inian	-12441
ligat	-12442
ligiz	-12443
onser	-12444
onses	-12445
relig	-12446
stian	-12447
uates	-12448
ullet	-12449
visor	-12450
▁Dian	-12451
▁Mari	-12452
▁afra	-12453
▁bask	-12454
▁boun	-12455
▁incl	-12456
▁medi	-12457
▁nons	-12458
▁warr	-12459
adband	-12460
ardian	-12461
bition	-12462
cedure	-12463
essons	-12464
holism	-12465
hority	-12466
hrined	-12467
hysics	-12468
iately	-12469
iative	-12470
iciary	-12471
icidal	-12472
iddles	-12473
ifully	-12474
ilding	-12475
ileage	-12476
iminis	-12477
inessm	-12478
inform	-12479
inimum	-12480
iolent	-12481
iscuss	-12482
isfact	-12483
issing	-12484
istina	-12485
istrib	-12486
itcoin	-12487
itiate	-12488
itives	-12489
itness	-12490
ituted	-12491
joring	-12492
joying	-12493
judice	-12494
juries	-12495
keters	-12496
lastic	-12497
lcomes	-12498
ledged	-12499
LUN	-12500
cary	-12501
iary	-12502
iewp	-12503
ornn	-12504
rary	-12505
ulti	-12506
volu	-12507
▁Att	-12508
alary	-12509
beral	-12510
cents	-12511
emple	-12512
galiz	-12513
hilos	-12514
iavol	-12515
ients	-12516
imple	-12517
inary	-12518
lance	-12519
orary	-12520
orner	-12521
overn	-12522
pects	-12523
ultit	-12524
urple	-12525
verns	-12526
volut	-12527
volve	-12528
xible	-12529
▁Evol	-12530
▁Russ	-12531
▁harr	-12532
▁mari	-12533
▁mark	-12534
▁morn	-12535
▁perj	-12536
▁perm	-12537
▁reco	-12538
▁symp	-12539
erance	-12540
erning	-12541
errent	-12542
essary	-12543
fectly	-12544
gerous	-12545
idents	-12546
igrant	-12547
lerant	-12548
ligous	-12549
listic	-12550
llness	-12551
llowed	-12552
lready	-12553
luding	-12554
luence	-12555
lution	-12556
matory	-12557
mended	-12558
merica	-12559
missed	-12560
miting	-12561
mitted	-12562
ndsome	-12563
nected	-12564
nesses	-12565
niform	-12566
nitely	-12567
nivers	-12568
oading	-12569
obbies	-12570
ocents	-12571
ocking	-12572
ocrats	-12573
ogical	-12574
oiding	-12575
okemon	-12576
omeown	-12577
ominic	-12578
ommend	-12579
onding	-12580
onserv	-12581
oophol	-12582
opeful	-12583
orably	-12584
orages	-12585
orance	-12586
orians	-12587
orists	-12588
orkers	-12589
osophy	-12590
ostile	-12591
otball	-12592
ouchst	-12593
oughtY	-12594
oughts	-12595
ourced	-12596
owered	-12597
owhere	-12598
owning	-12599
nia	-12600
noy	-12601
oye	-12602
oyf	-12603
oys	-12604
suc	-12605
▁__	-12606
atia	-12607
awed	-12608
chil	-12609
conn	-12610
econ	-12611
edia	-12612
endi	-12613
ends	-12614
eria	-12615
licy	-12616
opia	-12617
oyer	-12618
razy	-12619
sues	-12620
suic	-12621
tend	-12622
uish	-12623
ursu	-12624
ylic	-12625
▁dia	-12626
▁htt	-12627
adian	-12628
alcon	-12629
anley	-12630
antee	-12631
arlic	-12632
autif	-12633
cials	-12634
dress	-12635
endan	-12636
ended	-12637
etail	-12638
ettle	-12639
fflic	-12640
inish	-12641
itish	-12642
ittle	-12643
lican	-12644
liciz	-12645
oying	-12646
plish	-12647
polog	-12648
ppend	-12649
redib	-12650
suing	-12651
ultur	-12652
voted	-12653
▁atte	-12654
▁attr	-12655
▁econ	-12656
▁payr	-12657
▁sals	-12658
▁surr	-12659
ciples	-12660
endage	-12661
ending	-12662
inning	-12663
intend	-12664
iology	-12665
licity	-12666
ollars	-12667
owsing	-12668
oxious	-12669
oyable	-12670
perien	-12671
perior	-12672
perman	-12673
placed	-12674
plorer	-12675
ployed	-12676
ployer	-12677
porate	-12678
ppress	-12679
ptance	-12680
quates	-12681
ractor	-12682
raphic	-12683
rators	-12684
readth	-12685
reamed	-12686
reased	-12687
reland	-12688
remony	-12689
ressly	-12690
rested	-12691
rician	-12692
rifice	-12693
rilled	-12694
rising	-12695
risket	-12696
rition	-12697
ritish	-12698
rivers	-12699
akd	-12700
aks	-12701
nak	-12702
▁Di	-12703
▁Du	-12704
▁Dy	-12705
▁LA	-12706
▁Lo	-12707
▁Lu	-12708
GHTS	-12709
akes	-12710
anip	-12711
avit	-12712
bert	-12713
cals	-12714
eals	-12715
ecur	-12716
iapt	-12717
iens	-12718
mals	-12719
nost	-12720
pens	-12721
post	-12722
renc	-12723
sens	-12724
tens	-12725
▁Dam	-12726
▁Dar	-12727
▁Div	-12728
▁Dom	-12729
▁Dow	-12730
▁Dri	-12731
▁Inc	-12732
▁Inv	-12733
▁Kat	-12734
▁Lot	-12735
▁Lun	-12736
▁Ofc	-12737
▁Sov	-12738
▁nak	-12739
akens	-12740
anger	-12741
atian	-12742
deals	-12743
enshi	-12744
ensit	-12745
ensiv	-12746
ensor	-12747
erals	-12748
erren	-12749
imals	-12750
izens	-12751
nical	-12752
orals	-12753
orian	-12754
pical	-12755
sical	-12756
▁Inst	-12757
▁List	-12758
▁cens	-12759
▁dogg	-12760
▁socc	-12761
conomy	-12762
edical	-12763
ension	-12764
ensory	-12765
icting	-12766
intens	-12767
itical	-12768
leting	-12769
ooting	-12770
ostess	-12771
raving	-12772
reting	-12773
roblem	-12774
rophic	-12775
rorist	-12776
rowing	-12777
ruggle	-12778
secute	-12779
sequen	-12780
siders	-12781
solute	-12782
soners	-12783
stemat	-12784
storic	-12785
tained	-12786
tainer	-12787
target	-12788
ternat	-12789
uality	-12790
udaism	-12791
ufactu	-12792
ultery	-12793
ulture	-12794
umbest	-12795
umvent	-12796
unlike	-12797
unning	-12798
upport	-12799
500	-12800
Dru	-12801
Sub	-12802
Tub	-12803
bey	-12804
cub	-12805
ssu	-12806
ubb	-12807
ubl	-12808
ubo	-12809
ubt	-12810
xtu	-12811
▁GN	-12812
▁GO	-12813
▁Gr	-12814
alty	-12815
clud	-12816
ears	-12817
ecut	-12818
eful	-12819
ensi	-12820
erty	-12821
free	-12822
gien	-12823
kful	-12824
mful	-12825
omob	-12826
orru	-12827
otty	-12828
stru	-12829
wear	-12830
▁Gal	-12831
▁Gat	-12832
▁Gen	-12833
▁Ger	-12834
▁Gil	-12835
▁Goo	-12836
▁Gor	-12837
▁Ira	-12838
▁cru	-12839
▁pub	-12840
ccord	-12841
ceful	-12842
ctful	-12843
ected	-12844
henom	-12845
icaly	-12846
iscon	-12847
layst	-12848
mazon	-12849
meful	-12850
orful	-12851
ppear	-12852
rance	-12853
seful	-12854
train	-12855
ubers	-12856
▁brag	-12857
▁brot	-12858
▁brow	-12859
▁brun	-12860
▁club	-12861
▁crim	-12862
▁pear	-12863
aceful	-12864
ainful	-12865
areful	-12866
chools	-12867
choolw	-12868
ecting	-12869
ection	-12870
ective	-12871
mother	-12872
otherg	-12873
others	-12874
ources	-12875
ourful	-12876
owners	-12877
reeing	-12878
roatia	-12879
upreme	-12880
urgers	-12881
urning	-12882
urrent	-12883
usband	-12884
ustody	-12885
ustoms	-12886
vately	-12887
velops	-12888
venues	-12889
verely	-12890
verifi	-12891
versit	-12892
versus	-12893
viable	-12894
volves	-12895
wapped	-12896
warded	-12897
xtures	-12898
xually	-12899
NAS	-12900
akn	-12901
giz	-12902
izn	-12903
izz	-12904
siz	-12905
ajor	-12906
aliz	-12907
aniz	-12908
atiz	-12909
bted	-12910
cens	-12911
harg	-12912
harl	-12913
harm	-12914
imiz	-12915
inte	-12916
intl	-12917
ints	-12918
irel	-12919
iviz	-12920
ixte	-12921
lint	-12922
mory	-12923
nish	-12924
oriz	-12925
oryl	-12926
vory	-12927
wned	-12928
wner	-12929
▁IMM	-12930
achot	-12931
amory	-12932
eason	-12933
esire	-12934
gated	-12935
harac	-12936
inted	-12937
inten	-12938
irear	-12939
jects	-12940
lated	-12941
ormal	-12942
ormit	-12943
pated	-12944
peach	-12945
quhar	-12946
roach	-12947
vated	-12948
wners	-12949
▁Nint	-12950
▁Shar	-12951
▁YouT	-12952
▁dorm	-12953
▁resh	-12954
▁simi	-12955
▁watc	-12956
ckless	-12957
eating	-12958
ership	-12959
everag	-12960
harity	-12961
imless	-12962
inated	-12963
ingdom	-12964
ndless	-12965
nities	-12966
orming	-12967
reason	-12968
ruptcy	-12969
seless	-12970
ulated	-12971
yclers	-12972
yright	-12973
ything	-12974
▁10/20	-12975
▁50/50	-12976
▁Aladd	-12977
▁Algor	-12978
▁Alyss	-12979
▁Belie	-12980
▁Cance	-12981
▁Donal	-12982
▁FoodE	-12983
▁Frank	-12984
▁Georg	-12985
▁Healt	-12986
▁Human	-12987
▁Hypoc	-12988
▁Indiv	-12989
▁Inter	-12990
▁Israe	-12991
▁Journ	-12992
▁MIchi	-12993
▁Musli	-12994
▁Phelp	-12995
▁Phoen	-12996
▁Relig	-12997
▁Sland	-12998
▁Sport	-12999
Pep	-13000
agg	-13001
ags	-13002
cru	-13003
eag	-13004
ksg	-13005
oep	-13006
vag	-13007
agon	-13008
amag	-13009
anag	-13010
cass	-13011
eply	-13012
lved	-13013
pass	-13014
pose	-13015
vegg	-13016
▁Alz	-13017
▁Mag	-13018
▁pag	-13019
▁pep	-13020
▁qui	-13021
▁wag	-13022
agine	-13023
amage	-13024
antag	-13025
arcon	-13026
assal	-13027
assar	-13028
assau	-13029
assen	-13030
asses	-13031
assic	-13032
assif	-13033
assil	-13034
assro	-13035
bious	-13036
gious	-13037
irsts	-13038
leage	-13039
ndage	-13040
nderg	-13041
nderp	-13042
ndert	-13043
nyway	-13044
osely	-13045
ppose	-13046
riage	-13047
ulses	-13048
verag	-13049
warma	-13050
xious	-13051
▁Fire	-13052
▁bibl	-13053
▁plag	-13054
▁pref	-13055
▁pret	-13056
▁quic	-13057
▁recy	-13058
ackage	-13059
antage	-13060
assing	-13061
assion	-13062
assive	-13063
berals	-13064
entail	-13065
erious	-13066
icroso	-13067
igious	-13068
igners	-13069
indire	-13070
ourage	-13071
rossed	-13072
▁UNIFO	-13073
▁Willi	-13074
▁accor	-13075
▁admin	-13076
▁adopt	-13077
▁advan	-13078
▁altog	-13079
▁amend	-13080
▁anecd	-13081
▁anony	-13082
▁appli	-13083
▁appre	-13084
▁assur	-13085
▁attem	-13086
▁attri	-13087
▁await	-13088
▁betwe	-13089
▁bigot	-13090
▁blant	-13091
▁bouti	-13092
▁breed	-13093
▁bulle	-13094
▁chanc	-13095
▁chang	-13096
▁chann	-13097
▁chees	-13098
▁choic	-13099
Dep	-13100
Due	-13101
dea	-13102
epu	-13103
gry	-13104
lue	-13105
rde	-13106
rys	-13107
alue	-13108
aphy	-13109
arry	-13110
deal	-13111
deas	-13112
deol	-13113
dles	-13114
eens	-13115
enry	-13116
erry	-13117
etry	-13118
fine	-13119
hful	-13120
hine	-13121
hlic	-13122
inue	-13123
isde	-13124
nite	-13125
ophy	-13126
tory	-13127
tune	-13128
urry	-13129
zine	-13130
▁Phy	-13131
▁cla	-13132
▁clo	-13133
▁phy	-13134
amine	-13135
aples	-13136
apons	-13137
atine	-13138
auses	-13139
creat	-13140
inear	-13141
ineer	-13142
inite	-13143
itect	-13144
olite	-13145
omiss	-13146
ordon	-13147
ountr	-13148
ounts	-13149
pline	-13150
reatu	-13151
rying	-13152
ryone	-13153
spect	-13154
ustry	-13155
▁clou	-13156
▁equi	-13157
▁marg	-13158
▁orde	-13159
▁pock	-13160
▁poin	-13161
▁pois	-13162
▁poly	-13163
▁syru	-13164
deally	-13165
edient	-13166
estine	-13167
ineers	-13168
lawful	-13169
ompany	-13170
oodles	-13171
ountri	-13172
ourite	-13173
outine	-13174
reaten	-13175
reates	-13176
tually	-13177
▁annoy	-13178
▁cohes	-13179
▁compo	-13180
▁concl	-13181
▁consu	-13182
▁corru	-13183
▁coupl	-13184
▁decid	-13185
▁decri	-13186
▁defen	-13187
▁delic	-13188
▁depri	-13189
▁desec	-13190
▁diagn	-13191
▁disbe	-13192
▁downl	-13193
▁elsew	-13194
▁emiss	-13195
▁encou	-13196
▁energ	-13197
▁enfor	-13198
▁entit	-13199
"..	-13200
ffs	-13201
aits	-13202
ardi	-13203
ardl	-13204
cool	-13205
eyon	-13206
ffic	-13207
ffin	-13208
ffir	-13209
ffle	-13210
ffor	-13211
fool	-13212
gery	-13213
mper	-13214
oolg	-13215
ools	-13216
oolw	-13217
perc	-13218
perm	-13219
perp	-13220
pert	-13221
perv	-13222
raws	-13223
succ	-13224
uard	-13225
yper	-13226
▁gra	-13227
▁ima	-13228
▁spo	-13229
ackag	-13230
adget	-13231
ardro	-13232
brium	-13233
esper	-13234
ffort	-13235
heard	-13236
igure	-13237
ilure	-13238
isled	-13239
itten	-13240
ocked	-13241
oolis	-13242
ooper	-13243
orned	-13244
perat	-13245
perfe	-13246
perin	-13247
perse	-13248
selfs	-13249
sured	-13250
umper	-13251
urrit	-13252
▁Bure	-13253
▁Oper	-13254
▁deco	-13255
▁disb	-13256
▁disg	-13257
▁disr	-13258
▁fool	-13259
▁fris	-13260
▁gard	-13261
▁gram	-13262
▁grap	-13263
▁grou	-13264
▁manu	-13265
▁pure	-13266
▁spee	-13267
▁spic	-13268
▁spre	-13269
▁spur	-13270
▁ward	-13271
▁wrot	-13272
abbing	-13273
acture	-13274
andard	-13275
ciated	-13276
encool	-13277
enture	-13278
ooling	-13279
oosing	-13280
orical	-13281
ortory	-13282
ustard	-13283
▁conte	-13284
▁disci	-13285
▁disli	-13286
▁entre	-13287
▁equip	-13288
▁estim	-13289
▁evalu	-13290
▁expos	-13291
▁extre	-13292
▁falli	-13293
▁finan	-13294
▁forec	-13295
▁foreg	-13296
▁fount	-13297
▁frank	-13298
▁freed	-13299
Ou	-13300
0-7	-13301
Liv	-13302
ONS	-13303
abi	-13304
aby	-13305
cab	-13306
div	-13307
eke	-13308
ghb	-13309
iab	-13310
idi	-13311
ike	-13312
ivi	-13313
kep	-13314
lso	-13315
pke	-13316
rud	-13317
siv	-13318
uid	-13319
viv	-13320
▁DM	-13321
▁NE	-13322
abid	-13323
abor	-13324
arin	-13325
atab	-13326
ativ	-13327
atte	-13328
ceiv	-13329
ctit	-13330
erab	-13331
etch	-13332
ghly	-13333
high	-13334
icky	-13335
ilab	-13336
iver	-13337
ivis	-13338
ivit	-13339
ivor	-13340
kely	-13341
ndiv	-13342
ontr	-13343
oobs	-13344
orab	-13345
orno	-13346
otiv	-13347
rian	-13348
stab	-13349
thou	-13350
ture	-13351
udes	-13352
▁Hin	-13353
▁Luc	-13354
▁cab	-13355
▁dud	-13356
▁giv	-13357
▁hea	-13358
▁hef	-13359
▁sta	-13360
▁sty	-13361
abies	-13362
ender	-13363
entiv	-13364
estab	-13365
gions	-13366
ithou	-13367
ivate	-13368
ivest	-13369
ivide	-13370
orith	-13371
riday	-13372
ukher	-13373
▁Alth	-13374
▁Asso	-13375
▁brou	-13376
▁dese	-13377
▁figu	-13378
▁spou	-13379
▁stag	-13380
antial	-13381
health	-13382
ivable	-13383
kfully	-13384
▁Parli	-13385
▁assau	-13386
▁deont	-13387
▁enhan	-13388
▁fritt	-13389
▁funda	-13390
▁giant	-13391
▁grate	-13392
▁greas	-13393
▁grist	-13394
▁hardw	-13395
▁hesit	-13396
▁homem	-13397
▁hybri	-13398
▁hypoc	-13399
Lu	-13400
lb	-13401
uT	-13402
Aid	-13403
Div	-13404
Dow	-13405
Eit	-13406
Goo	-13407
Loo	-13408
SIA	-13409
acs	-13410
ayo	-13411
ckl	-13412
coo	-13413
eac	-13414
eef	-13415
equ	-13416
fac	-13417
idn	-13418
idu	-13419
iml	-13420
jac	-13421
khi	-13422
lac	-13423
mid	-13424
nac	-13425
oac	-13426
olb	-13427
oos	-13428
rac	-13429
seb	-13430
sid	-13431
thc	-13432
uis	-13433
vid	-13434
yab	-13435
▁Ti	-13436
▁um	-13437
acat	-13438
acre	-13439
acul	-13440
alac	-13441
anen	-13442
ardy	-13443
ckon	-13444
date	-13445
enac	-13446
erst	-13447
esim	-13448
gine	-13449
onse	-13450
stac	-13451
stoo	-13452
ubli	-13453
ulou	-13454
usse	-13455
▁Say	-13456
▁ang	-13457
▁ant	-13458
▁coo	-13459
▁foo	-13460
▁goo	-13461
▁hel	-13462
▁ont	-13463
▁sid	-13464
▁sug	-13465
acher	-13466
ailed	-13467
aises	-13468
chase	-13469
estig	-13470
itute	-13471
pring	-13472
uding	-13473
veryt	-13474
▁achi	-13475
▁beac	-13476
▁forc	-13477
▁notA	-13478
▁thre	-13479
Rather	-13480
ducers	-13481
isited	-13482
opping	-13483
terist	-13484
▁McDon	-13485
▁Telev	-13486
▁ideol	-13487
▁illeg	-13488
▁immor	-13489
▁imper	-13490
▁impli	-13491
▁impos	-13492
▁impri	-13493
▁incon	-13494
▁incor	-13495
▁incum	-13496
▁incur	-13497
▁indef	-13498
▁indiv	-13499
HA	-13500
ML	-13501
rd	-13502
rp	-13503
Ari	-13504
Car	-13505
Fat	-13506
Fri	-13507
Gri	-13508
May	-13509
Nar	-13510
ODY	-13511
Pay	-13512
Ple	-13513
alg	-13514
aym	-13515
ayr	-13516
cat	-13517
dle	-13518
ihi	-13519
num	-13520
oll	-13521
owt	-13522
pid	-13523
pri	-13524
rik	-13525
riz	-13526
sem	-13527
shi	-13528
tom	-13529
tri	-13530
uic	-13531
umn	-13532
uti	-13533
xte	-13534
yri	-13535
▁Ag	-13536
▁Ta	-13537
▁hp	-13538
Grav	-13539
ayst	-13540
dver	-13541
educ	-13542
erri	-13543
etes	-13544
herm	-13545
ldog	-13546
onet	-13547
orec	-13548
owor	-13549
ptin	-13550
rior	-13551
stri	-13552
uces	-13553
udic	-13554
veri	-13555
verl	-13556
▁cul	-13557
▁dow	-13558
▁gow	-13559
▁hei	-13560
▁tat	-13561
▁veg	-13562
bbery	-13563
cture	-13564
ether	-13565
ffles	-13566
herit	-13567
ormat	-13568
pplic	-13569
reatn	-13570
rever	-13571
verhe	-13572
verit	-13573
▁Hard	-13574
▁Mess	-13575
▁arro	-13576
▁memb	-13577
athers	-13578
eather	-13579
ergers	-13580
irstly	-13581
▁Speci	-13582
▁denot	-13583
▁detri	-13584
▁infal	-13585
▁insec	-13586
▁inspi	-13587
▁inste	-13588
▁journ	-13589
▁legac	-13590
▁legit	-13591
▁lettu	-13592
▁liter	-13593
▁litig	-13594
▁lobot	-13595
▁malic	-13596
▁manag	-13597
▁matur	-13598
▁milit	-13599
CL	-13600
RT	-13601
eq	-13602
Act	-13603
Bas	-13604
Bet	-13605
Boo	-13606
Cri	-13607
Eut	-13608
Mat	-13609
Out	-13610
Pow	-13611
akf	-13612
bas	-13613
bet	-13614
cut	-13615
dad	-13616
emT	-13617
emn	-13618
etr	-13619
eut	-13620
kea	-13621
lot	-13622
lut	-13623
mas	-13624
rev	-13625
rut	-13626
uto	-13627
utu	-13628
xas	-13629
▁bo	-13630
▁ey	-13631
5-20	-13632
areE	-13633
athi	-13634
dent	-13635
egal	-13636
enta	-13637
enti	-13638
entm	-13639
ento	-13640
etic	-13641
fair	-13642
herg	-13643
itiv	-13644
ppli	-13645
righ	-13646
stle	-13647
ucle	-13648
utom	-13649
▁HTM	-13650
▁dre	-13651
▁lou	-13652
▁noo	-13653
▁onl	-13654
Bould	-13655
Under	-13656
anent	-13657
blems	-13658
econd	-13659
ented	-13660
enten	-13661
entic	-13662
entre	-13663
eport	-13664
iased	-13665
iters	-13666
levis	-13667
lical	-13668
ometr	-13669
ouple	-13670
ourit	-13671
peech	-13672
stent	-13673
xcept	-13674
▁Fren	-13675
▁UNIF	-13676
▁jour	-13677
▁manp	-13678
▁preg	-13679
▁reas	-13680
▁thum	-13681
ention	-13682
leased	-13683
mented	-13684
rences	-13685
▁archa	-13686
▁embar	-13687
▁minut	-13688
▁misde	-13689
▁misle	-13690
▁monit	-13691
▁monot	-13692
▁monst	-13693
▁murde	-13694
▁newsp	-13695
▁nowad	-13696
▁oppos	-13697
▁outdo	-13698
▁overc	-13699
8.	-13700
Kh	-13701
Lo	-13702
Pc	-13703
00,	-13704
180	-13705
Fre	-13706
Har	-13707
Kar	-13708
Kid	-13709
Met	-13710
Nic	-13711
Par	-13712
Sar	-13713
War	-13714
arl	-13715
eic	-13716
ele	-13717
etu	-13718
icr	-13719
kpl	-13720
log	-13721
mpe	-13722
nar	-13723
oic	-13724
rtu	-13725
sat	-13726
sic	-13727
tas	-13728
tip	-13729
too	-13730
utr	-13731
vic	-13732
xon	-13733
appo	-13734
arou	-13735
bber	-13736
ects	-13737
eder	-13738
edic	-13739
eshi	-13740
etim	-13741
gent	-13742
gion	-13743
icle	-13744
ingf	-13745
inic	-13746
inly	-13747
ioni	-13748
itic	-13749
itut	-13750
nion	-13751
onab	-13752
sued	-13753
ugin	-13754
ulle	-13755
vert	-13756
▁Cit	-13757
▁ite	-13758
▁nic	-13759
▁rea	-13760
▁sym	-13761
▁tic	-13762
▁vet	-13763
acele	-13764
edure	-13765
empor	-13766
inery	-13767
ionar	-13768
omote	-13769
onver	-13770
opean	-13771
thood	-13772
▁Adob	-13773
▁carb	-13774
▁cast	-13775
▁iter	-13776
▁mund	-13777
▁murd	-13778
▁neur	-13779
achine	-13780
awking	-13781
ioning	-13782
lation	-13783
omeone	-13784
oolers	-13785
preted	-13786
ralize	-13787
ritory	-13788
usions	-13789
▁backg	-13790
▁overl	-13791
▁overp	-13792
▁overr	-13793
▁partn	-13794
▁payra	-13795
▁penal	-13796
▁perce	-13797
▁perfe	-13798
▁peris	-13799
Hy	-13800
ai	-13801
dp	-13802
po	-13803
Dar	-13804
OAS	-13805
arb	-13806
arc	-13807
aya	-13808
bid	-13809
gac	-13810
hav	-13811
iso	-13812
llt	-13813
llu	-13814
mig	-13815
mse	-13816
opl	-13817
osa	-13818
ppi	-13819
rie	-13820
sad	-13821
sef	-13822
sey	-13823
sse	-13824
tse	-13825
uar	-13826
uri	-13827
var	-13828
▁Co	-13829
▁FO	-13830
▁Mi	-13831
▁Pe	-13832
▁ai	-13833
▁ec	-13834
OCES	-13835
alse	-13836
chev	-13837
eric	-13838
erse	-13839
esar	-13840
fety	-13841
gous	-13842
hase	-13843
hell	-13844
hise	-13845
ingl	-13846
kher	-13847
lack	-13848
lair	-13849
ller	-13850
orse	-13851
otar	-13852
rapp	-13853
rese	-13854
runt	-13855
sear	-13856
ship	-13857
uent	-13858
vell	-13859
vely	-13860
▁Jan	-13861
▁Nop	-13862
▁San	-13863
▁atm	-13864
▁clu	-13865
▁jun	-13866
aiter	-13867
alent	-13868
earan	-13869
harge	-13870
ingap	-13871
onger	-13872
otent	-13873
ritor	-13874
urate	-13875
▁Teav	-13876
▁burd	-13877
▁fron	-13878
▁inse	-13879
▁nost	-13880
▁wing	-13881
ampant	-13882
elines	-13883
ithout	-13884
llutes	-13885
retion	-13886
vading	-13887
▁mater	-13888
▁phosp	-13889
▁potat	-13890
▁prefe	-13891
▁presc	-13892
▁proce	-13893
▁procl	-13894
▁punis	-13895
▁quiet	-13896
▁reali	-13897
▁rebut	-13898
▁recon	-13899
70	-13900
-70	-13901
Hum	-13902
Pan	-13903
Put	-13904
Set	-13905
Whi	-13906
atc	-13907
ckf	-13908
cly	-13909
dow	-13910
enj	-13911
gly	-13912
hir	-13913
hiz	-13914
idy	-13915
kly	-13916
ldi	-13917
lly	-13918
lym	-13919
nch	-13920
opp	-13921
otb	-13922
phi	-13923
ppe	-13924
ppo	-13925
sly	-13926
▁Ev	-13927
▁FP	-13928
▁ea	-13929
aine	-13930
amou	-13931
anat	-13932
arre	-13933
asar	-13934
cumb	-13935
dere	-13936
eter	-13937
hist	-13938
iate	-13939
idat	-13940
itly	-13941
ldly	-13942
lely	-13943
ndar	-13944
ndly	-13945
only	-13946
orge	-13947
oyle	-13948
ppen	-13949
weet	-13950
▁Ass	-13951
▁Hel	-13952
▁Oft	-13953
▁Pre	-13954
▁gif	-13955
arsha	-13956
asion	-13957
asons	-13958
bates	-13959
entat	-13960
eping	-13961
essin	-13962
holic	-13963
icesn	-13964
ideos	-13965
iller	-13966
indow	-13967
istak	-13968
ithin	-13969
orite	-13970
trary	-13971
umble	-13972
umers	-13973
vings	-13974
▁chem	-13975
▁outp	-13976
▁trut	-13977
▁unse	-13978
ROCESS	-13979
asonab	-13980
essage	-13981
hering	-13982
ichang	-13983
terose	-13984
uspect	-13985
veries	-13986
▁damag	-13987
▁fruct	-13988
▁refle	-13989
▁remar	-13990
▁repli	-13991
▁reser	-13992
▁respe	-13993
▁restr	-13994
▁rever	-13995
▁salar	-13996
▁sanct	-13997
▁sched	-13998
▁seatb	-13999
Di	-14000
mw	-14001
vr	-14002
Com	-14003
End	-14004
Gra	-14005
Hom	-14006
Lot	-14007
Pom	-14008
Rac	-14009
Rom	-14010
Ton	-14011
abl	-14012
cot	-14013
dan	-14014
err	-14015
fle	-14016
gur	-14017
hik	-14018
itr	-14019
lec	-14020
lom	-14021
mie	-14022
mot	-14023
nce	-14024
omb	-14025
omo	-14026
ota	-14027
otr	-14028
owe	-14029
ras	-14030
ros	-14031
sea	-14032
som	-14033
uad	-14034
uil	-14035
wag	-14036
wom	-14037
.00,	-14038
alad	-14039
alle	-14040
anle	-14041
ashi	-14042
auce	-14043
crim	-14044
ctac	-14045
edes	-14046
etty	-14047
heim	-14048
lean	-14049
leon	-14050
leve	-14051
ndou	-14052
omat	-14053
omme	-14054
oodE	-14055
otom	-14056
plos	-14057
reas	-14058
uced	-14059
uous	-14060
▁Ame	-14061
▁Ram	-14062
▁Sha	-14063
▁hai	-14064
▁han	-14065
▁wel	-14066
artic	-14067
cited	-14068
esign	-14069
ggies	-14070
icult	-14071
ilhel	-14072
inger	-14073
ingle	-14074
therm	-14075
▁Jour	-14076
▁fami	-14077
▁purc	-14078
ariety	-14079
attern	-14080
cation	-14081
enefic	-14082
ensees	-14083
livery	-14084
orated	-14085
osophi	-14086
▁curri	-14087
▁insul	-14088
▁secon	-14089
▁secur	-14090
▁separ	-14091
▁sephi	-14092
▁simil	-14093
▁simpl	-14094
▁singl	-14095
▁sland	-14096
▁smoot	-14097
▁someb	-14098
▁speac	-14099
BO	-14100
HEN	-14101
OOO	-14102
Whe	-14103
aln	-14104
anc	-14105
aor	-14106
awn	-14107
eve	-14108
gst	-14109
hst	-14110
inv	-14111
lee	-14112
omf	-14113
omm	-14114
oom	-14115
ppl	-14116
req	-14117
rve	-14118
sti	-14119
stl	-14120
str	-14121
sts	-14122
stu	-14123
ulu	-14124
veg	-14125
veh	-14126
▁Mo	-14127
▁ax	-14128
▁ga	-14129
▁oa	-14130
Land	-14131
MMED	-14132
ains	-14133
aker	-14134
aner	-14135
anst	-14136
arto	-14137
cate	-14138
chst	-14139
cure	-14140
fles	-14141
hata	-14142
hate	-14143
hats	-14144
herl	-14145
init	-14146
ldre	-14147
oman	-14148
omer	-14149
opri	-14150
otat	-14151
rast	-14152
reve	-14153
stan	-14154
sted	-14155
veal	-14156
veat	-14157
vere	-14158
▁9.5	-14159
▁dei	-14160
▁gat	-14161
▁jum	-14162
▁pra	-14163
▁som	-14164
autom	-14165
erant	-14166
ouldn	-14167
ptops	-14168
redis	-14169
remon	-14170
sence	-14171
sting	-14172
▁Bost	-14173
▁calc	-14174
▁yout	-14175
essing	-14176
mative	-14177
nation	-14178
ndency	-14179
ocence	-14180
ysters	-14181
▁Domin	-14182
▁delux	-14183
▁engag	-14184
▁speec	-14185
▁stell	-14186
▁stopp	-14187
▁stren	-14188
▁stret	-14189
▁subse	-14190
▁surve	-14191
▁takea	-14192
▁teamw	-14193
▁telev	-14194
▁toget	-14195
▁toile	-14196
▁tomor	-14197
▁tortu	-14198
▁traff	-14199
0/	-14200
73	-14201
Hu	-14202
WI	-14203
cr	-14204
rv	-14205
yu	-14206
zn	-14207
8.5	-14208
Chi	-14209
Fed	-14210
Fur	-14211
Jed	-14212
Mic	-14213
Net	-14214
Ohi	-14215
Red	-14216
anl	-14217
anp	-14218
api	-14219
bed	-14220
eda	-14221
etb	-14222
fri	-14223
hig	-14224
lel	-14225
ntr	-14226
ooe	-14227
ppr	-14228
sia	-14229
sta	-14230
tte	-14231
ued	-14232
usi	-14233
wic	-14234
xed	-14235
yru	-14236
▁Je	-14237
▁TY	-14238
▁hu	-14239
▁ni	-14240
King	-14241
anou	-14242
dres	-14243
dven	-14244
eded	-14245
ened	-14246
heat	-14247
iety	-14248
igor	-14249
itan	-14250
nded	-14251
ookm	-14252
opic	-14253
oxes	-14254
rean	-14255
rels	-14256
seas	-14257
tact	-14258
terr	-14259
ulth	-14260
verd	-14261
▁amb	-14262
▁enj	-14263
▁iin	-14264
▁ina	-14265
▁nei	-14266
▁pan	-14267
▁sic	-14268
alers	-14269
grate	-14270
icism	-14271
ornia	-14272
owser	-14273
putes	-14274
reate	-14275
stant	-14276
wning	-14277
▁cris	-14278
▁neit	-14279
▁notc	-14280
▁simp	-14281
aining	-14282
apping	-14283
hanist	-14284
omping	-14285
ubbery	-14286
▁devel	-14287
▁disap	-14288
▁fract	-14289
▁pedop	-14290
▁turno	-14291
▁twist	-14292
▁unbal	-14293
▁uncar	-14294
▁undes	-14295
▁uniqu	-14296
▁unple	-14297
▁unrel	-14298
▁walle	-14299
01	-14300
uv	-14301
Bor	-14302
Can	-14303
Eat	-14304
Has	-14305
Jan	-14306
Wat	-14307
ane	-14308
anu	-14309
cad	-14310
dat	-14311
dic	-14312
env	-14313
esu	-14314
fat	-14315
gun	-14316
lav	-14317
mly	-14318
nge	-14319
oan	-14320
oat	-14321
ohe	-14322
omi	-14323
pan	-14324
pat	-14325
roa	-14326
san	-14327
sby	-14328
tan	-14329
uan	-14330
uen	-14331
ull	-14332
wan	-14333
war	-14334
wat	-14335
wed	-14336
akey	-14337
alid	-14338
answ	-14339
aten	-14340
cted	-14341
enan	-14342
enat	-14343
enge	-14344
erre	-14345
hern	-14346
inan	-14347
inat	-14348
lead	-14349
ntri	-14350
orat	-14351
orly	-14352
outp	-14353
pise	-14354
quit	-14355
root	-14356
ston	-14357
unis	-14358
urde	-14359
verw	-14360
▁Rac	-14361
▁Swe	-14362
▁bat	-14363
▁cat	-14364
▁het	-14365
▁isj	-14366
▁lof	-14367
▁oat	-14368
▁vit	-14369
ardiz	-14370
efore	-14371
enced	-14372
entar	-14373
fness	-14374
giene	-14375
ormed	-14376
unish	-14377
▁alar	-14378
▁assu	-14379
▁clun	-14380
▁froz	-14381
▁peri	-14382
▁rela	-14383
allons	-14384
athere	-14385
clable	-14386
fected	-14387
minals	-14388
nforce	-14389
rished	-14390
rowded	-14391
▁Clint	-14392
▁empow	-14393
▁whome	-14394
▁wrapp	-14395
!!!!!!!	-14396
/20/201	-14397
LUNTARY	-14398
VERYONE	-14399
3)	-14400
93	-14401
GT	-14402
IC	-14403
Si	-14404
gl	-14405
Ble	-14406
Far	-14407
Hit	-14408
Jac	-14409
Tal	-14410
acr	-14411
atl	-14412
cit	-14413
cod	-14414
das	-14415
eak	-14416
eit	-14417
emo	-14418
esb	-14419
git	-14420
hum	-14421
itn	-14422
lda	-14423
ldo	-14424
nan	-14425
rif	-14426
sit	-14427
tat	-14428
tit	-14429
tru	-14430
utt	-14431
zed	-14432
▁AT	-14433
▁si	-14434
Ever	-14435
anor	-14436
choo	-14437
derf	-14438
dire	-14439
erat	-14440
hall	-14441
icis	-14442
illi	-14443
itig	-14444
kill	-14445
lder	-14446
nand	-14447
neck	-14448
odel	-14449
onit	-14450
pent	-14451
stit	-14452
tals	-14453
terv	-14454
verp	-14455
witc	-14456
xtra	-14457
▁Cer	-14458
▁STU	-14459
▁dur	-14460
▁mit	-14461
▁pit	-14462
▁rus	-14463
▁stu	-14464
arrow	-14465
ctive	-14466
edest	-14467
eries	-14468
ialys	-14469
icket	-14470
iling	-14471
leted	-14472
whome	-14473
▁Cens	-14474
▁andu	-14475
▁appr	-14476
▁buss	-14477
▁spar	-14478
essent	-14479
minate	-14480
opters	-14481
pation	-14482
▁Valer	-14483
▁disin	-14484
▁inher	-14485
▁negle	-14486
abetics	-14487
aceably	-14488
acebook	-14489
achines	-14490
achment	-14491
actical	-14492
actress	-14493
adition	-14494
ainfall	-14495
ainless	-14496
aintain	-14497
airment	-14498
aliforn	-14499
DM	-14500
JP	-14501
PG	-14502
005	-14503
Gal	-14504
Hal	-14505
Len	-14506
MVE	-14507
Mal	-14508
Pen	-14509
Rut	-14510
UNG	-14511
Val	-14512
Wis	-14513
aan	-14514
ala	-14515
apl	-14516
bab	-14517
ben	-14518
bon	-14519
ean	-14520
enl	-14521
eno	-14522
enr	-14523
epe	-14524
esd	-14525
goo	-14526
ilm	-14527
irf	-14528
lre	-14529
nal	-14530
oen	-14531
pac	-14532
sci	-14533
uat	-14534
xpl	-14535
▁lu	-14536
alen	-14537
alin	-14538
alor	-14539
alou	-14540
aris	-14541
asan	-14542
bleb	-14543
cred	-14544
eace	-14545
emen	-14546
enha	-14547
icen	-14548
itch	-14549
othe	-14550
ouri	-14551
ppet	-14552
sapp	-14553
vily	-14554
▁Red	-14555
▁YCJ	-14556
▁bal	-14557
▁bed	-14558
▁beg	-14559
▁bev	-14560
▁soa	-14561
alice	-14562
aller	-14563
cuits	-14564
cular	-14565
drink	-14566
etent	-14567
gical	-14568
liver	-14569
mbols	-14570
olore	-14571
ortal	-14572
▁Cong	-14573
▁Forc	-14574
▁arch	-14575
▁ashe	-14576
▁dele	-14577
▁fran	-14578
▁rear	-14579
▁seep	-14580
▁valu	-14581
derful	-14582
employ	-14583
iatric	-14584
ionist	-14585
public	-14586
rement	-14587
▁monet	-14588
▁onese	-14589
▁overw	-14590
alistin	-14591
amental	-14592
andings	-14593
andwich	-14594
anently	-14595
anguage	-14596
ankrupt	-14597
antages	-14598
anthrop	-14599
:/	-14600
Bo	-14601
GA	-14602
PR	-14603
Yo	-14604
ja	-14605
ko	-14606
Bad	-14607
Cen	-14608
Fet	-14609
Hor	-14610
Lag	-14611
Mad	-14612
Nor	-14613
Vac	-14614
Wor	-14615
Wow	-14616
bha	-14617
bst	-14618
cal	-14619
edi	-14620
een	-14621
ena	-14622
erk	-14623
fou	-14624
iag	-14625
isg	-14626
isk	-14627
len	-14628
nor	-14629
ohi	-14630
pen	-14631
pli	-14632
pty	-14633
rre	-14634
uor	-14635
urd	-14636
vat	-14637
vor	-14638
vry	-14639
▁RI	-14640
Over	-14641
anut	-14642
bate	-14643
ersi	-14644
esel	-14645
hers	-14646
idan	-14647
iter	-14648
lame	-14649
ndor	-14650
nowl	-14651
orou	-14652
orre	-14653
sees	-14654
ulld	-14655
▁Hou	-14656
▁IDE	-14657
▁env	-14658
▁fed	-14659
▁fis	-14660
▁hik	-14661
▁por	-14662
▁riv	-14663
▁sen	-14664
▁sti	-14665
empts	-14666
icens	-14667
quate	-14668
▁abor	-14669
▁aman	-14670
▁corp	-14671
▁doub	-14672
▁expi	-14673
▁thef	-14674
anging	-14675
heated	-14676
lature	-14677
ralian	-14678
vating	-14679
versal	-14680
▁dedic	-14681
▁fashi	-14682
▁intol	-14683
▁knowl	-14684
▁viewp	-14685
affeine	-14686
andable	-14687
ansmiss	-14688
ardless	-14689
arendra	-14690
arental	-14691
arkness	-14692
aseball	-14693
asional	-14694
assable	-14695
assical	-14696
asuring	-14697
ategory	-14698
athemat	-14699
Sa	-14700
bu	-14701
pf	-14702
tb	-14703
Bes	-14704
Mes	-14705
aly	-14706
asn	-14707
bes	-14708
edu	-14709
eft	-14710
eon	-14711
esh	-14712
esn	-14713
esp	-14714
fes	-14715
iri	-14716
jal	-14717
lri	-14718
nes	-14719
nos	-14720
orw	-14721
pes	-14722
ray	-14723
sso	-14724
tes	-14725
urf	-14726
wes	-14727
xes	-14728
▁BE	-14729
▁IN	-14730
▁Ig	-14731
▁Il	-14732
▁Ot	-14733
▁ye	-14734
Fire	-14735
alar	-14736
anab	-14737
dies	-14738
emoc	-14739
eser	-14740
flic	-14741
hees	-14742
icks	-14743
ilit	-14744
kend	-14745
lore	-14746
ndes	-14747
opes	-14748
orne	-14749
orte	-14750
pioc	-14751
sent	-14752
upre	-14753
usic	-14754
▁bes	-14755
▁cac	-14756
▁eth	-14757
▁hac	-14758
▁lac	-14759
▁mes	-14760
▁tou	-14761
▁vag	-14762
acked	-14763
ailro	-14764
anage	-14765
arios	-14766
assac	-14767
endly	-14768
iciar	-14769
istur	-14770
▁COLL	-14771
▁Poly	-14772
▁acce	-14773
▁clim	-14774
▁mour	-14775
▁perp	-14776
▁secu	-14777
▁warn	-14778
OOOOOO	-14779
alized	-14780
apital	-14781
apment	-14782
hipped	-14783
iation	-14784
icense	-14785
reativ	-14786
yabhat	-14787
▁affir	-14788
▁coffe	-14789
▁demog	-14790
▁notar	-14791
▁wrest	-14792
atherer	-14793
atograp	-14794
aturday	-14795
aurants	-14796
ausible	-14797
avorful	-14798
avorite	-14799
-4	-14800
2-	-14801
80	-14802
92	-14803
97	-14804
De	-14805
OA	-14806
RP	-14807
Ri	-14808
US	-14809
aa	-14810
bb	-14811
da	-14812
ji	-14813
sS	-14814
Hon	-14815
Mas	-14816
Nop	-14817
TLE	-14818
adg	-14819
aiv	-14820
alp	-14821
ely	-14822
gag	-14823
lar	-14824
nts	-14825
rau	-14826
rha	-14827
rol	-14828
rri	-14829
sar	-14830
tro	-14831
vac	-14832
▁Da	-14833
▁IR	-14834
Kill	-14835
Look	-14836
acef	-14837
agre	-14838
anid	-14839
anqu	-14840
arif	-14841
ayou	-14842
cDon	-14843
erou	-14844
hild	-14845
icly	-14846
ingd	-14847
ingm	-14848
ingr	-14849
ingt	-14850
inor	-14851
lest	-14852
lims	-14853
omes	-14854
reck	-14855
reen	-14856
reig	-14857
wing	-14858
▁ama	-14859
▁inh	-14860
▁pas	-14861
▁tit	-14862
▁woo	-14863
acket	-14864
iffer	-14865
isive	-14866
isput	-14867
ndian	-14868
olves	-14869
range	-14870
viour	-14871
zilla	-14872
▁Huss	-14873
▁Stam	-14874
▁burg	-14875
▁clow	-14876
▁emer	-14877
▁feat	-14878
▁mone	-14879
▁numb	-14880
blably	-14881
cution	-14882
igning	-14883
ivated	-14884
peacil	-14885
reated	-14886
bration	-14887
bsolute	-14888
cations	-14889
ceeding	-14890
cements	-14891
certain	-14892
ciating	-14893
ciation	-14894
cipline	-14895
connect	-14896
conomic	-14897
cration	-14898
ctional	-14899
-2	-14900
0,	-14901
14	-14902
1:	-14903
Ab	-14904
Ca	-14905
IG	-14906
LO	-14907
Me	-14908
Oc	-14909
Ph	-14910
Se	-14911
VO	-14912
WH	-14913
ah	-14914
fu	-14915
gm	-14916
mI	-14917
mo	-14918
nw	-14919
sa	-14920
sf	-14921
sq	-14922
tf	-14923
ux	-14924
yH	-14925
yf	-14926
▁q	-14927
Bot	-14928
Bow	-14929
Say	-14930
asu	-14931
atb	-14932
bar	-14933
cke	-14934
dot	-14935
ehe	-14936
eze	-14937
fet	-14938
hem	-14939
kit	-14940
nec	-14941
pro	-14942
seq	-14943
uir	-14944
vin	-14945
yon	-14946
▁ep	-14947
▁ic	-14948
Peop	-14949
adag	-14950
akne	-14951
ease	-14952
etit	-14953
inks	-14954
lant	-14955
lles	-14956
mans	-14957
secu	-14958
tlef	-14959
uder	-14960
vera	-14961
▁192	-14962
▁Civ	-14963
▁bos	-14964
▁inp	-14965
▁lov	-14966
▁phi	-14967
▁sco	-14968
▁sig	-14969
anspl	-14970
arnis	-14971
cceed	-14972
ength	-14973
isapp	-14974
oners	-14975
ortor	-14976
ustod	-14977
vents	-14978
▁agre	-14979
▁chur	-14980
▁conn	-14981
▁init	-14982
▁itse	-14983
▁thou	-14984
herent	-14985
itress	-14986
mature	-14987
nowing	-14988
ubious	-14989
▁funer	-14990
ctually	-14991
cuments	-14992
demning	-14993
derland	-14994
diction	-14995
duction	-14996
earable	-14997
earance	-14998
ectable	-14999
(9	-15000
2:	-15001
76	-15002
84	-15003
98	-15004
Ap	-15005
Ec	-15006
Ga	-15007
IR	-15008
JF	-15009
Mu	-15010
Ok	-15011
TA	-15012
Us	-15013
ae	-15014
aq	-15015
eN	-15016
hw	-15017
mT	-15018
rl	-15019
sm	-15020
uf	-15021
uj	-15022
Cop	-15023
Jud	-15024
Vot	-15025
Wha	-15026
cim	-15027
dos	-15028
ede	-15029
edy	-15030
hau	-15031
llo	-15032
lob	-15033
reu	-15034
[...]
